{
  "version": "1.0",
  "truncation": null,
  "padding": null,
  "added_tokens": [
    {
      "id": 0,
      "content": "[UNK]",
      "single_word": false,
      "lstrip": false,
      "rstrip": false,
      "normalized": false,
      "special": true
    },
    {
      "id": 1,
      "content": "[CLS]",
      "single_word": false,
      "lstrip": false,
      "rstrip": false,
      "normalized": false,
      "special": true
    },
    {
      "id": 2,
      "content": "[SEP]",
      "single_word": false,
      "lstrip": false,
      "rstrip": false,
      "normalized": false,
      "special": true
    },
    {
      "id": 3,
      "content": "[PAD]",
      "single_word": false,
      "lstrip": false,
      "rstrip": false,
      "normalized": false,
      "special": true
    },
    {
      "id": 4,
      "content": "[MASK]",
      "single_word": false,
      "lstrip": false,
      "rstrip": false,
      "normalized": false,
      "special": true
    }
  ],
  "normalizer": {
    "type": "Sequence",
    "normalizers": [
      {
        "type": "NFD"
      },
      {
        "type": "Lowercase"
      },
      {
        "type": "StripAccents"
      }
    ]
  },
  "pre_tokenizer": {
    "type": "Sequence",
    "pretokenizers": [
      {
        "type": "WhitespaceSplit"
      },
      {
        "type": "Punctuation",
        "behavior": "Isolated"
      }
    ]
  },
  "post_processor": {
    "type": "TemplateProcessing",
    "single": [
      {
        "SpecialToken": {
          "id": "[CLS]",
          "type_id": 0
        }
      },
      {
        "Sequence": {
          "id": "A",
          "type_id": 0
        }
      },
      {
        "SpecialToken": {
          "id": "[SEP]",
          "type_id": 0
        }
      }
    ],
    "pair": [
      {
        "SpecialToken": {
          "id": "[CLS]",
          "type_id": 0
        }
      },
      {
        "Sequence": {
          "id": "A",
          "type_id": 0
        }
      },
      {
        "SpecialToken": {
          "id": "[SEP]",
          "type_id": 0
        }
      },
      {
        "Sequence": {
          "id": "B",
          "type_id": 1
        }
      },
      {
        "SpecialToken": {
          "id": "[SEP]",
          "type_id": 1
        }
      }
    ],
    "special_tokens": {
      "[CLS]": {
        "id": "[CLS]",
        "ids": [
          1
        ],
        "tokens": [
          "[CLS]"
        ]
      },
      "[SEP]": {
        "id": "[SEP]",
        "ids": [
          2
        ],
        "tokens": [
          "[SEP]"
        ]
      }
    }
  },
  "decoder": null,
  "model": {
    "type": "BPE",
    "dropout": null,
    "unk_token": "[UNK]",
    "continuing_subword_prefix": null,
    "end_of_word_suffix": null,
    "fuse_unk": false,
    "byte_fallback": false,
    "ignore_merges": false,
    "vocab": {
      "[UNK]": 0,
      "[CLS]": 1,
      "[SEP]": 2,
      "[PAD]": 3,
      "[MASK]": 4,
      "!": 5,
      "\"": 6,
      "#": 7,
      "$": 8,
      "%": 9,
      "&": 10,
      "'": 11,
      "(": 12,
      ")": 13,
      "*": 14,
      "+": 15,
      ",": 16,
      "-": 17,
      ".": 18,
      "/": 19,
      "0": 20,
      "1": 21,
      "2": 22,
      "3": 23,
      "4": 24,
      "5": 25,
      "6": 26,
      "7": 27,
      "8": 28,
      "9": 29,
      ":": 30,
      ";": 31,
      "<": 32,
      "=": 33,
      ">": 34,
      "?": 35,
      "@": 36,
      "[": 37,
      "\\": 38,
      "]": 39,
      "^": 40,
      "_": 41,
      "`": 42,
      "a": 43,
      "b": 44,
      "c": 45,
      "d": 46,
      "e": 47,
      "f": 48,
      "g": 49,
      "h": 50,
      "i": 51,
      "j": 52,
      "k": 53,
      "l": 54,
      "m": 55,
      "n": 56,
      "o": 57,
      "p": 58,
      "q": 59,
      "r": 60,
      "s": 61,
      "t": 62,
      "u": 63,
      "v": 64,
      "w": 65,
      "x": 66,
      "y": 67,
      "z": 68,
      "{": 69,
      "|": 70,
      "}": 71,
      "~": 72,
      "": 73,
      "": 74,
      "£": 75,
      "¥": 76,
      "§": 77,
      "©": 78,
      "«": 79,
      "­": 80,
      "°": 81,
      "³": 82,
      "´": 83,
      "µ": 84,
      "·": 85,
      "º": 86,
      "»": 87,
      "¼": 88,
      "½": 89,
      "¾": 90,
      "×": 91,
      "ß": 92,
      "æ": 93,
      "ð": 94,
      "÷": 95,
      "þ": 96,
      "ł": 97,
      "ŋ": 98,
      "ƒ": 99,
      "ƚ": 100,
      "ɑ": 101,
      "ɒ": 102,
      "ɔ": 103,
      "ə": 104,
      "ɛ": 105,
      "ɟ": 106,
      "ɡ": 107,
      "ɪ": 108,
      "ɸ": 109,
      "ʃ": 110,
      "ʊ": 111,
      "ʋ": 112,
      "ʒ": 113,
      "ʲ": 114,
      "ʻ": 115,
      "ʼ": 116,
      "ʾ": 117,
      "ʿ": 118,
      "ˁ": 119,
      "ˈ": 120,
      "ˌ": 121,
      "ː": 122,
      "α": 123,
      "β": 124,
      "γ": 125,
      "δ": 126,
      "ε": 127,
      "η": 128,
      "θ": 129,
      "ι": 130,
      "λ": 131,
      "μ": 132,
      "ν": 133,
      "ο": 134,
      "π": 135,
      "ρ": 136,
      "ς": 137,
      "σ": 138,
      "τ": 139,
      "υ": 140,
      "χ": 141,
      "ω": 142,
      "ϐ": 143,
      "ϑ": 144,
      "а": 145,
      "б": 146,
      "в": 147,
      "г": 148,
      "д": 149,
      "е": 150,
      "з": 151,
      "и": 152,
      "к": 153,
      "л": 154,
      "м": 155,
      "н": 156,
      "о": 157,
      "п": 158,
      "р": 159,
      "с": 160,
      "т": 161,
      "у": 162,
      "ф": 163,
      "х": 164,
      "ч": 165,
      "ъ": 166,
      "ы": 167,
      "ь": 168,
      "ю": 169,
      "я": 170,
      "ѣ": 171,
      "ҡ": 172,
      "ի": 173,
      "տ": 174,
      "ր": 175,
      "։": 176,
      "א": 177,
      "ו": 178,
      "ז": 179,
      "י": 180,
      "כ": 181,
      "ל": 182,
      "ם": 183,
      "מ": 184,
      "ע": 185,
      "צ": 186,
      "ר": 187,
      "ש": 188,
      "ء": 189,
      "ا": 190,
      "ب": 191,
      "ة": 192,
      "ت": 193,
      "ج": 194,
      "ح": 195,
      "خ": 196,
      "د": 197,
      "ذ": 198,
      "ر": 199,
      "ز": 200,
      "س": 201,
      "ش": 202,
      "ص": 203,
      "ض": 204,
      "ط": 205,
      "ظ": 206,
      "ع": 207,
      "غ": 208,
      "ف": 209,
      "ق": 210,
      "ك": 211,
      "ل": 212,
      "م": 213,
      "ن": 214,
      "ه": 215,
      "و": 216,
      "ى": 217,
      "ي": 218,
      "ٽ": 219,
      "پ": 220,
      "ڀ": 221,
      "چ": 222,
      "ډ": 223,
      "ڔ": 224,
      "ک": 225,
      "گ": 226,
      "ھ": 227,
      "ی": 228,
      "अ": 229,
      "आ": 230,
      "ई": 231,
      "ऊ": 232,
      "क": 233,
      "ख": 234,
      "ग": 235,
      "च": 236,
      "ज": 237,
      "ञ": 238,
      "ट": 239,
      "ठ": 240,
      "ड": 241,
      "ण": 242,
      "त": 243,
      "थ": 244,
      "द": 245,
      "न": 246,
      "प": 247,
      "फ": 248,
      "ब": 249,
      "भ": 250,
      "म": 251,
      "य": 252,
      "र": 253,
      "ल": 254,
      "ळ": 255,
      "व": 256,
      "श": 257,
      "ष": 258,
      "स": 259,
      "ह": 260,
      "ॐ": 261,
      "।": 262,
      "०": 263,
      "আ": 264,
      "গ": 265,
      "ছ": 266,
      "দ": 267,
      "ধ": 268,
      "ন": 269,
      "য": 270,
      "র": 271,
      "ল": 272,
      "স": 273,
      "ਚ": 274,
      "ਜ": 275,
      "ਟ": 276,
      "ਠ": 277,
      "ਡ": 278,
      "ਤ": 279,
      "ਨ": 280,
      "ਪ": 281,
      "ਬ": 282,
      "ਮ": 283,
      "ਲ": 284,
      "ਸ": 285,
      "ଗ": 286,
      "ର": 287,
      "ଳ": 288,
      "ସ": 289,
      "அ": 290,
      "ச": 291,
      "ட": 292,
      "ண": 293,
      "த": 294,
      "ன": 295,
      "ப": 296,
      "ம": 297,
      "ய": 298,
      "ர": 299,
      "ல": 300,
      "ழ": 301,
      "வ": 302,
      "ప": 303,
      "ల": 304,
      "వ": 305,
      "ಅ": 306,
      "ಗ": 307,
      "ಜ": 308,
      "ಟ": 309,
      "ತ": 310,
      "ದ": 311,
      "ನ": 312,
      "ಪ": 313,
      "ಬ": 314,
      "ಭ": 315,
      "ಯ": 316,
      "ರ": 317,
      "ಳ": 318,
      "ಸ": 319,
      "ಹ": 320,
      "അ": 321,
      "ആ": 322,
      "ഇ": 323,
      "ഈ": 324,
      "ഉ": 325,
      "ഊ": 326,
      "ഋ": 327,
      "ഌ": 328,
      "എ": 329,
      "ഏ": 330,
      "ഐ": 331,
      "ഒ": 332,
      "ഓ": 333,
      "ഔ": 334,
      "ക": 335,
      "ഖ": 336,
      "ഗ": 337,
      "ഘ": 338,
      "ങ": 339,
      "ച": 340,
      "ഛ": 341,
      "ജ": 342,
      "ഝ": 343,
      "ഞ": 344,
      "ട": 345,
      "ഠ": 346,
      "ഡ": 347,
      "ഢ": 348,
      "ണ": 349,
      "ത": 350,
      "ഥ": 351,
      "ദ": 352,
      "ധ": 353,
      "ന": 354,
      "പ": 355,
      "ഫ": 356,
      "ബ": 357,
      "ഭ": 358,
      "മ": 359,
      "യ": 360,
      "ര": 361,
      "റ": 362,
      "ല": 363,
      "ള": 364,
      "ഴ": 365,
      "വ": 366,
      "ശ": 367,
      "ഷ": 368,
      "സ": 369,
      "ഹ": 370,
      "഼": 371,
      "ഽ": 372,
      "ൎ": 373,
      "ൟ": 374,
      "ൡ": 375,
      "൦": 376,
      "൧": 377,
      "൨": 378,
      "൩": 379,
      "൪": 380,
      "൫": 381,
      "൬": 382,
      "൭": 383,
      "൮": 384,
      "൯": 385,
      "൹": 386,
      "ൺ": 387,
      "ൻ": 388,
      "ർ": 389,
      "ൽ": 390,
      "ൾ": 391,
      "ൿ": 392,
      "ආ": 393,
      "ග": 394,
      "ච": 395,
      "ජ": 396,
      "ත": 397,
      "ද": 398,
      "ධ": 399,
      "න": 400,
      "ප": 401,
      "ය": 402,
      "ර": 403,
      "ව": 404,
      "ශ": 405,
      "ස": 406,
      "හ": 407,
      "๏": 408,
      "က": 409,
      "ဇ": 410,
      "တ": 411,
      "ထ": 412,
      "န": 413,
      "ပ": 414,
      "မ": 415,
      "ရ": 416,
      "လ": 417,
      "ဝ": 418,
      "သ": 419,
      "ა": 420,
      "ე": 421,
      "თ": 422,
      "ი": 423,
      "ლ": 424,
      "ნ": 425,
      "რ": 426,
      "უ": 427,
      "ქ": 428,
      "ᄂ": 429,
      "ᄃ": 430,
      "ᄅ": 431,
      "ᄆ": 432,
      "ᄇ": 433,
      "ᄊ": 434,
      "ᄋ": 435,
      "ᄌ": 436,
      "ᅡ": 437,
      "ᅢ": 438,
      "ᅩ": 439,
      "ᅭ": 440,
      "ᅮ": 441,
      "ᅳ": 442,
      "ᅵ": 443,
      "ᆫ": 444,
      "ᆯ": 445,
      "ᆼ": 446,
      "ᠠ": 447,
      "ᠢ": 448,
      "ᠥ": 449,
      "ᠦ": 450,
      "ᠨ": 451,
      "ᠭ": 452,
      "ᠯ": 453,
      "ᠰ": 454,
      "ᠲ": 455,
      "ᠶ": 456,
      "ᠺ": 457,
      "ᡠ": 458,
      "ᡥ": 459,
      "ᡳ": 460,
      "​": 461,
      "‌": 462,
      "‍": 463,
      "‎": 464,
      "‐": 465,
      "‑": 466,
      "–": 467,
      "—": 468,
      "‘": 469,
      "’": 470,
      "‚": 471,
      "“": 472,
      "”": 473,
      "‡": 474,
      "•": 475,
      "…": 476,
      "‬": 477,
      "′": 478,
      "″": 479,
      "⁵": 480,
      "₨": 481,
      "₪": 482,
      "€": 483,
      "₹": 484,
      "№": 485,
      "™": 486,
      "←": 487,
      "↑": 488,
      "→": 489,
      "↣": 490,
      "⇛": 491,
      "∂": 492,
      "−": 493,
      "∙": 494,
      "√": 495,
      "∶": 496,
      "≈": 497,
      "⋆": 498,
      "■": 499,
      "▪": 500,
      "►": 501,
      "◆": 502,
      "◊": 503,
      "●": 504,
      "◦": 505,
      "★": 506,
      "☎": 507,
      "☛": 508,
      "☞": 509,
      "☺": 510,
      "♀": 511,
      "♦": 512,
      "⛔": 513,
      "✆": 514,
      "✔": 515,
      "❇": 516,
      "❓": 517,
      "❤": 518,
      "➤": 519,
      "➥": 520,
      "⟨": 521,
      "⟩": 522,
      "⭕": 523,
      "一": 524,
      "争": 525,
      "伊": 526,
      "信": 527,
      "公": 528,
      "勒": 529,
      "友": 530,
      "古": 531,
      "吉": 532,
      "呼": 533,
      "国": 534,
      "图": 535,
      "園": 536,
      "城": 537,
      "孫": 538,
      "山": 539,
      "岡": 540,
      "崎": 541,
      "市": 542,
      "志": 543,
      "念": 544,
      "悟": 545,
      "战": 546,
      "戰": 547,
      "抗": 548,
      "日": 549,
      "星": 550,
      "期": 551,
      "本": 552,
      "格": 553,
      "梨": 554,
      "正": 555,
      "江": 556,
      "爭": 557,
      "犁": 558,
      "眼": 559,
      "福": 560,
      "空": 561,
      "红": 562,
      "群": 563,
      "赵": 564,
      "長": 565,
      "青": 566,
      "高": 567,
      "黑": 568,
      "龍": 569,
      "龙": 570,
      "ꙗ": 571,
      "": 572,
      "": 573,
      "": 574,
      "﻿": 575,
      "ￜ": 576,
      "￼": 577,
      "�": 578,
      "𐤅": 579,
      "𐤑": 580,
      "𐤓": 581,
      "𒊒": 582,
      "𒋗": 583,
      "𝗘": 584,
      "𝗤": 585,
      "𝗧": 586,
      "𝗰": 587,
      "𝗲": 588,
      "𝗴": 589,
      "𝗵": 590,
      "𝗶": 591,
      "𝗹": 592,
      "𝗻": 593,
      "𝗼": 594,
      "𝗽": 595,
      "𝗿": 596,
      "𝘁": 597,
      "𝘅": 598,
      "𝘆": 599,
      "🅾": 600,
      "🌹": 601,
      "🍀": 602,
      "🏃": 603,
      "👉": 604,
      "👌": 605,
      "👍": 606,
      "💊": 607,
      "📍": 608,
      "🔅": 609,
      "🔳": 610,
      "🕉": 611,
      "🕟": 612,
      "😁": 613,
      "😂": 614,
      "😃": 615,
      "😉": 616,
      "😊": 617,
      "😋": 618,
      "😍": 619,
      "😎": 620,
      "😏": 621,
      "😓": 622,
      "😔": 623,
      "😘": 624,
      "😝": 625,
      "😠": 626,
      "😡": 627,
      "😥": 628,
      "😳": 629,
      "🙂": 630,
      "🙄": 631,
      "🙇": 632,
      "🙊": 633,
      "🙏": 634,
      "🟥": 635,
      "🤓": 636,
      "🤲": 637,
      "🥀": 638,
      "𠠦": 639,
      "𠦣": 640,
      "󦣳": 641,
      "se": 642,
      "sep": 643,
      "നന": 644,
      "കക": 645,
      "തത": 646,
      "ര‍": 647,
      "ല‍": 648,
      "പര": 649,
      "ടട": 650,
      "ചച": 651,
      "പപ": 652,
      "തര": 653,
      "ങങ": 654,
      "ററ": 655,
      "ണട": 656,
      "കള": 657,
      "ന‍": 658,
      "കര": 659,
      "ലല": 660,
      "നറ": 661,
      "ങങള": 662,
      "തയ": 663,
      "നനത": 664,
      "ളള": 665,
      "കട": 666,
      "മയ": 667,
      "വര": 668,
      "നയ": 669,
      "കഷ": 670,
      "കയ": 671,
      "മന": 672,
      "നട": 673,
      "ഞഞ": 674,
      "എനന": 675,
      "ലയ": 676,
      "റയ": 677,
      "മണ": 678,
      "ചയ": 679,
      "വയ": 680,
      "സഥ": 681,
      "മനന": 682,
      "പല": 683,
      "രകക": 684,
      "വര‍": 685,
      "മപ": 686,
      "കല": 687,
      "വസ": 688,
      "രയ": 689,
      "കള‍": 690,
      "സററ": 691,
      "നത": 692,
      "ഒര": 693,
      "തട": 694,
      "സവ": 695,
      "ദയ": 696,
      "പറ": 697,
      "മത": 698,
      "യര": 699,
      "ള‍": 700,
      "പട": 701,
      "കടട": 702,
      "മമ": 703,
      "തതല": 704,
      "ങങള‍": 705,
      "തതല‍": 706,
      "കണ": 707,
      "കത": 708,
      "ജയ": 709,
      "കഴ": 710,
      "ടതത": 711,
      "മര": 712,
      "വശ": 713,
      "കണട": 714,
      "അത": 715,
      "സന": 716,
      "കൾ": 717,
      "നനന": 718,
      "ദര": 719,
      "ദശ": 720,
      "ഗര": 721,
      "ലകക": 722,
      "ധയ": 723,
      "പരത": 724,
      "തതയ": 725,
      "ടയ": 726,
      "ഇത": 727,
      "നല‍": 728,
      "മകക": 729,
      "വർ": 730,
      "തനന": 731,
      "നര": 732,
      "പയ": 733,
      "അന": 734,
      "സ‌": 735,
      "മററ": 736,
      "ര‍കക": 737,
      "ശര": 738,
      "ധന": 739,
      "ടകക": 740,
      "നല": 741,
      "ങങൾ": 742,
      "പപടട": 743,
      "നതത": 744,
      "സമ": 745,
      "സര": 746,
      "വള": 747,
      "ചചത": 748,
      "യത": 749,
      "സഹ": 750,
      "ങക": 751,
      "യണ": 752,
      "യല‍": 753,
      "പത": 754,
      "കസ": 755,
      "മനതര": 756,
      "പറഞഞ": 757,
      "ഇന": 758,
      "നധ": 759,
      "യല": 760,
      "വടട": 761,
      "സസ": 762,
      "ദധ": 763,
      "നകക": 764,
      "ചയയ": 765,
      "മറ": 766,
      "മഖ": 767,
      "ആര": 768,
      "കവ": 769,
      "കറ": 770,
      "മസ": 771,
      "കരയ": 772,
      "കന": 773,
      "ഞച": 774,
      "വവ": 775,
      "തതന": 776,
      "എസ": 777,
      "പണ": 778,
      "വട": 779,
      "യകക": 780,
      "ജവ": 781,
      "ദദ": 782,
      "നര‍": 783,
      "വഷ": 784,
      "ഭവ": 785,
      "പപകക": 786,
      "രണ": 787,
      "20": 788,
      "പപട": 789,
      "ഇനതയ": 790,
      "പലസ": 791,
      "കര‍": 792,
      "നതര": 793,
      "രണട": 794,
      "കരണ": 795,
      "പര‍": 796,
      "വക": 797,
      "വല": 798,
      "ടര": 799,
      "ബനധ": 800,
      "പരസ": 801,
      "ചയത": 802,
      "ജന": 803,
      "സഥന": 804,
      "കർ": 805,
      "മര‍": 806,
      "ഭഗ": 807,
      "പരശ": 808,
      "വനന": 809,
      "നടതത": 810,
      "മലല": 811,
      "മല": 812,
      "വദ": 813,
      "പറയ": 814,
      "‌സ": 815,
      "മതര": 816,
      "മക": 817,
      "വണ": 818,
      "രഗ": 819,
      "കഷണ": 820,
      "ടടണട": 821,
      "തതര": 822,
      "പപടതത": 823,
      "വന": 824,
      "പരയ": 825,
      "തതകക": 826,
      "വശയ": 827,
      "കയണ": 828,
      "മഹ": 829,
      "സഘ": 830,
      "വണട": 831,
      "പകഷ": 832,
      "ലഭ": 833,
      "ശഷ": 834,
      "ദദഹ": 835,
      "കഴഞഞ": 836,
      "കടത": 837,
      "പനന": 838,
      "ഉണട": 839,
      "ഡയ": 840,
      "കരള": 841,
      "ഷട": 842,
      "ര‍നന": 843,
      "ങകല": 844,
      "00": 845,
      "ചതര": 846,
      "വഴ": 847,
      "റപപ": 848,
      "ദവസ": 849,
      "പക": 850,
      "നൽ": 851,
      "അറയ": 852,
      "പതര": 853,
      "ടപപ": 854,
      "അദദഹ": 855,
      "ണ‍": 856,
      "പടട": 857,
      "ബര": 858,
      "വകക": 859,
      "വധ": 860,
      "കതത": 861,
      "പർ": 862,
      "പതയ": 863,
      "ചല": 864,
      "വലയ": 865,
      "മന‍": 866,
      "പന": 867,
      "ജലല": 868,
      "ആശ": 869,
      "മഴ": 870,
      "കനദര": 871,
      "ങങയ": 872,
      "വദയ": 873,
      "രജയ": 874,
      "ഇനന": 875,
      "മണട": 876,
      "സമയ": 877,
      "നടട": 878,
      "അഭ": 879,
      "മളള": 880,
      "കരകക": 881,
      "സയ": 882,
      "ഷയ": 883,
      "സർ": 884,
      "സമപ": 885,
      "കള‍കക": 886,
      "പരവര‍": 887,
      "വഹ": 888,
      "സര‍കക": 889,
      "ആവശയ": 890,
      "ലണ": 891,
      "എലല": 892,
      "കവഡ": 893,
      "നർ": 894,
      "ഗയ": 895,
      "വനനത": 896,
      "നളള": 897,
      "ണണ": 898,
      "മർ": 899,
      "റകക": 900,
      "ലകഷ": 901,
      "ആദയ": 902,
      "വചച": 903,
      "തല": 904,
      "അവ": 905,
      "കളല‍": 906,
      "ലലനന": 907,
      "സഭവ": 908,
      "മലയ": 909,
      "വയകത": 910,
      "കകര": 911,
      "തഥ": 912,
      "ന‍റ": 913,
      "ചന": 914,
      "ചര": 915,
      "പകക": 916,
      "ഏററ": 917,
      "രജ": 918,
      "പരതയ": 919,
      "സതര": 920,
      "ദന": 921,
      "ചചര": 922,
      "കകട": 923,
      "തരഞഞ": 924,
      "കണ‍": 925,
      "വറ": 926,
      "പപഴ": 927,
      "മഖയ": 928,
      "സല": 929,
      "19": 930,
      "കളല": 931,
      "ങങളല‍": 932,
      "സത": 933,
      "തതത": 934,
      "ജല": 935,
      "ഇട": 936,
      "ബല": 937,
      "ഒനന": 938,
      "കകള": 939,
      "ങങള‍കക": 940,
      "യയ": 941,
      "പറതത": 942,
      "രപ": 943,
      "പപള‍": 944,
      "നല‍ക": 945,
      "കകന‍": 946,
      "പരധന": 947,
      "ഗരസ": 948,
      "ടന": 949,
      "സര‍": 950,
      "പയഗ": 951,
      "അട": 952,
      "ഗത": 953,
      "വളള": 954,
      "ണമനന": 955,
      "നണ": 956,
      "കകനനത": 957,
      "ഷണ": 958,
      "സബ": 959,
      "അറ": 960,
      "കമ": 961,
      "കയയര": 962,
      "വജയ": 963,
      "സസഥന": 964,
      "ഓഫ": 965,
      "കകനന": 966,
      "ഹര": 967,
      "എനനല‍": 968,
      "കടടയ": 969,
      "ങങളല": 970,
      "വര‍ഷ": 971,
      "​​": 972,
      "ഉപയഗ": 973,
      "ബജ": 974,
      "വല‍": 975,
      "ബധ": 976,
      "സകര": 977,
      "ഷന‍": 978,
      "ഭയ": 979,
      "ഖയ": 980,
      "സധ": 981,
      "മതത": 982,
      "കകറ": 983,
      "തഴ": 984,
      "അധ": 985,
      "ര‍ടട": 986,
      "തരമന": 987,
      "ണയ": 988,
      "എഫ": 989,
      "വത": 990,
      "ലക": 991,
      "ര‍തത": 992,
      "തരചച": 993,
      "കററ": 994,
      "വഷണ": 995,
      "മയര": 996,
      "ചയതത": 997,
      "നടപട": 998,
      "ളളത": 999,
      "ന‍സ": 1000,
      "എതത": 1001,
      "അമ": 1002,
      "ഴച": 1003,
      "അഗ": 1004,
      "മൻ": 1005,
      "മഖയമനതര": 1006,
      "കമപ": 1007,
      "ബദ": 1008,
      "മടട": 1009,
      "നല‍കയ": 1010,
      "അവസ": 1011,
      "യതര": 1012,
      "ഇര": 1013,
      "നവ": 1014,
      "കടകക": 1015,
      "പഴ": 1016,
      "കഴയ": 1017,
      "കടബ": 1018,
      "ഫല": 1019,
      "ആണ": 1020,
      "ൻറ": 1021,
      "ഏററവ": 1022,
      "കലല": 1023,
      "വന‍": 1024,
      "സപ": 1025,
      "കൾകക": 1026,
      "സഥനതത": 1027,
      "ഗണ": 1028,
      "കചച": 1029,
      "ലതത": 1030,
      "കടതത": 1031,
      "നടതതയ": 1032,
      "വവര": 1033,
      "ർനന": 1034,
      "നയമ": 1035,
      "കകണട": 1036,
      "തള": 1037,
      "ഭര": 1038,
      "മധയ": 1039,
      "പതത": 1040,
      "വര‍കക": 1041,
      "പരസഡ": 1042,
      "പരദശ": 1043,
      "മഡ": 1044,
      "നങങള": 1045,
      "പഠ": 1046,
      "ദശയ": 1047,
      "നടകക": 1048,
      "പരവർ": 1049,
      "തരഞഞടപപ": 1050,
      "ദവ": 1051,
      "ടടറ": 1052,
      "നടനന": 1053,
      "ദര‍": 1054,
      "തരവനനത": 1055,
      "ഭരണ": 1056,
      "തരവനനതപര": 1057,
      "സര‍കകര‍": 1058,
      "ങങന": 1059,
      "മരണ": 1060,
      "ഗല": 1061,
      "കമമ": 1062,
      "201": 1063,
      "കകയ": 1064,
      "ആയ": 1065,
      "തരയ": 1066,
      "വയകതമകക": 1067,
      "ആശപതര": 1068,
      "സമഹ": 1069,
      "ങങൾകക": 1070,
      "പദധ": 1071,
      "പങ": 1072,
      "കരമ": 1073,
      "കകടട": 1074,
      "ദയഗ": 1075,
      "പപചച": 1076,
      "തതലണ": 1077,
      "ര‍ചച": 1078,
      "സഥര": 1079,
      "കശ": 1080,
      "മട": 1081,
      "മലയള": 1082,
      "തടങങയ": 1083,
      "പപൾ": 1084,
      "പനത": 1085,
      "രകഷ": 1086,
      "നലല": 1087,
      "പര‍ടട": 1088,
      "എനത": 1089,
      "അവര": 1090,
      "ങകല‍": 1091,
      "കറചച": 1092,
      "തടര‍നന": 1093,
      "റററ": 1094,
      "യട": 1095,
      "മനറ": 1096,
      "ഷന": 1097,
      "അനവഷണ": 1098,
      "കകൻ": 1099,
      "പപറ": 1100,
      "കതയ": 1101,
      "ബബ": 1102,
      "നതതവ": 1103,
      "തണ": 1104,
      "ആര‍": 1105,
      "വകപപ": 1106,
      "റഡ": 1107,
      "ഒഴ": 1108,
      "കണണ": 1109,
      "ആരഗയ": 1110,
      "ചരയ": 1111,
      "കളണ": 1112,
      "പരമ": 1113,
      "ശകത": 1114,
      "എന‍": 1115,
      "പരവര‍തത": 1116,
      "ഉയ": 1117,
      "നറയ": 1118,
      "സല‍": 1119,
      "യഗ": 1120,
      "അഞച": 1121,
      "വരയ": 1122,
      "തകക": 1123,
      "തന": 1124,
      "വമ": 1125,
      "അടതത": 1126,
      "10": 1127,
      "ൻസ": 1128,
      "ഷടരയ": 1129,
      "അപ": 1130,
      "തതട": 1131,
      "കളയ": 1132,
      "കൺ": 1133,
      "മറയ": 1134,
      "ഷധ": 1135,
      "രഹ": 1136,
      "തടട": 1137,
      "ശത": 1138,
      "സരകഷ": 1139,
      "നനണട": 1140,
      "ഇതന": 1141,
      "ശരമ": 1142,
      "തടങങ": 1143,
      "രഷടരയ": 1144,
      "കരമണ": 1145,
      "മമപ": 1146,
      "തയയ": 1147,
      "പററ": 1148,
      "ധര": 1149,
      "മതസര": 1150,
      "നൽക": 1151,
      "കകക": 1152,
      "റപപര‍ടട": 1153,
      "പചച": 1154,
      "എല‍": 1155,
      "പരഖയ": 1156,
      "ഉതതര": 1157,
      "തനറ": 1158,
      "കകണ": 1159,
      "ബര‍": 1160,
      "സവധന": 1161,
      "കഞഞ": 1162,
      "ശന": 1163,
      "തമസ": 1164,
      "കണ‍ഗരസ": 1165,
      "ഷൻ": 1166,
      "രജയതത": 1167,
      "വശവസ": 1168,
      "വവഹ": 1169,
      "അധയ": 1170,
      "‌ന": 1171,
      "കണകക": 1172,
      "ഗള": 1173,
      "മദ": 1174,
      "കണടതത": 1175,
      "നനണ": 1176,
      "കരചച": 1177,
      "വഭഗ": 1178,
      "കകള‍": 1179,
      "കകകയ": 1180,
      "യവ": 1181,
      "ർതത": 1182,
      "കകരയ": 1183,
      "മതല‍": 1184,
      "മധയമ": 1185,
      "ഉപ": 1186,
      "ആരഭ": 1187,
      "സവദശ": 1188,
      "രപയ": 1189,
      "വർഷ": 1190,
      "പസററ": 1191,
      "പരസഡനറ": 1192,
      "ശതമന": 1193,
      "ലഗ": 1194,
      "പരകഷ": 1195,
      "ഉദ": 1196,
      "നമ": 1197,
      "സമര": 1198,
      "അറസററ": 1199,
      "ഡല‍": 1200,
      "ബകക": 1201,
      "വററ": 1202,
      "ബയ": 1203,
      "ടടലല": 1204,
      "ർകക": 1205,
      "ലളള": 1206,
      "സഫ": 1207,
      "അയ": 1208,
      "സധയ": 1209,
      "രഗതത": 1210,
      "ർടട": 1211,
      "എനനത": 1212,
      "സഹചരയ": 1213,
      "സകരടടറ": 1214,
      "തറ": 1215,
      "മപള‍": 1216,
      "ഡല": 1217,
      "മനനണ": 1218,
      "രമ": 1219,
      "വലല": 1220,
      "നലയ": 1221,
      "15": 1222,
      "തവ": 1223,
      "നമമ": 1224,
      "കഥ": 1225,
      "നനലല": 1226,
      "ളയ": 1227,
      "സഹയ": 1228,
      "ആറ": 1229,
      "ഇതതര": 1230,
      "ഉദയഗ": 1231,
      "സഗ": 1232,
      "ര‍തഥ": 1233,
      "നശ": 1234,
      "അതന": 1235,
      "ആവശയപപടട": 1236,
      "ചദയ": 1237,
      "ടയണ": 1238,
      "വരണ": 1239,
      "ബനധപപടട": 1240,
      "കടയ": 1241,
      "അലല": 1242,
      "സവനത": 1243,
      "പളള": 1244,
      "വമന": 1245,
      "നററ": 1246,
      "ഉള‍": 1247,
      "ര‍ജ": 1248,
      "മയണ": 1249,
      "മബ": 1250,
      "നദ": 1251,
      "വവധ": 1252,
      "ഇലല": 1253,
      "എഴ": 1254,
      "വൻ": 1255,
      "30": 1256,
      "സബനധ": 1257,
      "പനനട": 1258,
      "ആള": 1259,
      "കടതല‍": 1260,
      "ചണട": 1261,
      "സമമ": 1262,
      "യരകക": 1263,
      "തയല‍": 1264,
      "വളര": 1265,
      "കപപ": 1266,
      "കകന": 1267,
      "ഉട": 1268,
      "ലള": 1269,
      "സഭ": 1270,
      "അമരകക": 1271,
      "നരവധ": 1272,
      "പരശധ": 1273,
      "നടയ": 1274,
      "ബസ": 1275,
      "മരചച": 1276,
      "ദധയ": 1277,
      "12": 1278,
      "തതലകക": 1279,
      "ക‌സ": 1280,
      "ണനന": 1281,
      "ഗരഹ": 1282,
      "ലട": 1283,
      "പള": 1284,
      "ചകത": 1285,
      "ആല": 1286,
      "ഒരകക": 1287,
      "സമപതത": 1288,
      "വർകക": 1289,
      "സകഷ": 1290,
      "റങങ": 1291,
      "എണണ": 1292,
      "നരതത": 1293,
      "പരതയക": 1294,
      "പരതഷധ": 1295,
      "വഗ": 1296,
      "സസഥനതത": 1297,
      "അല": 1298,
      "പരവശ": 1299,
      "നയനതര": 1300,
      "ന‍ഡ": 1301,
      "ഇനതയന‍": 1302,
      "മണനന": 1303,
      "ഇനതയയ": 1304,
      "ചട": 1305,
      "സനമ": 1306,
      "ഷക": 1307,
      "വഷയ": 1308,
      "രഖ": 1309,
      "കകല‍": 1310,
      "കകററ": 1311,
      "വങങ": 1312,
      "000": 1313,
      "മല‍": 1314,
      "കലതത": 1315,
      "ചനന": 1316,
      "പരച": 1317,
      "ബഹ": 1318,
      "നഷട": 1319,
      "ലഭകക": 1320,
      "മമദ": 1321,
      "സതയ": 1322,
      "നദര": 1323,
      "നൽകയ": 1324,
      "തമ": 1325,
      "ശച": 1326,
      "പരധനമനതര": 1327,
      "നയയ": 1328,
      "അനവദ": 1329,
      "മകചച": 1330,
      "കലയ": 1331,
      "അവസന": 1332,
      "റണ": 1333,
      "നതവ": 1334,
      "ഘടന": 1335,
      "ജനറ": 1336,
      "സര‍കകര": 1337,
      "ലഭചച": 1338,
      "വഹന": 1339,
      "ദർ": 1340,
      "തതലളള": 1341,
      "എനനണ": 1342,
      "ൻഡ": 1343,
      "പരകട": 1344,
      "അവര‍": 1345,
      "പഞ": 1346,
      "കളജ": 1347,
      "ഘടട": 1348,
      "പദധത": 1349,
      "കനന": 1350,
      "നനതന": 1351,
      "തനതര": 1352,
      "ഭരയ": 1353,
      "പരവര‍തതന": 1354,
      "ദദശ": 1355,
      "സനമയ": 1356,
      "ർതഥ": 1357,
      "തടര": 1358,
      "അര": 1359,
      "അനന": 1360,
      "ബജപ": 1361,
      "ചര‍ചച": 1362,
      "മററര": 1363,
      "അദദഹതത": 1364,
      "തരതത": 1365,
      "ഇപപള‍": 1366,
      "ലററ": 1367,
      "കടനന": 1368,
      "സജ": 1369,
      "തരകക": 1370,
      "ലല‍": 1371,
      "ചർ": 1372,
      "അവരട": 1373,
      "പരതകഷ": 1374,
      "ശയ": 1375,
      "ഇവട": 1376,
      "പടചച": 1377,
      "നയര": 1378,
      "റസ": 1379,
      "മഖലയ": 1380,
      "നള": 1381,
      "സഥല": 1382,
      "എനനവയ": 1383,
      "ലന": 1384,
      "എനറ": 1385,
      "ഗന": 1386,
      "ശഖ": 1387,
      "ലയര": 1388,
      "ഞന‍": 1389,
      "അതസമയ": 1390,
      "തക": 1391,
      "റല": 1392,
      "വസഥ": 1393,
      "ചദ": 1394,
      "പങക": 1395,
      "പറയനനത": 1396,
      "കന‍": 1397,
      "വഡയ": 1398,
      "ഇവര": 1399,
      "ങങളണ": 1400,
      "ഓര": 1401,
      "ലകഷയ": 1402,
      "പര‍കക": 1403,
      "ആർ": 1404,
      "നയണ": 1405,
      "സ​": 1406,
      "ഭകഷണ": 1407,
      "കറയ": 1408,
      "സർക": 1409,
      "ദഹ": 1410,
      "18": 1411,
      "ഇയ": 1412,
      "ഫര": 1413,
      "തററ": 1414,
      "രവല": 1415,
      "ളവ": 1416,
      "ശരര": 1417,
      "വദശ": 1418,
      "വകശ": 1419,
      "മദയ": 1420,
      "തരണ": 1421,
      "ര‍ഥ": 1422,
      "പരപട": 1423,
      "50": 1424,
      "ഉളള": 1425,
      "മനസ": 1426,
      "കമമററ": 1427,
      "ഡല‍ഹ": 1428,
      "സഷ": 1429,
      "കടര‍": 1430,
      "അടകക": 1431,
      "ശല": 1432,
      "മപൾ": 1433,
      "വതത": 1434,
      "11": 1435,
      "കമറ": 1436,
      "വലകക": 1437,
      "പഡ": 1438,
      "വളചച": 1439,
      "ഹസ": 1440,
      "ഷടര": 1441,
      "നരയ": 1442,
      "നലപട": 1443,
      "നഗ": 1444,
      "മതയ": 1445,
      "സപര": 1446,
      "ചറ": 1447,
      "ആരപണ": 1448,
      "നയകക": 1449,
      "അബദ": 1450,
      "ക‌": 1451,
      "സനത": 1452,
      "സറ": 1453,
      "മനസസ": 1454,
      "കളള": 1455,
      "വര‍തത": 1456,
      "ചകതസ": 1457,
      "ബർ": 1458,
      "പരവർതത": 1459,
      "അധയകഷ": 1460,
      "പണ‍": 1461,
      "ഫയ": 1462,
      "പരകര": 1463,
      "200": 1464,
      "ചചരകക": 1465,
      "സനയ": 1466,
      "പകര": 1467,
      "കടടകള": 1468,
      "എൻ": 1469,
      "മടകക": 1470,
      "ഏത": 1471,
      "അപകട": 1472,
      "14": 1473,
      "തല‍": 1474,
      "നനവനന": 1475,
      "സഥപന": 1476,
      "ശരദധ": 1477,
      "എയ": 1478,
      "എതതയ": 1479,
      "പർടട": 1480,
      "പരല‍": 1481,
      "പരശധന": 1482,
      "സനന": 1483,
      "ഏറ": 1484,
      "ധക": 1485,
      "പരഗണ": 1486,
      "സങ": 1487,
      "ഷ‌": 1488,
      "തശ": 1489,
      "കല‍": 1490,
      "ണടയര": 1491,
      "പരമയ": 1492,
      "ണടയ": 1493,
      "ചചടടണട": 1494,
      "ഏഴ": 1495,
      "മതരമണ": 1496,
      "25": 1497,
      "ജഞ": 1498,
      "ഡര": 1499,
      "കമപന": 1500,
      "തടർനന": 1501,
      "ചഛ": 1502,
      "മകള": 1503,
      "പഞചയതത": 1504,
      "മഹമമദ": 1505,
      "തമമ": 1506,
      "നരകക": 1507,
      "ഭഷണ": 1508,
      "വനത": 1509,
      "ഉൾ": 1510,
      "ചനദര": 1511,
      "യമ": 1512,
      "സഞച": 1513,
      "ജവത": 1514,
      "ടവ": 1515,
      "ഡസ": 1516,
      "ആയര": 1517,
      "ഘഷ": 1518,
      "തമഴ": 1519,
      "തരധ": 1520,
      "രതര": 1521,
      "തയണ": 1522,
      "സരയ": 1523,
      "എനകക": 1524,
      "സദ": 1525,
      "സഘട": 1526,
      "മണഡല": 1527,
      "വരനന": 1528,
      "ആകരമണ": 1529,
      "ടരയ": 1530,
      "യളള": 1531,
      "ശരയ": 1532,
      "കകര‍": 1533,
      "വവദ": 1534,
      "കഷതര": 1535,
      "വശദ": 1536,
      "അനഭവ": 1537,
      "24": 1538,
      "യടട": 1539,
      "തനനയണ": 1540,
      "നനനളള": 1541,
      "പതവ": 1542,
      "അവതര": 1543,
      "സമമള": 1544,
      "എതര": 1545,
      "ശസതര": 1546,
      "ഹജ": 1547,
      "ബങക": 1548,
      "കകതര": 1549,
      "നഗര": 1550,
      "സ‌കര": 1551,
      "കരളതത": 1552,
      "സവകരയ": 1553,
      "കകമനന": 1554,
      "റയല‍": 1555,
      "21": 1556,
      "തന‍": 1557,
      "കകല": 1558,
      "റല‍": 1559,
      "ചര‍നന": 1560,
      "പരതരധ": 1561,
      "മനഷയ": 1562,
      "നനതനന": 1563,
      "ജവനകക": 1564,
      "റപപർടട": 1565,
      "അപകഷ": 1566,
      "മരയ": 1567,
      "അടയ": 1568,
      "മഡയ": 1569,
      "മതരമ": 1570,
      "സഘടന": 1571,
      "പനനല": 1572,
      "അടസഥന": 1573,
      "എടതത": 1574,
      "കസററ": 1575,
      "ണടത": 1576,
      "ഇകകരയ": 1577,
      "നനദ": 1578,
      "പന‍": 1579,
      "വയതയ": 1580,
      "അവർ": 1581,
      "പരചരണ": 1582,
      "ഏക": 1583,
      "എനനവ": 1584,
      "നയനതരണ": 1585,
      "സവകരകക": 1586,
      "സധരണ": 1587,
      "എനനവര": 1588,
      "ഴ‌സ": 1589,
      "ഡററ": 1590,
      "പസ": 1591,
      "വരതത": 1592,
      "അസ": 1593,
      "വനയ": 1594,
      "തവണ": 1595,
      "സഥത": 1596,
      "പശച": 1597,
      "ഉദയഗസഥ": 1598,
      "യനന": 1599,
      "എൽ": 1600,
      "നനതണ": 1601,
      "തളള": 1602,
      "ഷപപ": 1603,
      "ഒഴവകക": 1604,
      "ബന": 1605,
      "ഇടപട": 1606,
      "മള": 1607,
      "രത": 1608,
      "പരണ": 1609,
      "അഡ": 1610,
      "പലയ": 1611,
      "മറപട": 1612,
      "16": 1613,
      "13": 1614,
      "17": 1615,
      "മധ": 1616,
      "ഉദഘടന": 1617,
      "വതരണ": 1618,
      "വകസന": 1619,
      "എടട": 1620,
      "പരടട": 1621,
      "സമത": 1622,
      "നര‍ദശ": 1623,
      "ഇപപഴ": 1624,
      "യലണ": 1625,
      "സപഎ": 1626,
      "ഇതട": 1627,
      "കറഞഞ": 1628,
      "ഡഎഫ": 1629,
      "കൺഗരസ": 1630,
      "ഇന‍": 1631,
      "അധകര": 1632,
      "വര‍ണ": 1633,
      "സമപതതക": 1634,
      "അഭപരയ": 1635,
      "ഉറ": 1636,
      "തടകക": 1637,
      "നമപ": 1638,
      "തമയ": 1639,
      "ചറയ": 1640,
      "വദയഭയ": 1641,
      "ഇവ": 1642,
      "കകണമനന": 1643,
      "ടക": 1644,
      "ഇതവര": 1645,
      "ഇപപൾ": 1646,
      "ഭകര": 1647,
      "നയമസ": 1648,
      "ഡജ": 1649,
      "ററല‍": 1650,
      "സപപ": 1651,
      "കരളതതല": 1652,
      "പരധ": 1653,
      "കമര‍": 1654,
      "നര‍തത": 1655,
      "ഉറപപ": 1656,
      "ഭഷ": 1657,
      "മഗ": 1658,
      "സകരയ": 1659,
      "മപഴ": 1660,
      "പദ": 1661,
      "ചരതര": 1662,
      "സഹയകക": 1663,
      "ഗഗ": 1664,
      "പപടതതയ": 1665,
      "ഗനധ": 1666,
      "മര‍ശ": 1667,
      "ണടനന": 1668,
      "പപടടത": 1669,
      "നരടട": 1670,
      "സമയതത": 1671,
      "ഹകകട": 1672,
      "പരതപകഷ": 1673,
      "മഖല": 1674,
      "മചച": 1675,
      "ടയളള": 1676,
      "തതനളള": 1677,
      "ഓഫസ": 1678,
      "ദര‍ശ": 1679,
      "ബദധ": 1680,
      "തങങള": 1681,
      "ജസ": 1682,
      "വയകക": 1683,
      "സററര‍": 1684,
      "ഇനനല": 1685,
      "തടയ": 1686,
      "കസല‍": 1687,
      "പരശ‌ന": 1688,
      "മതരമലല": 1689,
      "അമത": 1690,
      "അവട": 1691,
      "ബഗ": 1692,
      "സനതഷ": 1693,
      "ലഭയ": 1694,
      "വലയര": 1695,
      "പറഞഞത": 1696,
      "ജത": 1697,
      "സസയ": 1698,
      "അനതര": 1699,
      "യറ": 1700,
      "പപല": 1701,
      "നരട": 1702,
      "സനറ": 1703,
      "തഴലള": 1704,
      "അഴ": 1705,
      "വധയ": 1706,
      "ണടക": 1707,
      "ഞൻ": 1708,
      "നതയ": 1709,
      "പണറ": 1710,
      "ഉണടയര": 1711,
      "കരചചത": 1712,
      "ഇനതയൻ": 1713,
      "ചചടട": 1714,
      "യഥ": 1715,
      "ശരമകക": 1716,
      "പഞച": 1717,
      "മനജ": 1718,
      "ഡയറ": 1719,
      "കയറ": 1720,
      "പപന": 1721,
      "ന​": 1722,
      "​​​": 1723,
      "തനകക": 1724,
      "സസര": 1725,
      "പരവസ": 1726,
      "ഒററ": 1727,
      "വദയഭയസ": 1728,
      "ലകതത": 1729,
      "അമമ": 1730,
      "വടകക": 1731,
      "സവതനതര": 1732,
      "കടതയ": 1733,
      "കലസ": 1734,
      "ചച‌": 1735,
      "പപചചത": 1736,
      "ക​": 1737,
      "ശശ": 1738,
      "ഫണ": 1739,
      "ശകതമയ": 1740,
      "സവയ": 1741,
      "ചടങങ": 1742,
      "പപണ": 1743,
      "മരനന": 1744,
      "ചകക": 1745,
      "ഹയ": 1746,
      "ചചണ": 1747,
      "വപണ": 1748,
      "ങങളയ": 1749,
      "ബററ": 1750,
      "പപളള": 1751,
      "ഭഗമ": 1752,
      "ആഗരഹ": 1753,
      "രജവ": 1754,
      "കൻ": 1755,
      "അമമയ": 1756,
      "യവവ": 1757,
      "ചതരതത": 1758,
      "അവസര": 1759,
      "നയല‍": 1760,
      "നതകകള": 1761,
      "കരത": 1762,
      "മസ‌": 1763,
      "ഹനദ": 1764,
      "വനദ": 1765,
      "വകയ": 1766,
      "വകസ": 1767,
      "വരദധ": 1768,
      "കറണ": 1769,
      "പരവർതതന": 1770,
      "ന‌": 1771,
      "അധക": 1772,
      "സഥലതത": 1773,
      "ഇടത": 1774,
      "മനനടട": 1775,
      "നഥ": 1776,
      "അവകശ": 1777,
      "സസരകക": 1778,
      "പഠന": 1779,
      "ർഥ": 1780,
      "അധകത": 1781,
      "ചയതര": 1782,
      "പനതണ": 1783,
      "പരഖയപ": 1784,
      "എസ‌": 1785,
      "ഡൽ": 1786,
      "പരഹര": 1787,
      "മണകകറ": 1788,
      "ദരയ": 1789,
      "വടടല‍": 1790,
      "മര‍കക": 1791,
      "യതത": 1792,
      "ആരധ": 1793,
      "കണടണ": 1794,
      "ജനങങള": 1795,
      "സമര‍": 1796,
      "മപത": 1797,
      "ar": 1798,
      "സഹദര": 1799,
      "ഗരമ": 1800,
      "മതദഹ": 1801,
      "റണ‍": 1802,
      "മലപപറ": 1803,
      "ഹര‍": 1804,
      "ഇറ": 1805,
      "എടകക": 1806,
      "എചച": 1807,
      "ബഗള": 1808,
      "അവസഥ": 1809,
      "മനതരലയ": 1810,
      "ജസഫ": 1811,
      "നയമസഭ": 1812,
      "തവര": 1813,
      "ആഘഷ": 1814,
      "22": 1815,
      "വറസ": 1816,
      "പഴയ": 1817,
      "ചനത": 1818,
      "മയത": 1819,
      "ഉപയഗകക": 1820,
      "സധയത": 1821,
      "ചടട": 1822,
      "സഥനര‍": 1823,
      "in": 1824,
      "ഫറ": 1825,
      "ഫസ": 1826,
      "ഭദ": 1827,
      "പപല‍": 1828,
      "സമന": 1829,
      "ദല": 1830,
      "ഇടയ": 1831,
      "ഷറ": 1832,
      "നകഷ": 1833,
      "ആനറ": 1834,
      "ടസററ": 1835,
      "ശബര": 1836,
      "അഭയ": 1837,
      "ഭമ": 1838,
      "ശകഷ": 1839,
      "‌കക": 1840,
      "ജലലയല": 1841,
      "ശരദധയ": 1842,
      "മസല": 1843,
      "നനയ": 1844,
      "സമമളന": 1845,
      "തയത": 1846,
      "ചററ": 1847,
      "ബള": 1848,
      "ചചയ": 1849,
      "ഇൻ": 1850,
      "ആത": 1851,
      "ഉണടക": 1852,
      "കളമ": 1853,
      "പരതസന": 1854,
      "ഇതത": 1855,
      "പര‍തതയ": 1856,
      "ഒപപ": 1857,
      "ഭഗതത": 1858,
      "നക": 1859,
      "അതനറ": 1860,
      "സർകകര": 1861,
      "ശലയ": 1862,
      "റണകള": 1863,
      "ആക": 1864,
      "യവത": 1865,
      "മഖയമനതരയ": 1866,
      "ഉത": 1867,
      "എറണകള": 1868,
      "ജവതതത": 1869,
      "സഖയ": 1870,
      "ഇഗല": 1871,
      "സവന": 1872,
      "അല‍": 1873,
      "അണ": 1874,
      "ബധയ": 1875,
      "അടചച": 1876,
      "മടങങ": 1877,
      "കകളള": 1878,
      "എനനവര‍": 1879,
      "പരവര‍തതകക": 1880,
      "നമകക": 1881,
      "പങകടതത": 1882,
      "ഇവര‍": 1883,
      "മഡകകല‍": 1884,
      "പതക": 1885,
      "അനത": 1886,
      "ലസ": 1887,
      "ഇടകക": 1888,
      "സച": 1889,
      "ടടറയ": 1890,
      "പരവ": 1891,
      "നടപപകക": 1892,
      "സചന": 1893,
      "ഇനറ": 1894,
      "ലണട": 1895,
      "പവ": 1896,
      "ഗരപപ": 1897,
      "ഫര‍": 1898,
      "ർജ": 1899,
      "സടര": 1900,
      "തറനന": 1901,
      "ലഘ": 1902,
      "സഖ": 1903,
      "23": 1904,
      "മയളള": 1905,
      "അശ": 1906,
      "സവധയ": 1907,
      "വൽ": 1908,
      "ww": 1909,
      "40": 1910,
      "നരനദര": 1911,
      "ജനറല‍": 1912,
      "ബറ": 1913,
      "രഷടര": 1914,
      "അചഛ": 1915,
      "തലയ": 1916,
      "അഭനയ": 1917,
      "സ‌ററ": 1918,
      "ബലകക": 1919,
      "ഹദയ": 1920,
      "ടമ": 1921,
      "നഷ": 1922,
      "കയണനന": 1923,
      "വർതത": 1924,
      "യലല": 1925,
      "അനമത": 1926,
      "പരകകററ": 1927,
      "പലര": 1928,
      "പടര": 1929,
      "ജന‍": 1930,
      "റഞഞ": 1931,
      "പരമഖ": 1932,
      "ഗര‍": 1933,
      "സധയതയ": 1934,
      "ചണടകകടട": 1935,
      "ഭകത": 1936,
      "പരജയ": 1937,
      "ബരഹ": 1938,
      "പദധതയ": 1939,
      "നടപപ": 1940,
      "നണട": 1941,
      "വദയര‍തഥ": 1942,
      "വമനതത": 1943,
      "തങ": 1944,
      "തര‍കക": 1945,
      "സഗത": 1946,
      "യലകക": 1947,
      "വയസസ": 1948,
      "മനനല‍": 1949,
      "ജമയ": 1950,
      "തകര‍": 1951,
      "28": 1952,
      "രതയ": 1953,
      "മമണ": 1954,
      "നടനനത": 1955,
      "തതലട": 1956,
      "നല‍കക": 1957,
      "സധകക": 1958,
      "പറമ": 1959,
      "കഥപതര": 1960,
      "തതനട": 1961,
      "മപപ": 1962,
      "ഴചയ": 1963,
      "സ‌ടര": 1964,
      "ആശപതരയല‍": 1965,
      "ബല‍": 1966,
      "ഉയര": 1967,
      "നങങൾ": 1968,
      "മനനറയ": 1969,
      "പടയ": 1970,
      "ഒള": 1971,
      "ഗരതര": 1972,
      "പപടയളള": 1973,
      "പല‍": 1974,
      "ഉചച": 1975,
      "ബലയ": 1976,
      "മതല": 1977,
      "കകനനണട": 1978,
      "അങങന": 1979,
      "പജ": 1980,
      "സററററ": 1981,
      "സബനധചച": 1982,
      "കടർ": 1983,
      "വരനനത": 1984,
      "സശയ": 1985,
      "തയര": 1986,
      "നനവര": 1987,
      "നലവല": 1988,
      "ഉതതരവ": 1989,
      "al": 1990,
      "വകകററ": 1991,
      "മയരകക": 1992,
      "ഉമമ": 1993,
      "ഇതനറ": 1994,
      "കരളതതല‍": 1995,
      "ഉയര‍നന": 1996,
      "പൻ": 1997,
      "കഷയ": 1998,
      "കണടതതയ": 1999,
      "26": 2000,
      "വയജ": 2001,
      "നഹ": 2002,
      "പശചതതല": 2003,
      "കര‍കക": 2004,
      "കരകകററ": 2005,
      "പരശന": 2006,
      "ചചല‍": 2007,
      "കയയ": 2008,
      "ദവസവ": 2009,
      "മശ": 2010,
      "ബജപയ": 2011,
      "കരട": 2012,
      "സര‍വ": 2013,
      "ഗഡ": 2014,
      "ഇങങന": 2015,
      "കഴകകട": 2016,
      "അനവഷ": 2017,
      "ജസററ": 2018,
      "ഞജ": 2019,
      "നൽകക": 2020,
      "പസത": 2021,
      "വര‍ധ": 2022,
      "നരകഷണ": 2023,
      "സകക": 2024,
      "അര‍": 2025,
      "ഓര‍": 2026,
      "നല‍കയത": 2027,
      "ഇല": 2028,
      "കളലകക": 2029,
      "വദഗ": 2030,
      "ഫടട": 2031,
      "യയര": 2032,
      "27": 2033,
      "വദയര‍ഥ": 2034,
      "ലഖ": 2035,
      "മലലനന": 2036,
      "സകരടടറയ": 2037,
      "ഫണ‍": 2038,
      "ഹന": 2039,
      "മണണ": 2040,
      "പരഹ": 2041,
      "പരസദധ": 2042,
      "കടറ": 2043,
      "മരകക": 2044,
      "പൺ": 2045,
      "വകടട": 2046,
      "ഷടട": 2047,
      "സരകഷണ": 2048,
      "ശഖര": 2049,
      "ർണ": 2050,
      "പരകശ": 2051,
      "തങങ": 2052,
      "മ​": 2053,
      "മണയ": 2054,
      "കണണര‍": 2055,
      "co": 2056,
      "ആഭയ": 2057,
      "ണ‌": 2058,
      "യടടണട": 2059,
      "സമമന": 2060,
      "ഹടട": 2061,
      "ജവനകകര": 2062,
      "ടതതത": 2063,
      "ലലതത": 2064,
      "അതര": 2065,
      "ആഭയനതര": 2066,
      "അലലങക": 2067,
      "ഉതത": 2068,
      "കകതത": 2069,
      "കളട": 2070,
      "കയററ": 2071,
      "ചദചച": 2072,
      "പരസഗ": 2073,
      "വകര": 2074,
      "ആലപപഴ": 2075,
      "മവ": 2076,
      "പലകകട": 2077,
      "തരഞഞടകക": 2078,
      "ബള‍": 2079,
      "ലയണ": 2080,
      "നലവല‍": 2081,
      "മരചചത": 2082,
      "നലയല‍": 2083,
      "ണഡ": 2084,
      "സജവ": 2085,
      "വയവസ": 2086,
      "ഇനതയയല": 2087,
      "സന‍": 2088,
      "ജറ": 2089,
      "ഡൽഹ": 2090,
      "ഇതല‍": 2091,
      "th": 2092,
      "കസര‍": 2093,
      "ഇഷട": 2094,
      "നല‍കനന": 2095,
      "ചരകക": 2096,
      "പർകക": 2097,
      "പരണയ": 2098,
      "സനദശ": 2099,
      "തയയറ": 2100,
      "കഴകക": 2101,
      "സഡ": 2102,
      "ശവസ": 2103,
      "കമര": 2104,
      "ലയകക": 2105,
      "തതള": 2106,
      "എലലവര": 2107,
      "ൾകക": 2108,
      "കയല‍": 2109,
      "രനന": 2110,
      "ഫസബ": 2111,
      "പരതകരണ": 2112,
      "രഹല‍": 2113,
      "മജ": 2114,
      "ഉള‍പപട": 2115,
      "കനയ": 2116,
      "വ​": 2117,
      "നര‍ദദശ": 2118,
      "60": 2119,
      "ടസ": 2120,
      "ശവര": 2121,
      "ചഫ": 2122,
      "ദപ": 2123,
      "മയകക": 2124,
      "നർതത": 2125,
      "ബഡ": 2126,
      "പരകടന": 2127,
      "ലന‍": 2128,
      "ബധചച": 2129,
      "വമനതതവള": 2130,
      "ചർചച": 2131,
      "സവര‍ണ": 2132,
      "മനനറയപപ": 2133,
      "ബരടട": 2134,
      "ഇനയ": 2135,
      "മമത": 2136,
      "നനനണ": 2137,
      "യഡഎഫ": 2138,
      "നയഡല‍ഹ": 2139,
      "കര‍ഷക": 2140,
      "കയമപ": 2141,
      "കണടരകക": 2142,
      "നനത‌": 2143,
      "ഹകകടത": 2144,
      "അകകണട": 2145,
      "ഭത": 2146,
      "ചനയ": 2147,
      "കടടചച": 2148,
      "ദസ": 2149,
      "യദധ": 2150,
      "സഞചര": 2151,
      "ഭമയ": 2152,
      "ആരപ": 2153,
      "പരമപര": 2154,
      "ജണ‍": 2155,
      "ൽന": 2156,
      "അസസയ": 2157,
      "ഴസ": 2158,
      "സരകക": 2159,
      "മറചച": 2160,
      "റണട": 2161,
      "കളടയ": 2162,
      "സരഷ": 2163,
      "എത": 2164,
      "അങങ": 2165,
      "വയപ": 2166,
      "ഗവ": 2167,
      "ശശര": 2168,
      "മണകക": 2169,
      "ചയയന‍": 2170,
      "വളകക": 2171,
      "ഇതതവണ": 2172,
      "ലറ": 2173,
      "ഫണട": 2174,
      "സവഭവ": 2175,
      "കരമയ": 2176,
      "മഹന‍": 2177,
      "ഇരവര": 2178,
      "ഗള‍": 2179,
      "കമയ": 2180,
      "ള‍കക": 2181,
      "യവതയ": 2182,
      "പറതതകക": 2183,
      "ഇരടട": 2184,
      "രകത": 2185,
      "വയപക": 2186,
      "പങകടകക": 2187,
      "കണമനന": 2188,
      "കണടത": 2189,
      "വഹചച": 2190,
      "ഇതനട": 2191,
      "അഹ": 2192,
      "വഡ": 2193,
      "പരതനധ": 2194,
      "തറകക": 2195,
      "മകന": 2196,
      "കകനളള": 2197,
      "ങകര": 2198,
      "ചയര‍": 2199,
      "ബടട": 2200,
      "മനയ": 2201,
      "ബര‍ഡ": 2202,
      "എങങന": 2203,
      "നപപ": 2204,
      "പപകകന‍": 2205,
      "സര‍വസ": 2206,
      "കലമററ": 2207,
      "ടചച": 2208,
      "പരഥ": 2209,
      "പപര": 2210,
      "തയയറകക": 2211,
      "ആതമഹ": 2212,
      "29": 2213,
      "ലവ": 2214,
      "നറഞഞ": 2215,
      "പര‍ണ": 2216,
      "അടയനതര": 2217,
      "35": 2218,
      "പരചര": 2219,
      "നയമന": 2220,
      "റഹ": 2221,
      "മര‍ചച": 2222,
      "ജകക": 2223,
      "ലഡ": 2224,
      "ആന": 2225,
      "വയപര": 2226,
      "രജയങങള": 2227,
      "അകക": 2228,
      "എനനതണ": 2229,
      "ചത": 2230,
      "കഴച": 2231,
      "വയല‍": 2232,
      "സററർ": 2233,
      "വമര‍ശ": 2234,
      "ങകയ": 2235,
      "വശഷ": 2236,
      "ഔദയഗ": 2237,
      "ധര‍": 2238,
      "സമഹക": 2239,
      "ജര‍ജ": 2240,
      "ചർനന": 2241,
      "മനററ": 2242,
      "ലഭചചത": 2243,
      "ശഷമണ": 2244,
      "പരചയ": 2245,
      "ചചളള": 2246,
      "ടയല‍": 2247,
      "വളളയ": 2248,
      "ഞങങള": 2249,
      "വയതയസത": 2250,
      "പഷ": 2251,
      "ദർശ": 2252,
      "പമപ": 2253,
      "ഇവരട": 2254,
      "തൻ": 2255,
      "ജലലയല‍": 2256,
      "ര‍തതയ": 2257,
      "പലപപഴ": 2258,
      "വസതര": 2259,
      "കര‍ഷ": 2260,
      "നകത": 2261,
      "പരദശതത": 2262,
      "മലലതത": 2263,
      "അധകതര‍": 2264,
      "എകസ": 2265,
      "സനദര‍ശ": 2266,
      "ബസന": 2267,
      "കരന": 2268,
      "ര​": 2269,
      "കണടട": 2270,
      "മന‍പ": 2271,
      "അകരമ": 2272,
      "കരയങങള‍": 2273,
      "ഡസബ": 2274,
      "കടയണ": 2275,
      "സണ": 2276,
      "ബ‌": 2277,
      "മമയ": 2278,
      "വയവസഥ": 2279,
      "സരനദര": 2280,
      "നങങൾകക": 2281,
      "ടടളള": 2282,
      "അനകല": 2283,
      "മഴവന‍": 2284,
      "er": 2285,
      "തങകള": 2286,
      "സഹകരണ": 2287,
      "വദന": 2288,
      "നനര": 2289,
      "an": 2290,
      "മദര": 2291,
      "രഖപപടതത": 2292,
      "തലകക": 2293,
      "ടരപ": 2294,
      "199": 2295,
      "യന": 2296,
      "ഴഞഞ": 2297,
      "തതകകറ": 2298,
      "നതതവതത": 2299,
      "നതകകള‍": 2300,
      "കർകക": 2301,
      "ശനയ": 2302,
      "സഭവതത": 2303,
      "പരവർതതകക": 2304,
      "അനയ": 2305,
      "എഎല‍": 2306,
      "രവ": 2307,
      "കരന‍": 2308,
      "ഭര‍തത": 2309,
      "ബഗല": 2310,
      "ഏര‍": 2311,
      "നഗരസ": 2312,
      "ഗസററ": 2313,
      "ഫഡ": 2314,
      "ടടളളത": 2315,
      "സങകത": 2316,
      "വടയ": 2317,
      "ത​": 2318,
      "സഷയല‍": 2319,
      "പസതക": 2320,
      "45": 2321,
      "അതത": 2322,
      "ഇറങങ": 2323,
      "പരഫ": 2324,
      "കൽ": 2325,
      "ചലല": 2326,
      "നതതവതതല‍": 2327,
      "നങങള‍": 2328,
      "80": 2329,
      "ചയയനനത": 2330,
      "അവള": 2331,
      "പങകട": 2332,
      "പരഖയപചച": 2333,
      "100": 2334,
      "അതതര": 2335,
      "ങങട": 2336,
      "കണടവര": 2337,
      "ഡള": 2338,
      "ദകഷണ": 2339,
      "ഫർ": 2340,
      "റന": 2341,
      "കസല": 2342,
      "70": 2343,
      "റദദ": 2344,
      "തരഞഞടപപല‍": 2345,
      "യ​": 2346,
      "കകകയയര": 2347,
      "നടന‍": 2348,
      "ജഡ": 2349,
      "മഷ": 2350,
      "2020": 2351,
      "കഷണന‍": 2352,
      "തളവ": 2353,
      "ടവററ": 2354,
      "എനനവട": 2355,
      "നഷണ": 2356,
      "തരവ": 2357,
      "ഓണ‍": 2358,
      "‌മനറ": 2359,
      "ജനയ": 2360,
      "സഭവതതല‍": 2361,
      "പരഷ": 2362,
      "വയസ": 2363,
      "എതതകക": 2364,
      "എനനവർ": 2365,
      "ഫററ": 2366,
      "മനഷ": 2367,
      "കനതത": 2368,
      "കരമകക": 2369,
      "ങങളട": 2370,
      "31": 2371,
      "റടട": 2372,
      "കകപപട": 2373,
      "കലപതക": 2374,
      "ഴ‌": 2375,
      "പലളള": 2376,
      "ജനവര": 2377,
      "ഇറകക": 2378,
      "ഓടട": 2379,
      "വസത": 2380,
      "ആതമഹതയ": 2381,
      "സഘടപപ": 2382,
      "ഫ‌": 2383,
      "യന‍": 2384,
      "വളപപടതത": 2385,
      "നരയണ": 2386,
      "വലയരതത": 2387,
      "കരതത": 2388,
      "രമശ": 2389,
      "വചചത": 2390,
      "ചചലല": 2391,
      "കലലപപടട": 2392,
      "കറപപ": 2393,
      "അപപ": 2394,
      "എഴത": 2395,
      "നതടട": 2396,
      "ചലവ": 2397,
      "ചയ‌": 2398,
      "സ‌കള": 2399,
      "മഞഞ": 2400,
      "വവരങങള‍": 2401,
      "ജലയ": 2402,
      "സഭയ": 2403,
      "മൻപ": 2404,
      "സഹചരയതതല‍": 2405,
      "ഗർ": 2406,
      "കതര": 2407,
      "വരമന": 2408,
      "re": 2409,
      "മകന‍": 2410,
      "ഇദദഹ": 2411,
      "രഹസയ": 2412,
      "യണററ": 2413,
      "കടടട": 2414,
      "പരതകള": 2415,
      "വദയത": 2416,
      "സതത": 2417,
      "ഇതര": 2418,
      "മനതരയ": 2419,
      "സതരകള": 2420,
      "അനതരഷടര": 2421,
      "പകസ": 2422,
      "ലയത": 2423,
      "പ​": 2424,
      "തമഴ‌": 2425,
      "ങങളലകക": 2426,
      "പതതനതടട": 2427,
      "കടതയല‍": 2428,
      "സഥപകക": 2429,
      "പരവശന": 2430,
      "ഉപകഷ": 2431,
      "റഫ": 2432,
      "എപ": 2433,
      "അജ": 2434,
      "ആദ": 2435,
      "ഹദ": 2436,
      "ഇയള": 2437,
      "ശരമചച": 2438,
      "ശനത": 2439,
      "ഇനതയയല‍": 2440,
      "വക‌സ": 2441,
      "പർതതയ": 2442,
      "മഡകക": 2443,
      "റണ‍സ": 2444,
      "ആരയ": 2445,
      "കകപപടട": 2446,
      "സപററ": 2447,
      "ഡണ": 2448,
      "ഉടമ": 2449,
      "ഒരള": 2450,
      "തടയണ": 2451,
      "പലററ": 2452,
      "സമമത": 2453,
      "അവയ": 2454,
      "ഞയറ": 2455,
      "പരകക": 2456,
      "നടപടകള‍": 2457,
      "ഓട": 2458,
      "സൻ": 2459,
      "സറററ": 2460,
      "പപററ": 2461,
      "മതസരകക": 2462,
      "ദലപ": 2463,
      "മതസയ": 2464,
      "സമധന": 2465,
      "നടപടയ": 2466,
      "സവനതമകക": 2467,
      "കടബതത": 2468,
      "ഉദയഗസഥര": 2469,
      "സഥനര‍തഥ": 2470,
      "എനനവരണ": 2471,
      "ആദയമ": 2472,
      "കളതത": 2473,
      "രകകണ": 2474,
      "തതനതര": 2475,
      "2019": 2476,
      "പങകവചച": 2477,
      "തൽ": 2478,
      "ചയയണ": 2479,
      "സഷടകക": 2480,
      "പടതത": 2481,
      "വയവസയ": 2482,
      "ശബദ": 2483,
      "മൽ": 2484,
      "മരള": 2485,
      "കളകക": 2486,
      "ഭരത": 2487,
      "ഗസ": 2488,
      "മപള": 2489,
      "അതയ": 2490,
      "പരതസനധ": 2491,
      "പയത": 2492,
      "നർദശ": 2493,
      "ആപപ": 2494,
      "ഏജ": 2495,
      "ഓർ": 2496,
      "ർചച": 2497,
      "പരയഗ": 2498,
      "ആശപതരയ": 2499,
      "പപഴണ": 2500,
      "ഞടട": 2501,
      "അൽ": 2502,
      "നയല": 2503,
      "പറഞഞര": 2504,
      "സ‌കള‍": 2505,
      "മണടയര": 2506,
      "അവര‍കക": 2507,
      "വരയളള": 2508,
      "​ൻറ": 2509,
      "കകഷ": 2510,
      "മററളള": 2511,
      "ലക‌സ": 2512,
      "വടടല": 2513,
      "ഉൾപപട": 2514,
      "മർശ": 2515,
      "ഉടന‍": 2516,
      "ലൻ": 2517,
      "ഹകക": 2518,
      "ചര‍തത": 2519,
      "നകഷപ": 2520,
      "ഹദര": 2521,
      "അഭമഖ": 2522,
      "പരവര‍തതകര‍": 2523,
      "ചര‍": 2524,
      "വയണ": 2525,
      "ചമപ": 2526,
      "ജനധ": 2527,
      "നര‍മണ": 2528,
      "ഷജ": 2529,
      "ചയയൻ": 2530,
      "എള": 2531,
      "പലല": 2532,
      "മനസസലകക": 2533,
      "എയര‍": 2534,
      "ജനധപതയ": 2535,
      "ആരഭകക": 2536,
      "ചചതര": 2537,
      "പരശലന": 2538,
      "എഎല‍എ": 2539,
      "പടടക": 2540,
      "വയപന": 2541,
      "സമഹയ": 2542,
      "സസ‌": 2543,
      "യടയ": 2544,
      "കവറ": 2545,
      "ധരണ": 2546,
      "ഓണ": 2547,
      "സൽ": 2548,
      "കഷമ": 2549,
      "ഉനനത": 2550,
      "ശവ": 2551,
      "പരട": 2552,
      "പറതതറകക": 2553,
      "എഴതത": 2554,
      "തലല": 2555,
      "നര‍മമ": 2556,
      "വസററ": 2557,
      "നല‍കകനന": 2558,
      "തടടപപ": 2559,
      "കസററഡ": 2560,
      "വമയ": 2561,
      "തരക": 2562,
      "ബധന": 2563,
      "മധവ": 2564,
      "മകകള": 2565,
      "ഉളളത": 2566,
      "ആതമ": 2567,
      "ചരണ": 2568,
      "സവദ": 2569,
      "പടകട": 2570,
      "ഫസബകക": 2571,
      "ഖതത": 2572,
      "ഫൺ": 2573,
      "ആശയ": 2574,
      "പനര": 2575,
      "റമ": 2576,
      "നനതനട": 2577,
      "തമമലളള": 2578,
      "ഫബര": 2579,
      "നടടല": 2580,
      "നഷധ": 2581,
      "ര‍ഷ": 2582,
      "ദരനത": 2583,
      "നശചയ": 2584,
      "ഫട": 2585,
      "നകകറ": 2586,
      "അനസര": 2587,
      "അവതരപപകക": 2588,
      "നഗരസഭ": 2589,
      "ടടണ": 2590,
      "ജഗര": 2591,
      "ഡകടര‍": 2592,
      "ഗതഗത": 2593,
      "ഉറപപകക": 2594,
      "റഷ": 2595,
      "തകർ": 2596,
      "നരകഷ": 2597,
      "ല‍നനന": 2598,
      "മണ‌": 2599,
      "നതതട": 2600,
      "ടല": 2601,
      "വണമനന": 2602,
      "ആന‍ഡ": 2603,
      "ഔദയഗക": 2604,
      "കസര‍കട": 2605,
      "യഎസ": 2606,
      "പരളയ": 2607,
      "കകനനതന": 2608,
      "അഫ": 2609,
      "ങങളമ": 2610,
      "അററ": 2611,
      "രപയണ": 2612,
      "രഗതതതത": 2613,
      "നല‍കനനത": 2614,
      "സഘതത": 2615,
      "ആകഷ": 2616,
      "ലലല": 2617,
      "കയപററ": 2618,
      "സനനധയ": 2619,
      "കഴചച": 2620,
      "സഥരകര": 2621,
      "സപപര‍": 2622,
      "അറഞഞ": 2623,
      "ദല‍": 2624,
      "ബൾ": 2625,
      "പരവര‍തതകര": 2626,
      "പകര‍": 2627,
      "സർവ": 2628,
      "ബദധമടട": 2629,
      "ജയര": 2630,
      "മകര": 2631,
      "വയഴ": 2632,
      "വഗദന": 2633,
      "സസ‌കര": 2634,
      "ലകള": 2635,
      "സകള": 2636,
      "അടകകമളള": 2637,
      "ഇയള‍": 2638,
      "രജന": 2639,
      "‌റ": 2640,
      "സഹതയ": 2641,
      "ഹർ": 2642,
      "കകരണ": 2643,
      "ജസററസ": 2644,
      "പരഹരകക": 2645,
      "നർദദശ": 2646,
      "ഭരപകഷ": 2647,
      "ഐഎ": 2648,
      "വര‍ഷതത": 2649,
      "അദധയ": 2650,
      "ദലല": 2651,
      "കർഷ": 2652,
      "പരശസത": 2653,
      "പരഗ": 2654,
      "ഘട": 2655,
      "നടപപലകക": 2656,
      "ജര‍": 2657,
      "ലകഷണ": 2658,
      "തതയണ": 2659,
      "പരമര‍ശ": 2660,
      "ഭരയയ": 2661,
      "കപ": 2662,
      "കര‍ഡ": 2663,
      "ടടലലനന": 2664,
      "കയല": 2665,
      "90": 2666,
      "പയനറ": 2667,
      "ടടണടനന": 2668,
      "ഉണടകക": 2669,
      "കഞച": 2670,
      "സ‌നഹ": 2671,
      "തരവനനതപരതത": 2672,
      "ഒകടബ": 2673,
      "മകകയ": 2674,
      "ബഗളര": 2675,
      "സധന": 2676,
      "കലവസഥ": 2677,
      "2018": 2678,
      "‌ല": 2679,
      "സഹതതകക": 2680,
      "ഇഗലണട": 2681,
      "വദയർതഥ": 2682,
      "രപപ": 2683,
      "അമരകകന‍": 2684,
      "സഥരകരചചത": 2685,
      "അറയചചത": 2686,
      "അഡവ": 2687,
      "ശബരമല": 2688,
      "ഉയർനന": 2689,
      "പണ‍കടടയ": 2690,
      "സഥരകരചച": 2691,
      "അർ": 2692,
      "എക‌സ": 2693,
      "ചവവ": 2694,
      "സഷയ": 2695,
      "2017": 2696,
      "മഞച": 2697,
      "ഓഫസര‍": 2698,
      "മകള‍": 2699,
      "തയല": 2700,
      "വശദകരണ": 2701,
      "പരധനയ": 2702,
      "അരങങ": 2703,
      "സനററ": 2704,
      "തശര‍": 2705,
      "സവകരചച": 2706,
      "കകടതത": 2707,
      "മതലയ": 2708,
      "വലലവള": 2709,
      "അയയ": 2710,
      "നരധന": 2711,
      "ദര‍ശന": 2712,
      "2016": 2713,
      "നതതന": 2714,
      "സമഹതത": 2715,
      "മർകക": 2716,
      "പണ‍കടട": 2717,
      "നർമമ": 2718,
      "സമർ": 2719,
      "റഷയ": 2720,
      "സസററ": 2721,
      "കണ‍ഗര": 2722,
      "ഗനധയ": 2723,
      "ഒട": 2724,
      "ഉതതരവദ": 2725,
      "പരഖയപന": 2726,
      "ആളകള": 2727,
      "സവതനതരയ": 2728,
      "ഫബരവര": 2729,
      "48": 2730,
      "അതല‍": 2731,
      "ഐകയ": 2732,
      "ഗതത": 2733,
      "നവസ": 2734,
      "മലനയ": 2735,
      "നമഷ": 2736,
      "സചച": 2737,
      "പറപപട": 2738,
      "ഹത": 2739,
      "ണല‍": 2740,
      "കരയതതല‍": 2741,
      "ഫസററ": 2742,
      "ചലചചതര": 2743,
      "നയന": 2744,
      "നടടല‍": 2745,
      "നലവ": 2746,
      "നല‍കന‍": 2747,
      "ഭര‍തതവ": 2748,
      "ഫരകക": 2749,
      "മനദ": 2750,
      "മമമടട": 2751,
      "75": 2752,
      "പണട": 2753,
      "ഷനല‍": 2754,
      "ഡവ": 2755,
      "പറയനന": 2756,
      "കവയ": 2757,
      "അനധ": 2758,
      "എങങ": 2759,
      "ഗജറ": 2760,
      "ദഷ": 2761,
      "നഞച": 2762,
      "ആവശയപപട": 2763,
      "ഒടട": 2764,
      "ഘടക": 2765,
      "സവര": 2766,
      "സവമ": 2767,
      "ബരഞച": 2768,
      "ഭരവഹ": 2769,
      "ഒരപട": 2770,
      "കമമഷന‍": 2771,
      "ഉനനയ": 2772,
      "ഉണടയ": 2773,
      "ടരകക": 2774,
      "പണയ": 2775,
      "അഗകര": 2776,
      "com": 2777,
      "ബന‍": 2778,
      "പരസര": 2779,
      "പരസയ": 2780,
      "കകണടത": 2781,
      "ജബ": 2782,
      "കക​": 2783,
      "കശമര": 2784,
      "ധരള": 2785,
      "തടഞഞ": 2786,
      "നമര": 2787,
      "അടട": 2788,
      "നലണ": 2789,
      "കസടതത": 2790,
      "മഖലയല‍": 2791,
      "ആശവസ": 2792,
      "നനതല‍": 2793,
      "സഹതത": 2794,
      "ചയയക": 2795,
      "ജൺ": 2796,
      "യലതത": 2797,
      "യഗതതല‍": 2798,
      "എളപപ": 2799,
      "ഇലകട": 2800,
      "രതയല‍": 2801,
      "നയളള": 2802,
      "നര‍ബനധ": 2803,
      "തരചചറയ": 2804,
      "ഏഷയ": 2805,
      "ബലല": 2806,
      "ടകകററ": 2807,
      "ടടഫ": 2808,
      "ഉനന": 2809,
      "സഥപ": 2810,
      "പനതണയ": 2811,
      "മടയ": 2812,
      "മബല‍": 2813,
      "ഖല": 2814,
      "മസ‌ല": 2815,
      "ദബയ": 2816,
      "ഷഠ": 2817,
      "അഴമത": 2818,
      "മണടനന": 2819,
      "36": 2820,
      "ഇവർ": 2821,
      "ഇതരയ": 2822,
      "നയക": 2823,
      "34": 2824,
      "കണചച": 2825,
      "മകത": 2826,
      "ഏതങകല": 2827,
      "സപരകടത": 2828,
      "‌സന": 2829,
      "സദയ": 2830,
      "ഒരകകല": 2831,
      "സവഗത": 2832,
      "പടടനന": 2833,
      "www": 2834,
      "ചമതല": 2835,
      "നഴ": 2836,
      "മങങ": 2837,
      "വപല": 2838,
      "മതര‍നന": 2839,
      "ഉയര‍തത": 2840,
      "പരതത": 2841,
      "പരദ": 2842,
      "99": 2843,
      "ങങളടയ": 2844,
      "വയനട": 2845,
      "മഴയ": 2846,
      "500": 2847,
      "റവ": 2848,
      "പടകക": 2849,
      "2021": 2850,
      "നന‍": 2851,
      "സവശഷ": 2852,
      "സനഹ": 2853,
      "പകനന": 2854,
      "മണത": 2855,
      "വളളയഴച": 2856,
      "ഉള‍പപടയളള": 2857,
      "ഹരയ": 2858,
      "ആദയതത": 2859,
      "ഇങങ": 2860,
      "അഗകരകക": 2861,
      "മഖലയല": 2862,
      "തങകളഴച": 2863,
      "എതരയ": 2864,
      "ശമപള": 2865,
      "ഉമമന‍": 2866,
      "മറകക": 2867,
      "എനതണ": 2868,
      "വജല": 2869,
      "മരട": 2870,
      "ഒമപത": 2871,
      "തതനറയ": 2872,
      "സഷട": 2873,
      "വപപ": 2874,
      "അറബ": 2875,
      "പശ": 2876,
      "സഥന‍": 2877,
      "പറനന": 2878,
      "ഞങങള‍": 2879,
      "പകനനത": 2880,
      "ലഭയമകക": 2881,
      "തദദശ": 2882,
      "ദബ": 2883,
      "രഗകള": 2884,
      "തനനണ": 2885,
      "സററല‍": 2886,
      "ഡണ‍": 2887,
      "അചച": 2888,
      "ശര‍": 2889,
      "ദവസതത": 2890,
      "ജൻ": 2891,
      "പരതകര": 2892,
      "യഎ": 2893,
      "പരകഷണ": 2894,
      "പപപ": 2895,
      "കണന‍": 2896,
      "യലട": 2897,
      "റലസ": 2898,
      "വമണ": 2899,
      "ചനനതതല": 2900,
      "റങങയ": 2901,
      "സവപന": 2902,
      "വനനതണ": 2903,
      "വഷയതതല‍": 2904,
      "ഉണ": 2905,
      "കയടട": 2906,
      "സമദയ": 2907,
      "റകള": 2908,
      "മഴവൻ": 2909,
      "നല‍കയര": 2910,
      "സണ‍": 2911,
      "ഹര‍ജ": 2912,
      "മർചച": 2913,
      "എക‌": 2914,
      "ര‍ഡ": 2915,
      "യരനന": 2916,
      "കതതരകക": 2917,
      "ഉപഭകത": 2918,
      "ഞയറഴച": 2919,
      "ബളവ": 2920,
      "ഹള": 2921,
      "ലലനനണ": 2922,
      "വയല": 2923,
      "ഭഗയ": 2924,
      "സദധ": 2925,
      "ജയല‍": 2926,
      "സബഐ": 2927,
      "എങകല": 2928,
      "കനത": 2929,
      "നനതനളള": 2930,
      "കതതയ": 2931,
      "ഞങങൾ": 2932,
      "am": 2933,
      "ലകകപപ": 2934,
      "സഘര‍ഷ": 2935,
      "അനവദകക": 2936,
      "നടൻ": 2937,
      "വർധ": 2938,
      "പപകകകയ": 2939,
      "പരഖയപകക": 2940,
      "സ‌ല": 2941,
      "ആവശ": 2942,
      "വര‍ഡ": 2943,
      "പറതതറങങ": 2944,
      "വജയന‍": 2945,
      "ഐപ": 2946,
      "യവകക": 2947,
      "മറഞഞ": 2948,
      "കയറയ": 2949,
      "വലചച": 2950,
      "ഓൺ": 2951,
      "മഖതത": 2952,
      "തമമല‍": 2953,
      "മതവ": 2954,
      "കരയങങള": 2955,
      "പകന‍": 2956,
      "കമപനയ": 2957,
      "ആൻഡ": 2958,
      "സഹചരയതത": 2959,
      "പരതവ": 2960,
      "ആവശയമയ": 2961,
      "നൽകയത": 2962,
      "സക": 2963,
      "നടന": 2964,
      "47": 2965,
      "on": 2966,
      "പനയ": 2967,
      "ലകകളള": 2968,
      "st": 2969,
      "എഡ": 2970,
      "ടകകന‍": 2971,
      "വഹകക": 2972,
      "37": 2973,
      "ജഗ": 2974,
      "വങ": 2975,
      "പലകക": 2976,
      "സമതയ": 2977,
      "മഹൻ": 2978,
      "ര‍ണ": 2979,
      "സഥനര‍ഥ": 2980,
      "പനനലയണ": 2981,
      "വഭഗതത": 2982,
      "ഏകദശ": 2983,
      "നയലല": 2984,
      "ഇഗലഷ": 2985,
      "കണണര": 2986,
      "ആകരമ": 2987,
      "ഇസല": 2988,
      "ടടഫകകററ": 2989,
      "കവര‍": 2990,
      "കണണർ": 2991,
      "അയചച": 2992,
      "നയര‍": 2993,
      "പയടട": 2994,
      "കറവ": 2995,
      "ഏതന": 2996,
      "പറമപ": 2997,
      "അതനല‍": 2998,
      "ഏററടതത": 2999,
      "പരഗണകക": 3000,
      "65": 3001,
      "ജമമ": 3002,
      "പര‍ല": 3003,
      "മര‍ഗ": 3004,
      "മനഹര": 3005,
      "യണനന": 3006,
      "നടടസ": 3007,
      "32": 3008,
      "ഇരകക": 3009,
      "മതപത": 3010,
      "കകര‍കക": 3011,
      "അയള": 3012,
      "ആഗള": 3013,
      "at": 3014,
      "ചയര‍മന‍": 3015,
      "ഞഞറ": 3016,
      "ബരദ": 3017,
      "സർവസ": 3018,
      "പരഥമക": 3019,
      "പരസത": 3020,
      "അടങങയ": 3021,
      "നഷടപപടട": 3022,
      "നസ": 3023,
      "ബചച": 3024,
      "പരദശക": 3025,
      "സനദരയ": 3026,
      "ചനസ": 3027,
      "തടര‍നനണ": 3028,
      "വടടത": 3029,
      "2015": 3030,
      "സനക": 3031,
      "ഏററമടട": 3032,
      "തഴല‍": 3033,
      "രതത": 3034,
      "ഷനറ": 3035,
      "കണനനത": 3036,
      "ഉപകരണ": 3037,
      "ബങ": 3038,
      "സഹദ": 3039,
      "അകല": 3040,
      "നരധ": 3041,
      "നരനതര": 3042,
      "ശബരമലയ": 3043,
      "നങങള‍കക": 3044,
      "യക": 3045,
      "ഒരങങ": 3046,
      "ജനമ": 3047,
      "എസഎസ": 3048,
      "തർകക": 3049,
      "മനനത": 3050,
      "പരയമളള": 3051,
      "ആര‍ടട": 3052,
      "വരവ": 3053,
      "വര‍ദധ": 3054,
      "വശയപപടട": 3055,
      "2014": 3056,
      "ഇനറര‍": 3057,
      "പരകത": 3058,
      "വരല‍": 3059,
      "ധകര": 3060,
      "ജലലയ": 3061,
      "അകകദ": 3062,
      "യൻ": 3063,
      "കരറ": 3064,
      "നയഡൽഹ": 3065,
      "നരങങ": 3066,
      "ചയതടടണട": 3067,
      "ശനയഴച": 3068,
      "ഉണണ": 3069,
      "കളണട": 3070,
      "ഹജരകക": 3071,
      "ഡയറകടര‍": 3072,
      "ല​": 3073,
      "ററവ": 3074,
      "38": 3075,
      "കലകക": 3076,
      "വണ‍": 3077,
      "ചലവഴ": 3078,
      "ബർഡ": 3079,
      "തയറററ": 3080,
      "തങങള‍": 3081,
      "രയകക": 3082,
      "ടവറററ": 3083,
      "ഹരണ": 3084,
      "ങങളലട": 3085,
      "പരതസനധയ": 3086,
      "ജഗരത": 3087,
      "പനനല‍": 3088,
      "മഡല": 3089,
      "tha": 3090,
      "പ‌": 3091,
      "പരധയ": 3092,
      "ഹദരബദ": 3093,
      "നടയത": 3094,
      "വയകതയ": 3095,
      "തളയകക": 3096,
      "നതക": 3097,
      "യതരകകര": 3098,
      "പരസ‌കര": 3099,
      "തരങങള": 3100,
      "നതരയ": 3101,
      "ആരഭചച": 3102,
      "ചകതസയ": 3103,
      "പള‍": 3104,
      "പപകകൻ": 3105,
      "ജനങങള‍": 3106,
      "ആശങക": 3107,
      "കടല": 3108,
      "നര‍മമണ": 3109,
      "ഭദഗത": 3110,
      "അഹമമദ": 3111,
      "നര‍ണയ": 3112,
      "രധ": 3113,
      "പലസന": 3114,
      "നങങ": 3115,
      "തതലതത": 3116,
      "കടങങ": 3117,
      "അബ": 3118,
      "തതതല": 3119,
      "198": 3120,
      "കരൻ": 3121,
      "സവർണ": 3122,
      "ചയർ": 3123,
      "ശരല": 3124,
      "var": 3125,
      "ഏർ": 3126,
      "സമമളനതതല‍": 3127,
      "ചർതത": 3128,
      "കകലതത": 3129,
      "ജവന": 3130,
      "കടടചചര‍തത": 3131,
      "ഉല‍": 3132,
      "മങകല": 3133,
      "എനനയര": 3134,
      "ലഗക": 3135,
      "ഭരണകട": 3136,
      "ചയതരകക": 3137,
      "വനനര": 3138,
      "വഭവ": 3139,
      "or": 3140,
      "ബജററ": 3141,
      "പഥ": 3142,
      "പര‍ടടയ": 3143,
      "ജപപ": 3144,
      "ലസററ": 3145,
      "കതവ": 3146,
      "കര‍തത": 3147,
      "സതരയ": 3148,
      "പരസതവ": 3149,
      "നലകക": 3150,
      "ആര‍കക": 3151,
      "ഇവയ": 3152,
      "എമമ": 3153,
      "ലജ": 3154,
      "വരട": 3155,
      "സനദർശ": 3156,
      "പപകകനനത": 3157,
      "രജസററര‍": 3158,
      "കളലട": 3159,
      "ഉള‍പപടതത": 3160,
      "വശതത": 3161,
      "കകനനതനന": 3162,
      "ഷര‍": 3163,
      "ഹഡ": 3164,
      "സവകര": 3165,
      "സങകതക": 3166,
      "തയളള": 3167,
      "കഷന‍": 3168,
      "നടതതന‍": 3169,
      "ബഞച": 3170,
      "നയഗ": 3171,
      "നയസ": 3172,
      "33": 3173,
      "പരജ": 3174,
      "കരനയ": 3175,
      "സററഷന": 3176,
      "ഉദയഗസഥര‍": 3177,
      "ഹല": 3178,
      "കഷര": 3179,
      "ചക": 3180,
      "മഗല": 3181,
      "ഗര‍ഭ": 3182,
      "സമര‍പപചച": 3183,
      "കയമറ": 3184,
      "പർണ": 3185,
      "ഇള": 3186,
      "ഗവര‍ണ": 3187,
      "എഞച": 3188,
      "ഭകഷയ": 3189,
      "പരശ‌": 3190,
      "ചതരങങള": 3191,
      "വദയർഥ": 3192,
      "റയല‍വ": 3193,
      "മധയമങങള": 3194,
      "ഗൾ": 3195,
      "ബതത": 3196,
      "പരസപര": 3197,
      "അവര‍ഡ": 3198,
      "ബരടടഷ": 3199,
      "ഉൽ": 3200,
      "അതകണട": 3201,
      "വളയ": 3202,
      "രമയ": 3203,
      "ടയല": 3204,
      "vartha": 3205,
      "വനറ": 3206,
      "ചകര": 3207,
      "സങക": 3208,
      "പഞചയ": 3209,
      "കകനനലല": 3210,
      "ഇളവ": 3211,
      "ഡറ": 3212,
      "പരവര‍തതനങങള‍": 3213,
      "തടര‍ചച": 3214,
      "പരതയകഷ": 3215,
      "മതസരതതല‍": 3216,
      "നററണട": 3217,
      "വക‌സന‍": 3218,
      "55": 3219,
      "വചരണ": 3220,
      "​​​​": 3221,
      "ആയധ": 3222,
      "തരകകഥ": 3223,
      "തവരവദ": 3224,
      "തത​": 3225,
      "ചങങ": 3226,
      "ഡൺ": 3227,
      "റൺ": 3228,
      "കളലല": 3229,
      "കരസത": 3230,
      "യണവഴ": 3231,
      "പരസഡൻറ": 3232,
      "രണടമതത": 3233,
      "എഴതയ": 3234,
      "അതനട": 3235,
      "അധയകഷത": 3236,
      "സററനറ": 3237,
      "ഓണ‍ലന‍": 3238,
      "ദമപത": 3239,
      "രക": 3240,
      "ബധനഴച": 3241,
      "ടങങ": 3242,
      "വമര‍": 3243,
      "എയർ": 3244,
      "ട​": 3245,
      "ഷനല": 3246,
      "അനപ": 3247,
      "നടതതയര": 3248,
      "പരമവധ": 3249,
      "ജമ": 3250,
      "സനദര": 3251,
      "കർഷക": 3252,
      "ചതരങങള‍": 3253,
      "ഇവര‍കക": 3254,
      "നന​": 3255,
      "കടടകള‍കക": 3256,
      "മണടക": 3257,
      "ടണ‍": 3258,
      "നലവര": 3259,
      "കമമഷണ": 3260,
      "ആദര": 3261,
      "ജലകക": 3262,
      "ഉണടയത": 3263,
      "മകവ": 3264,
      "മനതരസഭ": 3265,
      "സവദശയയ": 3266,
      "പരശധനയ": 3267,
      "ചമ": 3268,
      "ഹല‍": 3269,
      "നടക": 3270,
      "ദരഹ": 3271,
      "ജനങങള‍കക": 3272,
      "തരഞഞടതത": 3273,
      "പരധനമനതരയ": 3274,
      "വയഴഴച": 3275,
      "വമര‍ശന": 3276,
      "ഓഹര": 3277,
      "ഇററ": 3278,
      "ലബ": 3279,
      "വർഷതത": 3280,
      "കവര": 3281,
      "49": 3282,
      "യള": 3283,
      "ധനക": 3284,
      "എനതങകല": 3285,
      "അവധ": 3286,
      "രഗബധ": 3287,
      "സയകത": 3288,
      "കണ‍സല": 3289,
      "സനധ": 3290,
      "ടററ": 3291,
      "ഫ‌ള": 3292,
      "സവതത": 3293,
      "കഠ": 3294,
      "ജതത": 3295,
      "ബസസ": 3296,
      "മങകല‍": 3297,
      "കളലണ": 3298,
      "തടർ": 3299,
      "ദവയ": 3300,
      "നധയ": 3301,
      "തതറ": 3302,
      "രയല‍": 3303,
      "ഇനനതത": 3304,
      "ണ​": 3305,
      "മനസലകക": 3306,
      "അവളട": 3307,
      "കഡ": 3308,
      "കലപപടതത": 3309,
      "ള‍ഡ": 3310,
      "വർദധ": 3311,
      "മകൻ": 3312,
      "സഹചരയതതലണ": 3313,
      "മഷണ": 3314,
      "ഹററ": 3315,
      "തരതതലളള": 3316,
      "ചചരനന": 3317,
      "പപയ": 3318,
      "ചയയകയ": 3319,
      "ചതരതതല": 3320,
      "സമമര‍": 3321,
      "ഏര‍പപടതത": 3322,
      "കഫ": 3323,
      "തമസകക": 3324,
      "ഇസ‌ല": 3325,
      "തതയത": 3326,
      "പപടടര": 3327,
      "ധരന‍": 3328,
      "തണട": 3329,
      "തതലയ": 3330,
      "സജനയ": 3331,
      "തര‍": 3332,
      "ഭർതത": 3333,
      "മണഡ": 3334,
      "ആളകള‍": 3335,
      "സഘടപപകക": 3336,
      "ആഴ": 3337,
      "നനറ": 3338,
      "ഇനതയകക": 3339,
      "പരമപരയ": 3340,
      "ഗവഷണ": 3341,
      "റഞച": 3342,
      "സപകക": 3343,
      "ഇതണ": 3344,
      "46": 3345,
      "ചനല": 3346,
      "ഏററടകക": 3347,
      "വങകല": 3348,
      "ചചതനന": 3349,
      "പടടണ": 3350,
      "പരവശയ": 3351,
      "ബധകക": 3352,
      "സജജ": 3353,
      "39": 3354,
      "ഏപരല‍": 3355,
      "കണടടട": 3356,
      "കയകക": 3357,
      "കലവധ": 3358,
      "മനദണഡ": 3359,
      "ആകരമകക": 3360,
      "പതകക": 3361,
      "പരസദ": 3362,
      "ആയരകക": 3363,
      "ശരരതത": 3364,
      "പരസതവന": 3365,
      "ഉര": 3366,
      "കലശലയ": 3367,
      "ഗരനഥ": 3368,
      "ബനധകകള": 3369,
      "പകർ": 3370,
      "നതതവതതലളള": 3371,
      "ലധക": 3372,
      "വകനനര": 3373,
      "രജഷ": 3374,
      "ഉദഹരണ": 3375,
      "സഘടനയ": 3376,
      "ചവവഴച": 3377,
      "ഓഗസററ": 3378,
      "ഒരള‍": 3379,
      "അവസനകക": 3380,
      "ബളവഡ": 3381,
      "അവർകക": 3382,
      "പപടകയ": 3383,
      "നഷണല‍": 3384,
      "ഗപല": 3385,
      "നകള": 3386,
      "തതനണ": 3387,
      "ശഭ": 3388,
      "കവല": 3389,
      "di": 3390,
      "ഗഢ": 3391,
      "എട": 3392,
      "കലഘടട": 3393,
      "അലലങകല‍": 3394,
      "അമരകകയ": 3395,
      "വര‍ഗ": 3396,
      "സഥതയ": 3397,
      "ഒനനണ": 3398,
      "പരഷന": 3399,
      "സരഭ": 3400,
      "ഉടൻ": 3401,
      "ടറസ": 3402,
      "വബ": 3403,
      "സശ": 3404,
      "കണടളള": 3405,
      "ചടങങല‍": 3406,
      "പകന": 3407,
      "വടടലകക": 3408,
      "കതയമയ": 3409,
      "ഇടതപകഷ": 3410,
      "തതനന": 3411,
      "തതയകക": 3412,
      "അഭമന": 3413,
      "ധർ": 3414,
      "രണ‍": 3415,
      "വഴയ": 3416,
      "തതവ": 3417,
      "ണടകക": 3418,
      "റയല": 3419,
      "അപമന": 3420,
      "രഹത": 3421,
      "ലക‌സഭ": 3422,
      "le": 3423,
      "സദദ": 3424,
      "നനതട": 3425,
      "ഞഞത": 3426,
      "ദരത": 3427,
      "കലയണ": 3428,
      "ഭഷക": 3429,
      "വയകതമയ": 3430,
      "യഥര‍തഥ": 3431,
      "അനധകത": 3432,
      "അവന": 3433,
      "സസകര": 3434,
      "ഒരമ": 3435,
      "പരശല": 3436,
      "ചനദരന‍": 3437,
      "പരശ‌നങങള‍": 3438,
      "ഉദദശ": 3439,
      "എപപഴ": 3440,
      "അറയപപട": 3441,
      "യഎഇ": 3442,
      "കസകള": 3443,
      "ങങളലണ": 3444,
      "തനനയ": 3445,
      "പരതകഷകക": 3446,
      "ആഴച": 3447,
      "മണ‍": 3448,
      "ദവപ": 3449,
      "പരകഷഭ": 3450,
      "ഒതത": 3451,
      "ടണ": 3452,
      "കടടകക": 3453,
      "മററര‍": 3454,
      "വനദര": 3455,
      "കകനനതണ": 3456,
      "മരണതത": 3457,
      "കകള‍കക": 3458,
      "പരര": 3459,
      "ചതരതതല‍": 3460,
      "എനനവയണ": 3461,
      "വയപകമ": 3462,
      "ഇരയ": 3463,
      "ഗപ": 3464,
      "കടയര": 3465,
      "കഷണൻ": 3466,
      "സ​ററ": 3467,
      "കടവളള": 3468,
      "മതസരതത": 3469,
      "ചയ‌ത": 3470,
      "ജണ": 3471,
      "ർഡ": 3472,
      "ങങളലല": 3473,
      "ജവന‍": 3474,
      "കനദരതത": 3475,
      "ഉറകക": 3476,
      "ഡഎ": 3477,
      "കര‍ശന": 3478,
      "റപപര‍ടടകള‍": 3479,
      "ഓവറ": 3480,
      "നടടകര": 3481,
      "ആദവസ": 3482,
      "യഗതത": 3483,
      "കവത": 3484,
      "മകളല‍": 3485,
      "മതതത": 3486,
      "പരസഥത": 3487,
      "പഡന": 3488,
      "ലഫ": 3489,
      "സററഡയ": 3490,
      "സനമയല‍": 3491,
      "ഇനദര": 3492,
      "കരയയ": 3493,
      "ഉയർ": 3494,
      "ബസനസ": 3495,
      "വരയണ": 3496,
      "തരചചറഞഞ": 3497,
      "ജനത": 3498,
      "പരതകരകക": 3499,
      "നമപര‍": 3500,
      "വജ": 3501,
      "കടടര": 3502,
      "ശരത": 3503,
      "മലന": 3504,
      "വണണ": 3505,
      "ne": 3506,
      "ശദധ": 3507,
      "പശചതതലതതല‍": 3508,
      "നയനപകഷ": 3509,
      "നർബനധ": 3510,
      "അവഗണ": 3511,
      "കടബഗ": 3512,
      "തയയറയ": 3513,
      "പര‍ണമയ": 3514,
      "ഞന": 3515,
      "നനവര‍കക": 3516,
      "ഒടവല‍": 3517,
      "തർ": 3518,
      "സററല": 3519,
      "നകകയ": 3520,
      "പചചകകറ": 3521,
      "സപഎമമ": 3522,
      "ടറ": 3523,
      "ജർ": 3524,
      "കടടകള‍": 3525,
      "മസതത": 3526,
      "പദന": 3527,
      "ബൻ": 3528,
      "ലയല‍": 3529,
      "ഭവന": 3530,
      "ആണനന": 3531,
      "ഏജന‍സ": 3532,
      "നസര": 3533,
      "സള": 3534,
      "കരമന": 3535,
      "മയല‍": 3536,
      "കയക": 3537,
      "ദവസങങള": 3538,
      "സമമളനതത": 3539,
      "ആനറണ": 3540,
      "ഡസബര‍": 3541,
      "ഏപര": 3542,
      "കതതര": 3543,
      "അഗങങള": 3544,
      "നൽകനന": 3545,
      "നമമള‍": 3546,
      "നല‍കന": 3547,
      "പതപപ": 3548,
      "ലകഷമ": 3549,
      "കതയമ": 3550,
      "ആരഭചചത": 3551,
      "തകര‍നന": 3552,
      "ധരയ": 3553,
      "പദവ": 3554,
      "വരമനന": 3555,
      "കണടര": 3556,
      "ബനദ": 3557,
      "യതന": 3558,
      "44": 3559,
      "തമപ": 3560,
      "യലളള": 3561,
      "ഈടകക": 3562,
      "കയളള": 3563,
      "ഉപദശ": 3564,
      "അടസഥനതതല‍": 3565,
      "തഴലളകള": 3566,
      "ആസതര": 3567,
      "മടതത": 3568,
      "സറയ": 3569,
      "കണകകല": 3570,
      "ഇലലതത": 3571,
      "റള": 3572,
      "നനതര": 3573,
      "വളര‍ചച": 3574,
      "സസണ": 3575,
      "കകരത": 3576,
      "പരസഡണട": 3577,
      "സമരതത": 3578,
      "കനറ": 3579,
      "ഗഹ": 3580,
      "വങങയ": 3581,
      "കഴപപ": 3582,
      "സഥനർതഥ": 3583,
      "ബനധന": 3584,
      "ഒകക": 3585,
      "ബലത": 3586,
      "കമർ": 3587,
      "സഞ": 3588,
      "ടരഫ": 3589,
      "കളചച": 3590,
      "മനനല": 3591,
      "അളവ": 3592,
      "കതതകക": 3593,
      "തകകള": 3594,
      "ഴചച": 3595,
      "പപചചര": 3596,
      "റയൽ": 3597,
      "ഓസ‌ടര": 3598,
      "ഡന": 3599,
      "ബഷപപ": 3600,
      "ഉതതര‍": 3601,
      "വടടര‍": 3602,
      "കരണതത": 3603,
      "ആരധകര": 3604,
      "ചചറ": 3605,
      "പണഡ": 3606,
      "തരമനചചത": 3607,
      "സനമയല": 3608,
      "ഓള": 3609,
      "മടര": 3610,
      "പരയപപടട": 3611,
      "ആശപതരയല": 3612,
      "ഡകടർ": 3613,
      "ജയസ": 3614,
      "സനല‍": 3615,
      "പര‍ണണ": 3616,
      "ദള": 3617,
      "കലപ": 3618,
      "ചമതലയ": 3619,
      "ശങക": 3620,
      "എതര‍": 3621,
      "ad": 3622,
      "ഇഞച": 3623,
      "കരര‍": 3624,
      "അനതയ": 3625,
      "ഇനധന": 3626,
      "ഇതതരതതല‍": 3627,
      "ജഡജ": 3628,
      "ശകതയ": 3629,
      "ഹബ": 3630,
      "തഴല": 3631,
      "പഞചബ": 3632,
      "മഷന‍": 3633,
      "സഹതതകകള": 3634,
      "ഓപപ": 3635,
      "കജ": 3636,
      "ഫല‍": 3637,
      "പരവർതതകർ": 3638,
      "സവധയകന‍": 3639,
      "ജനന": 3640,
      "വഭ": 3641,
      "ധരകക": 3642,
      "​ഗ": 3643,
      "പരഡ": 3644,
      "ചചനന": 3645,
      "കഎസ": 3646,
      "ചചങകല": 3647,
      "വക‌സന": 3648,
      "സഘടനകള": 3649,
      "ic": 3650,
      "വയര": 3651,
      "തടസസ": 3652,
      "ചയയന": 3653,
      "വചചണ": 3654,
      "തളയ": 3655,
      "ഹറ": 3656,
      "മററതത": 3657,
      "മര‍ദദ": 3658,
      "സമപന": 3659,
      "തണനന": 3660,
      "മനസക": 3661,
      "തമഴ‌നട": 3662,
      "ആള‍": 3663,
      "പനതര": 3664,
      "ടടയ": 3665,
      "ഗരമപ": 3666,
      "പരതസഹ": 3667,
      "കടതല": 3668,
      "തലങക": 3669,
      "സഥപനങങള": 3670,
      "ജർജ": 3671,
      "സയയ": 3672,
      "ദര‍ഘ": 3673,
      "ഫന": 3674,
      "ബൽ": 3675,
      "കകസ": 3676,
      "റയദ": 3677,
      "അനവഷണതത": 3678,
      "അമരകകൻ": 3679,
      "ഉപയ": 3680,
      "കരണമക": 3681,
      "ജനകയ": 3682,
      "ബജപകക": 3683,
      "പലര‍ചച": 3684,
      "ദരതശ": 3685,
      "മയണസററ": 3686,
      "മപഴണ": 3687,
      "അഥ": 3688,
      "കങ": 3689,
      "തടസ": 3690,
      "ദധര": 3691,
      "നർമമണ": 3692,
      "അടതതട": 3693,
      "എല‍ഡഎഫ": 3694,
      "സസരകകകയയര": 3695,
      "പരവതത": 3696,
      "വരജ": 3697,
      "ദരതശവസ": 3698,
      "ഉണടയരകക": 3699,
      "വഹനതത": 3700,
      "കവശ": 3701,
      "പരദശല": 3702,
      "ഡപയടട": 3703,
      "വലപപ": 3704,
      "നല‍കമനന": 3705,
      "പടചചടതത": 3706,
      "വദശകരയ": 3707,
      "ഞഞടപപ": 3708,
      "മസജ": 3709,
      "ഞചര": 3710,
      "പടടകയ": 3711,
      "ജജ": 3712,
      "വയയ": 3713,
      "കഴവ": 3714,
      "പരതകള‍": 3715,
      "കർഡ": 3716,
      "വമർശ": 3717,
      "ർണണ": 3718,
      "ആശങകയ": 3719,
      "പരധനമയ": 3720,
      "കകനനവര": 3721,
      "നവബര‍": 3722,
      "നൽകനനത": 3723,
      "ഏകദന": 3724,
      "as": 3725,
      "ഉദയ": 3726,
      "ആര‍ടടകകള‍": 3727,
      "42": 3728,
      "ദതയ": 3729,
      "മച": 3730,
      "സമഗര": 3731,
      "സപഐ": 3732,
      "അഭപരയപപടട": 3733,
      "ഉപപ": 3734,
      "റവനയ": 3735,
      "പര‍വവ": 3736,
      "പരതയല‍": 3737,
      "ചചല": 3738,
      "വലത": 3739,
      "ടരള": 3740,
      "പരയജന": 3741,
      "പരഖയപചചത": 3742,
      "56": 3743,
      "സകഷയ": 3744,
      "ആകരമണതത": 3745,
      "കവറനറ": 3746,
      "ബരകക": 3747,
      "‌സററ": 3748,
      "പലതത": 3749,
      "കസകള‍": 3750,
      "en": 3751,
      "അസസ": 3752,
      "തപ": 3753,
      "നടടകര‍": 3754,
      "എഫ‌": 3755,
      "ദനതത": 3756,
      "ലകസ": 3757,
      "ഭരണഘടന": 3758,
      "സകരടടറയററ": 3759,
      "അതയത": 3760,
      "ഡര‍": 3761,
      "പരഹസ": 3762,
      "ജവകക": 3763,
      "കണ‍സല‍": 3764,
      "ബലതസഗ": 3765,
      "അടപപ": 3766,
      "യശ": 3767,
      "തയകക": 3768,
      "ചദകക": 3769,
      "അബദബ": 3770,
      "ങങളണട": 3771,
      "തടവ": 3772,
      "ബഗലദശ": 3773,
      "മകളല": 3774,
      "കസർ": 3775,
      "പപര‍": 3776,
      "വളരയ": 3777,
      "പളളയ": 3778,
      "വദശതത": 3779,
      "തതനക": 3780,
      "കററപപടതത": 3781,
      "കമമററയ": 3782,
      "ഇസരയ": 3783,
      "മറനന": 3784,
      "ഓസ‌ടരലയ": 3785,
      "സൺ": 3786,
      "മപട": 3787,
      "കരസതയ": 3788,
      "കരയതത": 3789,
      "തതതന": 3790,
      "അസഖ": 3791,
      "അസസയഷന‍": 3792,
      "വകഷ": 3793,
      "മഡയയല‍": 3794,
      "അധകതര": 3795,
      "ഭഷയ": 3796,
      "പപനന": 3797,
      "അഭഭഷക": 3798,
      "വളളതത": 3799,
      "എനനറയ": 3800,
      "വസതത": 3801,
      "തതയരകക": 3802,
      "സമപര‍കക": 3803,
      "197": 3804,
      "ശകതമ": 3805,
      "വരകയണ": 3806,
      "പടഞഞറ": 3807,
      "കടടകൾകക": 3808,
      "തതലധക": 3809,
      "ചലര‍": 3810,
      "ബലക": 3811,
      "കസററസ": 3812,
      "വയതയസ": 3813,
      "ഇപപഴതത": 3814,
      "ഗരമപഞ": 3815,
      "രതനന": 3816,
      "കഞഞന": 3817,
      "അബദല‍": 3818,
      "ഖര‍": 3819,
      "ദതത": 3820,
      "കണനന": 3821,
      "ഇകകരയതതല‍": 3822,
      "കലമററര‍": 3823,
      "ആകശ": 3824,
      "എഎ": 3825,
      "പരഭഷണ": 3826,
      "കലബബ": 3827,
      "മനഷയര": 3828,
      "ആധനക": 3829,
      "പര‍തതയകക": 3830,
      "മങക": 3831,
      "പരചച": 3832,
      "നയസല": 3833,
      "മണകകര‍": 3834,
      "നല‍കയടടണട": 3835,
      "കഴയലല": 3836,
      "ജകകബ": 3837,
      "കസററഡയല": 3838,
      "ഒടടറ": 3839,
      "ഉയർതത": 3840,
      "ഹകകടതയ": 3841,
      "ay": 3842,
      "അതട": 3843,
      "ഇകക": 3844,
      "തകയ": 3845,
      "പര‍ലമനറ": 3846,
      "മയയ": 3847,
      "ലയരകക": 3848,
      "മഹരഷടരയ": 3849,
      "കമനറ": 3850,
      "go": 3851,
      "കകൾകക": 3852,
      "പകൻ": 3853,
      "മലയളകള": 3854,
      "സചപപകക": 3855,
      "വർഡ": 3856,
      "പറയന‍": 3857,
      "പന‍വലകക": 3858,
      "57": 3859,
      "ആഹ": 3860,
      "വമലല": 3861,
      "നനനന": 3862,
      "നയകന": 3863,
      "കകറചച": 3864,
      "അധകതർ": 3865,
      "വഷയതത": 3866,
      "ഷയല‍": 3867,
      "കറതത": 3868,
      "അധയകഷന‍": 3869,
      "എഡററ": 3870,
      "വര‍ണണ": 3871,
      "ഭഷണപപടതത": 3872,
      "ആനകലയ": 3873,
      "യമയ": 3874,
      "വറയ": 3875,
      "യഗയത": 3876,
      "അവതരപപചച": 3877,
      "സററററയടട": 3878,
      "പരല": 3879,
      "സററക": 3880,
      "ർഷ": 3881,
      "എനനടട": 3882,
      "വയര‍": 3883,
      "മനനറ": 3884,
      "കളജല‍": 3885,
      "നല‍കകയ": 3886,
      "വളപപട": 3887,
      "യഥർതഥ": 3888,
      "കയടടവ": 3889,
      "ഊര‍ജ": 3890,
      "മഞജ": 3891,
      "കകൾ": 3892,
      "രയല": 3893,
      "സധയതയണട": 3894,
      "അതഭത": 3895,
      "അഭനനദ": 3896,
      "പരതയയ": 3897,
      "ആകട": 3898,
      "തരഗ": 3899,
      "ചയയമനന": 3900,
      "നർമണ": 3901,
      "പറതതവടട": 3902,
      "എഎൽ": 3903,
      "ഇരപത": 3904,
      "സഫററ": 3905,
      "രഷ": 3906,
      "പരനന": 3907,
      "പങകള": 3908,
      "ജഷ": 3909,
      "ജയല": 3910,
      "പർണണ": 3911,
      "പഠകക": 3912,
      "മററർ": 3913,
      "മര‍ടട": 3914,
      "കകളയ": 3915,
      "ശസതരകരയ": 3916,
      "ഗജറതത": 3917,
      "റഷന‍": 3918,
      "തയറ": 3919,
      "മനനററ": 3920,
      "നതന": 3921,
      "സപപർ": 3922,
      "കളജല": 3923,
      "അതപല": 3924,
      "നവമ": 3925,
      "വഭഗതതല‍": 3926,
      "തശർ": 3927,
      "തതടയണ": 3928,
      "ലകകട": 3929,
      "പര‍ശ": 3930,
      "2013": 3931,
      "സകള‍": 3932,
      "അതകരമ": 3933,
      "ഗരവ": 3934,
      "പരതഫല": 3935,
      "കൺഗര": 3936,
      "68": 3937,
      "അണയ": 3938,
      "വകസൻ": 3939,
      "മറയല‍": 3940,
      "ആഗരഹകക": 3941,
      "പൽ": 3942,
      "വശദധ": 3943,
      "അനതമ": 3944,
      "ഭർതതവ": 3945,
      "കലബ": 3946,
      "സമപദ": 3947,
      "ചമതത": 3948,
      "കയര": 3949,
      "മനടട": 3950,
      "അതല": 3951,
      "അയള‍": 3952,
      "നമമൾ": 3953,
      "അടസഥനതതലണ": 3954,
      "ഫള": 3955,
      "ചതരമണ": 3956,
      "കകനനവനന": 3957,
      "മടങങയ": 3958,
      "ആനനദ": 3959,
      "വശല": 3960,
      "ദർശന": 3961,
      "ഹജര": 3962,
      "ആചര": 3963,
      "ആബല": 3964,
      "ഘത": 3965,
      "സഭവന": 3966,
      "സഭവകക": 3967,
      "സസഥനങങള": 3968,
      "ഘടടതതല‍": 3969,
      "ദല‍ഹ": 3970,
      "മകകള‍": 3971,
      "വർണ": 3972,
      "പനനടട": 3973,
      "സനനദധ": 3974,
      "ഉചചയകക": 3975,
      "ഡപപ": 3976,
      "സമർടട": 3977,
      "ജനചച": 3978,
      "ദശയങങള‍": 3979,
      "നനലലനന": 3980,
      "എനനങങന": 3981,
      "കര‍ണടക": 3982,
      "വജയൻ": 3983,
      "റഷദ": 3984,
      "ചതത": 3985,
      "യടതത": 3986,
      "നയമകക": 3987,
      "സഘടപപചച": 3988,
      "അഖ": 3989,
      "ജയലല‍": 3990,
      "വണടയണ": 3991,
      "വഹനങങള": 3992,
      "ലകതതല": 3993,
      "പരദശങങള": 3994,
      "റദദകക": 3995,
      "67": 3996,
      "എനതയ": 3997,
      "ഡനറ": 3998,
      "റ​": 3999,
      "കണൻ": 4000,
      "ചയയപപടട": 4001,
      "സര‍വവ": 4002,
      "പർടടയ": 4003,
      "ചയയണമനന": 4004,
      "ഇടട": 4005,
      "വജഞ": 4006,
      "ന‍പത": 4007,
      "വജലന‍സ": 4008,
      "രഘ": 4009,
      "രവനദര": 4010,
      "കവററ": 4011,
      "കടയററ": 4012,
      "300": 4013,
      "ശർ": 4014,
      "പരതജഞ": 4015,
      "സരത": 4016,
      "ഡകടറ": 4017,
      "മണടകക": 4018,
      "നളളല‍": 4019,
      "നൽകൻ": 4020,
      "സഹയതതട": 4021,
      "വസതകകള": 4022,
      "ഗല‍": 4023,
      "റകള‍": 4024,
      "ഉണടനന": 4025,
      "അറയചചര": 4026,
      "അയകക": 4027,
      "എനനവര‍കക": 4028,
      "ഫട‌": 4029,
      "ഔടട": 4030,
      "ഖന": 4031,
      "റബ": 4032,
      "പരമർശ": 4033,
      "റയഡ": 4034,
      "ഇരപ": 4035,
      "കമനന": 4036,
      "രഭ": 4037,
      "ജലലകളല‍": 4038,
      "നഗമന": 4039,
      "അദ": 4040,
      "ഖന‍": 4041,
      "നനണടനന": 4042,
      "ഇദദഹതത": 4043,
      "അഥവ": 4044,
      "ശകതമകക": 4045,
      "ചചവനന": 4046,
      "കണടവനന": 4047,
      "ധനമനതര": 4048,
      "ജലലകളല": 4049,
      "ശവശ": 4050,
      "ചചച": 4051,
      "കടകകന‍": 4052,
      "പലത": 4053,
      "പറതതറങങയ": 4054,
      "നടപടകള": 4055,
      "ളളതണ": 4056,
      "ഉൾപപടതത": 4057,
      "യവവന": 4058,
      "ഏരയ": 4059,
      "വടടയ": 4060,
      "2011": 4061,
      "66": 4062,
      "സബര‍": 4063,
      "തടങങയവര‍": 4064,
      "ആഭ": 4065,
      "ചര‍ജ": 4066,
      "it": 4067,
      "വദനയ": 4068,
      "മണടയത": 4069,
      "വപണയല‍": 4070,
      "പയട": 4071,
      "പലസല‍": 4072,
      "ദവസങങളല‍": 4073,
      "ആശരയ": 4074,
      "അവസനപപകക": 4075,
      "തററയ": 4076,
      "മണയട": 4077,
      "പരതഭ": 4078,
      "ടയയര": 4079,
      "ഒനനര": 4080,
      "മധയമങങളല‍": 4081,
      "മഡയയ": 4082,
      "നലവലളള": 4083,
      "കടപപ": 4084,
      "ടരഷറ": 4085,
      "മളളത": 4086,
      "റജ": 4087,
      "തയട": 4088,
      "തകര‍കക": 4089,
      "ഉൾപപടയളള": 4090,
      "മററളളവര": 4091,
      "അര‍ജ": 4092,
      "ണടതണട": 4093,
      "യനതര": 4094,
      "പരമറ": 4095,
      "അ​": 4096,
      "തന‍റ": 4097,
      "അതവ": 4098,
      "സ‌പ": 4099,
      "അറസററല‍": 4100,
      "പരശധനയകക": 4101,
      "പരചരകക": 4102,
      "തകര‍തത": 4103,
      "ധനയ": 4104,
      "സററയ": 4105,
      "സവപ": 4106,
      "വളതത": 4107,
      "ആരപകക": 4108,
      "വഷന‍": 4109,
      "ഫരഞച": 4110,
      "ആകക": 4111,
      "വബ‌": 4112,
      "2000": 4113,
      "ലകള‍": 4114,
      "ലഹര": 4115,
      "സററഫ": 4116,
      "നലലതണ": 4117,
      "അധയപക": 4118,
      "ശരയയ": 4119,
      "അചഛന": 4120,
      "41": 4121,
      "ചഴ": 4122,
      "ചച​": 4123,
      "നര‍മകക": 4124,
      "നടടലകക": 4125,
      "സമനമയ": 4126,
      "പരശ‌നങങള": 4127,
      "ഉറങങ": 4128,
      "നനവര‍": 4129,
      "കടയയ": 4130,
      "സററകള": 4131,
      "കറവണ": 4132,
      "നവലല": 4133,
      "കടകകഴച": 4134,
      "അറസററലയ": 4135,
      "ആകഷപ": 4136,
      "ഴലള": 4137,
      "പലസ‌": 4138,
      "പരഗമകക": 4139,
      "ആനധ": 4140,
      "വതതയ": 4141,
      "പരവർതതകര": 4142,
      "ടരയന": 4143,
      "സരനദരന‍": 4144,
      "റഗ": 4145,
      "നനതയ": 4146,
      "നയമതത": 4147,
      "സനധയ": 4148,
      "സര‍ടടഫകകററ": 4149,
      "വര‍ഷമ": 4150,
      "ശതമനവ": 4151,
      "മയകകമരനന": 4152,
      "പഞചയതതല": 4153,
      "നല‍കണമനന": 4154,
      "ഇടയകക": 4155,
      "ത‌": 4156,
      "ഫനല": 4157,
      "മമന": 4158,
      "റങക": 4159,
      "വയർ": 4160,
      "വഴച": 4161,
      "തരചചട": 4162,
      "അനനതത": 4163,
      "പൺകടടയ": 4164,
      "എബ": 4165,
      "ന‍റയ": 4166,
      "ലലങകല‍": 4167,
      "തലതതല‍": 4168,
      "എവട": 4169,
      "തകചച": 4170,
      "വഴതത": 4171,
      "സസ‌കരക": 4172,
      "52": 4173,
      "പളയ": 4174,
      "ചചതന": 4175,
      "ചയയകയയര": 4176,
      "റകകര‍ഡ": 4177,
      "ഉറചച": 4178,
      "ഗർഭ": 4179,
      "ഉപതര": 4180,
      "കകരകക": 4181,
      "ചചടടലല": 4182,
      "ചദയതത": 4183,
      "പരശധകക": 4184,
      "ഗററ": 4185,
      "യഗയ": 4186,
      "സഥൻ": 4187,
      "യപ": 4188,
      "കകപപ": 4189,
      "പരര‍തഥ": 4190,
      "സഥപചച": 4191,
      "വസ‌": 4192,
      "ഇനതയയകക": 4193,
      "അപകടതത": 4194,
      "അപകടതതല‍": 4195,
      "വൾ": 4196,
      "സപരകട": 4197,
      "കക‌": 4198,
      "കഴല‍": 4199,
      "കരയമയ": 4200,
      "നർണയ": 4201,
      "ch": 4202,
      "ചവട": 4203,
      "റങ": 4204,
      "പപന‍": 4205,
      "നനത​": 4206,
      "നടയണ": 4207,
      "അതര‍തത": 4208,
      "സമദര": 4209,
      "വലണ": 4210,
      "കനദരസര‍കകര‍": 4211,
      "ഫലപരദ": 4212,
      "പപറമപ": 4213,
      "ദർഘ": 4214,
      "കണകകലടതത": 4215,
      "ആഹവന": 4216,
      "58": 4217,
      "രസ": 4218,
      "കലപത": 4219,
      "രജയങങളല‍": 4220,
      "പരവര‍തതകര‍കക": 4221,
      "പരവശപപ": 4222,
      "പരപടയ": 4223,
      "മധര": 4224,
      "പരഭ": 4225,
      "തരചചടയ": 4226,
      "ഓര‍മമ": 4227,
      "അതയവശയ": 4228,
      "ഉപതരഞഞടപപ": 4229,
      "150": 4230,
      "അമരകകയല": 4231,
      "സവശഷത": 4232,
      "റൺസ": 4233,
      "പരധനപപടട": 4234,
      "64": 4235,
      "നയത": 4236,
      "മററയ": 4237,
      "പരസകര": 4238,
      "പർവവ": 4239,
      "ഭരഭഗ": 4240,
      "കലയള": 4241,
      "സമര‍പപകക": 4242,
      "കഹ": 4243,
      "ണമനനണ": 4244,
      "അവർഡ": 4245,
      "കഞചവ": 4246,
      "ഗഢല": 4247,
      "കവടട": 4248,
      "നനദയ": 4249,
      "മർഗ": 4250,
      "ഓൺലൻ": 4251,
      "ലമ": 4252,
      "തതലയര": 4253,
      "വര‍ധന": 4254,
      "മനഷയവകശ": 4255,
      "തര‍തത": 4256,
      "റയണ": 4257,
      "വടകള": 4258,
      "അവൾ": 4259,
      "കകരന": 4260,
      "ഇടപടട": 4261,
      "ഓഫസർ": 4262,
      "മള‍": 4263,
      "വരന‍": 4264,
      "നയർ": 4265,
      "റയര": 4266,
      "മഡല‍": 4267,
      "സഞചരകക": 4268,
      "സമമര‍ദദ": 4269,
      "യദവ": 4270,
      "സകൾ": 4271,
      "പരമത": 4272,
      "പര‍വ": 4273,
      "മധയമങങള‍": 4274,
      "പളചച": 4275,
      "എല": 4276,
      "കമണ": 4277,
      "മല‍സര": 4278,
      "ആസഥന": 4279,
      "ചചവര": 4280,
      "മതക": 4281,
      "മതർനന": 4282,
      "ചചതണ": 4283,
      "വടടടപപ": 4284,
      "കനദരമനതര": 4285,
      "വയകതമകകയര": 4286,
      "ടമന": 4287,
      "സലല": 4288,
      "69": 4289,
      "കടറററ": 4290,
      "പതതന‍": 4291,
      "കയപററന‍": 4292,
      "ളകക": 4293,
      "കടവ": 4294,
      "പലന": 4295,
      "യത‌": 4296,
      "രജയനതര": 4297,
      "kvartha": 4298,
      "ആസവദ": 4299,
      "വകതവ": 4300,
      "പരഷ‌": 4301,
      "തയറകക": 4302,
      "ഇതനക": 4303,
      "ഇബരഹ": 4304,
      "‌കകതര": 4305,
      "അതഥ": 4306,
      "2012": 4307,
      "ഉമമന‍ചണട": 4308,
      "43": 4309,
      "രകകര": 4310,
      "ജവതതതല": 4311,
      "നടതതകയ": 4312,
      "അപപള‍": 4313,
      "ഐഎസ": 4314,
      "റലയ": 4315,
      "വര‍ഷക": 4316,
      "കമമഷൻ": 4317,
      "നലലത": 4318,
      "പരക": 4319,
      "പരകരമണ": 4320,
      "നല‍കകനനത": 4321,
      "സമനറ": 4322,
      "വചചര": 4323,
      "ഫയ‌സ": 4324,
      "വണത": 4325,
      "ദവസമണ": 4326,
      "രകഷപപട": 4327,
      "അസവ": 4328,
      "ടരസററ": 4329,
      "സര‍കകറ": 4330,
      "യതരയ": 4331,
      "തതനളളല‍": 4332,
      "അടടമറ": 4333,
      "പരസവ": 4334,
      "വനമയ": 4335,
      "ആററ": 4336,
      "തസത": 4337,
      "കലപപടതതയ": 4338,
      "പപഴകക": 4339,
      "കകയളള": 4340,
      "30ന": 4341,
      "ജക": 4342,
      "പസ‌": 4343,
      "പരസഥന": 4344,
      "കഴകകന‍": 4345,
      "എസപ": 4346,
      "ചര‍കക": 4347,
      "ജയലല": 4348,
      "ടകകൻ": 4349,
      "പരയങക": 4350,
      "അവള‍": 4351,
      "സതരകള‍": 4352,
      "പപറതത": 4353,
      "പഡപപചച": 4354,
      "യറപപ": 4355,
      "കളനന": 4356,
      "വരതതയ": 4357,
      "നകകര": 4358,
      "തലസഥന": 4359,
      "വവരങങള": 4360,
      "തകകള‍": 4361,
      "കൺസല": 4362,
      "വഹനങങള‍": 4363,
      "വര‍തതകള‍": 4364,
      "ഡരവര‍": 4365,
      "പടരള‍": 4366,
      "വളരയധക": 4367,
      "നഴ‌സ": 4368,
      "കണകകകക": 4369,
      "ആരധകര‍": 4370,
      "ദകഷണഫരകക": 4371,
      "അബബ": 4372,
      "ഷഫ": 4373,
      "പലനറ": 4374,
      "ഒകടബര‍": 4375,
      "ആഭമഖയ": 4376,
      "400": 4377,
      "രഞജ": 4378,
      "കററപതര": 4379,
      "പരജയപപടട": 4380,
      "അനയജയ": 4381,
      "സവരണ": 4382,
      "കരസ": 4383,
      "നലനര‍തത": 4384,
      "വചചരകക": 4385,
      "മദരവകയ": 4386,
      "സണയ": 4387,
      "കണതയ": 4388,
      "അതണ": 4389,
      "കരണമ": 4390,
      "വനനരകക": 4391,
      "പടടകയല‍": 4392,
      "തതതനല‍": 4393,
      "നമമള": 4394,
      "ഗവഷ": 4395,
      "വമപ": 4396,
      "സമമർ": 4397,
      "അസസററനറ": 4398,
      "ഴചയണ": 4399,
      "ഷകക": 4400,
      "ഹൽ": 4401,
      "യതണ": 4402,
      "നകകള‍": 4403,
      "രജയങങളല": 4404,
      "ഉയര‍": 4405,
      "ജവതതതല‍": 4406,
      "51": 4407,
      "ഫയര‍": 4408,
      "പശചമ": 4409,
      "ഫതത": 4410,
      "ഭദര": 4411,
      "കരബരഞച": 4412,
      "പരശനത": 4413,
      "അഭഭഷ": 4414,
      "നലലര": 4415,
      "ഇയൾ": 4416,
      "യറപയ": 4417,
      "മനതരലയതത": 4418,
      "ലകസഭ": 4419,
      "മസസ": 4420,
      "വയമ": 4421,
      "പടലല": 4422,
      "പഴകക": 4423,
      "ആയരകകണ": 4424,
      "രഖകള‍": 4425,
      "ഇന‍ഡ": 4426,
      "ഡസ‌": 4427,
      "മഗള": 4428,
      "വള‍": 4429,
      "പണണ": 4430,
      "നല‍കയരകക": 4431,
      "ആതമവശവസ": 4432,
      "ഗരമപഞചയതത": 4433,
      "അകഷര": 4434,
      "യര‍": 4435,
      "കണട‌": 4436,
      "വഴകക": 4437,
      "സഭഷണ": 4438,
      "അഫഗന": 4439,
      "ഹവ": 4440,
      "സവകരചചത": 4441,
      "കണഠ": 4442,
      "അറവ": 4443,
      "പൺകടട": 4444,
      "ബരയ": 4445,
      "മഠ": 4446,
      "കലലപപടടത": 4447,
      "റപപര‍ടടല‍": 4448,
      "ഡജററ": 4449,
      "അനതരകഷ": 4450,
      "നഡ": 4451,
      "നബ": 4452,
      "നശന": 4453,
      "കറകക": 4454,
      "ഉപയഗചച": 4455,
      "തളഞഞ": 4456,
      "തടടകകണട": 4457,
      "ഉതതരവദതത": 4458,
      "നനളള": 4459,
      "കഷൻ": 4460,
      "കഴതത": 4461,
      "വശവസകക": 4462,
      "ബനധപപട": 4463,
      "വറത": 4464,
      "യയരകക": 4465,
      "കകണകക": 4466,
      "ഇറങങയ": 4467,
      "നകതത": 4468,
      "മസററര‍": 4469,
      "ലകകടട": 4470,
      "മണടയ": 4471,
      "പഠചച": 4472,
      "അവതരപപ": 4473,
      "അക": 4474,
      "അകര": 4475,
      "ഖണഡ": 4476,
      "തപപ": 4477,
      "ദധന": 4478,
      "തരതമയ": 4479,
      "ററണട": 4480,
      "ജലലകള": 4481,
      "ദന‍": 4482,
      "കഷട": 4483,
      "അതറററ": 4484,
      "പടടയ": 4485,
      "ഏതണട": 4486,
      "വപണയ": 4487,
      "ഇററലയ": 4488,
      "ധണ": 4489,
      "റചച": 4490,
      "ശതര": 4491,
      "തരതതല‍": 4492,
      "വയകതത": 4493,
      "സററകള‍": 4494,
      "അത‌": 4495,
      "ചതരകരണ": 4496,
      "വനനതട": 4497,
      "മദധയ": 4498,
      "ഹസന‍": 4499,
      "സശയകക": 4500,
      "ഐസ": 4501,
      "രതരയ": 4502,
      "ഷബ": 4503,
      "നടതതനനത": 4504,
      "ലകഷയമടട": 4505,
      "അകതത": 4506,
      "ഭരകക": 4507,
      "മശര": 4508,
      "സ‌കര‍": 4509,
      "വണടത": 4510,
      "നണനന": 4511,
      "പരദര‍ശ": 4512,
      "സവല‍": 4513,
      "‌സല‍": 4514,
      "അധയകഷന": 4515,
      "ഴത": 4516,
      "തരമണ": 4517,
      "പലചച": 4518,
      "പപകകന": 4519,
      "മഹരഷടര": 4520,
      "മന‍റ": 4521,
      "സഭവചചത": 4522,
      "രപകരകക": 4523,
      "ഓഫസല‍": 4524,
      "ഒടവ": 4525,
      "ചവ": 4526,
      "ഡന‍": 4527,
      "വഴയണ": 4528,
      "ഫലപപ": 4529,
      "ഒഴവ": 4530,
      "യവകകള": 4531,
      "എഎൽഎ": 4532,
      "ബണട": 4533,
      "സപത": 4534,
      "ഹമദ": 4535,
      "കഷതരതത": 4536,
      "വണടയ": 4537,
      "ദനതതല‍": 4538,
      "അറബയ": 4539,
      "നവബർ": 4540,
      "ലഖന": 4541,
      "കനനത": 4542,
      "തനയ": 4543,
      "പൾ": 4544,
      "ലകര": 4545,
      "ഹസററ": 4546,
      "വണജയ": 4547,
      "വഴങങ": 4548,
      "de": 4549,
      "വഞച": 4550,
      "മനനടയ": 4551,
      "എലലവര‍കക": 4552,
      "തടങങയവ": 4553,
      "എഎസ": 4554,
      "ൽനനന": 4555,
      "പതററണട": 4556,
      "വനളള": 4557,
      "വണടയളള": 4558,
      "തല‍പരയ": 4559,
      "കലമററർ": 4560,
      "ചയർമൻ": 4561,
      "മതതയ": 4562,
      "ർതതയ": 4563,
      "പപകകക": 4564,
      "നടതതൻ": 4565,
      "അറയകക": 4566,
      "നയയര‍കക": 4567,
      "കമപനകള": 4568,
      "വയപനതത": 4569,
      "77": 4570,
      "ർ​": 4571,
      "കരടട": 4572,
      "കനദരങങള": 4573,
      "വവഹതത": 4574,
      "നഗരതതല": 4575,
      "ഇനറർ": 4576,
      "ഈസററ": 4577,
      "ഐട": 4578,
      "മസത": 4579,
      "രജസററർ": 4580,
      "പടയലയത": 4581,
      "പരമപ": 4582,
      "എനനങങ": 4583,
      "ഗരററ": 4584,
      "പരതദന": 4585,
      "മന‍ഡ": 4586,
      "അടസഥനതത": 4587,
      "ഇവടതത": 4588,
      "is": 4589,
      "ചചപപള‍": 4590,
      "സ‌കളല‍": 4591,
      "കരണയ": 4592,
      "കകറണട": 4593,
      "മയനന": 4594,
      "ഒരൾ": 4595,
      "തരചചതത": 4596,
      "62": 4597,
      "ആഴചയ": 4598,
      "ണടയത": 4599,
      "തടര‍": 4600,
      "ള‍പപട": 4601,
      "പസററവ": 4602,
      "ശരദധയല‍": 4603,
      "തരഞഞടകകപപടട": 4604,
      "നതതടര‍നന": 4605,
      "ഗവര‍ണര‍": 4606,
      "അഭവ": 4607,
      "ഡയല": 4608,
      "തചച": 4609,
      "ങങളനന": 4610,
      "പയല‍": 4611,
      "ആവശയമണ": 4612,
      "പനതല‍": 4613,
      "തതടര‍നന": 4614,
      "ഇവടയ": 4615,
      "85": 4616,
      "തരയളള": 4617,
      "റഡല‍": 4618,
      "ശഖരകക": 4619,
      "കപസസ": 4620,
      "എക‌സസ": 4621,
      "ബഷ": 4622,
      "പരദശങങളല": 4623,
      "ഗരതരമയ": 4624,
      "അള": 4625,
      "ലന‍ഡ": 4626,
      "ഇതലല": 4627,
      "സ‌കളല": 4628,
      "കഴയതത": 4629,
      "രപയകക": 4630,
      "സര‍കകരന": 4631,
      "ലതതയ": 4632,
      "ലമററ": 4633,
      "കചചവട": 4634,
      "അലയ": 4635,
      "ഗണട": 4636,
      "നഗരതത": 4637,
      "സണണ": 4638,
      "പയയ": 4639,
      "ധരൻ": 4640,
      "മതപതകകള": 4641,
      "ശരകക": 4642,
      "നയകന‍": 4643,
      "വയപപ": 4644,
      "സഥനർഥ": 4645,
      "ഇലലതകക": 4646,
      "ചനദരൻ": 4647,
      "പനര‍": 4648,
      "കടകള": 4649,
      "വര‍തതയ": 4650,
      "കള‍കകതര": 4651,
      "രഹല": 4652,
      "സരകഷത": 4653,
      "യഥര‍ഥ": 4654,
      "72": 4655,
      "ബനറ": 4656,
      "ഇതനതര": 4657,
      "ആരധന": 4658,
      "വണടനന": 4659,
      "ഉണടകകയ": 4660,
      "അവനറ": 4661,
      "പങകളതത": 4662,
      "ആരഗയവകപപ": 4663,
      "യജ": 4664,
      "അനബനധ": 4665,
      "വളര‍തത": 4666,
      "ഘടടതത": 4667,
      "അപരതകഷ": 4668,
      "ഖദ": 4669,
      "കര‍പപറ": 4670,
      "പരശനങങള": 4671,
      "പദധതകക": 4672,
      "രകഷമയ": 4673,
      "ശരമചചത": 4674,
      "തടർനനണ": 4675,
      "പപടതതയടടണട": 4676,
      "സകകന‍": 4677,
      "കടല‍": 4678,
      "വരലല": 4679,
      "അനഗരഹ": 4680,
      "കമപള": 4681,
      "സഗമ": 4682,
      "ഉറപപവരതത": 4683,
      "ഉനനയകക": 4684,
      "പപരയ": 4685,
      "പരള": 4686,
      "പരമഹ": 4687,
      "ങങല‍": 4688,
      "സററകക": 4689,
      "ഭഗങങള": 4690,
      "ഉപയകത": 4691,
      "അയല‍": 4692,
      "ഉടന": 4693,
      "കമക": 4694,
      "ററയ": 4695,
      "ചയയണട": 4696,
      "ഒഴക": 4697,
      "കടടചചർതത": 4698,
      "അവശ": 4699,
      "ഉപരധ": 4700,
      "ഡസന": 4701,
      "എതരള": 4702,
      "ഇപപഴത": 4703,
      "അന‍": 4704,
      "തതന‍": 4705,
      "മനമ": 4706,
      "വയയമ": 4707,
      "അനശച": 4708,
      "സ‌ഫ": 4709,
      "പലസകര": 4710,
      "വധശകഷ": 4711,
      "പരസഡന‍റ": 4712,
      "എതർ": 4713,
      "ഓകസ": 4714,
      "കസന": 4715,
      "ഫരണട": 4716,
      "റയയ": 4717,
      "കണകകകള‍": 4718,
      "ഉതസവ": 4719,
      "പശചതതലതത": 4720,
      "മഹന‍ലല‍": 4721,
      "ബങകകള": 4722,
      "നമണ": 4723,
      "അതര‍തതയ": 4724,
      "പരതയകത": 4725,
      "മടടര‍": 4726,
      "നനദന": 4727,
      "നയട": 4728,
      "ചലര": 4729,
      "സസഥനങങളല": 4730,
      "കൺസ": 4731,
      "ലകഷയമട": 4732,
      "ഇഡ": 4733,
      "കണന": 4734,
      "രഗയ": 4735,
      "ബധതര": 4736,
      "ഇതതരമര": 4737,
      "ലളത": 4738,
      "നഷടപരഹര": 4739,
      "പന‍ഷന‍": 4740,
      "അഭയര‍തഥ": 4741,
      "1000": 4742,
      "അവല": 4743,
      "എവടയ": 4744,
      "പരലണ": 4745,
      "നയചച": 4746,
      "സഹദരയ": 4747,
      "ഉതതരവടട": 4748,
      "ഡല‍ഹയല‍": 4749,
      "വമര‍ശചച": 4750,
      "il": 4751,
      "ഗതയ": 4752,
      "നജ": 4753,
      "ഫമ": 4754,
      "കളകടര‍": 4755,
      "ആശപതരയലകക": 4756,
      "ws": 4757,
      "അജയ": 4758,
      "പലശ": 4759,
      "സനദര‍ശന": 4760,
      "മനതരമര": 4761,
      "കർശന": 4762,
      "മലലപപളള": 4763,
      "ബകകല‍": 4764,
      "നഷടപപട": 4765,
      "മണഡലതതല‍": 4766,
      "പരമപരഗത": 4767,
      "എഫ‌ഐ": 4768,
      "ശവശങക": 4769,
      "59": 4770,
      "ആയത": 4771,
      "ആവഷ": 4772,
      "രശ": 4773,
      "കഴകകൻ": 4774,
      "കറചചളള": 4775,
      "സവധയകന": 4776,
      "തടര‍ചചയ": 4777,
      "സഥനല": 4778,
      "നലയലണ": 4779,
      "വശദമയ": 4780,
      "രജനദര": 4781,
      "ലകമ": 4782,
      "മനര‍": 4783,
      "മറവ": 4784,
      "വദയലയ": 4785,
      "രജസടര": 4786,
      "ആലച": 4787,
      "പടരള": 4788,
      "എനതയല": 4789,
      "പരമററ": 4790,
      "ഇനതയകകര": 4791,
      "പനതട": 4792,
      "മനജ‌മനറ": 4793,
      "ആഫരകക": 4794,
      "മയല": 4795,
      "കണപപട": 4796,
      "ജവൻ": 4797,
      "ദദന‍": 4798,
      "സതരകള‍കക": 4799,
      "ബഹമന": 4800,
      "ടൺ": 4801,
      "ഡർ": 4802,
      "മതതര": 4803,
      "റഡയ": 4804,
      "പലര‍തത": 4805,
      "ഭഗമയണ": 4806,
      "പറതതവര": 4807,
      "തടടടതത": 4808,
      "ശസതരജഞ": 4809,
      "അടയള": 4810,
      "ഡയറകടർ": 4811,
      "പനതണയകക": 4812,
      "ജങ": 4813,
      "ലറററ": 4814,
      "ഗയസ": 4815,
      "നൽകയര": 4816,
      "നന‌": 4817,
      "പരമണ": 4818,
      "കഴകകടട": 4819,
      "പരയസ": 4820,
      "ഉണടവ": 4821,
      "ing": 4822,
      "കതതന": 4823,
      "ഡഗര": 4824,
      "കകലല": 4825,
      "കടക": 4826,
      "സ‌പഷ": 4827,
      "ശരശര": 4828,
      "പറയനനണട": 4829,
      "അവന‍": 4830,
      "പഠനതത": 4831,
      "കമമഷന": 4832,
      "പരവര‍തതനങങള": 4833,
      "വശദകരകക": 4834,
      "ടന‍": 4835,
      "മകൾ": 4836,
      "മകസ": 4837,
      "മഷൻ": 4838,
      "പര‍ട": 4839,
      "നടതതമനന": 4840,
      "മക‌സ": 4841,
      "ഷണല‍": 4842,
      "സസഥനങങളല‍": 4843,
      "അദധയകഷ": 4844,
      "ടങക": 4845,
      "രചന": 4846,
      "അനമതയ": 4847,
      "അടങങ": 4848,
      "നനവനനണ": 4849,
      "പരവസകള": 4850,
      "യണവഴ‌സററ": 4851,
      "54": 4852,
      "മഷട": 4853,
      "നറങങ": 4854,
      "സവകരണ": 4855,
      "സഘർഷ": 4856,
      "ധരചച": 4857,
      "നശചത": 4858,
      "നഗററവ": 4859,
      "മചചപപടതത": 4860,
      "ഒന‍പത": 4861,
      "ഴ​": 4862,
      "സവര‍ണണ": 4863,
      "പരഗര": 4864,
      "തതലറ": 4865,
      "കണണട": 4866,
      "സരജ": 4867,
      "വടടലതത": 4868,
      "വവധയ": 4869,
      "സഘവ": 4870,
      "പരവര‍തതനങങള‍കക": 4871,
      "ഫണല‍": 4872,
      "ആസതരണ": 4873,
      "കവർ": 4874,
      "ടത": 4875,
      "തരങങള‍": 4876,
      "ടകകമളള": 4877,
      "മധയപരദശ": 4878,
      "അമപ": 4879,
      "ഇലലനന": 4880,
      "ധപതയ": 4881,
      "ഇതല": 4882,
      "മര‍തത": 4883,
      "രജയസഭ": 4884,
      "തതതല‍": 4885,
      "കകണടരകക": 4886,
      "കറഞഞത": 4887,
      "ഗരതരമ": 4888,
      "അരങങറ": 4889,
      "കരതല": 4890,
      "മര‍കകററ": 4891,
      "നരനദരമദ": 4892,
      "ഏർപപടതത": 4893,
      "രന": 4894,
      "ററര‍": 4895,
      "മനദര": 4896,
      "ശരനവസ": 4897,
      "കറചചത": 4898,
      "നടതതയത": 4899,
      "ആഹര": 4900,
      "ഓര‍തത": 4901,
      "മപല": 4902,
      "വയധ": 4903,
      "കമല‍": 4904,
      "മഥ": 4905,
      "ഷ​": 4906,
      "പരപപ": 4907,
      "അനവരയ": 4908,
      "ചയയനളള": 4909,
      "രഗമകത": 4910,
      "ഇടവള": 4911,
      "സവദശന": 4912,
      "വലലജ": 4913,
      "53": 4914,
      "അനല‍": 4915,
      "വതയ": 4916,
      "ഹന‍": 4917,
      "കയലല": 4918,
      "പതനഞച": 4919,
      "ആര‍എസഎസ": 4920,
      "പദധതകള": 4921,
      "ലസന‍സ": 4922,
      "ണടര‍": 4923,
      "ആവശയപപടടര": 4924,
      "റസര‍": 4925,
      "മറററ": 4926,
      "പഡനതത": 4927,
      "ro": 4928,
      "ആണ‍": 4929,
      "രസകര": 4930,
      "കകവ": 4931,
      "കകടകക": 4932,
      "തത‌": 4933,
      "പരനത": 4934,
      "വസമയ": 4935,
      "വകകകള‍": 4936,
      "അഭനയകക": 4937,
      "അഗകരചച": 4938,
      "അകകദമ": 4939,
      "ബഹര": 4940,
      "മവയ": 4941,
      "രന‍": 4942,
      "ഇതനന": 4943,
      "ചയയപപട": 4944,
      "വശയമയ": 4945,
      "പരകഷകര": 4946,
      "ഹയര‍": 4947,
      "അങക": 4948,
      "പരസസ": 4949,
      "കടനനത": 4950,
      "കലശ": 4951,
      "തടപഴ": 4952,
      "കണടപ": 4953,
      "അതവഗ": 4954,
      "മററനന": 4955,
      "പണമടകക": 4956,
      "വടവചച": 4957,
      "ബരഡ": 4958,
      "ഇതതരതതലളള": 4959,
      "രഷടരപത": 4960,
      "ഗവർണ": 4961,
      "ദഖ": 4962,
      "നവല": 4963,
      "വമർ": 4964,
      "ളളല‍": 4965,
      "കയണട": 4966,
      "തകര": 4967,
      "പകയ": 4968,
      "വസതവ": 4969,
      "സവർണണ": 4970,
      "നകകൾ": 4971,
      "കരയമണ": 4972,
      "മർകകററ": 4973,
      "എതതചച": 4974,
      "ദവതത": 4975,
      "ഭകരകരമണ": 4976,
      "തടയന‍": 4977,
      "സനറര‍": 4978,
      "ആദതയ": 4979,
      "സവപ‌ന": 4980,
      "ശല‍": 4981,
      "കകർകക": 4982,
      "എസസ": 4983,
      "ചല‍": 4984,
      "യണ‌": 4985,
      "വദഗധ": 4986,
      "പടയല‍": 4987,
      "പരസയമ": 4988,
      "സഥലങങള": 4989,
      "ion": 4990,
      "ചറകക": 4991,
      "നദയ": 4992,
      "മകഷ": 4993,
      "നനവ": 4994,
      "വര‍ഷങങള": 4995,
      "മലയളതത": 4996,
      "news": 4997,
      "ദപക": 4998,
      "സലയ": 4999,
      "ഹർജ": 5000,
      "ആരണ": 5001,
      "ശഷവ": 5002,
      "കഴഞഞദവസ": 5003,
      "പരസരതത": 5004,
      "ആർകക": 5005,
      "ആഗസററ": 5006,
      "ലഹ": 5007,
      "ശപര‍ശ": 5008,
      "കകർ": 5009,
      "കലകടര‍": 5010,
      "സററഗര": 5011,
      "രജന‍": 5012,
      "മധയമങങളട": 5013,
      "നഗര‍": 5014,
      "അയയപപ": 5015,
      "എങങനയണ": 5016,
      "ഇവർകക": 5017,
      "എഐ": 5018,
      "കരസററ": 5019,
      "റയസ": 5020,
      "വയചച": 5021,
      "വശദശ": 5022,
      "ഗരഫ": 5023,
      "സഹത": 5024,
      "നരടണട": 5025,
      "മഹന‍ലല": 5026,
      "പനതരണട": 5027,
      "ഡഗ": 5028,
      "നര‍മമത": 5029,
      "യതരയകക": 5030,
      "2010": 5031,
      "രകഷപപടട": 5032,
      "സബനധമയ": 5033,
      "അചഛന‍": 5034,
      "ഡസബർ": 5035,
      "പരതനധയ": 5036,
      "വഴചയ": 5037,
      "നർവഹ": 5038,
      "ബധചചത": 5039,
      "പരപടകള‍": 5040,
      "അരണ‍": 5041,
      "ൻപത": 5042,
      "ജയചച": 5043,
      "ജനങങൾകക": 5044,
      "ലററര‍": 5045,
      "പണ‍കടടകള": 5046,
      "അഫഗ": 5047,
      "ഉതതരവദതവ": 5048,
      "ac": 5049,
      "ഡബലയ": 5050,
      "കടയല": 5051,
      "ഭഗമയ": 5052,
      "സവദശകളയ": 5053,
      "ആലവ": 5054,
      "എറണകളതത": 5055,
      "ഉമമൻ": 5056,
      "എനനവടങങളല‍": 5057,
      "78": 5058,
      "ഇടതത": 5059,
      "ശവരയ": 5060,
      "പരയണ": 5061,
      "പരകരയ": 5062,
      "രയര": 5063,
      "ശരരക": 5064,
      "ലഭയമക": 5065,
      "ഗള‍ഫ": 5066,
      "റയൽവ": 5067,
      "ഓടകക": 5068,
      "കതതല‍": 5069,
      "പരനറ": 5070,
      "നയതനതര": 5071,
      "കഴടങങ": 5072,
      "നരപപ": 5073,
      "അയൾ": 5074,
      "ഉദയഗസഥന": 5075,
      "സഘടനകള‍": 5076,
      "ഫറന‍സ": 5077,
      "ചചകക": 5078,
      "ടരററ": 5079,
      "എതതയര": 5080,
      "അരവനദ": 5081,
      "നമപർ": 5082,
      "അവകശപപട": 5083,
      "അടയനതരമ": 5084,
      "ജ​": 5085,
      "നഷ‌": 5086,
      "രച": 5087,
      "കറല‍": 5088,
      "കരണമനന": 5089,
      "പടടല‍": 5090,
      "മർടട": 5091,
      "പപചചരകക": 5092,
      "പനരരഭ": 5093,
      "മൾ": 5094,
      "നനതനല‍": 5095,
      "കഴലളള": 5096,
      "കർതത": 5097,
      "ഒരകകല‍": 5098,
      "ഡരവറ": 5099,
      "നമപറ": 5100,
      "മഖലകള": 5101,
      "സന‍ടര": 5102,
      "സപററബര‍": 5103,
      "ടമല‍": 5104,
      "പരന": 5105,
      "പരഗത": 5106,
      "തതല‍നനന": 5107,
      "അതജവ": 5108,
      "തതയല‍": 5109,
      "നല‍കണ": 5110,
      "സരവ": 5111,
      "തതനശഷ": 5112,
      "പനനകക": 5113,
      "കകരതനന": 5114,
      "അവസഥയ": 5115,
      "കടടടതത": 5116,
      "കവതത": 5117,
      "കര‍ണട": 5118,
      "ലഭചചര": 5119,
      "കമമന": 5120,
      "രജവചച": 5121,
      "സവധയകൻ": 5122,
      "ഹടടല": 5123,
      "ഛയ": 5124,
      "പർല": 5125,
      "കമറയ": 5126,
      "സനയതത": 5127,
      "es": 5128,
      "നകഷതര": 5129,
      "ബ​": 5130,
      "ചയ​": 5131,
      "പലസററക": 5132,
      "കഴഞഞത": 5133,
      "കടകകണ": 5134,
      "ആരഗയതത": 5135,
      "പരകഷയ": 5136,
      "പലയണ": 5137,
      "കസററഡയലടതത": 5138,
      "ടപ": 5139,
      "തയരകക": 5140,
      "കയര‍": 5141,
      "വസര": 5142,
      "സവനതമ": 5143,
      "ജവനകകര‍": 5144,
      "ഓക‌സ": 5145,
      "ഓഡററ": 5146,
      "നള‍": 5147,
      "സങങ": 5148,
      "തരനന": 5149,
      "ബനധതത": 5150,
      "ജനങങൾ": 5151,
      "വനനല‍": 5152,
      "കകറചചളള": 5153,
      "മനഹരമയ": 5154,
      "ഞങങള‍കക": 5155,
      "ഡപ": 5156,
      "പകട": 5157,
      "കളളള": 5158,
      "മഖയമനതരകക": 5159,
      "ഫലമ": 5160,
      "കചചയല": 5161,
      "ഉള‍പപടട": 5162,
      "ഉതതര‍പരദശ": 5163,
      "ചവടട": 5164,
      "തസവ": 5165,
      "നസര‍": 5166,
      "വര‍ഗയ": 5167,
      "വര‍ഗസ": 5168,
      "കലന": 5169,
      "ജയത": 5170,
      "കയണ‌": 5171,
      "മയരനനലല": 5172,
      "2009": 5173,
      "ലഘചച": 5174,
      "നര‍ണയക": 5175,
      "ങകട": 5176,
      "ടര‍": 5177,
      "​ക​": 5178,
      "കയപ": 5179,
      "വഷൻ": 5180,
      "സഘതതല": 5181,
      "കഴഞഞലല": 5182,
      "അവൻ": 5183,
      "ചറകട": 5184,
      "മകളട": 5185,
      "രനനല": 5186,
      "അസസയഷൻ": 5187,
      "ലമററഡ": 5188,
      "വമർശന": 5189,
      "ഗപല‍": 5190,
      "ചള": 5191,
      "കളഞഞ": 5192,
      "നടകകനനത": 5193,
      "വയറ": 5194,
      "കലസസ": 5195,
      "തതനപപ": 5196,
      "പറയൻ": 5197,
      "മണകകർ": 5198,
      "ഘടനയ": 5199,
      "മമമടടയ": 5200,
      "പപള": 5201,
      "ണടവ": 5202,
      "സർകകറ": 5203,
      "ഒഴഞഞ": 5204,
      "ചകതസയകക": 5205,
      "കല‍കകതത": 5206,
      "ടവനറ": 5207,
      "ബസനസസ": 5208,
      "ഒകടബർ": 5209,
      "കതതലകക": 5210,
      "കബള": 5211,
      "ടർ": 5212,
      "നവരണ": 5213,
      "പപതത": 5214,
      "ചയയല": 5215,
      "ജവല": 5216,
      "ഭഗങങളല‍": 5217,
      "മർദദ": 5218,
      "ഭഷണയ": 5219,
      "ജമയപകഷ": 5220,
      "ചകതസയലയര": 5221,
      "79": 5222,
      "അനര": 5223,
      "തജ": 5224,
      "തതഴലള": 5225,
      "കരററ": 5226,
      "ടതതള": 5227,
      "പർശ": 5228,
      "ആശസ": 5229,
      "പലയളള": 5230,
      "സര‍വകല": 5231,
      "മതകയ": 5232,
      "സമന‍": 5233,
      "സരകഷകക": 5234,
      "സജനയമ": 5235,
      "മണഡലതതല": 5236,
      "മനഷയന": 5237,
      "ആനധര": 5238,
      "ആല‍": 5239,
      "ഗ‌": 5240,
      "ഡവഡ": 5241,
      "രല‍": 5242,
      "നനര‍": 5243,
      "സവദശയ": 5244,
      "പടയല": 5245,
      "ആവശയതത": 5246,
      "ഭരതയ": 5247,
      "ആവശയപപടടത": 5248,
      "പര‍കകണ": 5249,
      "കളളപപണ": 5250,
      "വയസസളള": 5251,
      "കഥപതരങങള": 5252,
      "ർചചയയ": 5253,
      "ആൽ": 5254,
      "രയയ": 5255,
      "സ‌ക": 5256,
      "കയണങകല‍": 5257,
      "ഷയയ": 5258,
      "ഇതതരതത": 5259,
      "ചകതസയല": 5260,
      "അനഭവപപട": 5261,
      "സരനദരൻ": 5262,
      "ഏല‍": 5263,
      "ഓപപണ": 5264,
      "ടര‍ണ": 5265,
      "നമയ": 5266,
      "ജയകക": 5267,
      "സമജ": 5268,
      "ടനബനധ": 5269,
      "സതയപരതജഞ": 5270,
      "അരങങററ": 5271,
      "മണഡലതത": 5272,
      "അജത": 5273,
      "ആഡ": 5274,
      "ആന‍": 5275,
      "ബഎസ": 5276,
      "ലത": 5277,
      "വര‍തതകക": 5278,
      "കഴചയ": 5279,
      "കഴ‌സ": 5280,
      "നനനര": 5281,
      "ചയയനനണട": 5282,
      "എസ​": 5283,
      "കകനനതനളള": 5284,
      "വയവസഥയ": 5285,
      "ഡളര‍": 5286,
      "ലടയണ": 5287,
      "വയററ": 5288,
      "നനന‌": 5289,
      "ഉപയഗപപടതത": 5290,
      "പരശധനയല‍": 5291,
      "രഖകള": 5292,
      "അനവദചച": 5293,
      "ചചടടളള": 5294,
      "ആതമയ": 5295,
      "ഡഡ": 5296,
      "പപർ": 5297,
      "എനനരനനല": 5298,
      "ഡയടട": 5299,
      "ഇനനങ": 5300,
      "നയമസഭയ": 5301,
      "ഉതതർ": 5302,
      "പർതതയകക": 5303,
      "ഇനറര‍നററ": 5304,
      "സകകള": 5305,
      "സക‌സ": 5306,
      "തതപരയ": 5307,
      "കരനറ": 5308,
      "മകകന‍": 5309,
      "സമര‍ടട": 5310,
      "വളർതത": 5311,
      "സഥലങങളല‍": 5312,
      "ലഭയമണ": 5313,
      "ഓര‍കക": 5314,
      "കസമ": 5315,
      "കരരമ": 5316,
      "കടചച": 5317,
      "സഹകരകക": 5318,
      "കരണങങള‍": 5319,
      "പരസകയ": 5320,
      "അറയലല": 5321,
      "കററകതയ": 5322,
      "സഘടനയയ": 5323,
      "നടപടയടകക": 5324,
      "61": 5325,
      "ഐയ": 5326,
      "തങക": 5327,
      "വരമ": 5328,
      "നടയല‍": 5329,
      "ധനകരയ": 5330,
      "പഴ‌സ": 5331,
      "മഖലകളല‍": 5332,
      "മസ‌ക": 5333,
      "ഒളമപ": 5334,
      "നവഷണ": 5335,
      "ലര‍": 5336,
      "വഷമ": 5337,
      "ഷയട": 5338,
      "തരമനമടകക": 5339,
      "എന‍ജനയ": 5340,
      "എതതയരകക": 5341,
      "എങങനയ": 5342,
      "ശരമതത": 5343,
      "നലനർതത": 5344,
      "കനണ": 5345,
      "ഭഗമണ": 5346,
      "മലബര‍": 5347,
      "നളളത": 5348,
      "കണടതതന‍": 5349,
      "ഇലലത": 5350,
      "പദധതകള‍": 5351,
      "അടസഥനമകക": 5352,
      "അണകകടട": 5353,
      "സടരലയ": 5354,
      "ഇതനടക": 5355,
      "95": 5356,
      "അവശയ": 5357,
      "ഫറസ": 5358,
      "ൻറയ": 5359,
      "കകഴ": 5360,
      "തരമ": 5361,
      "ലലര‍": 5362,
      "പപടടരകക": 5363,
      "ഇടചച": 5364,
      "വര‍ഷങങള‍കക": 5365,
      "സഥനതതകക": 5366,
      "വഡയയ": 5367,
      "ചരതരതതല": 5368,
      "ഫഷ": 5369,
      "കരതനന": 5370,
      "ആരങകല": 5371,
      "വടകളല‍": 5372,
      "വധചച": 5373,
      "പരചരണതത": 5374,
      "പരജയപപടതത": 5375,
      "read": 5376,
      "പഷക": 5377,
      "വരല": 5378,
      "സമപർകക": 5379,
      "സഭവചച": 5380,
      "അധയപകര": 5381,
      "അഴചച": 5382,
      "എനനവടങങളല": 5383,
      "ആൾ": 5384,
      "ഫകക": 5385,
      "ഭനന": 5386,
      "മചന": 5387,
      "ലൻഡ": 5388,
      "നനവർകക": 5389,
      "യകകറ": 5390,
      "പരവർതതനങങള": 5391,
      "പരഥമ": 5392,
      "ഡകടര‍മര‍": 5393,
      "ചടയ": 5394,
      "ട‌": 5395,
      "ബണ": 5396,
      "പരകതയ": 5397,
      "പരർതഥ": 5398,
      "കയനന": 5399,
      "ഗരണട": 5400,
      "അനസ": 5401,
      "രഗങങള": 5402,
      "കടതലണ": 5403,
      "നർമമത": 5404,
      "അവടതത": 5405,
      "ഹരത": 5406,
      "അധകഷ": 5407,
      "സവയഭരണ": 5408,
      "ഡൽഹയ": 5409,
      "കഥപതരതത": 5410,
      "പതനയര": 5411,
      "പനനയ": 5412,
      "കണ‍വന‍": 5413,
      "കടബതതല": 5414,
      "ശകതപപടതത": 5415,
      "പരപടയല‍": 5416,
      "ഉറവട": 5417,
      "ചചടടളളത": 5418,
      "അനവഷകക": 5419,
      "പഥവരജ": 5420,
      "vi": 5421,
      "ജപ": 5422,
      "ഞജല": 5423,
      "ദവലയ": 5424,
      "വരചച": 5425,
      "നടതതന": 5426,
      "മനന‍": 5427,
      "ദശലകഷ": 5428,
      "ഗരമണ": 5429,
      "ലകക‌": 5430,
      "പകല‍": 5431,
      "തലമറ": 5432,
      "ചരതരതത": 5433,
      "തടങങയവർ": 5434,
      "പരവര‍തതക": 5435,
      "നതകകളയ": 5436,
      "കര‍ഷകര‍": 5437,
      "ഓപ": 5438,
      "ഗറ": 5439,
      "ടമല": 5440,
      "തങങള‍കക": 5441,
      "ശന‍": 5442,
      "ലയല": 5443,
      "ലകകററ": 5444,
      "മസക": 5445,
      "കരണങങള": 5446,
      "സർടടഫകകററ": 5447,
      "കചചയല‍": 5448,
      "റഹമന‍": 5449,
      "സധനങങള‍": 5450,
      "ആമസ": 5451,
      "ടമകള": 5452,
      "തനനന": 5453,
      "പപ​": 5454,
      "ചര‍ചചകള‍": 5455,
      "ടക‌ന": 5456,
      "സന‍ടരല‍": 5457,
      "ദദയ": 5458,
      "കലമ": 5459,
      "കഴഞഞര": 5460,
      "വധകക": 5461,
      "ലകഷതതള": 5462,
      "ബലകഷണ": 5463,
      "കടബവ": 5464,
      "നൽകയടടണട": 5465,
      "കമറന": 5466,
      "പടയലയ": 5467,
      "ഡളറ": 5468,
      "സദദഖ": 5469,
      "63": 5470,
      "98": 5471,
      "mal": 5472,
      "തപത": 5473,
      "റസർ": 5474,
      "തതയടടണട": 5475,
      "കര‍മമ": 5476,
      "വനനണ": 5477,
      "ചതരമയ": 5478,
      "പതതൻ": 5479,
      "പരവര‍തതകന‍": 5480,
      "ഉദയഗസഥര‍കക": 5481,
      "മഖലകളല": 5482,
      "പരസദധകരചച": 5483,
      "കമല": 5484,
      "വയസകര": 5485,
      "ബനധകകള‍": 5486,
      "സപരകടതയ": 5487,
      "ദൽ": 5488,
      "രവലയ": 5489,
      "വചര": 5490,
      "കടടന‍": 5491,
      "കഴടകക": 5492,
      "നലക": 5493,
      "സഘമണ": 5494,
      "സയട": 5495,
      "സമപള": 5496,
      "തലതത": 5497,
      "ണമനനവശയപപടട": 5498,
      "ന‍സപപല‍": 5499,
      "ഉദയഗസഥർ": 5500,
      "സഹദരന‍": 5501,
      "തയയറകകയ": 5502,
      "ഇലകടരക": 5503,
      "ദവന": 5504,
      "മഘ": 5505,
      "രകതത": 5506,
      "ഹമ": 5507,
      "പരൻസ": 5508,
      "ജയനറ": 5509,
      "എലലവരയ": 5510,
      "കകനനവര‍കക": 5511,
      "അമരകകയല‍": 5512,
      "ചർമമ": 5513,
      "ഫയർ": 5514,
      "2008": 5515,
      "വശദകര": 5516,
      "ഉതപനന": 5517,
      "അല‍പ": 5518,
      "ശവസന": 5519,
      "സഭയട": 5520,
      "ഏജൻസ": 5521,
      "ചഷണ": 5522,
      "ഴതത": 5523,
      "പപടകക": 5524,
      "ചയതനന": 5525,
      "ഇതലട": 5526,
      "സമപനന": 5527,
      "വളളപപളള": 5528,
      "ഉയര‍തതയ": 5529,
      "ഹജജ": 5530,
      "ഓപപറ": 5531,
      "ജദദ": 5532,
      "ബനയ": 5533,
      "നര‍വഹ": 5534,
      "വലപ": 5535,
      "ശഷയ": 5536,
      "തലമറയ": 5537,
      "രജസ‌ടര": 5538,
      "എനനവയകക": 5539,
      "വദയര‍തഥകള": 5540,
      "മദരസ": 5541,
      "പറതതറകകയ": 5542,
      "അനനത": 5543,
      "നയരകക": 5544,
      "എനനകക": 5545,
      "തടചച": 5546,
      "ജനസഖയ": 5547,
      "ദവസങങളല": 5548,
      "കഞഞങങട": 5549,
      "നഷദ": 5550,
      "പരചരപപകക": 5551,
      "ഐപഎലല": 5552,
      "ഇസലമക": 5553,
      "അഗത": 5554,
      "തകള": 5555,
      "ന‍സ‌": 5556,
      "കരശ": 5557,
      "കടതതത": 5558,
      "നരശ": 5559,
      "സ‌കടട": 5560,
      "നര‍മചച": 5561,
      "കടടയതത": 5562,
      "ഏററവങങ": 5563,
      "സഥരകരകക": 5564,
      "അനവഷണതതല‍": 5565,
      "മമപണ": 5566,
      "കണടതതയര": 5567,
      "സഥലതതതത": 5568,
      "സനദര‍ശചച": 5569,
      "കണ‍ഗരസന": 5570,
      "സഥപനതത": 5571,
      "അസമ": 5572,
      "​ററ": 5573,
      "തതലടയണ": 5574,
      "പററയ": 5575,
      "നമരയ": 5576,
      "അബദലല": 5577,
      "ഐശവരയ": 5578,
      "പകത": 5579,
      "അറയചചടടണട": 5580,
      "വലയല‍": 5581,
      "കവഡ​": 5582,
      "കണ‍വ": 5583,
      "പനതടര": 5584,
      "പരസദധകരകക": 5585,
      "എനനങങനയണ": 5586,
      "അപപൾ": 5587,
      "ഊർജ": 5588,
      "പനല": 5589,
      "കരർ": 5590,
      "കടകള‍": 5591,
      "എനനട": 5592,
      "പരതകളയ": 5593,
      "യണയന‍": 5594,
      "ഓഫസല": 5595,
      "അഗങങള‍": 5596,
      "അശക": 5597,
      "കമമഷണര‍": 5598,
      "ചറപപ": 5599,
      "ട20": 5600,
      "ലറയ": 5601,
      "മനന‌": 5602,
      "വടകളല": 5603,
      "ടരഡ": 5604,
      "പരപടകള": 5605,
      "കസർകട": 5606,
      "അരകക": 5607,
      "ഫമല": 5608,
      "​മ​": 5609,
      "പതചച": 5610,
      "പളററ": 5611,
      "സര‍വവസ": 5612,
      "ഇറകകമത": 5613,
      "സററഷനല": 5614,
      "കനദരകര": 5615,
      "വഹത": 5616,
      "ചർചചയ": 5617,
      "സഥപനങങള‍": 5618,
      "ആകരമണതതല‍": 5619,
      "മനജര‍": 5620,
      "സവഭവക": 5621,
      "ആയരകകണകക": 5622,
      "ബറററ": 5623,
      "ഭവയ": 5624,
      "നയജക": 5625,
      "പതമര": 5626,
      "വലസ": 5627,
      "ടരള‍": 5628,
      "ജനപരതനധ": 5629,
      "സഥരമ": 5630,
      "ഒഴചച": 5631,
      "സനമകള": 5632,
      "ഫസല‍": 5633,
      "വരകയയര": 5634,
      "വർഗഗ": 5635,
      "ധനസഹയ": 5636,
      "കവദയ": 5637,
      "വട‌സ": 5638,
      "വളളപപകക": 5639,
      "ആരഗയമനതര": 5640,
      "ബഹറ": 5641,
      "ബഹ‌റ": 5642,
      "കറയകക": 5643,
      "മലപപറതത": 5644,
      "ലലണ": 5645,
      "പതരക": 5646,
      "ഷയന‍": 5647,
      "ഇന‍സററററയടട": 5648,
      "അഴമതയ": 5649,
      "ആകരമചച": 5650,
      "ദളത": 5651,
      "ur": 5652,
      "എന‍റ": 5653,
      "വരമപള‍": 5654,
      "ഇതകക": 5655,
      "മതരമയര": 5656,
      "അവടയ": 5657,
      "ബദധയ": 5658,
      "കഞഞര": 5659,
      "ഭകഷണതത": 5660,
      "കശമരല": 5661,
      "നലതത": 5662,
      "മര‍ദ": 5663,
      "വനനടടണട": 5664,
      "കകനനലലനന": 5665,
      "പരശധചച": 5666,
      "ചറപപകക": 5667,
      "മറപടയ": 5668,
      "അവയട": 5669,
      "ഏഷയനററ": 5670,
      "88": 5671,
      "ഓടയ": 5672,
      "പരഞഞ": 5673,
      "നൽകകയ": 5674,
      "റഡല": 5675,
      "പരവര‍തതചച": 5676,
      "നയനതരണങങള‍": 5677,
      "പടരൾ": 5678,
      "ചഴലകകററ": 5679,
      "ടക‌സ": 5680,
      "പഞഞ": 5681,
      "ഭടട": 5682,
      "ളണ": 5683,
      "ഗരഡ": 5684,
      "ലകകണ": 5685,
      "പര‍തത": 5686,
      "പരസകത": 5687,
      "ചലഞച": 5688,
      "ഗണന": 5689,
      "അപകഷകക": 5690,
      "ഓവറല‍": 5691,
      "me": 5692,
      "ഇൻഡ": 5693,
      "തര‍തഥ": 5694,
      "ലര": 5695,
      "കലക": 5696,
      "വളർ": 5697,
      "വടക": 5698,
      "നര‍തതയ": 5699,
      "മര‍ഗഗ": 5700,
      "മകമനന": 5701,
      "സധചച": 5702,
      "ആസഡ": 5703,
      "വടടർ": 5704,
      "സധകരന‍": 5705,
      "എക‌സകയടടവ": 5706,
      "കയരററ": 5707,
      "അസധരണ": 5708,
      "എബസ": 5709,
      "കകലക": 5710,
      "പരസ‌": 5711,
      "തരകകന‍": 5712,
      "വയട": 5713,
      "കടടന": 5714,
      "മരത": 5715,
      "സരസ": 5716,
      "കര‍ണ": 5717,
      "ദവസമ": 5718,
      "തളങങ": 5719,
      "തമഴനട": 5720,
      "എൽഡഎഫ": 5721,
      "ഇടപടല‍": 5722,
      "ടര‍ണമനറ": 5723,
      "250": 5724,
      "ആവര‍തത": 5725,
      "വരണട": 5726,
      "വടപപ": 5727,
      "പനമറ": 5728,
      "ഗലസ": 5729,
      "കശമര‍": 5730,
      "ബഹള": 5731,
      "മണകകറനട": 5732,
      "ഇഷടപപട": 5733,
      "വമനതതവളതത": 5734,
      "ണത": 5735,
      "ആദയമയണ": 5736,
      "വജയന": 5737,
      "തരചചല‍": 5738,
      "തടടയ": 5739,
      "സതയവങ": 5740,
      "പരചയപപടതത": 5741,
      "ol": 5742,
      "ഖൻ": 5743,
      "മതയയ": 5744,
      "നനസ": 5745,
      "ചചതട": 5746,
      "തരമനതത": 5747,
      "കടകകൻ": 5748,
      "അധയകഷൻ": 5749,
      "ഏറയ": 5750,
      "ഓസടരലയ": 5751,
      "ടകസ": 5752,
      "ദഷയ": 5753,
      "നനല‍": 5754,
      "നനനത": 5755,
      "തരര‍": 5756,
      "തരവലല": 5757,
      "ഒരഴച": 5758,
      "കടടല‍": 5759,
      "വളര‍നന": 5760,
      "നയമപരകര": 5761,
      "ശസതരയ": 5762,
      "മളക": 5763,
      "മലകക": 5764,
      "യസ": 5765,
      "ലബര": 5766,
      "തതൻ": 5767,
      "മനർ": 5768,
      "ഇതമ": 5769,
      "വർഗ": 5770,
      "ശരണ": 5771,
      "കനളള": 5772,
      "ബലററ": 5773,
      "കമമയണസററ": 5774,
      "ചര‍നനണ": 5775,
      "ബനഷ": 5776,
      "പൻവലകക": 5777,
      "നര‍കക": 5778,
      "ഹലക": 5779,
      "പരദപ": 5780,
      "മയടട": 5781,
      "കണടലല": 5782,
      "നര‍മത": 5783,
      "കയണങക": 5784,
      "ടനള": 5785,
      "കയയരനനവനന": 5786,
      "വല‍പപ": 5787,
      "അറസററലയത": 5788,
      "അലപ": 5789,
      "ലഘന": 5790,
      "അജഞ": 5791,
      "അവശഷ": 5792,
      "ളക": 5793,
      "നനകക": 5794,
      "മനഭവ": 5795,
      "അതനളള": 5796,
      "റകകർഡ": 5797,
      "സപദ": 5798,
      "മതസരങങള": 5799,
      "ഡജപ": 5800,
      "അവസഥയണ": 5801,
      "പർണമയ": 5802,
      "എഞചനയ": 5803,
      "സ‌ഫടന": 5804,
      "ഡ‌": 5805,
      "ശങകര": 5806,
      "മയസയ": 5807,
      "വരകയ": 5808,
      "മകകല‍": 5809,
      "സമപചചത": 5810,
      "കകനനതല‍": 5811,
      "പരദശങങളല‍": 5812,
      "എനതനണ": 5813,
      "ചനനതതലയ": 5814,
      "പരവച": 5815,
      "ഖതതര‍": 5816,
      "ടവറററല‍": 5817,
      "ഫട‌ബള‍": 5818,
      "അബസ": 5819,
      "പബലക": 5820,
      "ലനറ": 5821,
      "ലങക": 5822,
      "അതകണടണ": 5823,
      "ചയതല‍": 5824,
      "ണണയ": 5825,
      "തതതണ": 5826,
      "സവകരകകമനന": 5827,
      "ആരധകർ": 5828,
      "പരസതവനയ": 5829,
      "സഞജയ": 5830,
      "ഖനന": 5831,
      "ഥന": 5832,
      "പചക": 5833,
      "നറകണകക": 5834,
      "യരനനലല": 5835,
      "യല‍നനന": 5836,
      "കരണമയ": 5837,
      "ബനധവ": 5838,
      "കററവള": 5839,
      "കഞഞലകകടട": 5840,
      "വഭഗങങള": 5841,
      "ഉപദര": 5842,
      "തടരമനന": 5843,
      "തവണയ": 5844,
      "തഴലളകള‍": 5845,
      "വധയമകക": 5846,
      "വദയര‍തഥകള‍": 5847,
      "വമനതതവളതതല‍": 5848,
      "ma": 5849,
      "മഷന": 5850,
      "മനസര": 5851,
      "എനനല": 5852,
      "പറഞഞല‍": 5853,
      "പകൽ": 5854,
      "വയകതമ": 5855,
      "മലയളതതല": 5856,
      "ബയറ": 5857,
      "എതര‍പപ": 5858,
      "un": 5859,
      "ഒഡ": 5860,
      "ടക‌": 5861,
      "തർതത": 5862,
      "സപന": 5863,
      "ടടതത": 5864,
      "മയര‍": 5865,
      "നയന‍": 5866,
      "എനനര": 5867,
      "വഷങ": 5868,
      "ബലസററ": 5869,
      "ശരരതതല": 5870,
      "സനയര‍": 5871,
      "വദയര‍ഥകള": 5872,
      "സമമർദദ": 5873,
      "മനസല": 5874,
      "മതലണ": 5875,
      "വളപപ": 5876,
      "കവട": 5877,
      "പപകകനളള": 5878,
      "പർവ": 5879,
      "ബഗള‍": 5880,
      "കസററഡയല‍": 5881,
      "ഓറഞച": 5882,
      "കമയണസററ": 5883,
      "ഗവണ‍": 5884,
      "ബവ": 5885,
      "ള​": 5886,
      "ശശന": 5887,
      "ടടല‍": 5888,
      "റയലല": 5889,
      "ഒരപല": 5890,
      "സനദര‍": 5891,
      "തടങങയവര": 5892,
      "ആരപണങങള‍": 5893,
      "ഇന‍ഷറ": 5894,
      "ധര‍മമ": 5895,
      "ദമപതകള": 5896,
      "കലപതകതത": 5897,
      "അപല": 5898,
      "എക": 5899,
      "തഹ": 5900,
      "ബറല‍": 5901,
      "ൾഡ": 5902,
      "പറകക": 5903,
      "അതലല": 5904,
      "അനഷ": 5905,
      "പടടല": 5906,
      "ആശങ": 5907,
      "ഷന‍സ": 5908,
      "മൻറ": 5909,
      "ഫലററ": 5910,
      "മരചചവര": 5911,
      "ഉതപദ": 5912,
      "ശരലങക": 5913,
      "കരസതവ": 5914,
      "ബഹരകശ": 5915,
      "മൺ": 5916,
      "രഷ‌": 5917,
      "മനനമതത": 5918,
      "ടകകകയ": 5919,
      "പകതയ": 5920,
      "സബർ": 5921,
      "നടപടകരമ": 5922,
      "ഇരനന": 5923,
      "പരദശവസ": 5924,
      "പര‍ടടകക": 5925,
      "സരകഷയ": 5926,
      "ഇവരല‍": 5927,
      "അശലല": 5928,
      "കണ‍വനര‍": 5929,
      "74": 5930,
      "ഷല": 5931,
      "പടചചത": 5932,
      "മരതത": 5933,
      "വശവ": 5934,
      "മനതരസഭയ": 5935,
      "നകകള": 5936,
      "നടതതക": 5937,
      "പതരതത": 5938,
      "സവധനതത": 5939,
      "ചണടയ": 5940,
      "ഗരയ": 5941,
      "ഗവനദ": 5942,
      "ചനല‍": 5943,
      "ജനകക": 5944,
      "മബയ": 5945,
      "സവത": 5946,
      "ആരധക": 5947,
      "കരളതതലകക": 5948,
      "പടടള": 5949,
      "വല‍പപന": 5950,
      "ഇരമപ": 5951,
      "തടങങയവയ": 5952,
      "രഷടരയതത": 5953,
      "കലയളവ": 5954,
      "തളവകള‍": 5955,
      "മസജദ": 5956,
      "അങ": 5957,
      "എവ": 5958,
      "മധക": 5959,
      "രല": 5960,
      "റലല": 5961,
      "സകമര": 5962,
      "ണടതണ": 5963,
      "നടയര": 5964,
      "കലങങള": 5965,
      "കണടപക": 5966,
      "പതഞഞ": 5967,
      "ശഷമളള": 5968,
      "മഴകക": 5969,
      "കകരന‍": 5970,
      "സപരണട": 5971,
      "സര‍വകലശലയ": 5972,
      "കണടടതത": 5973,
      "കരമകകട": 5974,
      "76": 5975,
      "പകവ": 5976,
      "ലയട": 5977,
      "തനനയയര": 5978,
      "പതനനന": 5979,
      "മറകടനന": 5980,
      "ആരട": 5981,
      "ജനതയ": 5982,
      "പക‌സ": 5983,
      "71": 5984,
      "മസമ": 5985,
      "സപല": 5986,
      "സപരധന": 5987,
      "സകയരററ": 5988,
      "തയലല": 5989,
      "ചലന": 5990,
      "തലശശര": 5991,
      "ജലനരപപ": 5992,
      "​​ൻറ": 5993,
      "വതന": 5994,
      "ഭരണകടതത": 5995,
      "ഭരണധകര": 5996,
      "നൽകമനന": 5997,
      "ഒററയകക": 5998,
      "എനനവടങങള": 5999,
      "ചമപയ": 6000,
      "ഇലകടരണ": 6001,
      "എക‌സ‌": 6002,
      "സയയദ": 6003,
      "73": 6004,
      "ഒബ": 6005,
      "ചവകക": 6006,
      "ഫന‍": 6007,
      "സററഷനല‍": 6008,
      "പറക": 6009,
      "സസണല‍": 6010,
      "പരശസ": 6011,
      "മഴ‌സ": 6012,
      "തഴനന": 6013,
      "ചയതതനന": 6014,
      "കഴയമനന": 6015,
      "വഷയങങള": 6016,
      "സസകരക": 6017,
      "അതടപപ": 6018,
      "ഔഷധ": 6019,
      "ഞചയ": 6020,
      "നബനധന": 6021,
      "മനനണയ": 6022,
      "നലനൽകക": 6023,
      "ഓഫസറ": 6024,
      "ഗരഹണ": 6025,
      "ലഭചചടടണട": 6026,
      "ശലജ": 6027,
      "മനസസല‍": 6028,
      "വശദമ": 6029,
      "അഭയര‍ഥ": 6030,
      "മരളധരന‍": 6031,
      "അരണ": 6032,
      "പറററ": 6033,
      "കടര": 6034,
      "കടകകനനത": 6035,
      "തതലതതയ": 6036,
      "അതനന": 6037,
      "വകഭദ": 6038,
      "കഥയ": 6039,
      "ചനദരശഖര": 6040,
      "അനഭവകക": 6041,
      "യടടളളത": 6042,
      "സധരണയ": 6043,
      "ഡജററല‍": 6044,
      "ഴ‌ച": 6045,
      "സഐ": 6046,
      "സകകൻ": 6047,
      "നനവരണ": 6048,
      "പരദർശ": 6049,
      "മനത": 6050,
      "വനണ": 6051,
      "മലയളകള‍": 6052,
      "പരചദന": 6053,
      "വകസനതത": 6054,
      "ടരഷറര‍": 6055,
      "ലകരഗയ": 6056,
      "അതരയ": 6057,
      "ആ​": 6058,
      "ച​": 6059,
      "തമര": 6060,
      "ദഷട": 6061,
      "ഭകഷ": 6062,
      "നനവർ": 6063,
      "തരതതല": 6064,
      "മനഭ": 6065,
      "കടടതത": 6066,
      "സനദപ": 6067,
      "മഹനദര": 6068,
      "വർഷങങള": 6069,
      "നര‍ദശങങള‍": 6070,
      "പകസതന‍": 6071,
      "സപററബർ": 6072,
      "മതസയതതഴലള": 6073,
      "തണണ": 6074,
      "ഫയല": 6075,
      "ങങടട": 6076,
      "വശരമ": 6077,
      "അതർതത": 6078,
      "മററങങള‍": 6079,
      "കസകളല‍": 6080,
      "ദവസതതകക": 6081,
      "വതകരണ": 6082,
      "അനവദചചത": 6083,
      "സഥതചയയ": 6084,
      "ഷറഫ": 6085,
      "പവപപടട": 6086,
      "ബക‌സ": 6087,
      "ഭമന": 6088,
      "മപര": 6089,
      "സയല‍": 6090,
      "നയകയ": 6091,
      "സഥയ": 6092,
      "കമപയ": 6093,
      "പരവര‍തതനതത": 6094,
      "വശഷപപകക": 6095,
      "ഗര‍ഭണ": 6096,
      "120": 6097,
      "അകററ": 6098,
      "തരവത": 6099,
      "മയലല": 6100,
      "നയദല‍ഹ": 6101,
      "നനനതതയ": 6102,
      "മററക": 6103,
      "രണടര": 6104,
      "കർണടക": 6105,
      "ഷയൻ": 6106,
      "സമപകക": 6107,
      "ഇടഞഞ": 6108,
      "കഴയലലനന": 6109,
      "മറയത": 6110,
      "വശവസകള": 6111,
      "സചനയ": 6112,
      "അചഛൻ": 6113,
      "മജസ‌ടര": 6114,
      "ue": 6115,
      "ബയണ": 6116,
      "ഭര‍": 6117,
      "യനററ": 6118,
      "റഷൻ": 6119,
      "ഹരജ": 6120,
      "ൽഡ": 6121,
      "‌സ‌": 6122,
      "ചചര‍": 6123,
      "ററല": 6124,
      "കരര": 6125,
      "സ‌തര": 6126,
      "വയകതകള": 6127,
      "ഒഴകക": 6128,
      "2007": 6129,
      "സതയവങമല": 6130,
      "89": 6131,
      "us": 6132,
      "ബനന": 6133,
      "വതല": 6134,
      "സഭരണ": 6135,
      "രണടമത": 6136,
      "വദവഷ": 6137,
      "പരയമയ": 6138,
      "അബദളള": 6139,
      "2006": 6140,
      "സനനധന": 6141,
      "കഴചപപട": 6142,
      "സപകകര‍": 6143,
      "kas": 6144,
      "ഡസല‍": 6145,
      "ദവദ": 6146,
      "രഞ": 6147,
      "സഊ": 6148,
      "കയതത": 6149,
      "കയയല‍": 6150,
      "മണണട": 6151,
      "ദരനതത": 6152,
      "പരതന": 6153,
      "കഴഞഞല‍": 6154,
      "പടടതത": 6155,
      "ആവശയമളള": 6156,
      "കകരനയ": 6157,
      "വറടട": 6158,
      "തഴതത": 6159,
      "തഴയളള": 6160,
      "പശചതതലതതലണ": 6161,
      "ജര‍ജജ": 6162,
      "നനതനടയണ": 6163,
      "ഗൾഫ": 6164,
      "ഇന‍ഷറന‍സ": 6165,
      "ജഹദ": 6166,
      "ഷര": 6167,
      "വയഖയ": 6168,
      "ഇതഹസ": 6169,
      "കരയകഷ": 6170,
      "കരയമലല": 6171,
      "നര‍വവഹ": 6172,
      "വനനലല": 6173,
      "എലലവർകക": 6174,
      "വയകതമലല": 6175,
      "വറല": 6176,
      "കമമയണ": 6177,
      "ലററർ": 6178,
      "അബദള‍": 6179,
      "സധയതയണടനന": 6180,
      "രഗതതതതയര": 6181,
      "ഭരവഹകള‍": 6182,
      "പരജകട": 6183,
      "കങകണ": 6184,
      "അമര‍": 6185,
      "തപടതത": 6186,
      "നകള‍": 6187,
      "ബകസ": 6188,
      "ലലകക": 6189,
      "വയകകക": 6190,
      "വസതകകള‍": 6191,
      "പതമ": 6192,
      "നവലലനന": 6193,
      "സവധനവ": 6194,
      "ജവനകകര‍കക": 6195,
      "ഇകകരയതത": 6196,
      "ഡയറകടറ": 6197,
      "con": 6198,
      "കർഷകര": 6199,
      "ഫയ‌സബകക": 6200,
      "അകഷയ": 6201,
      "ൽപപടട": 6202,
      "ര‍മര‍": 6203,
      "പരബലയ": 6204,
      "മയട": 6205,
      "റയകക": 6206,
      "വവചന": 6207,
      "അഭനനദന": 6208,
      "ചചരനനലല": 6209,
      "ലഗല‍": 6210,
      "പനതണചച": 6211,
      "മപപത": 6212,
      "ഓപപറററ": 6213,
      "എൻഡ": 6214,
      "പപത": 6215,
      "വടകര": 6216,
      "സമരക": 6217,
      "ചദബര": 6218,
      "മലനകരണ": 6219,
      "god": 6220,
      "malay": 6221,
      "84": 6222,
      "ed": 6223,
      "എബരഹ": 6224,
      "ഓള‍": 6225,
      "ലഷ": 6226,
      "നറത": 6227,
      "നറകക": 6228,
      "മഖന": 6229,
      "പപകകമനന": 6230,
      "പതയത": 6231,
      "പനർ": 6232,
      "സയദ": 6233,
      "നതതവതതലണ": 6234,
      "അതനശഷ": 6235,
      "പരതകഷയ": 6236,
      "the": 6237,
      "വയസളള": 6238,
      "ആർടട": 6239,
      "കബ": 6240,
      "ചവനന": 6241,
      "ജഎസ": 6242,
      "വരക": 6243,
      "മഹഷ": 6244,
      "മഹമരയ": 6245,
      "നടതതയനന": 6246,
      "മബയല": 6247,
      "വലയരതതല‍": 6248,
      "ഭമയല‍": 6249,
      "ജമഅതത": 6250,
      "കതതരപപ": 6251,
      "കഎസആര‍": 6252,
      "ഇകകഴഞഞ": 6253,
      "ആബലന‍സ": 6254,
      "malayal": 6255,
      "ap": 6256,
      "of": 6257,
      "അനയയ": 6258,
      "ആട": 6259,
      "നഖ": 6260,
      "കരഡററ": 6261,
      "വര‍ഗഗ": 6262,
      "സനതര": 6263,
      "സമതത": 6264,
      "ദധരണ": 6265,
      "അറയപപ": 6266,
      "ചലർ": 6267,
      "കമപയടട": 6268,
      "കണ‍ഗരസല‍": 6269,
      "ചര‍ചചയ": 6270,
      "സങകട": 6271,
      "വപണയല": 6272,
      "എസ‌ഐ": 6273,
      "കര‍ഷകര‍കക": 6274,
      "സങകതകവദയ": 6275,
      "ഓർമമ": 6276,
      "വബ‌സററ": 6277,
      "ചഞച": 6278,
      "ശരധരന‍": 6279,
      "നലനല‍": 6280,
      "നര‍വഹചച": 6281,
      "അയൽ": 6282,
      "പങകവചചത": 6283,
      "ലണടന‍": 6284,
      "രതയലളള": 6285,
      "ഹടടല‍": 6286,
      "സഞചരചച": 6287,
      "എനനറയപപട": 6288,
      "ഇരപതത": 6289,
      "എ​": 6290,
      "ഒനനന": 6291,
      "ഹസയ": 6292,
      "കടടകടട": 6293,
      "വനവകപപ": 6294,
      "കമപനയയ": 6295,
      "തരഞഞടപപല": 6296,
      "രകഷപപടതത": 6297,
      "നലപടണ": 6298,
      "സകരയങങള": 6299,
      "ഒററപപടട": 6300,
      "സധയതയളള": 6301,
      "ആധര‍": 6302,
      "ചകല‍": 6303,
      "ഹമയ": 6304,
      "ടട​": 6305,
      "വരന": 6306,
      "കയമറയ": 6307,
      "മണനനണ": 6308,
      "വയത": 6309,
      "മകകൻ": 6310,
      "അനവശയ": 6311,
      "മലക": 6312,
      "റകകഡ": 6313,
      "രജസഥന‍": 6314,
      "മൻഡ": 6315,
      "ഏററവമധക": 6316,
      "കരചചരകക": 6317,
      "ഹയർ": 6318,
      "നര‍മമകക": 6319,
      "അററകററ": 6320,
      "ജനമദന": 6321,
      "ടരഫക": 6322,
      "വളപപടതതല": 6323,
      "kasar": 6324,
      "05": 6325,
      "ho": 6326,
      "ht": 6327,
      "വകത": 6328,
      "ണടർ": 6329,
      "കരസഥ": 6330,
      "കയയല": 6331,
      "വളയല‍": 6332,
      "പകകജ": 6333,
      "കകനനവര‍": 6334,
      "മടടർ": 6335,
      "നടകകക": 6336,
      "വങങന‍": 6337,
      "ഫരന‍സ": 6338,
      "രധകഷണന‍": 6339,
      "ഉല": 6340,
      "എതര‍കക": 6341,
      "ഷല‍": 6342,
      "സദധയ": 6343,
      "ഹൻ": 6344,
      "പറപപടട": 6345,
      "കമകന": 6346,
      "കകനനണടനന": 6347,
      "അഗങങളയ": 6348,
      "അവതരപപചചത": 6349,
      "കസര‍ഗഡ": 6350,
      "യണററഡ": 6351,
      "അധന": 6352,
      "അസഹ": 6353,
      "അവശവസ": 6354,
      "വരൻ": 6355,
      "മണ​": 6356,
      "കഴ‌": 6357,
      "പരതകരചചത": 6358,
      "രഗലകഷണ": 6359,
      "റപപബലകക": 6360,
      "എതതചചത": 6361,
      "കടബങങള": 6362,
      "പരസഡനറ‌": 6363,
      "സഥലങങളല": 6364,
      "ജഞന": 6365,
      "പരവചന": 6366,
      "വദയര‍തഥകള‍കക": 6367,
      "നരയണന‍": 6368,
      "ജയരജന‍": 6369,
      "ഡൻ": 6370,
      "ഡസസ": 6371,
      "നടകയ": 6372,
      "കതചച": 6373,
      "വശര": 6374,
      "ദരണ": 6375,
      "വളർചച": 6376,
      "ദവസങങള‍കക": 6377,
      "നയമസഭയല‍": 6378,
      "ഔദയഗകമ": 6379,
      "വയതയസതമയ": 6380,
      "അചചടകക": 6381,
      "to": 6382,
      "അപപഴ": 6383,
      "ഇകകറ": 6384,
      "ശശരയ": 6385,
      "സകല": 6386,
      "വയ‌": 6387,
      "കലനകക": 6388,
      "സററഷന‍": 6389,
      "തതകകള‍": 6390,
      "പകഷതത": 6391,
      "അടഞഞ": 6392,
      "കമപനകക": 6393,
      "മരണപപടട": 6394,
      "കകടടയ": 6395,
      "യവജന": 6396,
      "കകനക": 6397,
      "വനയഗ": 6398,
      "mo": 6399,
      "അൻ": 6400,
      "രഡ": 6401,
      "വഎസ": 6402,
      "ൽസ": 6403,
      "ററർ": 6404,
      "രയഡ": 6405,
      "കണടനന": 6406,
      "അനക": 6407,
      "മസങങള": 6408,
      "മർഗഗ": 6409,
      "എനതകക": 6410,
      "നമര‍കക": 6411,
      "സഭവവ": 6412,
      "ഫരന‍": 6413,
      "കയയററ": 6414,
      "സവഗതവ": 6415,
      "ഫനലല‍": 6416,
      "ഏതര": 6417,
      "ഷയകക": 6418,
      "നറചച": 6419,
      "തയണട": 6420,
      "ഇത‌": 6421,
      "സമസത": 6422,
      "ചയയനനതന": 6423,
      "ചയയണടത": 6424,
      "കവല‍": 6425,
      "ആഘഷകക": 6426,
      "വദയര‍ഥകള‍": 6427,
      "മഹൻല": 6428,
      "ശങകര‍": 6429,
      "01": 6430,
      "ഉററ": 6431,
      "കതതല": 6432,
      "ഫഹദ": 6433,
      "ബഷര‍": 6434,
      "യസഫ": 6435,
      "ലങ": 6436,
      "ഴകക": 6437,
      "വരത": 6438,
      "അനശ": 6439,
      "ചലപപള‍": 6440,
      "പഠപപകക": 6441,
      "ലഭകകമനന": 6442,
      "വസഥയ": 6443,
      "ഡരവർ": 6444,
      "ഇന‍സററഗര": 6445,
      "പരഖയപചചര": 6446,
      "സഥനര‍തഥയ": 6447,
      "ജപത": 6448,
      "ദ​": 6449,
      "നനതല": 6450,
      "നനതനനണ": 6451,
      "മററത": 6452,
      "നടതതപപ": 6453,
      "കടടയമ": 6454,
      "പദധതയല‍": 6455,
      "ബയടട": 6456,
      "നലയല": 6457,
      "ഉടമയ": 6458,
      "അങങനയണ": 6459,
      "കരമനല‍": 6460,
      "ഒൻപത": 6461,
      "മളയ": 6462,
      "വരനനണട": 6463,
      "സ‌കറ": 6464,
      "കരയമ": 6465,
      "പണതത": 6466,
      "ഭരണതത": 6467,
      "കഥകള": 6468,
      "തടകകതതല‍": 6469,
      "പദവയ": 6470,
      "അഭനയചച": 6471,
      "ഹല‍തത": 6472,
      "ഗഢലചന": 6473,
      "അചയതനന": 6474,
      "ഓർതത": 6475,
      "ഡഫ": 6476,
      "ഡസല": 6477,
      "നവയ": 6478,
      "പയര": 6479,
      "ശ​": 6480,
      "നകകതത": 6481,
      "ബരൻഡ": 6482,
      "തളകക": 6483,
      "നശപപകക": 6484,
      "ചനനയ": 6485,
      "മനസപപ": 6486,
      "കഷതരതതല‍": 6487,
      "‌കകപപ": 6488,
      "അകകലതത": 6489,
      "റണ‍സടതത": 6490,
      "തടര‍ചചയയ": 6491,
      "ആഡബര": 6492,
      "ഗവണ‍മനറ": 6493,
      "04": 6494,
      "എജ": 6495,
      "ടപട": 6496,
      "വൺ": 6497,
      "വമത": 6498,
      "തരദശ": 6499,
      "സവമയ": 6500,
      "സനകര": 6501,
      "മഹതമ": 6502,
      "വജയതത": 6503,
      "മറയരകക": 6504,
      "നൽകയരകക": 6505,
      "സഷടചച": 6506,
      "kasargod": 6507,
      "87": 6508,
      "800": 6509,
      "നഭവ": 6510,
      "ബഴ‌സ": 6511,
      "ശഹബ": 6512,
      "കകതതയ": 6513,
      "പര​": 6514,
      "പപറയ": 6515,
      "കയന‍": 6516,
      "ഒരള‍കക": 6517,
      "പയല": 6518,
      "പലസനട": 6519,
      "ആവശയമലല": 6520,
      "ലണനന": 6521,
      "ചനദ": 6522,
      "രജൻ": 6523,
      "കലലതത": 6524,
      "കചചയ": 6525,
      "പര‍ടടകള": 6526,
      "ആളകള‍കക": 6527,
      "ഉദയഗസഥന‍": 6528,
      "‌കക‌": 6529,
      "പടടകജത": 6530,
      "പര‍ണണമയ": 6531,
      "ശശനദര": 6532,
      "94": 6533,
      "ഏറകക": 6534,
      "ഡമകര": 6535,
      "പരദയ": 6536,
      "വസന": 6537,
      "പരതമ": 6538,
      "തതയനന": 6539,
      "വടടകര": 6540,
      "പണഡയ": 6541,
      "രഗങങള‍": 6542,
      "പര‍ടടയല‍": 6543,
      "തരതതള": 6544,
      "ലഭയമയ": 6545,
      "ആദമ": 6546,
      "മഞചര": 6547,
      "സളര‍": 6548,
      "ആപലകക": 6549,
      "ടളള": 6550,
      "പരലളള": 6551,
      "കടയകക": 6552,
      "പലർചച": 6553,
      "മകകളയ": 6554,
      "ഷയസ": 6555,
      "വയകതപരമയ": 6556,
      "തരമനകക": 6557,
      "വതക": 6558,
      "സമരജയ": 6559,
      "രമചനദരന‍": 6560,
      "അടകകള": 6561,
      "പരഗണന": 6562,
      "അഭയർതഥ": 6563,
      "ആവഷ‌": 6564,
      "പവന": 6565,
      "പസയ": 6566,
      "ഷമ": 6567,
      "പയകക": 6568,
      "നടതതണമനന": 6569,
      "കനദരങങള‍": 6570,
      "കനദരങങളല‍": 6571,
      "വളളതതല‍": 6572,
      "സബധന": 6573,
      "വർഷക": 6574,
      "വർഷമ": 6575,
      "ഓരര": 6576,
      "വവദതത": 6577,
      "വനയസ": 6578,
      "തവണയണ": 6579,
      "നകഷപകക": 6580,
      "ചയര‍മന": 6581,
      "പരഷനമര": 6582,
      "നയസലന‍ഡ": 6583,
      "kasargodvartha": 6584,
      "അഖല": 6585,
      "ആകര‍ഷ": 6586,
      "പവര‍": 6587,
      "ടടന": 6588,
      "സഥനല‍": 6589,
      "ഒരപകഷ": 6590,
      "സ‌പര‍ട": 6591,
      "പതനറ": 6592,
      "ഇരവരയ": 6593,
      "നയമങങള‍": 6594,
      "ആശപതരയലതത": 6595,
      "ഇടയല‍": 6596,
      "വദഗധര": 6597,
      "ഴ‌സന": 6598,
      "82": 6599,
      "ആഗ": 6600,
      "തറപപ": 6601,
      "സബരഹ": 6602,
      "പരഭവ": 6603,
      "വയകകന‍": 6604,
      "ഗരന‍": 6605,
      "അമപല": 6606,
      "സകഷകക": 6607,
      "പരതഷധതത": 6608,
      "നയനതരകക": 6609,
      "ഡയറകടറററ": 6610,
      "അഭമഖതതല‍": 6611,
      "ആഭമഖയതതല‍": 6612,
      "ഏജനറ": 6613,
      "ഹതത": 6614,
      "മതഭമ": 6615,
      "കരണ‍": 6616,
      "ടരന‍സ": 6617,
      "വയകതമകകയടടണട": 6618,
      "പരവർതതനതത": 6619,
      "സഥപനങങള‍കക": 6620,
      "വജലൻസ": 6621,
      "പതമരമതത": 6622,
      "ഐസല": 6623,
      "ചഹന": 6624,
      "ജനതത": 6625,
      "തങങൾ": 6626,
      "മഫ": 6627,
      "ര‍മര": 6628,
      "ചചട": 6629,
      "കരമതത": 6630,
      "ലലട": 6631,
      "ലകകല‍": 6632,
      "കര‍പറ": 6633,
      "രണടഴച": 6634,
      "ഭഗവത": 6635,
      "സഭഷ": 6636,
      "ഡല‍ഹയല": 6637,
      "എൻജനയ": 6638,
      "തഴലളകള‍കക": 6639,
      "ബററങ": 6640,
      "ഉപഭകതകകള": 6641,
      "06": 6642,
      "86": 6643,
      "ആസ": 6644,
      "പതതന": 6645,
      "റജയ": 6646,
      "ദരപയഗ": 6647,
      "മററന‍": 6648,
      "സമസ": 6649,
      "ചചത‌": 6650,
      "കനദരതതല‍": 6651,
      "ഉള‍കകളള": 6652,
      "ലളതയ": 6653,
      "കഷതരതതല": 6654,
      "വനദസഞചര": 6655,
      "രതയലണ": 6656,
      "തടർചചയ": 6657,
      "പർണണമയ": 6658,
      "യറപയന‍": 6659,
      "ബസല‍": 6660,
      "മയടടണ": 6661,
      "വർതതയ": 6662,
      "മറന": 6663,
      "പറയപപട": 6664,
      "ബലകഷണന‍": 6665,
      "സബസററ": 6666,
      "നവതത": 6667,
      "മതസരങങളല‍": 6668,
      "പരടടതത": 6669,
      "അങങനയ": 6670,
      "നര‍മമചച": 6671,
      "600": 6672,
      "ഇഷ": 6673,
      "തമക": 6674,
      "കടറയ": 6675,
      "കസടകക": 6676,
      "ചതരകരകക": 6677,
      "​​​​​": 6678,
      "ആയര‍": 6679,
      "പരകശന": 6680,
      "സർവകല": 6681,
      "ധണയ": 6682,
      "ഹസന": 6683,
      "നലനല‍കക": 6684,
      "വളചചത": 6685,
      "കനദരസർക": 6686,
      "വര‍ഷവ": 6687,
      "പങകളയ": 6688,
      "എനതണനന": 6689,
      "സല‍മന‍": 6690,
      "സ​ഥ": 6691,
      "പരതപകഷതത": 6692,
      "ലസൻസ": 6693,
      "കണടതതയടടണട": 6694,
      "നശനഷട": 6695,
      "അര‍തഥ": 6696,
      "ആഞഞ": 6697,
      "ടഗ": 6698,
      "ഡന‍സ": 6699,
      "ബകകയളള": 6700,
      "റതത": 6701,
      "സശനത": 6702,
      "കളയണ": 6703,
      "മനവ": 6704,
      "പതയര": 6705,
      "സഭവങങള‍": 6706,
      "എതതചചര": 6707,
      "ഒരകകയ": 6708,
      "രജനകനത": 6709,
      "ഹളല‍": 6710,
      "ഇസ‌ലമക": 6711,
      "malayalam": 6712,
      "അരയ": 6713,
      "ആസഥനതത": 6714,
      "കമയണ": 6715,
      "തശര": 6716,
      "ബനര‍": 6717,
      "യർ": 6718,
      "ഹണ": 6719,
      "ൽ‌": 6720,
      "കളമണ": 6721,
      "വയന": 6722,
      "ജയയ": 6723,
      "ശരജതത": 6724,
      "യത​": 6725,
      "ടരൻസ": 6726,
      "രകഷകക": 6727,
      "ചനദരന": 6728,
      "ശവസകശ": 6729,
      "അനധകതമ": 6730,
      "ul": 6731,
      "ഋഷ": 6732,
      "എകകല": 6733,
      "കഗ": 6734,
      "ഡമ": 6735,
      "തരര": 6736,
      "കളയര": 6737,
      "മററവചച": 6738,
      "വടകള‍": 6739,
      "കനദരസര‍കകര": 6740,
      "ലകഷതത": 6741,
      "പകകസഥന‍": 6742,
      "ഹരഷ": 6743,
      "വതല‍": 6744,
      "ശതമനമണ": 6745,
      "കമപനകള‍": 6746,
      "നഗരതതല‍": 6747,
      "എടതതത": 6748,
      "ഇടപടല": 6749,
      "ശര‍മ": 6750,
      "ശബരമലയല‍": 6751,
      "വക‌സനഷന‍": 6752,
      "ഇമര": 6753,
      "കകകല": 6754,
      "നടകകനനണട": 6755,
      "സ‌മനറ": 6756,
      "സഹയവ": 6757,
      "യണയൻ": 6758,
      "പതനല": 6759,
      "സസടവ": 6760,
      "പണവ": 6761,
      "യകകന‍": 6762,
      "തതകകള": 6763,
      "രകഷമ": 6764,
      "എന‍ഡഎ": 6765,
      "വമകത": 6766,
      "തവതത": 6767,
      "ആളണ": 6768,
      "വര‍തതസമമളനതതല‍": 6769,
      "ണടതലല": 6770,
      "ഭകരര": 6771,
      "സഹദരന": 6772,
      "അഭയഹ": 6773,
      "കര‍ഷകര": 6774,
      "പരതസഹപപകക": 6775,
      "ടകന": 6776,
      "നമതത": 6777,
      "ഭതയ": 6778,
      "നനററ": 6779,
      "ണടവര": 6780,
      "പരതമസ": 6781,
      "പതനടട": 6782,
      "പകമനന": 6783,
      "സർവവ": 6784,
      "മനസസല": 6785,
      "വകസപപചച": 6786,
      "ഉണടകമനന": 6787,
      "ഉനനയചച": 6788,
      "ut": 6789,
      "ഫയല‍": 6790,
      "ഭതത": 6791,
      "രപത": 6792,
      "റട": 6793,
      "പരവഹ": 6794,
      "പരവററ": 6795,
      "വനനപപള‍": 6796,
      "മകനറ": 6797,
      "കണ‍ടരള‍": 6798,
      "വറല‍": 6799,
      "സമഹതതല‍": 6800,
      "രഖപപടതതയ": 6801,
      "സകരയങങള‍": 6802,
      "മനജമനറ": 6803,
      "അചഛനറ": 6804,
      "സവര‍ണകകടതത": 6805,
      "അതതരമര": 6806,
      "നതതടർനന": 6807,
      "ദവര": 6808,
      "പജയ": 6809,
      "വർതതകക": 6810,
      "ചയതടടലല": 6811,
      "കഴഞഞടട": 6812,
      "ചലത": 6813,
      "രജയങങള‍": 6814,
      "നണയ": 6815,
      "സബനധചചടതതള": 6816,
      "ഇരവരടയ": 6817,
      "ഉടമസഥതയ": 6818,
      "രപപപടട": 6819,
      "അതര‍തതയല‍": 6820,
      "മജസ‌ടരററ": 6821,
      "അഗര": 6822,
      "ആവ": 6823,
      "പതതല": 6824,
      "ഷർ": 6825,
      "കയട": 6826,
      "വസതക": 6827,
      "അതററ": 6828,
      "പരശലക": 6829,
      "കഷണന": 6830,
      "ചതരവ": 6831,
      "അറയചച": 6832,
      "നയമവരദധ": 6833,
      "വരയനറ": 6834,
      "പററര‍": 6835,
      "2004": 6836,
      "വവദമയ": 6837,
      "എനനവരയണ": 6838,
      "ഇറന‍": 6839,
      "രസകരമയ": 6840,
      "മവയസററ": 6841,
      "83": 6842,
      "അഷ‌": 6843,
      "ഡകക": 6844,
      "പനറ": 6845,
      "ശപർശ": 6846,
      "ൾപപട": 6847,
      "കളയകക": 6848,
      "കടൽ": 6849,
      "നടമപ": 6850,
      "സ‌കൾ": 6851,
      "ചയയമപള‍": 6852,
      "രണടപര": 6853,
      "കർടട": 6854,
      "വണടട": 6855,
      "കടടയട": 6856,
      "വല‍കകരണ": 6857,
      "പഴവ": 6858,
      "ശരമങങള‍": 6859,
      "ഫരൻ": 6860,
      "സവകരകകന‍": 6861,
      "പലയടതത": 6862,
      "പങകടതതത": 6863,
      "കണ‍ഗരസസ": 6864,
      "പറമപല‍": 6865,
      "എസന": 6866,
      "എപയ": 6867,
      "തകരറ": 6868,
      "ഥയ": 6869,
      "കരഞഞ": 6870,
      "ലലങകല": 6871,
      "കയർ": 6872,
      "രയണ": 6873,
      "കരണവ": 6874,
      "വണടതര": 6875,
      "ചരചച": 6876,
      "അവസനതത": 6877,
      "അവസനമ": 6878,
      "മതസരങങള‍": 6879,
      "അയധയ": 6880,
      "വഗതത": 6881,
      "ഇനതയയലകക": 6882,
      "പഷപ": 6883,
      "തകർതത": 6884,
      "ദബയല‍": 6885,
      "രഞജതത": 6886,
      "ഡമകരററ": 6887,
      "സററന‍ഡ": 6888,
      "വർധന": 6889,
      "ദശയപത": 6890,
      "അലലഹ": 6891,
      "ടസററല‍": 6892,
      "വക‌സൻ": 6893,
      "അര‍ജനറ": 6894,
      "അനയജയമയ": 6895,
      "09": 6896,
      "ചനയല‍": 6897,
      "തര‍ഥ": 6898,
      "ഫഴ‌സ": 6899,
      "ബഐ": 6900,
      "ഹസപററ": 6901,
      "പരഷന‍": 6902,
      "കളന": 6903,
      "എനന‌": 6904,
      "നലമപ": 6905,
      "സപഐഎ": 6906,
      "അലര‍ടട": 6907,
      "നര‍ദശചച": 6908,
      "ഇനറലജ": 6909,
      "നഹ‌റ": 6910,
      "യദധതത": 6911,
      "എകസകയടടവ": 6912,
      "ചമപയന‍": 6913,
      "വപലവ": 6914,
      "5000": 6915,
      "br": 6916,
      "ളളവര": 6917,
      "കടയല‍": 6918,
      "സമഹര": 6919,
      "സമപരദയ": 6920,
      "കരയങങളല‍": 6921,
      "കർപപറ": 6922,
      "ലഭകകക": 6923,
      "മധയമങങളലട": 6924,
      "പരവശനതത": 6925,
      "കലഘടടതത": 6926,
      "അമര": 6927,
      "ഇമ": 6928,
      "ഡവഷ": 6929,
      "ഭയകക": 6930,
      "സഞജ": 6931,
      "കടടത": 6932,
      "സഹകര": 6933,
      "പതവയ": 6934,
      "മർതത": 6935,
      "ഉപയഗചചണ": 6936,
      "എഫഐ": 6937,
      "അലടട": 6938,
      "സനമയകക": 6939,
      "ശരരതതല‍": 6940,
      "നരനദരമദയ": 6941,
      "എറഞഞ": 6942,
      "ചതമയ": 6943,
      "നസർ": 6944,
      "പരവണ": 6945,
      "പരദര‍ശന": 6946,
      "ങങ​": 6947,
      "വരനരകക": 6948,
      "കരണമണ": 6949,
      "ഭഗങങളല": 6950,
      "മഴവന": 6951,
      "കള‍കകണ": 6952,
      "സവധനങങള": 6953,
      "കടനനപക": 6954,
      "ചർജ": 6955,
      "ഭകഷണവ": 6956,
      "ക‌ട": 6957,
      "പര‍ണമ": 6958,
      "ധരണയ": 6959,
      "അണയറ": 6960,
      "അഖലന": 6961,
      "അവലകന": 6962,
      "കവള": 6963,
      "ചലകക": 6964,
      "യ‌": 6965,
      "വകഷണ": 6966,
      "സകസ": 6967,
      "സകളല": 6968,
      "കയമയര": 6969,
      "പലർതത": 6970,
      "പലതവണ": 6971,
      "പരതഷഠ": 6972,
      "ടയകക": 6973,
      "കതതത": 6974,
      "അവധയ": 6975,
      "വര‍ഷതതല‍": 6976,
      "‌നഥ": 6977,
      "വർഷങങൾകക": 6978,
      "പസററ‌": 6979,
      "ഉളളടകക": 6980,
      "2005": 6981,
      "ടരയൻ": 6982,
      "മചചപപടട": 6983,
      "ഇൻസററററയടട": 6984,
      "സജവമ": 6985,
      "അഹമമദബദ": 6986,
      "ip": 6987,
      "പപൻ": 6988,
      "നയഡ": 6989,
      "കലറ": 6990,
      "പടര‍നന": 6991,
      "പരതപ": 6992,
      "ജനപരയ": 6993,
      "വഴയല‍": 6994,
      "അവതരണ": 6995,
      "തരഞഞടതതത": 6996,
      "ഇടവക": 6997,
      "വതതങങള‍": 6998,
      "എഴതതകര": 6999,
      "ലകമമപട": 7000,
      "96": 7001,
      "എര": 7002,
      "ടങങയ": 7003,
      "നവക": 7004,
      "റനന": 7005,
      "ലയസ": 7006,
      "മനനയ": 7007,
      "നടതതണ": 7008,
      "വദതത": 7009,
      "വദയയ": 7010,
      "അഭസബധന": 7011,
      "പരധനമണ": 7012,
      "ചണടകകണ": 7013,
      "ചറത": 7014,
      "ഇന‍സ‌പ": 7015,
      "ചരതരതതല‍": 7016,
      "ഇടതമനനണ": 7017,
      "അവകശപപടട": 7018,
      "അനതര‍": 7019,
      "ജലയല‍": 7020,
      "യടയബ": 7021,
      "ഐസസ": 7022,
      "കവസ": 7023,
      "മവററ": 7024,
      "ഴക": 7025,
      "പരതകരചച": 7026,
      "പരയടന": 7027,
      "തലപരയ": 7028,
      "ബലല‍": 7029,
      "അലലതത": 7030,
      "പളളയല‍": 7031,
      "പളങ": 7032,
      "ഒരകകയരകക": 7033,
      "ചര‍ചചയല‍": 7034,
      "ഹകകടതയല‍": 7035,
      "03": 7036,
      "ഗപന": 7037,
      "ദവന‍": 7038,
      "റസറററ": 7039,
      "പയയനന": 7040,
      "മഹന": 7041,
      "മലയര": 7042,
      "ചനതയ": 7043,
      "പരതയകചച": 7044,
      "സതഷ": 7045,
      "ഷനകള": 7046,
      "വഭഗതതല": 7047,
      "പങകവകക": 7048,
      "തതകകറചച": 7049,
      "മതസയബനധന": 7050,
      "ഉൽപപനന": 7051,
      "പർലമനറ": 7052,
      "ഗണയ": 7053,
      "ഫസ‌": 7054,
      "റഗല": 7055,
      "ങങല": 7056,
      "മനററല‍": 7057,
      "പതയല‍": 7058,
      "ന‍സനറ": 7059,
      "കണടതതൻ": 7060,
      "നശചച": 7061,
      "ആവശയപപടടടടണട": 7062,
      "ബധയത": 7063,
      "മണയടയണ": 7064,
      "ആഭയനതരമനതര": 7065,
      "ചനയല": 7066,
      "ഊര": 7067,
      "പലകകണമനന": 7068,
      "ലകകഡണ‍": 7069,
      "പലസ​": 7070,
      "എന‍ഫ": 7071,
      "കൺടര": 7072,
      "തശശര‍": 7073,
      "ഉണടയരനനലല": 7074,
      "യവകകള‍": 7075,
      "ve": 7076,
      "ആവര‍തതകക": 7077,
      "ഗതര": 7078,
      "ഡ​": 7079,
      "നകതയ": 7080,
      "റളള": 7081,
      "ശവക": 7082,
      "ര‍ഷപപ": 7083,
      "വസമമത": 7084,
      "പടകടയ": 7085,
      "ഇതനളള": 7086,
      "പപടനനത": 7087,
      "മഴയകക": 7088,
      "സമയവ": 7089,
      "വചച‌": 7090,
      "രജകമര": 7091,
      "കകടവ": 7092,
      "പര‍ടടകള‍": 7093,
      "തമസചചര": 7094,
      "മനഷയനറ": 7095,
      "അധകരതതല‍": 7096,
      "വടകകന‍": 7097,
      "ഡണള‍ഡ": 7098,
      "പലററ‌": 7099,
      "കണണരല‍": 7100,
      "കലയളവല‍": 7101,
      "സകകന‍ഡറ": 7102,
      "അണണ": 7103,
      "എസററററ": 7104,
      "കമകക": 7105,
      "മദന": 7106,
      "ഹണട": 7107,
      "‌ട": 7108,
      "നറങങയ": 7109,
      "നയതത": 7110,
      "നരതതയ": 7111,
      "ജവനക": 7112,
      "രഗകള‍കക": 7113,
      "ചലപപൾ": 7114,
      "ഇരങങ": 7115,
      "പരവര‍തതകന": 7116,
      "നഗർ": 7117,
      "സഥപനങങളല": 7118,
      "ചചടടണടനന": 7119,
      "ഇതടയണ": 7120,
      "യഥർഥ": 7121,
      "വദഗധര‍": 7122,
      "ഷടടഗ": 7123,
      "ഹടടലല‍": 7124,
      "എലലവരടയ": 7125,
      "മരളധര": 7126,
      "മതപതകകള‍": 7127,
      "സബരഹമണയ": 7128,
      "ik": 7129,
      "ഈശവര": 7130,
      "യഹ": 7131,
      "ഴതയ": 7132,
      "നയമയ": 7133,
      "സതരകൾകക": 7134,
      "തഴയ": 7135,
      "മയരനന": 7136,
      "കപപല‍": 7137,
      "ഉൾകകളള": 7138,
      "പരകകററത": 7139,
      "വയപകമയ": 7140,
      "and": 7141,
      "കതരമ": 7142,
      "ഐകയരഷടര": 7143,
      "നന‍സ": 7144,
      "ശരലങകയ": 7145,
      "വജഞപന": 7146,
      "ഗയല": 7147,
      "ചങ": 7148,
      "ചപയ": 7149,
      "ഞങങൾകക": 7150,
      "ടനതത": 7151,
      "ഫൻ": 7152,
      "ബണ‍": 7153,
      "ലഥ": 7154,
      "പരകകല‍": 7155,
      "രയട": 7156,
      "കണടല‍": 7157,
      "ഇതദയ": 7158,
      "സ‌ഥ": 7159,
      "നടതതനനണട": 7160,
      "പടടതതറ": 7161,
      "കണ‍ഫറന‍സ": 7162,
      "അഗന": 7163,
      "സപഡ": 7164,
      "സധരണകകര": 7165,
      "ala": 7166,
      "പൻഷൻ": 7167,
      "സവരജ": 7168,
      "ഗഭര": 7169,
      "ബപപ": 7170,
      "ബളള": 7171,
      "വഖ": 7172,
      "വദധ": 7173,
      "തരമയ": 7174,
      "സററൻഡ": 7175,
      "പടപപ": 7176,
      "കണടതതല‍": 7177,
      "ആരടയ": 7178,
      "കരയവ": 7179,
      "കരളയ": 7180,
      "കരകകന‍": 7181,
      "തലസഥനതത": 7182,
      "പപചചടടണട": 7183,
      "വമനതതല‍": 7184,
      "ബഹര‍": 7185,
      "പരഗണനയ": 7186,
      "പന‍വലചച": 7187,
      "ഉചചകക": 7188,
      "മശമ": 7189,
      "മജദ": 7190,
      "യണവഴസററ": 7191,
      "ആവര‍തതചച": 7192,
      "അമപത": 7193,
      "കമററ": 7194,
      "പസസ": 7195,
      "പഎസ": 7196,
      "ഫനല‍": 7197,
      "പരപഞച": 7198,
      "അതർതതയ": 7199,
      "ഇതവഴ": 7200,
      "വടകയ": 7201,
      "വദയല‍": 7202,
      "മണടകകയ": 7203,
      "മതസരചച": 7204,
      "സഖയതത": 7205,
      "മകനണ": 7206,
      "വപലമയ": 7207,
      "ഉദഹരണതത": 7208,
      "ആദതയനഥ": 7209,
      "92": 7210,
      "എപപ": 7211,
      "ഓസസ": 7212,
      "ചങക": 7213,
      "വനല‍": 7214,
      "ണടകകയ": 7215,
      "തതലണട": 7216,
      "കഴക": 7217,
      "കണടയര": 7218,
      "യതനല‍": 7219,
      "പകകസഥന": 7220,
      "നണ‌": 7221,
      "മണഡലങങളല": 7222,
      "ഇറഖ": 7223,
      "ഡളർ": 7224,
      "രഗബധതര": 7225,
      "ഇ​": 7226,
      "ഓടടറ": 7227,
      "ടൻ": 7228,
      "തര‍ചച": 7229,
      "പവർ": 7230,
      "ഫസല": 7231,
      "രഖയ": 7232,
      "സസഥ": 7233,
      "പരവണത": 7234,
      "ചചർ": 7235,
      "ലലങക": 7236,
      "ലകകഡൺ": 7237,
      "വടടകര‍": 7238,
      "നർമകക": 7239,
      "റകകററ": 7240,
      "ബലന‍": 7241,
      "വളളവ": 7242,
      "പസററര‍": 7243,
      "പരകടപപ": 7244,
      "കനനഡ": 7245,
      "വദയര‍ഥകള‍കക": 7246,
      "തയയറടപപ": 7247,
      "ഫസബകകല‍": 7248,
      "dia": 7249,
      "ra": 7250,
      "ആഭരണ": 7251,
      "വഗത": 7252,
      "പരന‍": 7253,
      "തരയണ": 7254,
      "കരസമസ": 7255,
      "കടതതയ": 7256,
      "കയബ": 7257,
      "വയപകക": 7258,
      "പരതകള‍കക": 7259,
      "ലഭകകനനത": 7260,
      "ചരററ": 7261,
      "സധകരൻ": 7262,
      "മയരനനവനന": 7263,
      "കമപള‍": 7264,
      "കമമഷനറ": 7265,
      "പരമദ": 7266,
      "സവകരകകണമനന": 7267,
      "തടകകതത": 7268,
      "തപനല": 7269,
      "വളപപടതതല‍": 7270,
      "ഭരഭഗവ": 7271,
      "കര‍പപറഷന‍": 7272,
      "സ‌പഷയല‍": 7273,
      "ഒഫ": 7274,
      "ഢയ": 7275,
      "റമന‍ഡ": 7276,
      "ഷററ": 7277,
      "കകതരയ": 7278,
      "കടങങയ": 7279,
      "ലയര‍": 7280,
      "റയൻ": 7281,
      "നലനൽ": 7282,
      "കരയതതല": 7283,
      "വദകള": 7284,
      "മകതര": 7285,
      "രഗവയപന": 7286,
      "സഭവങങള": 7287,
      "വതവ": 7288,
      "അധയപ": 7289,
      "കറയകകന‍": 7290,
      "തല‍കകല": 7291,
      "കര‍ഷകരട": 7292,
      "ആശയവനമയ": 7293,
      "പരകപന": 7294,
      "കഎസആര‍ടസ": 7295,
      "ആനതര": 7296,
      "ഒമന": 7297,
      "തവണട": 7298,
      "ലണടയ": 7299,
      "നനർ": 7300,
      "പരയര": 7301,
      "പരയകക": 7302,
      "പരര‍ഥ": 7303,
      "പലര‍കക": 7304,
      "പതമഖല": 7305,
      "പറതതവനന": 7306,
      "രപകരചച": 7307,
      "ഹരസ": 7308,
      "ഭയനന": 7309,
      "പസററല‍": 7310,
      "സഭയല‍": 7311,
      "പരവശപപകക": 7312,
      "പരഹരകകന‍": 7313,
      "പരയജനപപടതത": 7314,
      "ps": 7315,
      "യൽ": 7316,
      "പപപയ": 7317,
      "ററസ": 7318,
      "യരനനവനന": 7319,
      "പടകകന‍": 7320,
      "കതക": 7321,
      "വളവ": 7322,
      "കനദരങങളല": 7323,
      "രജശഖര": 7324,
      "പരതയമ": 7325,
      "അടചചടട": 7326,
      "സബകക": 7327,
      "നവതഥ": 7328,
      "പനതള": 7329,
      "രകഷതകകള": 7330,
      "നതവമയ": 7331,
      "വഡയയല‍": 7332,
      "ണടകമനന": 7333,
      "അമമയകക": 7334,
      "തകർനന": 7335,
      "അടങങയരകക": 7336,
      "ആദരചച": 7337,
      "ഷര‍ടട": 7338,
      "സപർ": 7339,
      "ഹ​": 7340,
      "കളകകര": 7341,
      "എനനലല": 7342,
      "സഥനറ": 7343,
      "നതഷ": 7344,
      "കടടല": 7345,
      "കടടകര": 7346,
      "കസടതതത": 7347,
      "സതഭ": 7348,
      "തഴകക": 7349,
      "തരചചതതയ": 7350,
      "തണമല‍": 7351,
      "തറമഖ": 7352,
      "ഹര‍ജയല‍": 7353,
      "പൺകടടകള": 7354,
      "എകസസ": 7355,
      "ഞടടകക": 7356,
      "ഖതതറ": 7357,
      "അഭഭഷകന‍": 7358,
      "സപതബര‍": 7359,
      "അങങയ": 7360,
      "അകകരയ": 7361,
      "ഖർ": 7362,
      "ഞര": 7363,
      "തമകക": 7364,
      "റസര‍വ": 7365,
      "ങങര": 7366,
      "കടലല‍": 7367,
      "സററകളല‍": 7368,
      "കടടൻ": 7369,
      "കസകളണ": 7370,
      "പരസതത": 7371,
      "പറയകയ": 7372,
      "തതകകന‍": 7373,
      "സപൺ": 7374,
      "മരണസഖയ": 7375,
      "ആശപതരകളല‍": 7376,
      "എന‍ഐഎ": 7377,
      "ചകതസയലണ": 7378,
      "മയതനല‍": 7379,
      "അര‍ഹ": 7380,
      "വടയററ": 7381,
      "കകണടതണട": 7382,
      "കശമരല‍": 7383,
      "ഇവയട": 7384,
      "യഥര‍തഥയ": 7385,
      "ഫഫ": 7386,
      "ഹഷ": 7387,
      "ൽപപ": 7388,
      "കകഴഞഞ": 7389,
      "സററഷൻ": 7390,
      "മരടയ": 7391,
      "സനററല‍": 7392,
      "സമലല": 7393,
      "പറഞഞണ": 7394,
      "ഭഗവ": 7395,
      "ഭരനത": 7396,
      "ആശപതരകളല": 7397,
      "പരകടനതത": 7398,
      "മധവയ": 7399,
      "യളണ": 7400,
      "വജയര": 7401,
      "നനയര": 7402,
      "വശഷട": 7403,
      "പരതനയ": 7404,
      "ചലതത": 7405,
      "സപഷ": 7406,
      "ആശപതരകള": 7407,
      "ലഖകന‍": 7408,
      "പരധയല‍": 7409,
      "പസ‌പര‍ടട": 7410,
      "സനദര‍ഭ": 7411,
      "08": 7412,
      "97": 7413,
      "ഇളയ": 7414,
      "ജപപന": 7415,
      "ദഗ": 7416,
      "ദൻ": 7417,
      "മസററർ": 7418,
      "വ‌": 7419,
      "പപപറ": 7420,
      "ശരദ": 7421,
      "വടടകള‍": 7422,
      "ചയയമപൾ": 7423,
      "നര‍വഹകക": 7424,
      "പസകക": 7425,
      "അഹമദ": 7426,
      "സർവകലശലയ": 7427,
      "ഉപകരണങങള": 7428,
      "നൾ": 7429,
      "കലകകററ": 7430,
      "മരക": 7431,
      "സമൻ": 7432,
      "തലബന‍": 7433,
      "പറതതവനനത": 7434,
      "കടകകഴചയ": 7435,
      "തണതത": 7436,
      "അടതതളള": 7437,
      "വഗതതല‍": 7438,
      "ശരരഭര": 7439,
      "ഹസൻ": 7440,
      "കസററഡയ": 7441,
      "പരശ‌നങങള‍കക": 7442,
      "പങകവചചരകക": 7443,
      "പരശസതമയ": 7444,
      "മകളലളള": 7445,
      "ആരധനലയ": 7446,
      "ഓരരതതര": 7447,
      "ഗപനഥ": 7448,
      "02": 7449,
      "ഒതങങ": 7450,
      "ജതയ": 7451,
      "രചചച": 7452,
      "ഷരഖ": 7453,
      "പപറററ": 7454,
      "വടടയട": 7455,
      "കർണട": 7456,
      "മതരമണനന": 7457,
      "പരയപര‍തതയ": 7458,
      "ബരസല": 7459,
      "പർകകണ": 7460,
      "മമപല‍": 7461,
      "സനമകള‍": 7462,
      "സജത": 7463,
      "സഞചവറ": 7464,
      "നരടന‍": 7465,
      "പര‍തതയകകയ": 7466,
      "ജഡഷയല‍": 7467,
      "നർമമകക": 7468,
      "സമർപപചച": 7469,
      "ടക‌നള": 7470,
      "700": 7471,
      "എന‍സ": 7472,
      "മതതല": 7473,
      "ലഞച": 7474,
      "നറതത": 7475,
      "തതകകണട": 7476,
      "സഘപരവര‍": 7477,
      "കള‍കക‌": 7478,
      "പകകററ": 7479,
      "വജയനറ": 7480,
      "തളചച": 7481,
      "അപ‌": 7482,
      "ഗഗള‍": 7483,
      "ചചടടലലനന": 7484,
      "കർഷകർ": 7485,
      "രപപപട": 7486,
      "ബസസഐ": 7487,
      "മഹരഷടരയല": 7488,
      "91": 7489,
      "ഓവര‍": 7490,
      "ചപപ": 7491,
      "ധവസ": 7492,
      "റസ‌": 7493,
      "റണണ": 7494,
      "ലണടയര": 7495,
      "വതര": 7496,
      "വനതത": 7497,
      "ഷഡ": 7498,
      "സങകല‍": 7499,
      "പപനയ": 7500,
      "വരധ": 7501,
      "നയകനയ": 7502,
      "പറതതയ": 7503,
      "മരല‍": 7504,
      "നരഹര": 7505,
      "ടകകന": 7506,
      "കവഞഞ": 7507,
      "ബനധപപകക": 7508,
      "പറയണട": 7509,
      "വല‍പന": 7510,
      "അഗസററ": 7511,
      "യതരകകര‍കക": 7512,
      "നയമങങള": 7513,
      "കളണനന": 7514,
      "ഉപധയ": 7515,
      "ആറന": 7516,
      "മബയല‍": 7517,
      "125": 7518,
      "അലങ": 7519,
      "ശചകരണ": 7520,
      "നരകകല‍": 7521,
      "ഇതടപപ": 7522,
      "തടയൻ": 7523,
      "സഖയയ": 7524,
      "ഓര‍ഡ": 7525,
      "കയററമത": 7526,
      "പങകടകകന‍": 7527,
      "ജഡജയ": 7528,
      "തമഴ‌നടടല‍": 7529,
      "ടലവഷന‍": 7530,
      "തലസഥനമയ": 7531,
      "ഓഡറററയ": 7532,
      "മവററപഴ": 7533,
      "sp": 7534,
      "ഓയല‍": 7535,
      "കസ‌": 7536,
      "ഡവസ": 7537,
      "റബബ": 7538,
      "സഇ": 7539,
      "‍ർ": 7540,
      "വയപയ": 7541,
      "സററപപ": 7542,
      "കടടകകല": 7543,
      "രണടയര": 7544,
      "ലണ‌": 7545,
      "മടടയ": 7546,
      "യതരകകര‍": 7547,
      "കടബശര": 7548,
      "കരമളക": 7549,
      "കകകയളള": 7550,
      "1500": 7551,
      "സഗനധ": 7552,
      "ചകതസയല‍": 7553,
      "നമപതര": 7554,
      "സഹദരൻ": 7555,
      "റണ‍സന": 7556,
      "ഉതപദന": 7557,
      "പനതണയമ": 7558,
      "വബസററ": 7559,
      "ent": 7560,
      "ചവകകട": 7561,
      "ഉടമസഥതയലളള": 7562,
      "അർതഥ": 7563,
      "തതലളളത": 7564,
      "കറണട": 7565,
      "വഴയരകക": 7566,
      "നൽകണമനന": 7567,
      "വധതതല‍": 7568,
      "വധചചത": 7569,
      "മന‍കര‍": 7570,
      "സമപമളള": 7571,
      "ചരവ": 7572,
      "സകരടട": 7573,
      "നടയടടണട": 7574,
      "അവസനപപ": 7575,
      "ശരദധകക": 7576,
      "ഹദയതത": 7577,
      "ഉയരനനത": 7578,
      "പകസതന": 7579,
      "സൻടര": 7580,
      "കൺഗരസസ": 7581,
      "ഗവർണർ": 7582,
      "പരൻസപപ": 7583,
      "കരസഥമകക": 7584,
      "ഉദധര": 7585,
      "കപല": 7586,
      "വദര": 7587,
      "ൽകക": 7588,
      "ര‍നനത": 7589,
      "പരശരമ": 7590,
      "ടടന‍": 7591,
      "വരയര": 7592,
      "മണല‍": 7593,
      "ഒരററ": 7594,
      "ടകകക": 7595,
      "മലബർ": 7596,
      "സമപദയ": 7597,
      "നർവവഹ": 7598,
      "വജയകരമ": 7599,
      "കകനനവർകക": 7600,
      "പപറഞഞ": 7601,
      "രഗതതതതയരകക": 7602,
      "പരതഷധവമ": 7603,
      "തമശ": 7604,
      "പരകടപപകക": 7605,
      "ശരദധകകണ": 7606,
      "സനനഹ": 7607,
      "ആരപചചര": 7608,
      "വമര‍ശനവമ": 7609,
      "പരഖയപചചരകക": 7610,
      "ഓണ‍ല": 7611,
      "അഖലനതയ": 7612,
      "el": 7613,
      "ചങങന": 7614,
      "ഡപല": 7615,
      "പനനന": 7616,
      "ഴയ": 7617,
      "നറതതലളള": 7618,
      "മനനലതത": 7619,
      "സ‌പയ": 7620,
      "മസതതല‍": 7621,
      "വറസന": 7622,
      "കകളല‍": 7623,
      "തരമനമ": 7624,
      "നവകരണ": 7625,
      "ആര‍ട": 7626,
      "ശതമനതത": 7627,
      "സ‌കരന‍": 7628,
      "അഡഷണല‍": 7629,
      "മപഴകക": 7630,
      "പരഖയപചചടടണട": 7631,
      "ഗജറതതല": 7632,
      "ഫ‌ളററ": 7633,
      "അററകററപപണ": 7634,
      "81": 7635,
      "ker": 7636,
      "ജജവ": 7637,
      "ടല‍": 7638,
      "നവദന": 7639,
      "രമന": 7640,
      "ഷഡയ": 7641,
      "കകറപപ": 7642,
      "പരസഥ": 7643,
      "ടടര‍": 7644,
      "പറഞഞടടണട": 7645,
      "മലമണ": 7646,
      "വണനന": 7647,
      "രഗകള‍": 7648,
      "നൽകണ": 7649,
      "ചരങങ": 7650,
      "കമള": 7651,
      "കകനനവരണ": 7652,
      "നടനനര": 7653,
      "നലയകക": 7654,
      "15ന": 7655,
      "തല‍വ": 7656,
      "സനനദധയ": 7657,
      "​​​ൻറ": 7658,
      "പരസദധകര": 7659,
      "സര‍വസകള‍": 7660,
      "മനനതവട": 7661,
      "മനദണഡങങള‍": 7662,
      "അമല": 7663,
      "അർജ": 7664,
      "ചവപപ": 7665,
      "പതതയ": 7666,
      "മങങയ": 7667,
      "ലലയ": 7668,
      "കഴസ": 7669,
      "ധയന": 7670,
      "വവക": 7671,
      "പകസഥന": 7672,
      "ആദയഘടട": 7673,
      "വചചയര": 7674,
      "കകനനതയ": 7675,
      "വകപപകള‍": 7676,
      "കഞഞങങള": 7677,
      "നററ‌": 7678,
      "കപപല": 7679,
      "തമസ‌": 7680,
      "മണകകറള": 7681,
      "ശശരഷ": 7682,
      "നഗരസഭയ": 7683,
      "അപര": 7684,
      "എതരതതള": 7685,
      "തകഞഞ": 7686,
      "നസറ": 7687,
      "ലലർ": 7688,
      "ലയയ": 7689,
      "ജയനത": 7690,
      "വശഷപപ": 7691,
      "യകകണ": 7692,
      "ബനധങങള": 7693,
      "വലയകക": 7694,
      "ലകഷദവപ": 7695,
      "വചചടടണട": 7696,
      "ജലല‍": 7697,
      "ഒനനമത": 7698,
      "വജയചച": 7699,
      "വവരമറയ": 7700,
      "കകണടതണ": 7701,
      "യഗതതലണ": 7702,
      "വങങൻ": 7703,
      "വര‍ധപപകക": 7704,
      "എതര‍തത": 7705,
      "നപപള": 7706,
      "നർണയക": 7707,
      "മദധയമ": 7708,
      "ആൺ": 7709,
      "കമന": 7710,
      "ചമമ": 7711,
      "മസവ": 7712,
      "വചന": 7713,
      "സന‍റ": 7714,
      "എനനയ": 7715,
      "വശകലന": 7716,
      "മകകവറ": 7717,
      "പപടതതന‍": 7718,
      "ചതരശര": 7719,
      "വധവ": 7720,
      "ആലചകക": 7721,
      "നരയല‍": 7722,
      "കടബഗങങള": 7723,
      "തയയറയലല": 7724,
      "അബദധ": 7725,
      "തൻറ": 7726,
      "പചചത": 7727,
      "ലബര‍": 7728,
      "ഹക": 7729,
      "​സ​": 7730,
      "‌ലററ": 7731,
      "പപവ": 7732,
      "കരവ": 7733,
      "മനനര": 7734,
      "കലകരന": 7735,
      "സ‌കവഡ": 7736,
      "ശഷയളള": 7737,
      "നടടതത": 7738,
      "മലയല‍": 7739,
      "വറലക": 7740,
      "ഉപയഗകകക": 7741,
      "കചചവടകക": 7742,
      "ഭരണഘടനയ": 7743,
      "അയചചത": 7744,
      "ചര‍ചചയകക": 7745,
      "കന‍സര‍": 7746,
      "തശശർ": 7747,
      "അധകരതത": 7748,
      "ഏര‍പപടതതയ": 7749,
      "ഉടമസഥ": 7750,
      "പകര‍നന": 7751,
      "വദയർതഥകൾകക": 7752,
      "സമർപപകക": 7753,
      "അങകമല": 7754,
      "ണമ": 7755,
      "നസമ": 7756,
      "ബകകയ": 7757,
      "യഴച": 7758,
      "ഷർടട": 7759,
      "​ന​": 7760,
      "റയന‍": 7761,
      "കഴല": 7762,
      "ദരദരയ": 7763,
      "ലകകപപല‍": 7764,
      "സസണ‍": 7765,
      "കവമയ": 7766,
      "വകലയ": 7767,
      "വദചച": 7768,
      "പറയന": 7769,
      "കനദരകരചച": 7770,
      "സയന‍സ": 7771,
      "ഭരതതത": 7772,
      "ദശയങങള": 7773,
      "കരമണനന": 7774,
      "വശവസതത": 7775,
      "പരവശകക": 7776,
      "നഷടമ": 7777,
      "തല‍കകലക": 7778,
      "അധകരതതല": 7779,
      "വര‍ധചച": 7780,
      "ഹനദവ": 7781,
      "തമഴ‌നടടല": 7782,
      "ജനധപതയതത": 7783,
      "റഷയന‍": 7784,
      "ആകരമകകപപടട": 7785,
      "ഖര‍ആന‍": 7786,
      "ആധര": 7787,
      "ഇവയകക": 7788,
      "ഉപര": 7789,
      "ഓടചച": 7790,
      "ഭതക": 7791,
      "മങങട": 7792,
      "രമയണ": 7793,
      "റപര‍ടട": 7794,
      "ൽക": 7795,
      "തതര‍": 7796,
      "കളലയ": 7797,
      "ന‍സല": 7798,
      "കടപട": 7799,
      "നയമല": 7800,
      "ചയയര": 7801,
      "വസനത": 7802,
      "വശഖ": 7803,
      "വണമങകല": 7804,
      "എഫന": 7805,
      "സവധനങങള‍": 7806,
      "പളളലററ": 7807,
      "വമനങങള‍": 7808,
      "ഇലലതതത": 7809,
      "വഗതയ": 7810,
      "മതയക": 7811,
      "ആരപണവമ": 7812,
      "കകളളല‍": 7813,
      "പരമപരയല": 7814,
      "ഇങങനയര": 7815,
      "കവര‍ചച": 7816,
      "ഇന‍സ‌പകടര‍": 7817,
      "ആഷ": 7818,
      "ഒല": 7819,
      "ടലക": 7820,
      "പഗ": 7821,
      "പരനമര": 7822,
      "പപപല": 7823,
      "പടലലനന": 7824,
      "ജനചചത": 7825,
      "ഒനനമലല": 7826,
      "കടബങങള‍കക": 7827,
      "നടതതയതനന": 7828,
      "തതലണനന": 7829,
      "പരവർതതനങങൾകക": 7830,
      "അശവ": 7831,
      "പരഫഷണ": 7832,
      "ആകഷന‍": 7833,
      "സമദയതത": 7834,
      "മഹൻലല": 7835,
      "വയകതയണ": 7836,
      "സജജമകക": 7837,
      "ടറസററ": 7838,
      "കടകപളള": 7839,
      "07": 7840,
      "ആകർഷ": 7841,
      "ഐസക": 7842,
      "ഒതതത": 7843,
      "ജഴ‌സ": 7844,
      "ഡകട": 7845,
      "ബസററ": 7846,
      "വപ": 7847,
      "പരസഥനതത": 7848,
      "തയയത": 7849,
      "ടകകയ": 7850,
      "സമരകക": 7851,
      "മലവ": 7852,
      "മഴയല‍": 7853,
      "നർതതയ": 7854,
      "രപകര": 7855,
      "മലയളകള‍കക": 7856,
      "മറയകക": 7857,
      "നയയർകക": 7858,
      "തടയനനത": 7859,
      "സനറർ": 7860,
      "സധകകലല": 7861,
      "പരശനങങള‍": 7862,
      "സരനദരന": 7863,
      "മരളധരൻ": 7864,
      "ഐപഎല‍": 7865,
      "അഷ‌റഫ": 7866,
      "ab": 7867,
      "അവഹ": 7868,
      "ആസത": 7869,
      "ആഹല": 7870,
      "ചവറ": 7871,
      "പന‍ഡ": 7872,
      "ഭ​": 7873,
      "തരങങളയ": 7874,
      "നറവററ": 7875,
      "നയൻ": 7876,
      "മനൻ": 7877,
      "എനനതയര": 7878,
      "പതകകയ": 7879,
      "വടടമമയ": 7880,
      "ബനധമളള": 7881,
      "സഥനവ": 7882,
      "കളല‍നനന": 7883,
      "മഡരഡ": 7884,
      "നടകകനരകക": 7885,
      "മരണതതല‍": 7886,
      "മലയളയ": 7887,
      "മലയളതതല‍": 7888,
      "പരകരമളള": 7889,
      "തനനനതയ": 7890,
      "സ‌പര‍ട‌സ": 7891,
      "വജയരഘ": 7892,
      "അസധ": 7893,
      "ആധപതയ": 7894,
      "ദവക": 7895,
      "നനമലല": 7896,
      "പരടയ": 7897,
      "പരരകഷ": 7898,
      "ടട‌": 7899,
      "കലട": 7900,
      "പടനന": 7901,
      "വടടണണ": 7902,
      "മലധന": 7903,
      "പരതയകതയ": 7904,
      "കൾകകളള": 7905,
      "തളവടപപ": 7906,
      "സഹചരയങങള": 7907,
      "അലങകര": 7908,
      "പരവശപപചചത": 7909,
      "വഹനപകട": 7910,
      "പഡപപകക": 7911,
      "പരവർതതകർകക": 7912,
      "പഞചസര": 7913,
      "ഇറന": 7914,
      "തവരത": 7915,
      "അജണട": 7916,
      "സദയല‍": 7917,
      "ഫതതമ": 7918,
      "ഒരയര": 7919,
      "തർചചയയ": 7920,
      "നമത": 7921,
      "പവന‍": 7922,
      "ബസ‌": 7923,
      "ബങകല‍": 7924,
      "സയല": 7925,
      "ലലഗ": 7926,
      "മയന": 7927,
      "മനകക": 7928,
      "വസയ": 7929,
      "നരസ": 7930,
      "ടകകനനത": 7931,
      "സമനയ": 7932,
      "മറക": 7933,
      "പര‍വത": 7934,
      "വകകകള": 7935,
      "സഥനതതണ": 7936,
      "മദകക": 7937,
      "നലയലയര": 7938,
      "മററരള": 7939,
      "പഡപപ": 7940,
      "സഞചറ": 7941,
      "ശരദധയമണ": 7942,
      "റഷയയ": 7943,
      "അപരതകഷത": 7944,
      "നയമലഘ": 7945,
      "lo": 7946,
      "ഏജന‍": 7947,
      "മടപപ": 7948,
      "സകർ": 7949,
      "കരങങ": 7950,
      "നയകൻ": 7951,
      "വസകള": 7952,
      "കണടവനനത": 7953,
      "നലനല‍കകനന": 7954,
      "സഹബ": 7955,
      "കസസ": 7956,
      "വടന‍": 7957,
      "ജവതവ": 7958,
      "നര‍മ": 7959,
      "അറയന‍": 7960,
      "പർതത": 7961,
      "സമപര‍ണ": 7962,
      "രപതത": 7963,
      "അറപത": 7964,
      "വയകതമകകയ": 7965,
      "മധയമങങളല": 7966,
      "കഥയണ": 7967,
      "കടയള": 7968,
      "കപപയ": 7969,
      "മതയനന": 7970,
      "2001": 7971,
      "ഹജരയ": 7972,
      "ഒഴവകകക": 7973,
      "സധനങങള": 7974,
      "ഏഷയന‍": 7975,
      "ധർമമ": 7976,
      "അഗതവ": 7977,
      "പവറ": 7978,
      "ലഹരയ": 7979,
      "ഷഹ": 7980,
      "സള‍": 7981,
      "പരപകക": 7982,
      "കയകള": 7983,
      "എനനവർകക": 7984,
      "മനനര‍": 7985,
      "വര‍ദധന": 7986,
      "നതവന": 7987,
      "കണടതതന": 7988,
      "ദരവഡ": 7989,
      "തനനട": 7990,
      "കറണയ": 7991,
      "ദദൻ": 7992,
      "കര‍മ": 7993,
      "മഹമര": 7994,
      "രജയദരഹ": 7995,
      "നടടലതത": 7996,
      "തരമനചചര": 7997,
      "രതരയല‍": 7998,
      "മറപടയമ": 7999
    },
    "merges": [
      [
        "s",
        "e"
      ],
      [
        "se",
        "p"
      ],
      [
        "ന",
        "ന"
      ],
      [
        "ക",
        "ക"
      ],
      [
        "ത",
        "ത"
      ],
      [
        "ര",
        "‍"
      ],
      [
        "ല",
        "‍"
      ],
      [
        "പ",
        "ര"
      ],
      [
        "ട",
        "ട"
      ],
      [
        "ച",
        "ച"
      ],
      [
        "പ",
        "പ"
      ],
      [
        "ത",
        "ര"
      ],
      [
        "ങ",
        "ങ"
      ],
      [
        "റ",
        "റ"
      ],
      [
        "ണ",
        "ട"
      ],
      [
        "ക",
        "ള"
      ],
      [
        "ന",
        "‍"
      ],
      [
        "ക",
        "ര"
      ],
      [
        "ല",
        "ല"
      ],
      [
        "ന",
        "റ"
      ],
      [
        "ങങ",
        "ള"
      ],
      [
        "ത",
        "യ"
      ],
      [
        "നന",
        "ത"
      ],
      [
        "ള",
        "ള"
      ],
      [
        "ക",
        "ട"
      ],
      [
        "മ",
        "യ"
      ],
      [
        "വ",
        "ര"
      ],
      [
        "ന",
        "യ"
      ],
      [
        "ക",
        "ഷ"
      ],
      [
        "ക",
        "യ"
      ],
      [
        "മ",
        "ന"
      ],
      [
        "ന",
        "ട"
      ],
      [
        "ഞ",
        "ഞ"
      ],
      [
        "എ",
        "നന"
      ],
      [
        "ല",
        "യ"
      ],
      [
        "റ",
        "യ"
      ],
      [
        "മ",
        "ണ"
      ],
      [
        "ച",
        "യ"
      ],
      [
        "വ",
        "യ"
      ],
      [
        "സ",
        "ഥ"
      ],
      [
        "മ",
        "നന"
      ],
      [
        "പ",
        "ല"
      ],
      [
        "ര",
        "കക"
      ],
      [
        "വ",
        "ര‍"
      ],
      [
        "മ",
        "പ"
      ],
      [
        "ക",
        "ല"
      ],
      [
        "വ",
        "സ"
      ],
      [
        "ര",
        "യ"
      ],
      [
        "കള",
        "‍"
      ],
      [
        "സ",
        "ററ"
      ],
      [
        "ന",
        "ത"
      ],
      [
        "ഒ",
        "ര"
      ],
      [
        "ത",
        "ട"
      ],
      [
        "സ",
        "വ"
      ],
      [
        "ദ",
        "യ"
      ],
      [
        "പ",
        "റ"
      ],
      [
        "മ",
        "ത"
      ],
      [
        "യ",
        "ര"
      ],
      [
        "ള",
        "‍"
      ],
      [
        "പ",
        "ട"
      ],
      [
        "ക",
        "ടട"
      ],
      [
        "മ",
        "മ"
      ],
      [
        "തത",
        "ല"
      ],
      [
        "ങങള",
        "‍"
      ],
      [
        "തത",
        "ല‍"
      ],
      [
        "ക",
        "ണ"
      ],
      [
        "ക",
        "ത"
      ],
      [
        "ജ",
        "യ"
      ],
      [
        "ക",
        "ഴ"
      ],
      [
        "ട",
        "തത"
      ],
      [
        "മ",
        "ര"
      ],
      [
        "വ",
        "ശ"
      ],
      [
        "ക",
        "ണട"
      ],
      [
        "അ",
        "ത"
      ],
      [
        "സ",
        "ന"
      ],
      [
        "ക",
        "ൾ"
      ],
      [
        "നന",
        "ന"
      ],
      [
        "ദ",
        "ര"
      ],
      [
        "ദ",
        "ശ"
      ],
      [
        "ഗ",
        "ര"
      ],
      [
        "ല",
        "കക"
      ],
      [
        "ധ",
        "യ"
      ],
      [
        "പര",
        "ത"
      ],
      [
        "തത",
        "യ"
      ],
      [
        "ട",
        "യ"
      ],
      [
        "ഇ",
        "ത"
      ],
      [
        "ന",
        "ല‍"
      ],
      [
        "മ",
        "കക"
      ],
      [
        "വ",
        "ർ"
      ],
      [
        "ത",
        "നന"
      ],
      [
        "ന",
        "ര"
      ],
      [
        "പ",
        "യ"
      ],
      [
        "അ",
        "ന"
      ],
      [
        "സ",
        "‌"
      ],
      [
        "മ",
        "ററ"
      ],
      [
        "ര‍",
        "കക"
      ],
      [
        "ശ",
        "ര"
      ],
      [
        "ധ",
        "ന"
      ],
      [
        "ട",
        "കക"
      ],
      [
        "ന",
        "ല"
      ],
      [
        "ങങ",
        "ൾ"
      ],
      [
        "പപ",
        "ടട"
      ],
      [
        "ന",
        "തത"
      ],
      [
        "സ",
        "മ"
      ],
      [
        "സ",
        "ര"
      ],
      [
        "വ",
        "ള"
      ],
      [
        "ചച",
        "ത"
      ],
      [
        "യ",
        "ത"
      ],
      [
        "സ",
        "ഹ"
      ],
      [
        "ങ",
        "ക"
      ],
      [
        "യ",
        "ണ"
      ],
      [
        "യ",
        "ല‍"
      ],
      [
        "പ",
        "ത"
      ],
      [
        "ക",
        "സ"
      ],
      [
        "മന",
        "തര"
      ],
      [
        "പറ",
        "ഞഞ"
      ],
      [
        "ഇ",
        "ന"
      ],
      [
        "ന",
        "ധ"
      ],
      [
        "യ",
        "ല"
      ],
      [
        "വ",
        "ടട"
      ],
      [
        "സ",
        "സ"
      ],
      [
        "ദ",
        "ധ"
      ],
      [
        "ന",
        "കക"
      ],
      [
        "ചയ",
        "യ"
      ],
      [
        "മ",
        "റ"
      ],
      [
        "മ",
        "ഖ"
      ],
      [
        "ആ",
        "ര"
      ],
      [
        "ക",
        "വ"
      ],
      [
        "ക",
        "റ"
      ],
      [
        "മ",
        "സ"
      ],
      [
        "കര",
        "യ"
      ],
      [
        "ക",
        "ന"
      ],
      [
        "ഞ",
        "ച"
      ],
      [
        "വ",
        "വ"
      ],
      [
        "തത",
        "ന"
      ],
      [
        "എ",
        "സ"
      ],
      [
        "പ",
        "ണ"
      ],
      [
        "വ",
        "ട"
      ],
      [
        "യ",
        "കക"
      ],
      [
        "ജ",
        "വ"
      ],
      [
        "ദ",
        "ദ"
      ],
      [
        "ന",
        "ര‍"
      ],
      [
        "വ",
        "ഷ"
      ],
      [
        "ഭ",
        "വ"
      ],
      [
        "പപ",
        "കക"
      ],
      [
        "ര",
        "ണ"
      ],
      [
        "2",
        "0"
      ],
      [
        "പപ",
        "ട"
      ],
      [
        "ഇന",
        "തയ"
      ],
      [
        "പല",
        "സ"
      ],
      [
        "ക",
        "ര‍"
      ],
      [
        "ന",
        "തര"
      ],
      [
        "ര",
        "ണട"
      ],
      [
        "കര",
        "ണ"
      ],
      [
        "പ",
        "ര‍"
      ],
      [
        "വ",
        "ക"
      ],
      [
        "വ",
        "ല"
      ],
      [
        "ട",
        "ര"
      ],
      [
        "ബ",
        "നധ"
      ],
      [
        "പര",
        "സ"
      ],
      [
        "ചയ",
        "ത"
      ],
      [
        "ജ",
        "ന"
      ],
      [
        "സഥ",
        "ന"
      ],
      [
        "ക",
        "ർ"
      ],
      [
        "മ",
        "ര‍"
      ],
      [
        "ഭ",
        "ഗ"
      ],
      [
        "പര",
        "ശ"
      ],
      [
        "വ",
        "നന"
      ],
      [
        "നട",
        "തത"
      ],
      [
        "മ",
        "ലല"
      ],
      [
        "മ",
        "ല"
      ],
      [
        "വ",
        "ദ"
      ],
      [
        "പ",
        "റയ"
      ],
      [
        "‌",
        "സ"
      ],
      [
        "മ",
        "തര"
      ],
      [
        "മ",
        "ക"
      ],
      [
        "വ",
        "ണ"
      ],
      [
        "ര",
        "ഗ"
      ],
      [
        "കഷ",
        "ണ"
      ],
      [
        "ടട",
        "ണട"
      ],
      [
        "തത",
        "ര"
      ],
      [
        "പപ",
        "ടതത"
      ],
      [
        "വ",
        "ന"
      ],
      [
        "പര",
        "യ"
      ],
      [
        "തത",
        "കക"
      ],
      [
        "വശ",
        "യ"
      ],
      [
        "കയ",
        "ണ"
      ],
      [
        "മ",
        "ഹ"
      ],
      [
        "സ",
        "ഘ"
      ],
      [
        "വ",
        "ണട"
      ],
      [
        "പ",
        "കഷ"
      ],
      [
        "ല",
        "ഭ"
      ],
      [
        "ശ",
        "ഷ"
      ],
      [
        "ദദ",
        "ഹ"
      ],
      [
        "കഴ",
        "ഞഞ"
      ],
      [
        "കട",
        "ത"
      ],
      [
        "പ",
        "നന"
      ],
      [
        "ഉ",
        "ണട"
      ],
      [
        "ഡ",
        "യ"
      ],
      [
        "കര",
        "ള"
      ],
      [
        "ഷ",
        "ട"
      ],
      [
        "ര‍",
        "നന"
      ],
      [
        "ങ",
        "കല"
      ],
      [
        "0",
        "0"
      ],
      [
        "ച",
        "തര"
      ],
      [
        "വ",
        "ഴ"
      ],
      [
        "റ",
        "പപ"
      ],
      [
        "ദ",
        "വസ"
      ],
      [
        "പ",
        "ക"
      ],
      [
        "ന",
        "ൽ"
      ],
      [
        "അ",
        "റയ"
      ],
      [
        "പ",
        "തര"
      ],
      [
        "ട",
        "പപ"
      ],
      [
        "അ",
        "ദദഹ"
      ],
      [
        "ണ",
        "‍"
      ],
      [
        "പ",
        "ടട"
      ],
      [
        "ബ",
        "ര"
      ],
      [
        "വ",
        "കക"
      ],
      [
        "വ",
        "ധ"
      ],
      [
        "ക",
        "തത"
      ],
      [
        "പ",
        "ർ"
      ],
      [
        "പ",
        "തയ"
      ],
      [
        "ച",
        "ല"
      ],
      [
        "വ",
        "ലയ"
      ],
      [
        "മ",
        "ന‍"
      ],
      [
        "പ",
        "ന"
      ],
      [
        "ജ",
        "ലല"
      ],
      [
        "ആ",
        "ശ"
      ],
      [
        "മ",
        "ഴ"
      ],
      [
        "കന",
        "ദര"
      ],
      [
        "ങങ",
        "യ"
      ],
      [
        "വ",
        "ദയ"
      ],
      [
        "ര",
        "ജയ"
      ],
      [
        "ഇ",
        "നന"
      ],
      [
        "മ",
        "ണട"
      ],
      [
        "സ",
        "മയ"
      ],
      [
        "ന",
        "ടട"
      ],
      [
        "അ",
        "ഭ"
      ],
      [
        "മ",
        "ളള"
      ],
      [
        "കര",
        "കക"
      ],
      [
        "സ",
        "യ"
      ],
      [
        "ഷ",
        "യ"
      ],
      [
        "സ",
        "ർ"
      ],
      [
        "സ",
        "മപ"
      ],
      [
        "കള‍",
        "കക"
      ],
      [
        "പര",
        "വര‍"
      ],
      [
        "വ",
        "ഹ"
      ],
      [
        "സ",
        "ര‍കക"
      ],
      [
        "ആ",
        "വശയ"
      ],
      [
        "ല",
        "ണ"
      ],
      [
        "എ",
        "ലല"
      ],
      [
        "കവ",
        "ഡ"
      ],
      [
        "ന",
        "ർ"
      ],
      [
        "ഗ",
        "യ"
      ],
      [
        "വ",
        "നനത"
      ],
      [
        "ന",
        "ളള"
      ],
      [
        "ണ",
        "ണ"
      ],
      [
        "മ",
        "ർ"
      ],
      [
        "റ",
        "കക"
      ],
      [
        "ല",
        "കഷ"
      ],
      [
        "ആ",
        "ദയ"
      ],
      [
        "വ",
        "ചച"
      ],
      [
        "ത",
        "ല"
      ],
      [
        "അ",
        "വ"
      ],
      [
        "കള",
        "ല‍"
      ],
      [
        "ലല",
        "നന"
      ],
      [
        "സ",
        "ഭവ"
      ],
      [
        "മ",
        "ലയ"
      ],
      [
        "വയ",
        "കത"
      ],
      [
        "കക",
        "ര"
      ],
      [
        "ത",
        "ഥ"
      ],
      [
        "ന‍",
        "റ"
      ],
      [
        "ച",
        "ന"
      ],
      [
        "ച",
        "ര"
      ],
      [
        "പ",
        "കക"
      ],
      [
        "ഏ",
        "ററ"
      ],
      [
        "ര",
        "ജ"
      ],
      [
        "പര",
        "തയ"
      ],
      [
        "സ",
        "തര"
      ],
      [
        "ദ",
        "ന"
      ],
      [
        "ചച",
        "ര"
      ],
      [
        "കക",
        "ട"
      ],
      [
        "തര",
        "ഞഞ"
      ],
      [
        "കണ",
        "‍"
      ],
      [
        "വ",
        "റ"
      ],
      [
        "പപ",
        "ഴ"
      ],
      [
        "മഖ",
        "യ"
      ],
      [
        "സ",
        "ല"
      ],
      [
        "1",
        "9"
      ],
      [
        "കള",
        "ല"
      ],
      [
        "ങങള",
        "ല‍"
      ],
      [
        "സ",
        "ത"
      ],
      [
        "തത",
        "ത"
      ],
      [
        "ജ",
        "ല"
      ],
      [
        "ഇ",
        "ട"
      ],
      [
        "ബ",
        "ല"
      ],
      [
        "ഒ",
        "നന"
      ],
      [
        "കക",
        "ള"
      ],
      [
        "ങങള‍",
        "കക"
      ],
      [
        "യ",
        "യ"
      ],
      [
        "പറ",
        "തത"
      ],
      [
        "ര",
        "പ"
      ],
      [
        "പപ",
        "ള‍"
      ],
      [
        "നല‍",
        "ക"
      ],
      [
        "കക",
        "ന‍"
      ],
      [
        "പര",
        "ധന"
      ],
      [
        "ഗര",
        "സ"
      ],
      [
        "ട",
        "ന"
      ],
      [
        "സ",
        "ര‍"
      ],
      [
        "പയ",
        "ഗ"
      ],
      [
        "അ",
        "ട"
      ],
      [
        "ഗ",
        "ത"
      ],
      [
        "വ",
        "ളള"
      ],
      [
        "ണ",
        "മനന"
      ],
      [
        "ന",
        "ണ"
      ],
      [
        "കക",
        "നനത"
      ],
      [
        "ഷ",
        "ണ"
      ],
      [
        "സ",
        "ബ"
      ],
      [
        "അ",
        "റ"
      ],
      [
        "ക",
        "മ"
      ],
      [
        "കയ",
        "യര"
      ],
      [
        "വ",
        "ജയ"
      ],
      [
        "സ",
        "സഥന"
      ],
      [
        "ഓ",
        "ഫ"
      ],
      [
        "കക",
        "നന"
      ],
      [
        "ഹ",
        "ര"
      ],
      [
        "എനന",
        "ല‍"
      ],
      [
        "കടട",
        "യ"
      ],
      [
        "ങങള",
        "ല"
      ],
      [
        "വര‍",
        "ഷ"
      ],
      [
        "​",
        "​"
      ],
      [
        "ഉ",
        "പയഗ"
      ],
      [
        "ബ",
        "ജ"
      ],
      [
        "വ",
        "ല‍"
      ],
      [
        "ബ",
        "ധ"
      ],
      [
        "സ",
        "കര"
      ],
      [
        "ഷ",
        "ന‍"
      ],
      [
        "ഭ",
        "യ"
      ],
      [
        "ഖ",
        "യ"
      ],
      [
        "സ",
        "ധ"
      ],
      [
        "മ",
        "തത"
      ],
      [
        "കക",
        "റ"
      ],
      [
        "ത",
        "ഴ"
      ],
      [
        "അ",
        "ധ"
      ],
      [
        "ര‍",
        "ടട"
      ],
      [
        "തര",
        "മന"
      ],
      [
        "ണ",
        "യ"
      ],
      [
        "എ",
        "ഫ"
      ],
      [
        "വ",
        "ത"
      ],
      [
        "ല",
        "ക"
      ],
      [
        "ര‍",
        "തത"
      ],
      [
        "തര",
        "ചച"
      ],
      [
        "ക",
        "ററ"
      ],
      [
        "വഷ",
        "ണ"
      ],
      [
        "മയ",
        "ര"
      ],
      [
        "ചയ",
        "തത"
      ],
      [
        "നട",
        "പട"
      ],
      [
        "ളള",
        "ത"
      ],
      [
        "ന‍",
        "സ"
      ],
      [
        "എ",
        "തത"
      ],
      [
        "അ",
        "മ"
      ],
      [
        "ഴ",
        "ച"
      ],
      [
        "അ",
        "ഗ"
      ],
      [
        "മ",
        "ൻ"
      ],
      [
        "മഖയ",
        "മനതര"
      ],
      [
        "ക",
        "മപ"
      ],
      [
        "ബ",
        "ദ"
      ],
      [
        "മ",
        "ടട"
      ],
      [
        "നല‍",
        "കയ"
      ],
      [
        "അ",
        "വസ"
      ],
      [
        "യ",
        "തര"
      ],
      [
        "ഇ",
        "ര"
      ],
      [
        "ന",
        "വ"
      ],
      [
        "കട",
        "കക"
      ],
      [
        "പ",
        "ഴ"
      ],
      [
        "കഴ",
        "യ"
      ],
      [
        "കട",
        "ബ"
      ],
      [
        "ഫ",
        "ല"
      ],
      [
        "ആ",
        "ണ"
      ],
      [
        "ൻ",
        "റ"
      ],
      [
        "ഏററ",
        "വ"
      ],
      [
        "ക",
        "ലല"
      ],
      [
        "വ",
        "ന‍"
      ],
      [
        "സ",
        "പ"
      ],
      [
        "കൾ",
        "കക"
      ],
      [
        "സഥ",
        "നതത"
      ],
      [
        "ഗ",
        "ണ"
      ],
      [
        "ക",
        "ചച"
      ],
      [
        "ല",
        "തത"
      ],
      [
        "കട",
        "തത"
      ],
      [
        "നട",
        "തതയ"
      ],
      [
        "വ",
        "വര"
      ],
      [
        "ർ",
        "നന"
      ],
      [
        "നയ",
        "മ"
      ],
      [
        "കക",
        "ണട"
      ],
      [
        "ത",
        "ള"
      ],
      [
        "ഭ",
        "ര"
      ],
      [
        "മ",
        "ധയ"
      ],
      [
        "പ",
        "തത"
      ],
      [
        "വര‍",
        "കക"
      ],
      [
        "പരസ",
        "ഡ"
      ],
      [
        "പര",
        "ദശ"
      ],
      [
        "മ",
        "ഡ"
      ],
      [
        "ന",
        "ങങള"
      ],
      [
        "പ",
        "ഠ"
      ],
      [
        "ദശ",
        "യ"
      ],
      [
        "നട",
        "കക"
      ],
      [
        "പര",
        "വർ"
      ],
      [
        "തരഞഞ",
        "ടപപ"
      ],
      [
        "ദ",
        "വ"
      ],
      [
        "ടട",
        "റ"
      ],
      [
        "നട",
        "നന"
      ],
      [
        "ദ",
        "ര‍"
      ],
      [
        "തര",
        "വനനത"
      ],
      [
        "ഭ",
        "രണ"
      ],
      [
        "തരവനനത",
        "പര"
      ],
      [
        "സര‍കക",
        "ര‍"
      ],
      [
        "ങങ",
        "ന"
      ],
      [
        "മര",
        "ണ"
      ],
      [
        "ഗ",
        "ല"
      ],
      [
        "ക",
        "മമ"
      ],
      [
        "20",
        "1"
      ],
      [
        "കക",
        "യ"
      ],
      [
        "ആ",
        "യ"
      ],
      [
        "തര",
        "യ"
      ],
      [
        "വയകത",
        "മകക"
      ],
      [
        "ആശ",
        "പതര"
      ],
      [
        "സമ",
        "ഹ"
      ],
      [
        "ങങൾ",
        "കക"
      ],
      [
        "പ",
        "ദധ"
      ],
      [
        "പ",
        "ങ"
      ],
      [
        "കര",
        "മ"
      ],
      [
        "കക",
        "ടട"
      ],
      [
        "ദയ",
        "ഗ"
      ],
      [
        "പപ",
        "ചച"
      ],
      [
        "തതല",
        "ണ"
      ],
      [
        "ര‍",
        "ചച"
      ],
      [
        "സഥ",
        "ര"
      ],
      [
        "ക",
        "ശ"
      ],
      [
        "മ",
        "ട"
      ],
      [
        "മലയ",
        "ള"
      ],
      [
        "തട",
        "ങങയ"
      ],
      [
        "പപ",
        "ൾ"
      ],
      [
        "പ",
        "നത"
      ],
      [
        "ര",
        "കഷ"
      ],
      [
        "ന",
        "ലല"
      ],
      [
        "പര‍",
        "ടട"
      ],
      [
        "എ",
        "നത"
      ],
      [
        "അ",
        "വര"
      ],
      [
        "ങക",
        "ല‍"
      ],
      [
        "കറ",
        "ചച"
      ],
      [
        "തട",
        "ര‍നന"
      ],
      [
        "ററ",
        "റ"
      ],
      [
        "യ",
        "ട"
      ],
      [
        "മ",
        "നറ"
      ],
      [
        "ഷ",
        "ന"
      ],
      [
        "അന",
        "വഷണ"
      ],
      [
        "കക",
        "ൻ"
      ],
      [
        "പപ",
        "റ"
      ],
      [
        "ക",
        "തയ"
      ],
      [
        "ബ",
        "ബ"
      ],
      [
        "നതത",
        "വ"
      ],
      [
        "ത",
        "ണ"
      ],
      [
        "ആ",
        "ര‍"
      ],
      [
        "വക",
        "പപ"
      ],
      [
        "റ",
        "ഡ"
      ],
      [
        "ഒ",
        "ഴ"
      ],
      [
        "കണ",
        "ണ"
      ],
      [
        "ആര",
        "ഗയ"
      ],
      [
        "ച",
        "രയ"
      ],
      [
        "കള",
        "ണ"
      ],
      [
        "പര",
        "മ"
      ],
      [
        "ശ",
        "കത"
      ],
      [
        "എ",
        "ന‍"
      ],
      [
        "പരവര‍",
        "തത"
      ],
      [
        "ഉ",
        "യ"
      ],
      [
        "നറ",
        "യ"
      ],
      [
        "സ",
        "ല‍"
      ],
      [
        "യ",
        "ഗ"
      ],
      [
        "അ",
        "ഞച"
      ],
      [
        "വര",
        "യ"
      ],
      [
        "ത",
        "കക"
      ],
      [
        "ത",
        "ന"
      ],
      [
        "വ",
        "മ"
      ],
      [
        "അ",
        "ടതത"
      ],
      [
        "1",
        "0"
      ],
      [
        "ൻ",
        "സ"
      ],
      [
        "ഷട",
        "രയ"
      ],
      [
        "അ",
        "പ"
      ],
      [
        "തത",
        "ട"
      ],
      [
        "കള",
        "യ"
      ],
      [
        "ക",
        "ൺ"
      ],
      [
        "മ",
        "റയ"
      ],
      [
        "ഷ",
        "ധ"
      ],
      [
        "ര",
        "ഹ"
      ],
      [
        "ത",
        "ടട"
      ],
      [
        "ശ",
        "ത"
      ],
      [
        "സര",
        "കഷ"
      ],
      [
        "നന",
        "ണട"
      ],
      [
        "ഇത",
        "ന"
      ],
      [
        "ശര",
        "മ"
      ],
      [
        "തട",
        "ങങ"
      ],
      [
        "ര",
        "ഷടരയ"
      ],
      [
        "കര",
        "മണ"
      ],
      [
        "മ",
        "മപ"
      ],
      [
        "തയ",
        "യ"
      ],
      [
        "പ",
        "ററ"
      ],
      [
        "ധ",
        "ര"
      ],
      [
        "മത",
        "സര"
      ],
      [
        "നൽ",
        "ക"
      ],
      [
        "കക",
        "ക"
      ],
      [
        "റപപ",
        "ര‍ടട"
      ],
      [
        "പ",
        "ചച"
      ],
      [
        "എ",
        "ല‍"
      ],
      [
        "പര",
        "ഖയ"
      ],
      [
        "ഉ",
        "തതര"
      ],
      [
        "ത",
        "നറ"
      ],
      [
        "കക",
        "ണ"
      ],
      [
        "ബ",
        "ര‍"
      ],
      [
        "സവ",
        "ധന"
      ],
      [
        "ക",
        "ഞഞ"
      ],
      [
        "ശ",
        "ന"
      ],
      [
        "ത",
        "മസ"
      ],
      [
        "കണ‍",
        "ഗരസ"
      ],
      [
        "ഷ",
        "ൻ"
      ],
      [
        "രജയ",
        "തത"
      ],
      [
        "വശ",
        "വസ"
      ],
      [
        "വവ",
        "ഹ"
      ],
      [
        "അ",
        "ധയ"
      ],
      [
        "‌",
        "ന"
      ],
      [
        "കണ",
        "കക"
      ],
      [
        "ഗ",
        "ള"
      ],
      [
        "മ",
        "ദ"
      ],
      [
        "കണട",
        "തത"
      ],
      [
        "നന",
        "ണ"
      ],
      [
        "കര",
        "ചച"
      ],
      [
        "വ",
        "ഭഗ"
      ],
      [
        "കക",
        "ള‍"
      ],
      [
        "കക",
        "കയ"
      ],
      [
        "യ",
        "വ"
      ],
      [
        "ർ",
        "തത"
      ],
      [
        "കക",
        "രയ"
      ],
      [
        "മത",
        "ല‍"
      ],
      [
        "മധയ",
        "മ"
      ],
      [
        "ഉ",
        "പ"
      ],
      [
        "ആര",
        "ഭ"
      ],
      [
        "സവ",
        "ദശ"
      ],
      [
        "ര",
        "പയ"
      ],
      [
        "വർ",
        "ഷ"
      ],
      [
        "പ",
        "സററ"
      ],
      [
        "പരസഡ",
        "നറ"
      ],
      [
        "ശത",
        "മന"
      ],
      [
        "ല",
        "ഗ"
      ],
      [
        "പര",
        "കഷ"
      ],
      [
        "ഉ",
        "ദ"
      ],
      [
        "ന",
        "മ"
      ],
      [
        "സ",
        "മര"
      ],
      [
        "അറ",
        "സററ"
      ],
      [
        "ഡ",
        "ല‍"
      ],
      [
        "ബ",
        "കക"
      ],
      [
        "വ",
        "ററ"
      ],
      [
        "ബ",
        "യ"
      ],
      [
        "ടട",
        "ലല"
      ],
      [
        "ർ",
        "കക"
      ],
      [
        "ല",
        "ളള"
      ],
      [
        "സ",
        "ഫ"
      ],
      [
        "അ",
        "യ"
      ],
      [
        "സ",
        "ധയ"
      ],
      [
        "രഗ",
        "തത"
      ],
      [
        "ർ",
        "ടട"
      ],
      [
        "എ",
        "നനത"
      ],
      [
        "സഹ",
        "ചരയ"
      ],
      [
        "സകര",
        "ടടറ"
      ],
      [
        "ത",
        "റ"
      ],
      [
        "മപ",
        "ള‍"
      ],
      [
        "ഡ",
        "ല"
      ],
      [
        "മനന",
        "ണ"
      ],
      [
        "ര",
        "മ"
      ],
      [
        "വ",
        "ലല"
      ],
      [
        "ന",
        "ലയ"
      ],
      [
        "1",
        "5"
      ],
      [
        "ത",
        "വ"
      ],
      [
        "ന",
        "മമ"
      ],
      [
        "ക",
        "ഥ"
      ],
      [
        "നന",
        "ലല"
      ],
      [
        "ള",
        "യ"
      ],
      [
        "സഹ",
        "യ"
      ],
      [
        "ആ",
        "റ"
      ],
      [
        "ഇ",
        "തതര"
      ],
      [
        "ഉ",
        "ദയഗ"
      ],
      [
        "സ",
        "ഗ"
      ],
      [
        "ര‍",
        "തഥ"
      ],
      [
        "ന",
        "ശ"
      ],
      [
        "അത",
        "ന"
      ],
      [
        "ആവശയ",
        "പപടട"
      ],
      [
        "ച",
        "ദയ"
      ],
      [
        "ടയ",
        "ണ"
      ],
      [
        "വര",
        "ണ"
      ],
      [
        "ബനധ",
        "പപടട"
      ],
      [
        "കട",
        "യ"
      ],
      [
        "അ",
        "ലല"
      ],
      [
        "സവ",
        "നത"
      ],
      [
        "പ",
        "ളള"
      ],
      [
        "വ",
        "മന"
      ],
      [
        "ന",
        "ററ"
      ],
      [
        "ഉ",
        "ള‍"
      ],
      [
        "ര‍",
        "ജ"
      ],
      [
        "മയ",
        "ണ"
      ],
      [
        "മ",
        "ബ"
      ],
      [
        "ന",
        "ദ"
      ],
      [
        "വവ",
        "ധ"
      ],
      [
        "ഇ",
        "ലല"
      ],
      [
        "എ",
        "ഴ"
      ],
      [
        "വ",
        "ൻ"
      ],
      [
        "3",
        "0"
      ],
      [
        "സ",
        "ബനധ"
      ],
      [
        "പനന",
        "ട"
      ],
      [
        "ആ",
        "ള"
      ],
      [
        "കടത",
        "ല‍"
      ],
      [
        "ച",
        "ണട"
      ],
      [
        "സ",
        "മമ"
      ],
      [
        "യ",
        "രകക"
      ],
      [
        "തയ",
        "ല‍"
      ],
      [
        "വള",
        "ര"
      ],
      [
        "ക",
        "പപ"
      ],
      [
        "കക",
        "ന"
      ],
      [
        "ഉ",
        "ട"
      ],
      [
        "ല",
        "ള"
      ],
      [
        "സ",
        "ഭ"
      ],
      [
        "അമ",
        "രകക"
      ],
      [
        "നര",
        "വധ"
      ],
      [
        "പരശ",
        "ധ"
      ],
      [
        "നട",
        "യ"
      ],
      [
        "ബ",
        "സ"
      ],
      [
        "മര",
        "ചച"
      ],
      [
        "ദ",
        "ധയ"
      ],
      [
        "1",
        "2"
      ],
      [
        "തതല",
        "കക"
      ],
      [
        "ക",
        "‌സ"
      ],
      [
        "ണ",
        "നന"
      ],
      [
        "ഗര",
        "ഹ"
      ],
      [
        "ല",
        "ട"
      ],
      [
        "പ",
        "ള"
      ],
      [
        "ച",
        "കത"
      ],
      [
        "ആ",
        "ല"
      ],
      [
        "ഒ",
        "രകക"
      ],
      [
        "സമപ",
        "തത"
      ],
      [
        "വർ",
        "കക"
      ],
      [
        "സ",
        "കഷ"
      ],
      [
        "റ",
        "ങങ"
      ],
      [
        "എ",
        "ണണ"
      ],
      [
        "നര",
        "തത"
      ],
      [
        "പരതയ",
        "ക"
      ],
      [
        "പരത",
        "ഷധ"
      ],
      [
        "വ",
        "ഗ"
      ],
      [
        "സ",
        "സഥനതത"
      ],
      [
        "അ",
        "ല"
      ],
      [
        "പര",
        "വശ"
      ],
      [
        "നയ",
        "നതര"
      ],
      [
        "ന‍",
        "ഡ"
      ],
      [
        "ഇനതയ",
        "ന‍"
      ],
      [
        "മണ",
        "നന"
      ],
      [
        "ഇനതയ",
        "യ"
      ],
      [
        "ച",
        "ട"
      ],
      [
        "സന",
        "മ"
      ],
      [
        "ഷ",
        "ക"
      ],
      [
        "വഷ",
        "യ"
      ],
      [
        "ര",
        "ഖ"
      ],
      [
        "കക",
        "ല‍"
      ],
      [
        "കക",
        "ററ"
      ],
      [
        "വ",
        "ങങ"
      ],
      [
        "00",
        "0"
      ],
      [
        "മ",
        "ല‍"
      ],
      [
        "കല",
        "തത"
      ],
      [
        "ച",
        "നന"
      ],
      [
        "പര",
        "ച"
      ],
      [
        "ബ",
        "ഹ"
      ],
      [
        "ന",
        "ഷട"
      ],
      [
        "ലഭ",
        "കക"
      ],
      [
        "മമ",
        "ദ"
      ],
      [
        "സ",
        "തയ"
      ],
      [
        "ന",
        "ദര"
      ],
      [
        "നൽ",
        "കയ"
      ],
      [
        "ത",
        "മ"
      ],
      [
        "ശ",
        "ച"
      ],
      [
        "പരധന",
        "മനതര"
      ],
      [
        "നയ",
        "യ"
      ],
      [
        "അന",
        "വദ"
      ],
      [
        "മക",
        "ചച"
      ],
      [
        "ക",
        "ലയ"
      ],
      [
        "അവസ",
        "ന"
      ],
      [
        "റ",
        "ണ"
      ],
      [
        "നത",
        "വ"
      ],
      [
        "ഘ",
        "ടന"
      ],
      [
        "ജ",
        "നറ"
      ],
      [
        "സര‍കക",
        "ര"
      ],
      [
        "ലഭ",
        "ചച"
      ],
      [
        "വഹ",
        "ന"
      ],
      [
        "ദ",
        "ർ"
      ],
      [
        "തതല",
        "ളള"
      ],
      [
        "എനന",
        "ണ"
      ],
      [
        "ൻ",
        "ഡ"
      ],
      [
        "പര",
        "കട"
      ],
      [
        "അ",
        "വര‍"
      ],
      [
        "പ",
        "ഞ"
      ],
      [
        "കള",
        "ജ"
      ],
      [
        "ഘ",
        "ടട"
      ],
      [
        "പദധ",
        "ത"
      ],
      [
        "ക",
        "നന"
      ],
      [
        "നനത",
        "ന"
      ],
      [
        "ത",
        "നതര"
      ],
      [
        "ഭ",
        "രയ"
      ],
      [
        "പരവര‍",
        "തതന"
      ],
      [
        "ദ",
        "ദശ"
      ],
      [
        "സന",
        "മയ"
      ],
      [
        "ർ",
        "തഥ"
      ],
      [
        "തട",
        "ര"
      ],
      [
        "അ",
        "ര"
      ],
      [
        "അ",
        "നന"
      ],
      [
        "ബജ",
        "പ"
      ],
      [
        "ച",
        "ര‍ചച"
      ],
      [
        "മററ",
        "ര"
      ],
      [
        "അദദഹ",
        "തത"
      ],
      [
        "തര",
        "തത"
      ],
      [
        "ഇ",
        "പപള‍"
      ],
      [
        "ല",
        "ററ"
      ],
      [
        "കട",
        "നന"
      ],
      [
        "സ",
        "ജ"
      ],
      [
        "തര",
        "കക"
      ],
      [
        "ല",
        "ല‍"
      ],
      [
        "ച",
        "ർ"
      ],
      [
        "അവര",
        "ട"
      ],
      [
        "പരത",
        "കഷ"
      ],
      [
        "ശ",
        "യ"
      ],
      [
        "ഇ",
        "വട"
      ],
      [
        "പട",
        "ചച"
      ],
      [
        "നയ",
        "ര"
      ],
      [
        "റ",
        "സ"
      ],
      [
        "മഖ",
        "ലയ"
      ],
      [
        "ന",
        "ള"
      ],
      [
        "സഥ",
        "ല"
      ],
      [
        "എനന",
        "വയ"
      ],
      [
        "ല",
        "ന"
      ],
      [
        "എ",
        "നറ"
      ],
      [
        "ഗ",
        "ന"
      ],
      [
        "ശ",
        "ഖ"
      ],
      [
        "ലയ",
        "ര"
      ],
      [
        "ഞ",
        "ന‍"
      ],
      [
        "അത",
        "സമയ"
      ],
      [
        "ത",
        "ക"
      ],
      [
        "റ",
        "ല"
      ],
      [
        "വ",
        "സഥ"
      ],
      [
        "ച",
        "ദ"
      ],
      [
        "പ",
        "ങക"
      ],
      [
        "പറയ",
        "നനത"
      ],
      [
        "ക",
        "ന‍"
      ],
      [
        "വ",
        "ഡയ"
      ],
      [
        "ഇ",
        "വര"
      ],
      [
        "ങങള",
        "ണ"
      ],
      [
        "ഓ",
        "ര"
      ],
      [
        "ലകഷ",
        "യ"
      ],
      [
        "പ",
        "ര‍കക"
      ],
      [
        "ആ",
        "ർ"
      ],
      [
        "നയ",
        "ണ"
      ],
      [
        "സ",
        "​"
      ],
      [
        "ഭ",
        "കഷണ"
      ],
      [
        "ക",
        "റയ"
      ],
      [
        "സർ",
        "ക"
      ],
      [
        "ദ",
        "ഹ"
      ],
      [
        "1",
        "8"
      ],
      [
        "ഇ",
        "യ"
      ],
      [
        "ഫ",
        "ര"
      ],
      [
        "ത",
        "ററ"
      ],
      [
        "ര",
        "വല"
      ],
      [
        "ള",
        "വ"
      ],
      [
        "ശര",
        "ര"
      ],
      [
        "വ",
        "ദശ"
      ],
      [
        "വക",
        "ശ"
      ],
      [
        "മ",
        "ദയ"
      ],
      [
        "തര",
        "ണ"
      ],
      [
        "ര‍",
        "ഥ"
      ],
      [
        "പര",
        "പട"
      ],
      [
        "5",
        "0"
      ],
      [
        "ഉ",
        "ളള"
      ],
      [
        "മന",
        "സ"
      ],
      [
        "കമമ",
        "ററ"
      ],
      [
        "ഡല‍",
        "ഹ"
      ],
      [
        "സ",
        "ഷ"
      ],
      [
        "കട",
        "ര‍"
      ],
      [
        "അ",
        "ടകക"
      ],
      [
        "ശ",
        "ല"
      ],
      [
        "മപ",
        "ൾ"
      ],
      [
        "വ",
        "തത"
      ],
      [
        "1",
        "1"
      ],
      [
        "ക",
        "മറ"
      ],
      [
        "വ",
        "ലകക"
      ],
      [
        "പ",
        "ഡ"
      ],
      [
        "വള",
        "ചച"
      ],
      [
        "ഹ",
        "സ"
      ],
      [
        "ഷ",
        "ടര"
      ],
      [
        "ന",
        "രയ"
      ],
      [
        "നല",
        "പട"
      ],
      [
        "ന",
        "ഗ"
      ],
      [
        "മ",
        "തയ"
      ],
      [
        "സ",
        "പര"
      ],
      [
        "ച",
        "റ"
      ],
      [
        "ആര",
        "പണ"
      ],
      [
        "നയ",
        "കക"
      ],
      [
        "അ",
        "ബദ"
      ],
      [
        "ക",
        "‌"
      ],
      [
        "സ",
        "നത"
      ],
      [
        "സ",
        "റ"
      ],
      [
        "മന",
        "സസ"
      ],
      [
        "കള",
        "ള"
      ],
      [
        "വര‍",
        "തത"
      ],
      [
        "ചകത",
        "സ"
      ],
      [
        "ബ",
        "ർ"
      ],
      [
        "പരവർ",
        "തത"
      ],
      [
        "അധയ",
        "കഷ"
      ],
      [
        "പണ",
        "‍"
      ],
      [
        "ഫ",
        "യ"
      ],
      [
        "പര",
        "കര"
      ],
      [
        "20",
        "0"
      ],
      [
        "ചച",
        "രകക"
      ],
      [
        "സ",
        "നയ"
      ],
      [
        "പ",
        "കര"
      ],
      [
        "കടട",
        "കള"
      ],
      [
        "എ",
        "ൻ"
      ],
      [
        "മ",
        "ടകക"
      ],
      [
        "ഏ",
        "ത"
      ],
      [
        "അപ",
        "കട"
      ],
      [
        "1",
        "4"
      ],
      [
        "ത",
        "ല‍"
      ],
      [
        "നന",
        "വനന"
      ],
      [
        "സഥ",
        "പന"
      ],
      [
        "ശര",
        "ദധ"
      ],
      [
        "എ",
        "യ"
      ],
      [
        "എ",
        "തതയ"
      ],
      [
        "പർ",
        "ടട"
      ],
      [
        "പര",
        "ല‍"
      ],
      [
        "പരശ",
        "ധന"
      ],
      [
        "സ",
        "നന"
      ],
      [
        "ഏ",
        "റ"
      ],
      [
        "ധ",
        "ക"
      ],
      [
        "പര",
        "ഗണ"
      ],
      [
        "സ",
        "ങ"
      ],
      [
        "ഷ",
        "‌"
      ],
      [
        "ത",
        "ശ"
      ],
      [
        "ക",
        "ല‍"
      ],
      [
        "ണട",
        "യര"
      ],
      [
        "പര",
        "മയ"
      ],
      [
        "ണട",
        "യ"
      ],
      [
        "ചച",
        "ടടണട"
      ],
      [
        "ഏ",
        "ഴ"
      ],
      [
        "മതര",
        "മണ"
      ],
      [
        "2",
        "5"
      ],
      [
        "ജ",
        "ഞ"
      ],
      [
        "ഡ",
        "ര"
      ],
      [
        "കമപ",
        "ന"
      ],
      [
        "തട",
        "ർനന"
      ],
      [
        "ച",
        "ഛ"
      ],
      [
        "മ",
        "കള"
      ],
      [
        "പഞ",
        "ചയതത"
      ],
      [
        "മഹ",
        "മമദ"
      ],
      [
        "ത",
        "മമ"
      ],
      [
        "ന",
        "രകക"
      ],
      [
        "ഭ",
        "ഷണ"
      ],
      [
        "വ",
        "നത"
      ],
      [
        "ഉ",
        "ൾ"
      ],
      [
        "ചന",
        "ദര"
      ],
      [
        "യ",
        "മ"
      ],
      [
        "സ",
        "ഞച"
      ],
      [
        "ജവ",
        "ത"
      ],
      [
        "ട",
        "വ"
      ],
      [
        "ഡ",
        "സ"
      ],
      [
        "ആ",
        "യര"
      ],
      [
        "ഘ",
        "ഷ"
      ],
      [
        "ത",
        "മഴ"
      ],
      [
        "തര",
        "ധ"
      ],
      [
        "ര",
        "തര"
      ],
      [
        "തയ",
        "ണ"
      ],
      [
        "സ",
        "രയ"
      ],
      [
        "എ",
        "നകക"
      ],
      [
        "സ",
        "ദ"
      ],
      [
        "സഘ",
        "ട"
      ],
      [
        "മണ",
        "ഡല"
      ],
      [
[...]
