{
  "version": "1.0",
  "truncation": null,
  "padding": null,
  "added_tokens": [
    {
      "id": 0,
      "content": "[UNK]",
      "single_word": false,
      "lstrip": false,
      "rstrip": false,
      "normalized": false,
      "special": true
    },
    {
      "id": 1,
      "content": "[CLS]",
      "single_word": false,
      "lstrip": false,
      "rstrip": false,
      "normalized": false,
      "special": true
    },
    {
      "id": 2,
      "content": "[SEP]",
      "single_word": false,
      "lstrip": false,
      "rstrip": false,
      "normalized": false,
      "special": true
    },
    {
      "id": 3,
      "content": "[PAD]",
      "single_word": false,
      "lstrip": false,
      "rstrip": false,
      "normalized": false,
      "special": true
    },
    {
      "id": 4,
      "content": "[MASK]",
      "single_word": false,
      "lstrip": false,
      "rstrip": false,
      "normalized": false,
      "special": true
    }
  ],
  "normalizer": {
    "type": "Sequence",
    "normalizers": [
      {
        "type": "NFD"
      },
      {
        "type": "Lowercase"
      },
      {
        "type": "StripAccents"
      }
    ]
  },
  "pre_tokenizer": {
    "type": "Sequence",
    "pretokenizers": [
      {
        "type": "WhitespaceSplit"
      },
      {
        "type": "Punctuation",
        "behavior": "Isolated"
      }
    ]
  },
  "post_processor": {
    "type": "TemplateProcessing",
    "single": [
      {
        "SpecialToken": {
          "id": "[CLS]",
          "type_id": 0
        }
      },
      {
        "Sequence": {
          "id": "A",
          "type_id": 0
        }
      },
      {
        "SpecialToken": {
          "id": "[SEP]",
          "type_id": 0
        }
      }
    ],
    "pair": [
      {
        "SpecialToken": {
          "id": "[CLS]",
          "type_id": 0
        }
      },
      {
        "Sequence": {
          "id": "A",
          "type_id": 0
        }
      },
      {
        "SpecialToken": {
          "id": "[SEP]",
          "type_id": 0
        }
      },
      {
        "Sequence": {
          "id": "B",
          "type_id": 1
        }
      },
      {
        "SpecialToken": {
          "id": "[SEP]",
          "type_id": 1
        }
      }
    ],
    "special_tokens": {
      "[CLS]": {
        "id": "[CLS]",
        "ids": [
          1
        ],
        "tokens": [
          "[CLS]"
        ]
      },
      "[SEP]": {
        "id": "[SEP]",
        "ids": [
          2
        ],
        "tokens": [
          "[SEP]"
        ]
      }
    }
  },
  "decoder": null,
  "model": {
    "type": "BPE",
    "dropout": null,
    "unk_token": "[UNK]",
    "continuing_subword_prefix": null,
    "end_of_word_suffix": null,
    "fuse_unk": false,
    "byte_fallback": false,
    "ignore_merges": false,
    "vocab": {
      "[UNK]": 0,
      "[CLS]": 1,
      "[SEP]": 2,
      "[PAD]": 3,
      "[MASK]": 4,
      "!": 5,
      "\"": 6,
      "#": 7,
      "$": 8,
      "%": 9,
      "&": 10,
      "'": 11,
      "(": 12,
      ")": 13,
      "*": 14,
      "+": 15,
      ",": 16,
      "-": 17,
      ".": 18,
      "/": 19,
      "0": 20,
      "1": 21,
      "2": 22,
      "3": 23,
      "4": 24,
      "5": 25,
      "6": 26,
      "7": 27,
      "8": 28,
      "9": 29,
      ":": 30,
      ";": 31,
      "<": 32,
      "=": 33,
      ">": 34,
      "?": 35,
      "@": 36,
      "[": 37,
      "\\": 38,
      "]": 39,
      "^": 40,
      "_": 41,
      "`": 42,
      "a": 43,
      "b": 44,
      "c": 45,
      "d": 46,
      "e": 47,
      "f": 48,
      "g": 49,
      "h": 50,
      "i": 51,
      "j": 52,
      "k": 53,
      "l": 54,
      "m": 55,
      "n": 56,
      "o": 57,
      "p": 58,
      "q": 59,
      "r": 60,
      "s": 61,
      "t": 62,
      "u": 63,
      "v": 64,
      "w": 65,
      "x": 66,
      "y": 67,
      "z": 68,
      "{": 69,
      "|": 70,
      "}": 71,
      "~": 72,
      "": 73,
      "": 74,
      "¥": 75,
      "§": 76,
      "©": 77,
      "­": 78,
      "°": 79,
      "´": 80,
      "·": 81,
      "º": 82,
      "»": 83,
      "¼": 84,
      "½": 85,
      "¾": 86,
      "×": 87,
      "ß": 88,
      "æ": 89,
      "ð": 90,
      "÷": 91,
      "þ": 92,
      "ł": 93,
      "ŋ": 94,
      "ƒ": 95,
      "ƚ": 96,
      "ɑ": 97,
      "ɒ": 98,
      "ɔ": 99,
      "ə": 100,
      "ɛ": 101,
      "ɟ": 102,
      "ɡ": 103,
      "ɪ": 104,
      "ɸ": 105,
      "ʃ": 106,
      "ʊ": 107,
      "ʋ": 108,
      "ʒ": 109,
      "ʻ": 110,
      "ʼ": 111,
      "ˈ": 112,
      "ˌ": 113,
      "ː": 114,
      "α": 115,
      "β": 116,
      "δ": 117,
      "ε": 118,
      "η": 119,
      "θ": 120,
      "ι": 121,
      "λ": 122,
      "μ": 123,
      "ν": 124,
      "ο": 125,
      "π": 126,
      "ρ": 127,
      "ς": 128,
      "σ": 129,
      "τ": 130,
      "υ": 131,
      "χ": 132,
      "ω": 133,
      "ϑ": 134,
      "а": 135,
      "б": 136,
      "в": 137,
      "г": 138,
      "д": 139,
      "е": 140,
      "з": 141,
      "и": 142,
      "к": 143,
      "л": 144,
      "м": 145,
      "н": 146,
      "о": 147,
      "п": 148,
      "р": 149,
      "с": 150,
      "т": 151,
      "у": 152,
      "ф": 153,
      "х": 154,
      "ч": 155,
      "ъ": 156,
      "ь": 157,
      "ю": 158,
      "я": 159,
      "ѣ": 160,
      "ҡ": 161,
      "ի": 162,
      "տ": 163,
      "ր": 164,
      "։": 165,
      "א": 166,
      "ו": 167,
      "ז": 168,
      "ל": 169,
      "ם": 170,
      "מ": 171,
      "צ": 172,
      "ר": 173,
      "ء": 174,
      "ا": 175,
      "ب": 176,
      "ة": 177,
      "ت": 178,
      "ج": 179,
      "ح": 180,
      "خ": 181,
      "د": 182,
      "ذ": 183,
      "ر": 184,
      "ز": 185,
      "س": 186,
      "ش": 187,
      "ص": 188,
      "ظ": 189,
      "ع": 190,
      "ف": 191,
      "ق": 192,
      "ك": 193,
      "ل": 194,
      "م": 195,
      "ن": 196,
      "ه": 197,
      "و": 198,
      "ى": 199,
      "ي": 200,
      "ٽ": 201,
      "پ": 202,
      "ڀ": 203,
      "چ": 204,
      "ډ": 205,
      "ڔ": 206,
      "ک": 207,
      "گ": 208,
      "ھ": 209,
      "ی": 210,
      "अ": 211,
      "आ": 212,
      "ई": 213,
      "ऊ": 214,
      "क": 215,
      "ख": 216,
      "ग": 217,
      "च": 218,
      "ज": 219,
      "ञ": 220,
      "ट": 221,
      "ठ": 222,
      "ड": 223,
      "ण": 224,
      "त": 225,
      "थ": 226,
      "द": 227,
      "न": 228,
      "प": 229,
      "फ": 230,
      "ब": 231,
      "भ": 232,
      "म": 233,
      "य": 234,
      "र": 235,
      "ल": 236,
      "व": 237,
      "श": 238,
      "ष": 239,
      "स": 240,
      "ह": 241,
      "ॐ": 242,
      "।": 243,
      "०": 244,
      "আ": 245,
      "গ": 246,
      "ছ": 247,
      "দ": 248,
      "ধ": 249,
      "ন": 250,
      "য": 251,
      "র": 252,
      "ল": 253,
      "স": 254,
      "ਚ": 255,
      "ਜ": 256,
      "ਟ": 257,
      "ਠ": 258,
      "ਡ": 259,
      "ਤ": 260,
      "ਨ": 261,
      "ਪ": 262,
      "ਬ": 263,
      "ਮ": 264,
      "ਲ": 265,
      "ਸ": 266,
      "ଗ": 267,
      "ର": 268,
      "ଳ": 269,
      "ସ": 270,
      "அ": 271,
      "ச": 272,
      "ட": 273,
      "ண": 274,
      "த": 275,
      "ன": 276,
      "ப": 277,
      "ம": 278,
      "ய": 279,
      "ர": 280,
      "ல": 281,
      "ழ": 282,
      "வ": 283,
      "ಅ": 284,
      "ಗ": 285,
      "ಜ": 286,
      "ಟ": 287,
      "ತ": 288,
      "ದ": 289,
      "ನ": 290,
      "ಪ": 291,
      "ಬ": 292,
      "ಭ": 293,
      "ಯ": 294,
      "ರ": 295,
      "ಳ": 296,
      "ಸ": 297,
      "ಹ": 298,
      "അ": 299,
      "ആ": 300,
      "ഇ": 301,
      "ഈ": 302,
      "ഉ": 303,
      "ഊ": 304,
      "ഋ": 305,
      "ഌ": 306,
      "എ": 307,
      "ഏ": 308,
      "ഐ": 309,
      "ഒ": 310,
      "ഓ": 311,
      "ഔ": 312,
      "ക": 313,
      "ഖ": 314,
      "ഗ": 315,
      "ഘ": 316,
      "ങ": 317,
      "ച": 318,
      "ഛ": 319,
      "ജ": 320,
      "ഝ": 321,
      "ഞ": 322,
      "ട": 323,
      "ഠ": 324,
      "ഡ": 325,
      "ഢ": 326,
      "ണ": 327,
      "ത": 328,
      "ഥ": 329,
      "ദ": 330,
      "ധ": 331,
      "ന": 332,
      "പ": 333,
      "ഫ": 334,
      "ബ": 335,
      "ഭ": 336,
      "മ": 337,
      "യ": 338,
      "ര": 339,
      "റ": 340,
      "ല": 341,
      "ള": 342,
      "ഴ": 343,
      "വ": 344,
      "ശ": 345,
      "ഷ": 346,
      "സ": 347,
      "ഹ": 348,
      "഼": 349,
      "ഽ": 350,
      "ൡ": 351,
      "൦": 352,
      "൧": 353,
      "൨": 354,
      "൩": 355,
      "൪": 356,
      "൬": 357,
      "൮": 358,
      "൯": 359,
      "൹": 360,
      "ൺ": 361,
      "ൻ": 362,
      "ർ": 363,
      "ൽ": 364,
      "ൾ": 365,
      "ൿ": 366,
      "ආ": 367,
      "ග": 368,
      "ච": 369,
      "ජ": 370,
      "ත": 371,
      "ද": 372,
      "ධ": 373,
      "න": 374,
      "ප": 375,
      "ය": 376,
      "ර": 377,
      "ව": 378,
      "ශ": 379,
      "ස": 380,
      "හ": 381,
      "๏": 382,
      "က": 383,
      "ဇ": 384,
      "တ": 385,
      "ထ": 386,
      "န": 387,
      "ပ": 388,
      "မ": 389,
      "ရ": 390,
      "လ": 391,
      "ဝ": 392,
      "သ": 393,
      "ა": 394,
      "ე": 395,
      "თ": 396,
      "ი": 397,
      "ლ": 398,
      "ნ": 399,
      "რ": 400,
      "უ": 401,
      "ქ": 402,
      "ᄃ": 403,
      "ᄇ": 404,
      "ᅡ": 405,
      "ᠠ": 406,
      "ᠢ": 407,
      "ᠥ": 408,
      "ᠦ": 409,
      "ᠨ": 410,
      "ᠭ": 411,
      "ᠯ": 412,
      "ᠰ": 413,
      "ᠲ": 414,
      "ᠶ": 415,
      "ᠺ": 416,
      "ᡠ": 417,
      "ᡥ": 418,
      "ᡳ": 419,
      "​": 420,
      "‌": 421,
      "‍": 422,
      "‎": 423,
      "‐": 424,
      "‑": 425,
      "–": 426,
      "—": 427,
      "‘": 428,
      "’": 429,
      "‚": 430,
      "“": 431,
      "”": 432,
      "‡": 433,
      "•": 434,
      "…": 435,
      "′": 436,
      "″": 437,
      "₨": 438,
      "₪": 439,
      "€": 440,
      "₹": 441,
      "№": 442,
      "™": 443,
      "←": 444,
      "↑": 445,
      "→": 446,
      "↣": 447,
      "∂": 448,
      "−": 449,
      "∙": 450,
      "∶": 451,
      "≈": 452,
      "⋆": 453,
      "■": 454,
      "▪": 455,
      "►": 456,
      "◆": 457,
      "◊": 458,
      "●": 459,
      "◦": 460,
      "★": 461,
      "☎": 462,
      "☛": 463,
      "☞": 464,
      "☺": 465,
      "♦": 466,
      "⛔": 467,
      "✔": 468,
      "❓": 469,
      "❤": 470,
      "➤": 471,
      "➥": 472,
      "⟨": 473,
      "⟩": 474,
      "⭕": 475,
      "一": 476,
      "争": 477,
      "伊": 478,
      "信": 479,
      "公": 480,
      "勒": 481,
      "友": 482,
      "古": 483,
      "吉": 484,
      "呼": 485,
      "图": 486,
      "園": 487,
      "城": 488,
      "孫": 489,
      "山": 490,
      "岡": 491,
      "崎": 492,
      "市": 493,
      "志": 494,
      "念": 495,
      "悟": 496,
      "战": 497,
      "戰": 498,
      "抗": 499,
      "日": 500,
      "星": 501,
      "期": 502,
      "格": 503,
      "梨": 504,
      "正": 505,
      "江": 506,
      "爭": 507,
      "犁": 508,
      "眼": 509,
      "福": 510,
      "空": 511,
      "红": 512,
      "群": 513,
      "赵": 514,
      "長": 515,
      "青": 516,
      "高": 517,
      "黑": 518,
      "龍": 519,
      "龙": 520,
      "ꙗ": 521,
      "": 522,
      "": 523,
      "": 524,
      "﻿": 525,
      "ￜ": 526,
      "￼": 527,
      "�": 528,
      "𐤅": 529,
      "𐤑": 530,
      "𐤓": 531,
      "𒊒": 532,
      "𒋗": 533,
      "🅾": 534,
      "🍀": 535,
      "👉": 536,
      "👍": 537,
      "💊": 538,
      "📍": 539,
      "🔅": 540,
      "🔳": 541,
      "🕉": 542,
      "🕟": 543,
      "😁": 544,
      "😂": 545,
      "😃": 546,
      "😉": 547,
      "😎": 548,
      "😏": 549,
      "😠": 550,
      "😥": 551,
      "🙄": 552,
      "🙊": 553,
      "🙏": 554,
      "🟥": 555,
      "🤓": 556,
      "🥀": 557,
      "𠠦": 558,
      "𠦣": 559,
      "󦣳": 560,
      "നന": 561,
      "കക": 562,
      "തത": 563,
      "ര‍": 564,
      "ല‍": 565,
      "പര": 566,
      "ടട": 567,
      "ചച": 568,
      "പപ": 569,
      "തര": 570,
      "ററ": 571,
      "ങങ": 572,
      "ണട": 573,
      "കള": 574,
      "ന‍": 575,
      "കര": 576,
      "മയ": 577,
      "ലല": 578,
      "നറ": 579,
      "തയ": 580,
      "ങങള": 581,
      "നനത": 582,
      "ളള": 583,
      "കട": 584,
      "നയ": 585,
      "വര": 586,
      "കഷ": 587,
      "കയ": 588,
      "മന": 589,
      "നട": 590,
      "രനന": 591,
      "ഞഞ": 592,
      "ലയ": 593,
      "റയ": 594,
      "എനന": 595,
      "മണ": 596,
      "വയ": 597,
      "ചയ": 598,
      "മനന": 599,
      "സഥ": 600,
      "പല": 601,
      "രകക": 602,
      "വര‍": 603,
      "മപ": 604,
      "സററ": 605,
      "രയ": 606,
      "കല": 607,
      "സന": 608,
      "കള‍": 609,
      "തതയ": 610,
      "സവ": 611,
      "തട": 612,
      "ദയ": 613,
      "പറ": 614,
      "തതന": 615,
      "ഒര": 616,
      "മത": 617,
      "കകനന": 618,
      "പട": 619,
      "ള‍": 620,
      "നത": 621,
      "യട": 622,
      "വസ": 623,
      "കടട": 624,
      "തതല": 625,
      "തതല‍": 626,
      "മമ": 627,
      "ങങള‍": 628,
      "കത": 629,
      "ജയ": 630,
      "കണ": 631,
      "കഴ": 632,
      "നനന": 633,
      "വശ": 634,
      "പപട": 635,
      "തന": 636,
      "ദര": 637,
      "ദശ": 638,
      "കണട": 639,
      "ഗര": 640,
      "മര": 641,
      "ലകക": 642,
      "കൾ": 643,
      "ധയ": 644,
      "യരനന": 645,
      "പരത": 646,
      "തനന": 647,
      "യണ": 648,
      "അന": 649,
      "വർ": 650,
      "നര": 651,
      "സ‌": 652,
      "കകനനത": 653,
      "അത": 654,
      "നല‍": 655,
      "ധന": 656,
      "മററ": 657,
      "ശര": 658,
      "ര‍കക": 659,
      "പപടട": 660,
      "യല‍": 661,
      "മകക": 662,
      "ങങൾ": 663,
      "സഥന": 664,
      "പയ": 665,
      "സര": 666,
      "ഇത": 667,
      "നല": 668,
      "വട": 669,
      "കസ": 670,
      "വള": 671,
      "സഹ": 672,
      "സമ": 673,
      "യല": 674,
      "മനതര": 675,
      "ങക": 676,
      "ഇന": 677,
      "പറഞഞ": 678,
      "തതൽ": 679,
      "വന": 680,
      "വടട": 681,
      "പത": 682,
      "നധ": 683,
      "ചയയ": 684,
      "ആര": 685,
      "ചചത": 686,
      "കന": 687,
      "മഖ": 688,
      "സസ": 689,
      "ദധ": 690,
      "മറ": 691,
      "കവ": 692,
      "കറ": 693,
      "തതനറ": 694,
      "മസ": 695,
      "കരയ": 696,
      "ഞച": 697,
      "പണ": 698,
      "എസ": 699,
      "അട": 700,
      "വവ": 701,
      "വഷ": 702,
      "ദദ": 703,
      "ഇനതയ": 704,
      "20": 705,
      "പലസ": 706,
      "കര‍": 707,
      "രണ": 708,
      "വനന": 709,
      "രണട": 710,
      "യകക": 711,
      "പര‍": 712,
      "വല": 713,
      "ഷട": 714,
      "സഭ": 715,
      "കരണ": 716,
      "വക": 717,
      "ജന": 718,
      "ബനധ": 719,
      "ചയത": 720,
      "പരസ": 721,
      "നര‍": 722,
      "കടത": 723,
      "പരശ": 724,
      "മര‍": 725,
      "യൽ": 726,
      "ടകക": 727,
      "രഗ": 728,
      "കളട": 729,
      "ർകക": 730,
      "ഭഗ": 731,
      "നൽ": 732,
      "യത": 733,
      "വദ": 734,
      "പറയ": 735,
      "മല": 736,
      "വണ": 737,
      "കഷണ": 738,
      "മലല": 739,
      "‌സ": 740,
      "റപപ": 741,
      "മക": 742,
      "ടടണട": 743,
      "മതര": 744,
      "പന": 745,
      "അവ": 746,
      "വശയ": 747,
      "കയണ": 748,
      "ജവ": 749,
      "മഹ": 750,
      "സഘ": 751,
      "രപ": 752,
      "ങങളട": 753,
      "ലഭ": 754,
      "യയ": 755,
      "തതര": 756,
      "ശഷ": 757,
      "നകക": 758,
      "വണട": 759,
      "കഴഞഞ": 760,
      "പരയ": 761,
      "ചതര": 762,
      "പനന": 763,
      "ദദഹ": 764,
      "ര‍നന": 765,
      "കകട": 766,
      "പക": 767,
      "ഉണട": 768,
      "കകന": 769,
      "00": 770,
      "കകന‍": 771,
      "കരള": 772,
      "നടതത": 773,
      "അറയ": 774,
      "ണ‍": 775,
      "വഴ": 776,
      "ങകല": 777,
      "ഡയ": 778,
      "പകഷ": 779,
      "പതര": 780,
      "ടപപ": 781,
      "ബര": 782,
      "നതര": 783,
      "അദദഹ": 784,
      "മന‍": 785,
      "ടതത": 786,
      "ടര": 787,
      "പടട": 788,
      "സസഥന": 789,
      "വചച": 790,
      "സമയ": 791,
      "കകണ": 792,
      "അഭ": 793,
      "ആശ": 794,
      "വലയ": 795,
      "കനദര": 796,
      "രജയ": 797,
      "ചല": 798,
      "പതയ": 799,
      "കകയ": 800,
      "വധ": 801,
      "ജലല": 802,
      "ങങയ": 803,
      "ഇനന": 804,
      "മഴ": 805,
      "വദയ": 806,
      "ദവസ": 807,
      "ലണ": 808,
      "ലക": 809,
      "കവഡ": 810,
      "മണട": 811,
      "വനനത": 812,
      "ഇട": 813,
      "ആവശയ": 814,
      "കകള": 815,
      "മളള": 816,
      "നടട": 817,
      "പപചച": 818,
      "ലലനന": 819,
      "സമപ": 820,
      "പരവര‍": 821,
      "സര‍കക": 822,
      "വഹ": 823,
      "എലല": 824,
      "രജ": 825,
      "ഗയ": 826,
      "ദന": 827,
      "ലകഷ": 828,
      "പറതത": 829,
      "കകര": 830,
      "ആദയ": 831,
      "പർ": 832,
      "ണണ": 833,
      "വയകത": 834,
      "നർ": 835,
      "കർ": 836,
      "കകകയ": 837,
      "തല": 838,
      "ചന": 839,
      "കളല‍": 840,
      "മലയ": 841,
      "ഏററ": 842,
      "വറ": 843,
      "പരതയ": 844,
      "ന‍റ": 845,
      "തരഞഞ": 846,
      "കകറ": 847,
      "തഥ": 848,
      "കണ‍": 849,
      "രകകനനത": 850,
      "മഖയ": 851,
      "വരട": 852,
      "സയ": 853,
      "കരചച": 854,
      "കള‍കക": 855,
      "കതത": 856,
      "സതര": 857,
      "പപഴ": 858,
      "ങങളല‍": 859,
      "യവ": 860,
      "നടതതയ": 861,
      "സല": 862,
      "ജല": 863,
      "മർ": 864,
      "19": 865,
      "കകണട": 866,
      "പരധന": 867,
      "ചര": 868,
      "പചച": 869,
      "നല‍ക": 870,
      "സഭവ": 871,
      "പപള‍": 872,
      "ര‍ടട": 873,
      "പപടതത": 874,
      "നതത": 875,
      "കകൻ": 876,
      "പയഗ": 877,
      "സബ": 878,
      "കളല": 879,
      "അറ": 880,
      "വജയ": 881,
      "സത": 882,
      "ടയ": 883,
      "ടന": 884,
      "ഷണ": 885,
      "ഒനന": 886,
      "വളള": 887,
      "ന‍സ": 888,
      "ഷയ": 889,
      "ഗത": 890,
      "ബജ": 891,
      "ബല": 892,
      "ഓഫ": 893,
      "എനനല‍": 894,
      "ദവ": 895,
      "ഹര": 896,
      "ബധ": 897,
      "തരചച": 898,
      "വര‍ഷ": 899,
      "ങങള‍കക": 900,
      "ഉപയഗ": 901,
      "സകര": 902,
      "ര‍തത": 903,
      "വല‍": 904,
      "തരമന": 905,
      "ർനന": 906,
      "സധ": 907,
      "കകററ": 908,
      "ഖയ": 909,
      "എഫ": 910,
      "വഷണ": 911,
      "സപ": 912,
      "തതട": 913,
      "ഴച": 914,
      "ഷന‍": 915,
      "അധ": 916,
      "തഴ": 917,
      "നടപട": 918,
      "കററ": 919,
      "മഖയമനതര": 920,
      "സര‍": 921,
      "മൻ": 922,
      "തരയ": 923,
      "രകകനന": 924,
      "തതത": 925,
      "കചച": 926,
      "നല‍കയ": 927,
      "ഗരസ": 928,
      "കമപ": 929,
      "മടട": 930,
      "മനറ": 931,
      "അമ": 932,
      "കകക": 933,
      "അഗ": 934,
      "ങങളല": 935,
      "ണനന": 936,
      "എതത": 937,
      "ളളത": 938,
      "ബദ": 939,
      "കടബ": 940,
      "ണയ": 941,
      "വന‍": 942,
      "മട": 943,
      "മഡ": 944,
      "മയരനന": 945,
      "ഏററവ": 946,
      "ഫല": 947,
      "പഴ": 948,
      "പരവര‍തത": 949,
      "യതര": 950,
      "കനന": 951,
      "മധയ": 952,
      "വവര": 953,
      "ആയ": 954,
      "കകടട": 955,
      "കലല": 956,
      "ഗണ": 957,
      "ഉയ": 958,
      "രഷട": 959,
      "കളൽ": 960,
      "അറയചച": 961,
      "പറയനന": 962,
      "തരവനനത": 963,
      "ശന": 964,
      "തരവനനതപര": 965,
      "കകള‍": 966,
      "ഇര": 967,
      "കഴയ": 968,
      "ശരമ": 969,
      "തരഞഞടപപ": 970,
      "ങങന": 971,
      "പരദശ": 972,
      "തള": 973,
      "തതയത": 974,
      "കടടയ": 975,
      "നടനന": 976,
      "ടടറ": 977,
      "പരസഡ": 978,
      "ഗല": 979,
      "നയമ": 980,
      "വമയ": 981,
      "പരവർ": 982,
      "തടട": 983,
      "കമമ": 984,
      "ദര‍": 985,
      "ചയതത": 986,
      "മരണ": 987,
      "ആശപതര": 988,
      "സര‍കകര‍": 989,
      "ദശയ": 990,
      "ങങളൽ": 991,
      "ആണ": 992,
      "തടര‍നന": 993,
      "201": 994,
      "ൻറ": 995,
      "പഠ": 996,
      "സഥര": 997,
      "കടതത": 998,
      "കകമനന": 999,
      "ദയഗ": 1000,
      "പങ": 1001,
      "മറയ": 1002,
      "മതത": 1003,
      "ലതത": 1004,
      "യറ": 1005,
      "ര‍ചച": 1006,
      "കയയരനന": 1007,
      "കറചച": 1008,
      "വര‍കക": 1009,
      "രകഷ": 1010,
      "അനവഷണ": 1011,
      "മലയള": 1012,
      "ഭയ": 1013,
      "ഭവ": 1014,
      "പദധ": 1015,
      "തതലണ": 1016,
      "പര‍ടട": 1017,
      "സമഹ": 1018,
      "കൾകക": 1019,
      "കളയ": 1020,
      "നണ": 1021,
      "റററ": 1022,
      "തടങങയ": 1023,
      "നളള": 1024,
      "ആരഗയ": 1025,
      "സർകക": 1026,
      "തറ": 1027,
      "പപൾ": 1028,
      "ഭരണ": 1029,
      "കണണ": 1030,
      "തനറ": 1031,
      "‌ന": 1032,
      "ങകല‍": 1033,
      "ൻസ": 1034,
      "ആര‍": 1035,
      "വകപപ": 1036,
      "പപറ": 1037,
      "യളള": 1038,
      "നതതവ": 1039,
      "രഹ": 1040,
      "എനത": 1041,
      "ചയയനന": 1042,
      "റഡ": 1043,
      "ചരയ": 1044,
      "യഗ": 1045,
      "ഒഴ": 1046,
      "എന‍": 1047,
      "ബബ": 1048,
      "അഞച": 1049,
      "സല‍": 1050,
      "ഇതന": 1051,
      "കരമ": 1052,
      "ശകത": 1053,
      "തയട": 1054,
      "നലല": 1055,
      "അതന": 1056,
      "വയകതമകക": 1057,
      "കശ": 1058,
      "ങങൾകക": 1059,
      "ഷധ": 1060,
      "കളണ": 1061,
      "സഹയ": 1062,
      "ര‍തഥ": 1063,
      "കരമണ": 1064,
      "പനത": 1065,
      "അപ": 1066,
      "10": 1067,
      "ഭര": 1068,
      "റപപര‍ടട": 1069,
      "കൺ": 1070,
      "ശത": 1071,
      "ചചരനന": 1072,
      "കകരയ": 1073,
      "മതസര": 1074,
      "വൽ": 1075,
      "വത": 1076,
      "സരകഷ": 1077,
      "മമപ": 1078,
      "വകക": 1079,
      "പരഖയ": 1080,
      "ഷന": 1081,
      "സർ": 1082,
      "എല‍": 1083,
      "ധര": 1084,
      "മധയമ": 1085,
      "ഉതതര": 1086,
      "മദ": 1087,
      "ബജപ": 1088,
      "ബര‍": 1089,
      "പററ": 1090,
      "കകല‍": 1091,
      "രഷടരയ": 1092,
      "കഞഞ": 1093,
      "ഗള": 1094,
      "വവഹ": 1095,
      "പപടനന": 1096,
      "അധയ": 1097,
      "ങകൽ": 1098,
      "ഡല‍": 1099,
      "അറസററ": 1100,
      "തടങങ": 1101,
      "മബ": 1102,
      "സവധന": 1103,
      "തമസ": 1104,
      "വരനന": 1105,
      "അവസന": 1106,
      "വഹന": 1107,
      "ഷൻ": 1108,
      "തണ": 1109,
      "പസററ": 1110,
      "ഡല": 1111,
      "പരസഡനറ": 1112,
      "രനനത": 1113,
      "ർതത": 1114,
      "നവ": 1115,
      "ആരഭ": 1116,
      "കണ‍ഗരസ": 1117,
      "പരകഷ": 1118,
      "ശതമന": 1119,
      "ലഗ": 1120,
      "കതയ": 1121,
      "വററ": 1122,
      "മതല‍": 1123,
      "സവദശ": 1124,
      "ർടട": 1125,
      "വർഷ": 1126,
      "രഗതത": 1127,
      "വഭഗ": 1128,
      "എനനൽ": 1129,
      "ഉപ": 1130,
      "സകരടടറ": 1131,
      "സഹചരയ": 1132,
      "ണടയ": 1133,
      "മനനണ": 1134,
      "സധയ": 1135,
      "ടടലല": 1136,
      "വമന": 1137,
      "ആവശയപപടട": 1138,
      "സഫ": 1139,
      "നലയ": 1140,
      "തകക": 1141,
      "മരചച": 1142,
      "ആറ": 1143,
      "ഉദയഗ": 1144,
      "അടതത": 1145,
      "ചദയ": 1146,
      "ലട": 1147,
      "നനതന": 1148,
      "വലല": 1149,
      "വരണ": 1150,
      "ബനധചച": 1151,
      "സഗ": 1152,
      "15": 1153,
      "വശവസ": 1154,
      "പതത": 1155,
      "ഇറ": 1156,
      "മണനന": 1157,
      "ലളള": 1158,
      "ഉദ": 1159,
      "ജനറ": 1160,
      "ബനധപപടട": 1161,
      "പരമ": 1162,
      "സമര": 1163,
      "പള": 1164,
      "തതക": 1165,
      "മല‍": 1166,
      "സനറ": 1167,
      "ഇതതര": 1168,
      "മപള‍": 1169,
      "ഇവട": 1170,
      "ഉള‍": 1171,
      "സവനത": 1172,
      "രജയതത": 1173,
      "പപടതതയ": 1174,
      "ലന": 1175,
      "വവധ": 1176,
      "വരയ": 1177,
      "ആള": 1178,
      "കകണമനന": 1179,
      "ര‍ഥ": 1180,
      "കഥ": 1181,
      "പളള": 1182,
      "30": 1183,
      "തവ": 1184,
      "ഉട": 1185,
      "കകര‍": 1186,
      "പരശധ": 1187,
      "കടയ": 1188,
      "പനനട": 1189,
      "ക‌സ": 1190,
      "കടതല‍": 1191,
      "അയ": 1192,
      "തയല‍": 1193,
      "നയട": 1194,
      "നററ": 1195,
      "നമമ": 1196,
      "വനറ": 1197,
      "രകകകയണ": 1198,
      "നൽക": 1199,
      "പരതഷധ": 1200,
      "നരവധ": 1201,
      "ര‍ജ": 1202,
      "ജവന": 1203,
      "അമരകക": 1204,
      "സമമ": 1205,
      "ന‍ഡ": 1206,
      "നശ": 1207,
      "നരതത": 1208,
      "ചട": 1209,
      "ലള": 1210,
      "ചകത": 1211,
      "12": 1212,
      "എനനത": 1213,
      "ബസ": 1214,
      "ഇനതയന‍": 1215,
      "ഇലല": 1216,
      "പരവശ": 1217,
      "അലല": 1218,
      "എണണ": 1219,
      "ബകക": 1220,
      "ഷക": 1221,
      "രഖ": 1222,
      "രമ": 1223,
      "കടനന": 1224,
      "കരട": 1225,
      "വൻ": 1226,
      "പകക": 1227,
      "ആല": 1228,
      "മയണ": 1229,
      "കപപ": 1230,
      "നഷട": 1231,
      "പരധനമനതര": 1232,
      "ചണട": 1233,
      "ലഭചച": 1234,
      "ചനന": 1235,
      "നയനതര": 1236,
      "കകറചച": 1237,
      "സപര": 1238,
      "നദ": 1239,
      "വഗ": 1240,
      "നനണ": 1241,
      "യമയ": 1242,
      "പടചച": 1243,
      "നൽകയ": 1244,
      "000": 1245,
      "മകചച": 1246,
      "നദര": 1247,
      "സനമ": 1248,
      "ഗരഹ": 1249,
      "എഴ": 1250,
      "മമദ": 1251,
      "ണമനന": 1252,
      "ബഹ": 1253,
      "പരവര‍തതന": 1254,
      "സകഷ": 1255,
      "കകനനതന": 1256,
      "പരച": 1257,
      "അല": 1258,
      "ബയ": 1259,
      "തതലകക": 1260,
      "അനവദ": 1261,
      "നഗര": 1262,
      "തതകക": 1263,
      "വർകക": 1264,
      "ഭരയ": 1265,
      "റണ": 1266,
      "നയയ": 1267,
      "സര‍കകര": 1268,
      "വങങ": 1269,
      "കലയ": 1270,
      "ശച": 1271,
      "പപകക": 1272,
      "സരചച": 1273,
      "സനമയ": 1274,
      "വളര": 1275,
      "കമ": 1276,
      "സബനധചച": 1277,
      "ദധയ": 1278,
      "എനനണ": 1279,
      "അതസമയ": 1280,
      "വഷയ": 1281,
      "തതലളള": 1282,
      "ഘടന": 1283,
      "കണകക": 1284,
      "ർതഥ": 1285,
      "ചര‍ചച": 1286,
      "ങങളണ": 1287,
      "സജ": 1288,
      "പരമയ": 1289,
      "ദദശ": 1290,
      "സസഥനതത": 1291,
      "ലല‍": 1292,
      "ലററ": 1293,
      "ഇപപള‍": 1294,
      "അവര‍": 1295,
      "പരതകഷ": 1296,
      "പരതയക": 1297,
      "പദധത": 1298,
      "ർചച": 1299,
      "ഡല‍ഹ": 1300,
      "ദർ": 1301,
      "ഘടട": 1302,
      "ൻഡ": 1303,
      "അര": 1304,
      "നള": 1305,
      "അപകട": 1306,
      "ഉറപപ": 1307,
      "ഗന": 1308,
      "പങക": 1309,
      "ങങളയ": 1310,
      "മററര": 1311,
      "കളജ": 1312,
      "റസ": 1313,
      "ശയ": 1314,
      "പഞ": 1315,
      "ഭകഷണ": 1316,
      "ഒരകക": 1317,
      "സതയ": 1318,
      "പര‍കക": 1319,
      "നറയ": 1320,
      "വഡയ": 1321,
      "മദയ": 1322,
      "സർകകർ": 1323,
      "മഖലയ": 1324,
      "എനനവയ": 1325,
      "കലതത": 1326,
      "ദഹ": 1327,
      "റല": 1328,
      "ചകതസ": 1329,
      "ഇയ": 1330,
      "ശഖ": 1331,
      "ലയരനന": 1332,
      "പറയനനത": 1333,
      "മതൽ": 1334,
      "വളചച": 1335,
      "കറയ": 1336,
      "നമ": 1337,
      "പഡ": 1338,
      "വദശ": 1339,
      "കണടതത": 1340,
      "രവല": 1341,
      "നയണ": 1342,
      "എതതയ": 1343,
      "ഫര": 1344,
      "11": 1345,
      "മനസ": 1346,
      "ചദ": 1347,
      "മതയ": 1348,
      "തററ": 1349,
      "അനന": 1350,
      "ളന": 1351,
      "ശരര": 1352,
      "ചയയനനത": 1353,
      "വസഥ": 1354,
      "തടർനന": 1355,
      "ഉളള": 1356,
      "നടയ": 1357,
      "ആരപണ": 1358,
      "കടര‍": 1359,
      "രതര": 1360,
      "50": 1361,
      "അവരട": 1362,
      "കകൾ": 1363,
      "സഷ": 1364,
      "നങങളട": 1365,
      "പരപട": 1366,
      "വര‍തത": 1367,
      "ഏറ": 1368,
      "ആത": 1369,
      "കന‍": 1370,
      "​​": 1371,
      "കമയ": 1372,
      "കകതര": 1373,
      "കകനനണട": 1374,
      "സഥപന": 1375,
      "പരവർതത": 1376,
      "ലകഷയ": 1377,
      "വകശ": 1378,
      "തരണ": 1379,
      "കമമററ": 1380,
      "മചച": 1381,
      "നഗ": 1382,
      "വലകക": 1383,
      "പരകട": 1384,
      "നതവ": 1385,
      "കമറ": 1386,
      "ആർ": 1387,
      "പണ‍": 1388,
      "സൽ": 1389,
      "കടതൽ": 1390,
      "സഥല": 1391,
      "നലപട": 1392,
      "പപന": 1393,
      "എനറ": 1394,
      "അബദ": 1395,
      "സറ": 1396,
      "മണഡല": 1397,
      "ഞന‍": 1398,
      "ധക": 1399,
      "18": 1400,
      "പകര": 1401,
      "അധയകഷ": 1402,
      "ക‌": 1403,
      "മപൾ": 1404,
      "ഉപയഗചച": 1405,
      "കകനളള": 1406,
      "കല‍": 1407,
      "യനന": 1408,
      "എൻ": 1409,
      "തശ": 1410,
      "പരശധന": 1411,
      "ചറ": 1412,
      "ശരദധ": 1413,
      "പരഗണ": 1414,
      "സനത": 1415,
      "കഷതര": 1416,
      "നടപപ": 1417,
      "പർടട": 1418,
      "കടകക": 1419,
      "ബർ": 1420,
      "സവകര": 1421,
      "അടസഥന": 1422,
      "കമപന": 1423,
      "ഡര": 1424,
      "ളവ": 1425,
      "ഏഴ": 1426,
      "തതനന": 1427,
      "ഓര": 1428,
      "കളള": 1429,
      "പരശ‌ന": 1430,
      "പരല‍": 1431,
      "14": 1432,
      "ശല": 1433,
      "ആകരമണ": 1434,
      "വവദ": 1435,
      "200": 1436,
      "സങ": 1437,
      "തല‍": 1438,
      "തമഴ": 1439,
      "സനന": 1440,
      "മഹമമദ": 1441,
      "തരധ": 1442,
      "ടരയ": 1443,
      "സരയ": 1444,
      "25": 1445,
      "സ‌കര": 1446,
      "ളയ": 1447,
      "നരയ": 1448,
      "തയയറ": 1449,
      "പരകര": 1450,
      "സനയ": 1451,
      "ഉൾ": 1452,
      "ചനദര": 1453,
      "തമമ": 1454,
      "ഭഷണ": 1455,
      "വനത": 1456,
      "തക": 1457,
      "ഹജ": 1458,
      "തമയ": 1459,
      "മരയ": 1460,
      "വനയ": 1461,
      "ഘഷ": 1462,
      "സഞച": 1463,
      "തയണ": 1464,
      "ഷ‌": 1465,
      "വതത": 1466,
      "ചയതര": 1467,
      "മടകക": 1468,
      "സവകരയ": 1469,
      "തന‍": 1470,
      "മതരമണ": 1471,
      "മനഷയ": 1472,
      "ചഛ": 1473,
      "സദ": 1474,
      "എൽ": 1475,
      "ഏത": 1476,
      "24": 1477,
      "ഗനധ": 1478,
      "അവട": 1479,
      "നനനളള": 1480,
      "എയ": 1481,
      "എതര": 1482,
      "ഹസ": 1483,
      "റപപർടട": 1484,
      "റകക": 1485,
      "പരതരധ": 1486,
      "ഇകകരയ": 1487,
      "പന‍": 1488,
      "പനനല": 1489,
      "കസററ": 1490,
      "അവതര": 1491,
      "ശരയ": 1492,
      "തതനളള": 1493,
      "പരഖയപചച": 1494,
      "കകകയയരനന": 1495,
      "തനനയണ": 1496,
      "ഫയ": 1497,
      "യലണ": 1498,
      "ശകതമയ": 1499,
      "21": 1500,
      "റയല‍": 1501,
      "മയട": 1502,
      "റനറ": 1503,
      "ബന": 1504,
      "ജഞ": 1505,
      "വശദ": 1506,
      "ഴ‌സ": 1507,
      "മനസസ": 1508,
      "ഉണടയ": 1509,
      "നയനതരണ": 1510,
      "സ​": 1511,
      "അപകഷ": 1512,
      "ഡൽ": 1513,
      "റല‍": 1514,
      "പരചരണ": 1515,
      "ചര‍നന": 1516,
      "കകൽ": 1517,
      "ഉദയഗസഥ": 1518,
      "ഡററ": 1519,
      "ഇടപട": 1520,
      "തവണ": 1521,
      "ജവത": 1522,
      "പപകകനന": 1523,
      "സഘടന": 1524,
      "പശച": 1525,
      "മള": 1526,
      "എനനവ": 1527,
      "പണറയ": 1528,
      "വര‍ണ": 1529,
      "മഡയ": 1530,
      "ബങക": 1531,
      "ണടനന": 1532,
      "ഇതവര": 1533,
      "ശസതര": 1534,
      "മറപട": 1535,
      "സമപതതക": 1536,
      "തളള": 1537,
      "കകകയണ": 1538,
      "നര‍ദശ": 1539,
      "സധരണ": 1540,
      "പരടട": 1541,
      "നനദ": 1542,
      "ഡസ": 1543,
      "എനകക": 1544,
      "വയതയ": 1545,
      "മധ": 1546,
      "എടട": 1547,
      "തറനന": 1548,
      "ഏക": 1549,
      "ഡജ": 1550,
      "സമത": 1551,
      "തടര": 1552,
      "16": 1553,
      "റങങ": 1554,
      "പരണ": 1555,
      "വതരണ": 1556,
      "കകല": 1557,
      "തനതര": 1558,
      "ഇതട": 1559,
      "നങങൾ": 1560,
      "ഡഎഫ": 1561,
      "റന": 1562,
      "ഭഗമയ": 1563,
      "17": 1564,
      "അവർ": 1565,
      "എടതത": 1566,
      "പലയ": 1567,
      "പസ": 1568,
      "ഇപപഴ": 1569,
      "ഹകകട": 1570,
      "ണടയരനന": 1571,
      "നടകകനന": 1572,
      "13": 1573,
      "കറഞഞ": 1574,
      "സഥത": 1575,
      "ഷപപ": 1576,
      "സപഎ": 1577,
      "വകസന": 1578,
      "മരനന": 1579,
      "നയമസ": 1580,
      "ഇന‍": 1581,
      "പഞചയതത": 1582,
      "ടക": 1583,
      "രപയ": 1584,
      "സമമളന": 1585,
      "സപപ": 1586,
      "യലകക": 1587,
      "ഉദഘടന": 1588,
      "തതനയ": 1589,
      "ചരതര": 1590,
      "കമര‍": 1591,
      "ഭഷ": 1592,
      "അസ": 1593,
      "ചചടടണട": 1594,
      "അഡ": 1595,
      "വസര": 1596,
      "മരട": 1597,
      "അഭപരയ": 1598,
      "രത": 1599,
      "നടതതനന": 1600,
      "ഇപപൾ": 1601,
      "കരമയ": 1602,
      "തയൽ": 1603,
      "ബഗ": 1604,
      "പരതപകഷ": 1605,
      "കസല‍": 1606,
      "കകതത": 1607,
      "കൺഗരസ": 1608,
      "ചറയ": 1609,
      "അനഭവ": 1610,
      "ഇനനല": 1611,
      "നരകക": 1612,
      "സററര‍": 1613,
      "പഠന": 1614,
      "തടകക": 1615,
      "കരളതതല": 1616,
      "അമത": 1617,
      "ഭകര": 1618,
      "വദയഭയ": 1619,
      "പരധ": 1620,
      "സഥരകരചച": 1621,
      "നരടട": 1622,
      "നമപ": 1623,
      "ർജ": 1624,
      "അധകര": 1625,
      "മഗ": 1626,
      "സകരയ": 1627,
      "ഫണ": 1628,
      "മഖല": 1629,
      "തടയ": 1630,
      "മപഴ": 1631,
      "മതരമ": 1632,
      "ഇനതയൻ": 1633,
      "വപണ": 1634,
      "നയമസഭ": 1635,
      "പരവർതതന": 1636,
      "തയയ": 1637,
      "തഴലള": 1638,
      "നരട": 1639,
      "അടകക": 1640,
      "കറണ": 1641,
      "സനതഷ": 1642,
      "പരവസ": 1643,
      "ബററ": 1644,
      "ഉള‍പപട": 1645,
      "അഭനയ": 1646,
      "ടചച": 1647,
      "ഡയറ": 1648,
      "ശശ": 1649,
      "സമയതത": 1650,
      "അഴ": 1651,
      "കഷപ": 1652,
      "മനജ": 1653,
      "അവര": 1654,
      "ബദധ": 1655,
      "ജസ": 1656,
      "പപളള": 1657,
      "ഗഗ": 1658,
      "വധയ": 1659,
      "ഒററ": 1660,
      "ജത": 1661,
      "മതരമലല": 1662,
      "മണകകറ": 1663,
      "മസ‌": 1664,
      "വമര‍": 1665,
      "മതദഹ": 1666,
      "പഞച": 1667,
      "വലയര": 1668,
      "അടചച": 1669,
      "പദ": 1670,
      "പപണ": 1671,
      "എചച": 1672,
      "വനദ": 1673,
      "അധകത": 1674,
      "പനതണ": 1675,
      "യടയ": 1676,
      "അമമ": 1677,
      "സഥലതത": 1678,
      "മര‍കക": 1679,
      "റണ‍": 1680,
      "നയല‍": 1681,
      "സസയ": 1682,
      "ബഗള": 1683,
      "കയറ": 1684,
      "നമമട": 1685,
      "പപല": 1686,
      "ററല‍": 1687,
      "വടടല‍": 1688,
      "വദയഭയസ": 1689,
      "സഹദര": 1690,
      "ഹര‍": 1691,
      "തതനട": 1692,
      "ചടങങ": 1693,
      "നതകകള": 1694,
      "ആഗരഹ": 1695,
      "എസ‌": 1696,
      "പപടടത": 1697,
      "മലപപറ": 1698,
      "മനതരലയ": 1699,
      "തതലട": 1700,
      "നതയ": 1701,
      "നര‍തത": 1702,
      "ണടത": 1703,
      "കലസ": 1704,
      "അടയ": 1705,
      "അവസര": 1706,
      "യഥ": 1707,
      "സമര‍": 1708,
      "മൽ": 1709,
      "ർഥ": 1710,
      "വരനനത": 1711,
      "മനനടട": 1712,
      "നനയ": 1713,
      "തയത": 1714,
      "തരകക": 1715,
      "അധക": 1716,
      "ടവ": 1717,
      "പരഹര": 1718,
      "ലഭയ": 1719,
      "വരതത": 1720,
      "വകസ": 1721,
      "റചച": 1722,
      "ഇവര": 1723,
      "പറഞഞത": 1724,
      "ആരധ": 1725,
      "ഇടത": 1726,
      "സവയ": 1727,
      "പതവ": 1728,
      "സനദര‍": 1729,
      "പരതന": 1730,
      "ആയരനന": 1731,
      "സഥനതത": 1732,
      "പങകടതത": 1733,
      "ആഘഷ": 1734,
      "ദല": 1735,
      "ആരഭചച": 1736,
      "ഒഴവ": 1737,
      "പപല‍": 1738,
      "ശബര": 1739,
      "സവന": 1740,
      "സധയത": 1741,
      "സശയ": 1742,
      "അഭയ": 1743,
      "ടസററ": 1744,
      "ലൽ": 1745,
      "മശ": 1746,
      "സഘടപപ": 1747,
      "അവകശ": 1748,
      "വരദധ": 1749,
      "കണടതതയ": 1750,
      "22": 1751,
      "ജസഫ": 1752,
      "ദരയ": 1753,
      "ഡൽഹ": 1754,
      "വകയ": 1755,
      "അതകണട": 1756,
      "കകളള": 1757,
      "സഖയ": 1758,
      "ഭദ": 1759,
      "കളമയ": 1760,
      "ങങനന": 1761,
      "ഞൻ": 1762,
      "ണടക": 1763,
      "തവര": 1764,
      "യടട": 1765,
      "ആനറ": 1766,
      "മപത": 1767,
      "ഇതത": 1768,
      "സഷട": 1769,
      "ഇവര‍": 1770,
      "ഹനദ": 1771,
      "പതക": 1772,
      "സമന": 1773,
      "കരകകററ": 1774,
      "പപടനനത": 1775,
      "ww": 1776,
      "ഇൻ": 1777,
      "ചടട": 1778,
      "ശകഷ": 1779,
      "ജമയ": 1780,
      "ലനറ": 1781,
      "പര‍തതയ": 1782,
      "സർകകര": 1783,
      "നഥ": 1784,
      "ഒപപ": 1785,
      "സചന": 1786,
      "റണകള": 1787,
      "സഘട": 1788,
      "മഡകകല‍": 1789,
      "ജലലയല": 1790,
      "പരകകററ": 1791,
      "എറണകള": 1792,
      "നയരനന": 1793,
      "ശലയ": 1794,
      "എനനവര‍": 1795,
      "അവസഥ": 1796,
      "പരതസന": 1797,
      "രജവ": 1798,
      "സവധയ": 1799,
      "അല‍": 1800,
      "ഫറ": 1801,
      "പപകകനനത": 1802,
      "നടകക": 1803,
      "പപചചത": 1804,
      "ബള": 1805,
      "ഇനറ": 1806,
      "ശരദധയ": 1807,
      "വയട": 1808,
      "നരനദര": 1809,
      "അണ": 1810,
      "പർകക": 1811,
      "ഇനതയയട": 1812,
      "സ‌ററ": 1813,
      "ആക": 1814,
      "തകര‍": 1815,
      "ടടറയ": 1816,
      "അര‍": 1817,
      "ചയതരനന": 1818,
      "ഇടകക": 1819,
      "ചകക": 1820,
      "ലഘ": 1821,
      "പങകട": 1822,
      "അനതര": 1823,
      "തനകക": 1824,
      "കൽ": 1825,
      "ഉചച": 1826,
      "പലസന": 1827,
      "ഒള": 1828,
      "അനമത": 1829,
      "നയകക": 1830,
      "ഗര‍": 1831,
      "വകകററ": 1832,
      "ചണടകകടട": 1833,
      "വറസ": 1834,
      "ആശപതരയല‍": 1835,
      "ചററ": 1836,
      "നടനനത": 1837,
      "സച": 1838,
      "പണ‍കടട": 1839,
      "ഫര‍": 1840,
      "മസല": 1841,
      "ലണട": 1842,
      "ബധചച": 1843,
      "ഇഗല": 1844,
      "40": 1845,
      "ചർചച": 1846,
      "പതതന": 1847,
      "വർതത": 1848,
      "23": 1849,
      "ലഭകക": 1850,
      "തനല‍": 1851,
      "ഗരതര": 1852,
      "നല‍കനന": 1853,
      "അശ": 1854,
      "ഉത": 1855,
      "തലയ": 1856,
      "സധയതയ": 1857,
      "അചഛ": 1858,
      "ജനറല‍": 1859,
      "ഭമ": 1860,
      "ഞജ": 1861,
      "ശരമചച": 1862,
      "ഉണടയരനന": 1863,
      "മപപ": 1864,
      "ലസ": 1865,
      "യവത": 1866,
      "സ‌ടര": 1867,
      "പരമഖ": 1868,
      "കകർ": 1869,
      "പരൽ": 1870,
      "ar": 1871,
      "തതള": 1872,
      "പരജയ": 1873,
      "മനനല‍": 1874,
      "മനനറയ": 1875,
      "ഓഫസ": 1876,
      "ചനത": 1877,
      "അനത": 1878,
      "കളലകക": 1879,
      "ഹദയ": 1880,
      "കൻ": 1881,
      "സടര": 1882,
      "പരശന": 1883,
      "വദയര‍തഥ": 1884,
      "ബലകക": 1885,
      "നടതതയത": 1886,
      "ടടളള": 1887,
      "ബല‍": 1888,
      "ശചച": 1889,
      "ഗരപപ": 1890,
      "ഭഗതത": 1891,
      "കഥപതര": 1892,
      "ചദചച": 1893,
      "മലലനന": 1894,
      "വഡ": 1895,
      "ഷറ": 1896,
      "ബധയ": 1897,
      "തങ": 1898,
      "‌കക": 1899,
      "തതന‍റ": 1900,
      "തങങളട": 1901,
      "പല‍": 1902,
      "28": 1903,
      "റഞഞ": 1904,
      "കയയ": 1905,
      "പജ": 1906,
      "ഭകത": 1907,
      "പരകടന": 1908,
      "എനനവര": 1909,
      "കനയ": 1910,
      "നണട": 1911,
      "പഴയ": 1912,
      "ദവസവ": 1913,
      "ഉയര‍നന": 1914,
      "പശചതതല": 1915,
      "നഷ": 1916,
      "മമണ": 1917,
      "പലര": 1918,
      "നഹ": 1919,
      "ഴചയ": 1920,
      "ണ‌": 1921,
      "പകനന": 1922,
      "വദയര‍ഥ": 1923,
      "ടടളളത": 1924,
      "ഫണ‍": 1925,
      "ആരപചച": 1926,
      "മകകനന": 1927,
      "പറമ": 1928,
      "യലല": 1929,
      "ലന‍": 1930,
      "പൺ": 1931,
      "നലവല": 1932,
      "അതനറ": 1933,
      "ബലയ": 1934,
      "സററററ": 1935,
      "പൻ": 1936,
      "ളട": 1937,
      "ഇതനറ": 1938,
      "സഗത": 1939,
      "കടർ": 1940,
      "ജസററ": 1941,
      "രചച": 1942,
      "ഫസ": 1943,
      "നരകഷണ": 1944,
      "കരളതതല‍": 1945,
      "ഓര‍": 1946,
      "സഖ": 1947,
      "വര‍ധ": 1948,
      "റൽ": 1949,
      "26": 1950,
      "ലയണ": 1951,
      "കഴകകട": 1952,
      "എത": 1953,
      "വയജ": 1954,
      "ബരഹ": 1955,
      "സര‍വ": 1956,
      "ഗഡ": 1957,
      "തതവള": 1958,
      "മറചച": 1959,
      "അദദഹതതനറ": 1960,
      "കണടണ": 1961,
      "ഗരമ": 1962,
      "ജവനകകര": 1963,
      "ർണ": 1964,
      "ഫടട": 1965,
      "സന‍": 1966,
      "പടയ": 1967,
      "വദഗ": 1968,
      "മടങങ": 1969,
      "വഹചച": 1970,
      "മയകക": 1971,
      "മര‍ചച": 1972,
      "നമകക": 1973,
      "അനവഷ": 1974,
      "ഉതത": 1975,
      "പരമപര": 1976,
      "സകരടടറയ": 1977,
      "പടകട": 1978,
      "അഗകര": 1979,
      "കണണര‍": 1980,
      "ഇഷട": 1981,
      "ദപ": 1982,
      "ഫസബ": 1983,
      "വയപന": 1984,
      "ബള‍": 1985,
      "മജ": 1986,
      "നയഡല‍ഹ": 1987,
      "പടര": 1988,
      "കര‍കക": 1989,
      "ഷനറ": 1990,
      "ഹന": 1991,
      "ഹടട": 1992,
      "ഷടട": 1993,
      "രഹല‍": 1994,
      "കഴയനന": 1995,
      "ഉമമ": 1996,
      "ഇല": 1997,
      "യയരനന": 1998,
      "കസര‍": 1999,
      "ആഭയ": 2000,
      "രഷടര": 2001,
      "27": 2002,
      "ഹയ": 2003,
      "കടടട": 2004,
      "ജവതതത": 2005,
      "ആലപപഴ": 2006,
      "തൽ": 2007,
      "ചമത": 2008,
      "നലവല‍": 2009,
      "ഹകകടത": 2010,
      "ടസ": 2011,
      "സസരകക": 2012,
      "ആഭയനതര": 2013,
      "സഹതത": 2014,
      "പരതകരണ": 2015,
      "സവര‍ണ": 2016,
      "നലയല‍": 2017,
      "വമനതതവള": 2018,
      "ഇനയ": 2019,
      "ചർനന": 2020,
      "സമമന": 2021,
      "മനയ": 2022,
      "സവകരചച": 2023,
      "സരകഷണ": 2024,
      "വയസസ": 2025,
      "എടകക": 2026,
      "പലകകട": 2027,
      "കകളട": 2028,
      "റയൽ": 2029,
      "അകകണട": 2030,
      "ഇങങന": 2031,
      "രകകണ": 2032,
      "മമത": 2033,
      "ങങനയ": 2034,
      "ലലതത": 2035,
      "നനതണ": 2036,
      "പരസഗ": 2037,
      "ചഫ": 2038,
      "കടടചച": 2039,
      "വച": 2040,
      "കയല‍": 2041,
      "അതര": 2042,
      "ഇതനട": 2043,
      "സജവ": 2044,
      "സനദശ": 2045,
      "ലഖ": 2046,
      "വസയ": 2047,
      "ബരടട": 2048,
      "ബഡ": 2049,
      "രട": 2050,
      "തരതത": 2051,
      "ലകതത": 2052,
      "ഉണടക": 2053,
      "കരചചത": 2054,
      "കയററ": 2055,
      "ജറ": 2056,
      "ഇതല‍": 2057,
      "പവ": 2058,
      "മണണ": 2059,
      "ഇനതയയല": 2060,
      "മനനറയപപ": 2061,
      "മഹന‍": 2062,
      "കയമപ": 2063,
      "യവവ": 2064,
      "സഡ": 2065,
      "60": 2066,
      "ങകര": 2067,
      "കകപപടട": 2068,
      "അലലങകൽ": 2069,
      "അങങന": 2070,
      "പരണയ": 2071,
      "പരഹ": 2072,
      "മരചചത": 2073,
      "നര‍ദദശ": 2074,
      "യഡഎഫ": 2075,
      "കലപതക": 2076,
      "ണഡ": 2077,
      "ഇതതവണ": 2078,
      "കണമനന": 2079,
      "കകനണ": 2080,
      "സസരചച": 2081,
      "നനനണ": 2082,
      "ശവര": 2083,
      "യന‍": 2084,
      "തയരനന": 2085,
      "വകടട": 2086,
      "കളടയ": 2087,
      "വകര": 2088,
      "പരസദധ": 2089,
      "നടതതനനത": 2090,
      "ണമയ": 2091,
      "റട": 2092,
      "ആതമഹ": 2093,
      "മവ": 2094,
      "ചയയന‍": 2095,
      "ജണ‍": 2096,
      "വസതര": 2097,
      "ഗള‍": 2098,
      "ടടലലനന": 2099,
      "കടടകള": 2100,
      "അസസയ": 2101,
      "പരവശന": 2102,
      "കമര": 2103,
      "നല‍കയത": 2104,
      "അകരമ": 2105,
      "മകള": 2106,
      "തങങ": 2107,
      "കകണടത": 2108,
      "കര‍ഷക": 2109,
      "കഷയ": 2110,
      "ബടട": 2111,
      "വയപക": 2112,
      "co": 2113,
      "രകത": 2114,
      "യതത": 2115,
      "തരമനചച": 2116,
      "ഭത": 2117,
      "വയപര": 2118,
      "മകകയ": 2119,
      "ഭര‍തത": 2120,
      "വസത": 2121,
      "തൻ": 2122,
      "മകന": 2123,
      "കസൽ": 2124,
      "ബര‍ഡ": 2125,
      "ഗവ": 2126,
      "പസത": 2127,
      "ഫണട": 2128,
      "ഇവരട": 2129,
      "മതസ": 2130,
      "അടയനതര": 2131,
      "ബസന": 2132,
      "ഇരടട": 2133,
      "ഒട": 2134,
      "ഔദയഗ": 2135,
      "തതനറയ": 2136,
      "മയളള": 2137,
      "മനററ": 2138,
      "റണ‍സ": 2139,
      "ങകയ": 2140,
      "അധകതര‍": 2141,
      "ആന": 2142,
      "ആതമഹതയ": 2143,
      "റഹ": 2144,
      "പഷ": 2145,
      "വടടൽ": 2146,
      "പരതനധ": 2147,
      "സരഷ": 2148,
      "ങങളലകക": 2149,
      "അഹ": 2150,
      "ലയകക": 2151,
      "ഷടര": 2152,
      "മലലതത": 2153,
      "സമഹക": 2154,
      "ശഷമണ": 2155,
      "എങങന": 2156,
      "പതന": 2157,
      "ലഡ": 2158,
      "വയവസയ": 2159,
      "പരഥ": 2160,
      "ചയര‍": 2161,
      "കലമററ": 2162,
      "കകഷ": 2163,
      "തര‍കക": 2164,
      "35": 2165,
      "ങങട": 2166,
      "വളളയ": 2167,
      "നയമന": 2168,
      "സഷയല‍": 2169,
      "സററർ": 2170,
      "കഴചച": 2171,
      "കരയങങള‍": 2172,
      "29": 2173,
      "ഡസബ": 2174,
      "കരത": 2175,
      "നകത": 2176,
      "കടതയ": 2177,
      "അനകല": 2178,
      "സചച": 2179,
      "നടകകനനത": 2180,
      "വദന": 2181,
      "കലലപപടട": 2182,
      "നകഷപ": 2183,
      "സഹയകക": 2184,
      "മന‍പ": 2185,
      "ജലലയല‍": 2186,
      "ഓട": 2187,
      "യദധ": 2188,
      "ശവ": 2189,
      "കണ‍ഗര": 2190,
      "സരനദര": 2191,
      "കടതയല‍": 2192,
      "നനനയ": 2193,
      "കകലല": 2194,
      "സര‍വസ": 2195,
      "വയല‍": 2196,
      "കസററഡ": 2197,
      "റണട": 2198,
      "പമപ": 2199,
      "അമമയ": 2200,
      "തതയരനന": 2201,
      "പപര": 2202,
      "പരചര": 2203,
      "എപ": 2204,
      "കമർ": 2205,
      "മരകക": 2206,
      "ബഗല": 2207,
      "ശശര": 2208,
      "ശനയ": 2209,
      "കകത": 2210,
      "കണടതതയത": 2211,
      "സഭവതതല‍": 2212,
      "റദദ": 2213,
      "നറഞഞ": 2214,
      "നയല": 2215,
      "ലലത": 2216,
      "കടയണ": 2217,
      "കഴച": 2218,
      "എതതയത": 2219,
      "പലപപഴ": 2220,
      "ധര‍": 2221,
      "കരന": 2222,
      "ജര‍ജ": 2223,
      "ടവററ": 2224,
      "കണടട": 2225,
      "ഫഡ": 2226,
      "എഎല‍": 2227,
      "ഏജ": 2228,
      "ചത": 2229,
      "നടന‍": 2230,
      "ഉടമ": 2231,
      "ഉൾപപട": 2232,
      "മമയ": 2233,
      "കതയമയ": 2234,
      "ഗസററ": 2235,
      "പറതതറ": 2236,
      "ജനവര": 2237,
      "തരഞഞടപപല‍": 2238,
      "ഴ‌": 2239,
      "വയതയസത": 2240,
      "എകസ": 2241,
      "ഏര‍": 2242,
      "മദര": 2243,
      "in": 2244,
      "ലറ": 2245,
      "കടടയട": 2246,
      "ഴഞഞ": 2247,
      "എനനതണ": 2248,
      "ടരപ": 2249,
      "ബറ": 2250,
      "രപയട": 2251,
      "മർകക": 2252,
      "പരചയ": 2253,
      "നതകകള‍": 2254,
      "45": 2255,
      "കകര‍കക": 2256,
      "ടടണടനന": 2257,
      "ങങളമയ": 2258,
      "കര‍ഷ": 2259,
      "ഓണ‍": 2260,
      "തരഞഞടകക": 2261,
      "ഇരവര": 2262,
      "ഡള": 2263,
      "നക": 2264,
      "ബ‌": 2265,
      "ഴസ": 2266,
      "ദകഷണ": 2267,
      "ഫററ": 2268,
      "100": 2269,
      "സമപതത": 2270,
      "നർതത": 2271,
      "കണടത": 2272,
      "ഉതതരവ": 2273,
      "അനയ": 2274,
      "മയത": 2275,
      "പരശലന": 2276,
      "‌മനറ": 2277,
      "ടതതത": 2278,
      "നങങൾകക": 2279,
      "ഫ‌": 2280,
      "മകത": 2281,
      "യന": 2282,
      "എട": 2283,
      "നതതവതതല‍": 2284,
      "രജന": 2285,
      "ചചണ": 2286,
      "നഷണ": 2287,
      "ഇയള‍": 2288,
      "കകയത": 2289,
      "80": 2290,
      "മകകനനത": 2291,
      "കനതത": 2292,
      "31": 2293,
      "കസല": 2294,
      "ഫർ": 2295,
      "ദസ": 2296,
      "199": 2297,
      "ഷജ": 2298,
      "മകനന": 2299,
      "th": 2300,
      "ചര‍": 2301,
      "ജഡ": 2302,
      "മഴവന‍": 2303,
      "വവരങങള‍": 2304,
      "തതനതര": 2305,
      "രഹസയ": 2306,
      "സഹചരയതതല‍": 2307,
      "റടട": 2308,
      "സഹകരണ": 2309,
      "ഡണ": 2310,
      "പങകവചച": 2311,
      "കരന‍": 2312,
      "ഉയർനന": 2313,
      "പരദശതത": 2314,
      "അതതര": 2315,
      "എനനവട": 2316,
      "തമഴ‌": 2317,
      "70": 2318,
      "രമശ": 2319,
      "മകന‍": 2320,
      "​ൻറ": 2321,
      "ചയ‌": 2322,
      "അകക": 2323,
      "പരട": 2324,
      "വയസ": 2325,
      "പതതനതടട": 2326,
      "നയൽ": 2327,
      "വയവസഥ": 2328,
      "വക‌സ": 2329,
      "ടയണ": 2330,
      "നങങള‍": 2331,
      "രവ": 2332,
      "റഫ": 2333,
      "വയപ": 2334,
      "ഓടട": 2335,
      "ജലയ": 2336,
      "നനതനന": 2337,
      "2020": 2338,
      "സങകത": 2339,
      "പരഫ": 2340,
      "നടപടകള‍": 2341,
      "അപപ": 2342,
      "തടയണ": 2343,
      "സഥനര‍തഥ": 2344,
      "പസതക": 2345,
      "ററൽ": 2346,
      "തങകള": 2347,
      "രമയ": 2348,
      "സര‍കകരനറ": 2349,
      "ബഗളര": 2350,
      "ഉനനയ": 2351,
      "വയകക": 2352,
      "കറപപ": 2353,
      "കയണനന": 2354,
      "ചലല": 2355,
      "അനതരഷടര": 2356,
      "ജന‍": 2357,
      "ഞയറ": 2358,
      "ജനയ": 2359,
      "പരകശ": 2360,
      "വശഷ": 2361,
      "നല‍കകനന": 2362,
      "പലററ": 2363,
      "എയര‍": 2364,
      "കതര": 2365,
      "എനനവരണ": 2366,
      "സവതന": 2367,
      "കടകകനന": 2368,
      "യണററ": 2369,
      "എതതചച": 2370,
      "ഇദദഹ": 2371,
      "ബന‍": 2372,
      "കഷണന‍": 2373,
      "മകള‍": 2374,
      "എനനവർ": 2375,
      "ശനത": 2376,
      "പപകകന‍": 2377,
      "ആദ": 2378,
      "ചര‍തത": 2379,
      "മണയട": 2380,
      "മരള": 2381,
      "ഗർ": 2382,
      "വരമന": 2383,
      "മഞഞ": 2384,
      "ഇനതയയല‍": 2385,
      "പരഖയപ": 2386,
      "പകസ": 2387,
      "എലലവര": 2388,
      "ഉപകഷ": 2389,
      "റഷ": 2390,
      "2019": 2391,
      "പർതതയ": 2392,
      "പരതസനധ": 2393,
      "പലളള": 2394,
      "തലകക": 2395,
      "സഥപ": 2396,
      "മപള": 2397,
      "വദയത": 2398,
      "ആദയമയ": 2399,
      "നഗരസഭ": 2400,
      "ആപപ": 2401,
      "പരഷ": 2402,
      "വമര‍ശന": 2403,
      "അജ": 2404,
      "അഭമഖ": 2405,
      "ഉടന‍": 2406,
      "ആരയ": 2407,
      "ങങനയണ": 2408,
      "സ‌കള‍": 2409,
      "കകനനതനന": 2410,
      "ഉദയഗസഥര": 2411,
      "ഇറങങ": 2412,
      "ഞടട": 2413,
      "സ‌കള": 2414,
      "ശവസ": 2415,
      "ചയയണ": 2416,
      "സമധന": 2417,
      "നരയണ": 2418,
      "ലവ": 2419,
      "ലഭചചത": 2420,
      "ഇവ": 2421,
      "ജകക": 2422,
      "പപടതതയത": 2423,
      "തളവ": 2424,
      "പരഖയപന": 2425,
      "നൽകനന": 2426,
      "സപററ": 2427,
      "ഇതര": 2428,
      "പൽ": 2429,
      "അഫ": 2430,
      "ലയത": 2431,
      "സമമത": 2432,
      "നർദശ": 2433,
      "ഹദ": 2434,
      "തയല": 2435,
      "ജര‍": 2436,
      "എഎല‍എ": 2437,
      "രപപ": 2438,
      "അതത": 2439,
      "വടകക": 2440,
      "വടടല": 2441,
      "ചമപ": 2442,
      "ബധന": 2443,
      "സവതനതരയ": 2444,
      "പപററ": 2445,
      "ഹദര": 2446,
      "മണകക": 2447,
      "പരവര‍തതകര‍": 2448,
      "വയണ": 2449,
      "വയയ": 2450,
      "ഗസ": 2451,
      "മതസയ": 2452,
      "ലൻ": 2453,
      "കരമകക": 2454,
      "മഖയമനതരയട": 2455,
      "പലല": 2456,
      "ചലവ": 2457,
      "തതകകറചച": 2458,
      "ക​": 2459,
      "ഭമയ": 2460,
      "പപഴണ": 2461,
      "അൽ": 2462,
      "മഡകകൽ": 2463,
      "ആന‍ഡ": 2464,
      "രപയണ": 2465,
      "ഫബര": 2466,
      "സസ‌കര": 2467,
      "വണമനന": 2468,
      "യടതത": 2469,
      "ടടണ": 2470,
      "തനൽ": 2471,
      "കസര‍കട": 2472,
      "തമ": 2473,
      "ഹർ": 2474,
      "സനദർ": 2475,
      "പഡന": 2476,
      "ബൽ": 2477,
      "മററളള": 2478,
      "ലഭകകനന": 2479,
      "ചരകക": 2480,
      "ശഖര": 2481,
      "സപപര‍": 2482,
      "അതയ": 2483,
      "ഫൺ": 2484,
      "ഡകടര‍": 2485,
      "സണ": 2486,
      "സര‍കകരന": 2487,
      "ഭരത": 2488,
      "ര‍തതയ": 2489,
      "നര‍മണ": 2490,
      "യഎസ": 2491,
      "ധരണ": 2492,
      "യചച": 2493,
      "കയപററ": 2494,
      "സജനയ": 2495,
      "ഐഎ": 2496,
      "ദലല": 2497,
      "പനര": 2498,
      "ര‍ഷ": 2499,
      "വയഴ": 2500,
      "കകടതത": 2501,
      "അവള": 2502,
      "പറഞഞരനന": 2503,
      "പടടക": 2504,
      "ഔദയഗക": 2505,
      "വചചത": 2506,
      "ചയയൻ": 2507,
      "സർവ": 2508,
      "വലചച": 2509,
      "നശചയ": 2510,
      "ഉനനത": 2511,
      "ജഗര": 2512,
      "സൻ": 2513,
      "പരയഗ": 2514,
      "നല‍കക": 2515,
      "ലക‌": 2516,
      "യരകക": 2517,
      "ചചതര": 2518,
      "തമമലളള": 2519,
      "എള": 2520,
      "ഡന": 2521,
      "മധവ": 2522,
      "രപകഷ": 2523,
      "കരളതതൽ": 2524,
      "അവതരപപചച": 2525,
      "ലയട": 2526,
      "ദരനത": 2527,
      "ദലപ": 2528,
      "വഗദന": 2529,
      "ഫബരവര": 2530,
      "‌റ": 2531,
      "പങകള": 2532,
      "ഗതഗത": 2533,
      "ഫട": 2534,
      "നരകഷ": 2535,
      "പടടനന": 2536,
      "നഷധ": 2537,
      "അടകകമളള": 2538,
      "ആശയ": 2539,
      "കയട": 2540,
      "മണടയരനന": 2541,
      "സമഹയ": 2542,
      "ദബ": 2543,
      "പരമര‍": 2544,
      "ഓണ": 2545,
      "മനനൽ": 2546,
      "ഫസബകക": 2547,
      "തരക": 2548,
      "എവട": 2549,
      "പപപ": 2550,
      "മനതരസഭ": 2551,
      "അയയ": 2552,
      "ഓർ": 2553,
      "നടന": 2554,
      "കണചച": 2555,
      "ശബരമല": 2556,
      "ചവവ": 2557,
      "പകര‍": 2558,
      "വദയർതഥ": 2559,
      "തടടപപ": 2560,
      "ഖതത": 2561,
      "ഒകടബ": 2562,
      "പരവ": 2563,
      "കലവസഥ": 2564,
      "നർദദശ": 2565,
      "കരകക": 2566,
      "തടരനന": 2567,
      "കഞച": 2568,
      "ശരമകക": 2569,
      "പയനറ": 2570,
      "സധകക": 2571,
      "ലകഷണ": 2572,
      "ദല‍": 2573,
      "ബൾ": 2574,
      "തതയണ": 2575,
      "നര‍മമ": 2576,
      "2018": 2577,
      "സഞചര": 2578,
      "പകനനത": 2579,
      "ജസററസ": 2580,
      "അനസരചച": 2581,
      "മൻപ": 2582,
      "ജനധ": 2583,
      "വരയളള": 2584,
      "എക‌സ": 2585,
      "ജബ": 2586,
      "ശബദ": 2587,
      "പരളയ": 2588,
      "തരവ": 2589,
      "കഷമ": 2590,
      "സ‌നഹ": 2591,
      "പപടതതനന": 2592,
      "സമർ": 2593,
      "ഉതതരവദ": 2594,
      "ജനധപതയ": 2595,
      "പരഗ": 2596,
      "അററ": 2597,
      "ഭരപകഷ": 2598,
      "വശദകരണ": 2599,
      "മയരകക": 2600,
      "ജനറൽ": 2601,
      "സഷയൽ": 2602,
      "സനനധയ": 2603,
      "സധന": 2604,
      "കസടതത": 2605,
      "മഞച": 2606,
      "നരധന": 2607,
      "ഉയര": 2608,
      "അറഞഞ": 2609,
      "കര‍ഡ": 2610,
      "ബദധമടട": 2611,
      "ഇഗലണട": 2612,
      "90": 2613,
      "സകക": 2614,
      "മലലത": 2615,
      "യണനന": 2616,
      "തരവനനതപരതത": 2617,
      "2016": 2618,
      "രകകന‍": 2619,
      "കനനത": 2620,
      "കകരണ": 2621,
      "മമമടട": 2622,
      "2017": 2623,
      "വമർ": 2624,
      "സഭവചച": 2625,
      "നപപ": 2626,
      "ഫസററ": 2627,
      "കപ": 2628,
      "കടടകളട": 2629,
      "വകത": 2630,
      "സസററ": 2631,
      "പരതകരചച": 2632,
      "ഇനതയയ": 2633,
      "ഷനല‍": 2634,
      "പടതത": 2635,
      "രയട": 2636,
      "അരങങ": 2637,
      "ഹത": 2638,
      "ബരഞച": 2639,
      "ണല‍": 2640,
      "ഉയര‍തത": 2641,
      "സവദ": 2642,
      "നല‍കനനത": 2643,
      "മണ‌": 2644,
      "പരശസത": 2645,
      "മണടനന": 2646,
      "കമമഷന‍": 2647,
      "അനവദചച": 2648,
      "​ഗ": 2649,
      "കണനന": 2650,
      "തനനണ": 2651,
      "മതപത": 2652,
      "തശര‍": 2653,
      "അദദഹതത": 2654,
      "കയല": 2655,
      "അമരകകന‍": 2656,
      "വയകതമയ": 2657,
      "സഘടപപചച": 2658,
      "ടരകക": 2659,
      "സപരകടത": 2660,
      "www": 2661,
      "ബലല": 2662,
      "കകനനതണ": 2663,
      "അർ": 2664,
      "മനദ": 2665,
      "‌ല": 2666,
      "നടടല‍": 2667,
      "ഓഫസര‍": 2668,
      "ചർ": 2669,
      "കശമര": 2670,
      "ടല": 2671,
      "പലസനറ": 2672,
      "ആകരമ": 2673,
      "ഇലലത": 2674,
      "രതയ": 2675,
      "മകര": 2676,
      "പഞചയ": 2677,
      "പറനന": 2678,
      "ഇതൽ": 2679,
      "ജനങങളട": 2680,
      "മബല‍": 2681,
      "യലട": 2682,
      "മറനന": 2683,
      "കരയതതല‍": 2684,
      "നല‍കന‍": 2685,
      "സസ‌": 2686,
      "ഹള": 2687,
      "ഭരണകട": 2688,
      "പരതകള": 2689,
      "നർമമ": 2690,
      "പരസയ": 2691,
      "ആവശയമയ": 2692,
      "ഗജറ": 2693,
      "ബചച": 2694,
      "യഎ": 2695,
      "കയൽ": 2696,
      "സവതനതര": 2697,
      "ഭവന": 2698,
      "കഷന‍": 2699,
      "സനററ": 2700,
      "ഡവ": 2701,
      "തകർ": 2702,
      "മതര‍നന": 2703,
      "ടകകററ": 2704,
      "വരല‍": 2705,
      "നടടല": 2706,
      "ഒഴവകക": 2707,
      "നമഷ": 2708,
      "com": 2709,
      "ഴചച": 2710,
      "പയത": 2711,
      "അദധയ": 2712,
      "ഇവർ": 2713,
      "കകളയ": 2714,
      "നങങള": 2715,
      "നന‍": 2716,
      "ലലല": 2717,
      "അവര‍കക": 2718,
      "വലലവള": 2719,
      "ഏഷയ": 2720,
      "അനധ": 2721,
      "കകള‍കക": 2722,
      "ഇലകട": 2723,
      "ഡണ‍": 2724,
      "എനനവരട": 2725,
      "തടഞഞ": 2726,
      "നലവൽ": 2727,
      "വളളയഴച": 2728,
      "75": 2729,
      "സക": 2730,
      "പരധനയ": 2731,
      "ഐകയ": 2732,
      "മണടയ": 2733,
      "പരമര‍ശ": 2734,
      "ഡനറ": 2735,
      "മങങ": 2736,
      "ചതരതതനറ": 2737,
      "മഖലയല‍": 2738,
      "എതരയ": 2739,
      "ആശപതരയൽ": 2740,
      "അയചച": 2741,
      "തങകളഴച": 2742,
      "ഷഠ": 2743,
      "പരകക": 2744,
      "അറയചചത": 2745,
      "ഭരവഹ": 2746,
      "34": 2747,
      "സതത": 2748,
      "99": 2749,
      "പരദ": 2750,
      "ചലചചതര": 2751,
      "ഐപ": 2752,
      "ബളവ": 2753,
      "വസററ": 2754,
      "അതല‍": 2755,
      "സവനതമകക": 2756,
      "ഹര‍ജ": 2757,
      "ചനനതതല": 2758,
      "സദയ": 2759,
      "യവതയ": 2760,
      "എതതനന": 2761,
      "കഴകക": 2762,
      "ഉള‍പപടയളള": 2763,
      "ഒരള‍": 2764,
      "വയനട": 2765,
      "സററല‍": 2766,
      "സവപന": 2767,
      "പനതണയ": 2768,
      "രതയല‍": 2769,
      "മനസസലകക": 2770,
      "യൻ": 2771,
      "പരതവ": 2772,
      "ഘടക": 2773,
      "നലയൽ": 2774,
      "സഥന‍": 2775,
      "വനനണ": 2776,
      "പനനലയണ": 2777,
      "മർചച": 2778,
      "സബഐ": 2779,
      "ചയയക": 2780,
      "കകരട": 2781,
      "ശര‍": 2782,
      "2021": 2783,
      "വജല": 2784,
      "യലതത": 2785,
      "പശ": 2786,
      "ചമതല": 2787,
      "ബജപയ": 2788,
      "യഗതതല‍": 2789,
      "36": 2790,
      "ശമപള": 2791,
      "സവര": 2792,
      "ഉപഭകത": 2793,
      "48": 2794,
      "നസ": 2795,
      "ങങളടയ": 2796,
      "അഴമത": 2797,
      "വര‍ഷതത": 2798,
      "തലല": 2799,
      "പരസര": 2800,
      "സററനറ": 2801,
      "പണട": 2802,
      "സഹതയ": 2803,
      "നടപപലകക": 2804,
      "എഴതത": 2805,
      "അഡവ": 2806,
      "യണട": 2807,
      "കകനയ": 2808,
      "നയഡൽഹ": 2809,
      "500": 2810,
      "രല‍": 2811,
      "നയന": 2812,
      "വഷയതതല‍": 2813,
      "അടട": 2814,
      "ഇതരയ": 2815,
      "എളപപ": 2816,
      "ബങ": 2817,
      "കടറ": 2818,
      "കതതയ": 2819,
      "സവഗത": 2820,
      "തവന": 2821,
      "ങങളലയ": 2822,
      "തടര‍നനണ": 2823,
      "കണണർ": 2824,
      "എക‌": 2825,
      "ഖല": 2826,
      "ജൺ": 2827,
      "വയൽ": 2828,
      "ധരള": 2829,
      "പപയ": 2830,
      "ആതമ": 2831,
      "ജയല‍": 2832,
      "മഗല": 2833,
      "തവരവദ": 2834,
      "ഫകകററ": 2835,
      "ഞയറഴച": 2836,
      "സണ‍": 2837,
      "സനഹ": 2838,
      "കകനനലല": 2839,
      "ഉമമന‍": 2840,
      "‌സന": 2841,
      "ഒരപട": 2842,
      "മഖലയല": 2843,
      "നവസ": 2844,
      "മസ‌ല": 2845,
      "ചചലല": 2846,
      "നടൻ": 2847,
      "ഒടട": 2848,
      "മണത": 2849,
      "ജനങങള‍": 2850,
      "tha": 2851,
      "തതലയ": 2852,
      "പറപപട": 2853,
      "ആശവസ": 2854,
      "ലലനനണ": 2855,
      "സഥനര‍ഥ": 2856,
      "കർഷക": 2857,
      "വയപകമയ": 2858,
      "പറതതറങങ": 2859,
      "ആവശ": 2860,
      "ഓൺ": 2861,
      "ഹകക": 2862,
      "ഇതനയ": 2863,
      "സഘര‍ഷ": 2864,
      "സഥരകരചചത": 2865,
      "സമര‍പപചച": 2866,
      "അചച": 2867,
      "ആര‍ടട": 2868,
      "ജമമ": 2869,
      "ലമനറ": 2870,
      "സനക": 2871,
      "യടടണട": 2872,
      "കയടട": 2873,
      "ഷനല": 2874,
      "കയറയ": 2875,
      "തമമല‍": 2876,
      "ഉളളത": 2877,
      "മറഞഞ": 2878,
      "പരവശപപചച": 2879,
      "ഏതങകല": 2880,
      "റവ": 2881,
      "ടവറററ": 2882,
      "വമണ": 2883,
      "തരട": 2884,
      "വർധ": 2885,
      "കനത": 2886,
      "ചചല‍": 2887,
      "ഒരകകല": 2888,
      "മലനയ": 2889,
      "പകന‍": 2890,
      "ഉപയഗകകനന": 2891,
      "ഗരതരമയ": 2892,
      "പരകഷണ": 2893,
      "വജയന‍": 2894,
      "ദര‍ശന": 2895,
      "വങ": 2896,
      "മനനത": 2897,
      "വപല": 2898,
      "തർകക": 2899,
      "സവർണ": 2900,
      "കണന‍": 2901,
      "വനനതണ": 2902,
      "നല‍കയരനന": 2903,
      "നഷടപപടട": 2904,
      "ദബയ": 2905,
      "var": 2906,
      "സവശഷ": 2907,
      "അടങങയ": 2908,
      "വശയപപടട": 2909,
      "മഹൻ": 2910,
      "ഏററമടട": 2911,
      "വലയരതത": 2912,
      "പരസ‌കര": 2913,
      "കകമനനണ": 2914,
      "വപപ": 2915,
      "ഹരയ": 2916,
      "നടയണ": 2917,
      "ചനസ": 2918,
      "ഉണ": 2919,
      "തദദശ": 2920,
      "കവര‍": 2921,
      "റഷയ": 2922,
      "കണടവര": 2923,
      "നരധ": 2924,
      "ഏററടതത": 2925,
      "ആൻഡ": 2926,
      "കളണട": 2927,
      "കഞഞന": 2928,
      "ഷര‍": 2929,
      "മകകള": 2930,
      "നര‍ബനധ": 2931,
      "കർഷ": 2932,
      "ദഷ": 2933,
      "എനതണ": 2934,
      "നനര": 2935,
      "ജനങങള": 2936,
      "ശബരമലയ": 2937,
      "സനദര‍ശ": 2938,
      "കളലയ": 2939,
      "നര‍ണയ": 2940,
      "ആദയതത": 2941,
      "പര‍ണമയ": 2942,
      "എഡ": 2943,
      "അകല": 2944,
      "യര": 2945,
      "സർവസ": 2946,
      "ശനയഴച": 2947,
      "vartha": 2948,
      "ഏതന": 2949,
      "65": 2950,
      "ജഗ": 2951,
      "പപടകയ": 2952,
      "തഴല‍": 2953,
      "ല‍നനന": 2954,
      "ചചതന": 2955,
      "കരതത": 2956,
      "തയറററ": 2957,
      "32": 2958,
      "വയല": 2959,
      "ഞങങള‍": 2960,
      "സവമ": 2961,
      "കടടചചര‍തത": 2962,
      "ചയതടടണട": 2963,
      "ഇനറര‍": 2964,
      "37": 2965,
      "ഒരള": 2966,
      "തരചചറയ": 2967,
      "ഭദഗത": 2968,
      "യഎഇ": 2969,
      "യള": 2970,
      "കയമറ": 2971,
      "തതനണ": 2972,
      "ശരല": 2973,
      "പരയമളള": 2974,
      "ലഗക": 2975,
      "മഴവൻ": 2976,
      "പരഥമക": 2977,
      "er": 2978,
      "ചമ": 2979,
      "പയട": 2980,
      "നമയ": 2981,
      "പരദശക": 2982,
      "എനനയരനന": 2983,
      "ലകകപപ": 2984,
      "ഇനതയയൽ": 2985,
      "മര‍ഗ": 2986,
      "പഥ": 2987,
      "ഇസല": 2988,
      "കറവ": 2989,
      "പനനല‍": 2990,
      "ബരദ": 2991,
      "2015": 2992,
      "എതതനനത": 2993,
      "ഏകദശ": 2994,
      "അഹമമദ": 2995,
      "തങങള‍": 2996,
      "മഷ": 2997,
      "അബ": 2998,
      "പതതയ": 2999,
      "അവധ": 3000,
      "പള‍": 3001,
      "ഉണണ": 3002,
      "ഗവര‍ണ": 3003,
      "പയടട": 3004,
      "വണ‍": 3005,
      "പരക": 3006,
      "കരനയ": 3007,
      "രഖപപടതത": 3008,
      "ഗര‍ഭ": 3009,
      "ചയര‍മന‍": 3010,
      "ജനമ": 3011,
      "നൽകയത": 3012,
      "സഹയകകനന": 3013,
      "ഇയള": 3014,
      "ഹദരബദ": 3015,
      "തരനന": 3016,
      "വര‍ദധ": 3017,
      "അതനല‍": 3018,
      "പരവര‍തതനങങള‍": 3019,
      "ലക‌സഭ": 3020,
      "രധ": 3021,
      "എഴത": 3022,
      "ജഗരത": 3023,
      "കരതനന": 3024,
      "റയട": 3025,
      "പരശധചച": 3026,
      "റയല‍വ": 3027,
      "38": 3028,
      "ഫരകക": 3029,
      "മനഹര": 3030,
      "സനദരയ": 3031,
      "ൾകക": 3032,
      "ങങളലട": 3033,
      "2014": 3034,
      "സനമയട": 3035,
      "എങകല": 3036,
      "പറമപ": 3037,
      "പരതകര": 3038,
      "തതടര‍നന": 3039,
      "ര‍ചചയയ": 3040,
      "47": 3041,
      "ഉറ": 3042,
      "തതലയരനന": 3043,
      "നരനതര": 3044,
      "പഡപപചച": 3045,
      "സഹദ": 3046,
      "യലളള": 3047,
      "പനയ": 3048,
      "റജ": 3049,
      "സദധ": 3050,
      "ഞഞറ": 3051,
      "രഗബധ": 3052,
      "ചതരങങള‍": 3053,
      "ഡയറകടര‍": 3054,
      "ആഗള": 3055,
      "ലജ": 3056,
      "സമദയ": 3057,
      "പറതതവടട": 3058,
      "ഉപകരണ": 3059,
      "ബഞച": 3060,
      "പരതത": 3061,
      "തതടയണ": 3062,
      "കവയ": 3063,
      "രജസററര‍": 3064,
      "സവദശയയ": 3065,
      "ദമപത": 3066,
      "യവവന": 3067,
      "പദധതയ": 3068,
      "കരൻ": 3069,
      "റലസ": 3070,
      "സമമളനതതല‍": 3071,
      "കകനനതയ": 3072,
      "തരചചട": 3073,
      "ഭര‍തതവ": 3074,
      "ഏർ": 3075,
      "ഒമപത": 3076,
      "തയറ": 3077,
      "സഥപചച": 3078,
      "ഘട": 3079,
      "എസഎസ": 3080,
      "ചലവഴ": 3081,
      "മതസരതതല‍": 3082,
      "കമനന": 3083,
      "നയഗ": 3084,
      "അദദഹതതന": 3085,
      "ഓണ‍ലന‍": 3086,
      "കകലതത": 3087,
      "കടങങ": 3088,
      "ഗൾ": 3089,
      "കളലണ": 3090,
      "നടയത": 3091,
      "തടങങയത": 3092,
      "തനയ": 3093,
      "മങകല": 3094,
      "പപകകകയ": 3095,
      "നടടസ": 3096,
      "ഉദയഗസഥര‍": 3097,
      "ബധനഴച": 3098,
      "ദവസതത": 3099,
      "ഏജന‍സ": 3100,
      "നടതതന‍": 3101,
      "ഡൺ": 3102,
      "കമമഷണ": 3103,
      "ഇഗലഷ": 3104,
      "ള‍ഡ": 3105,
      "എയർ": 3106,
      "വക‌സന‍": 3107,
      "ഇററ": 3108,
      "ഞങങളട": 3109,
      "പരധയ": 3110,
      "ലകകളള": 3111,
      "ആശങക": 3112,
      "യകകയ": 3113,
      "സതരകള": 3114,
      "re": 3115,
      "ഭർതത": 3116,
      "മഖതത": 3117,
      "al": 3118,
      "ഓഹര": 3119,
      "ടമ": 3120,
      "പറതതകക": 3121,
      "മഷണ": 3122,
      "റൺ": 3123,
      "ലസററ": 3124,
      "ററവ": 3125,
      "പരവര‍തതകകനന": 3126,
      "സഹചരയതതൽ": 3127,
      "ഇളവ": 3128,
      "ചർതത": 3129,
      "കനറ": 3130,
      "വചരണ": 3131,
      "അകകദ": 3132,
      "വയഴഴച": 3133,
      "പ‌": 3134,
      "ജനത": 3135,
      "പരകത": 3136,
      "വനനരനന": 3137,
      "പരജ": 3138,
      "55": 3139,
      "ആര‍കക": 3140,
      "ളജ": 3141,
      "നനറ": 3142,
      "ദരത": 3143,
      "രഹൽ": 3144,
      "തരകകഥ": 3145,
      "വളകക": 3146,
      "തര‍": 3147,
      "റകള‍": 3148,
      "ങങളലല": 3149,
      "വര‍ഡ": 3150,
      "കലകക": 3151,
      "നലവര": 3152,
      "പരതസനധയ": 3153,
      "ഞങങൾ": 3154,
      "ങങളണട": 3155,
      "നയര‍": 3156,
      "വടന": 3157,
      "കരയങങൾ": 3158,
      "രണടമതത": 3159,
      "രയയ": 3160,
      "198": 3161,
      "അറബ": 3162,
      "മഡല": 3163,
      "ഫ‌ള": 3164,
      "ഉല‍": 3165,
      "ഹഡ": 3166,
      "പരസതവ": 3167,
      "വവരങങൾ": 3168,
      "33": 3169,
      "ഉൽ": 3170,
      "നഴ": 3171,
      "പപകകൻ": 3172,
      "യണവഴ": 3173,
      "കര‍തത": 3174,
      "പദധതയട": 3175,
      "ധകര": 3176,
      "നങങള‍കക": 3177,
      "പദന": 3178,
      "ര‍ണ": 3179,
      "ആയധ": 3180,
      "ഇലലതത": 3181,
      "എഞച": 3182,
      "ടണ‍": 3183,
      "ചയർ": 3184,
      "അതനട": 3185,
      "വദയർഥ": 3186,
      "സങകതക": 3187,
      "an": 3188,
      "ഇള": 3189,
      "ജൻ": 3190,
      "ജലകക": 3191,
      "തയയറയ": 3192,
      "ബരടടഷ": 3193,
      "തയളള": 3194,
      "ആഹ": 3195,
      "പരസതവന": 3196,
      "സയകത": 3197,
      "ആളകള‍": 3198,
      "ഹജരകക": 3199,
      "നരടനന": 3200,
      "പരതയകഷ": 3201,
      "മരളധര": 3202,
      "കളചച": 3203,
      "കളലട": 3204,
      "കരയമയ": 3205,
      "പരവര‍തതകര": 3206,
      "സഹചരയതതലണ": 3207,
      "പരമവധ": 3208,
      "ഹല‍": 3209,
      "കലവധ": 3210,
      "നര‍മമണ": 3211,
      "ജപപ": 3212,
      "സനധ": 3213,
      "തരഞഞടതത": 3214,
      "ചകര": 3215,
      "ഒരമചച": 3216,
      "അനപ": 3217,
      "ചവവഴച": 3218,
      "തകര": 3219,
      "ഭരയയ": 3220,
      "ടമന": 3221,
      "ഹരണ": 3222,
      "ററന": 3223,
      "രകഷമയ": 3224,
      "സവഭവ": 3225,
      "ദരഹ": 3226,
      "മകൻ": 3227,
      "ആനറണ": 3228,
      "ആണനന": 3229,
      "തണട": 3230,
      "കഷര": 3231,
      "കണനനത": 3232,
      "ശഭ": 3233,
      "തതതല": 3234,
      "നടക": 3235,
      "റഞച": 3236,
      "ലയല‍": 3237,
      "ന​": 3238,
      "ങങളലണ": 3239,
      "ഭഗയ": 3240,
      "പരസപര": 3241,
      "കകരത": 3242,
      "സകൾ": 3243,
      "മനദണഡ": 3244,
      "ചനല": 3245,
      "ഹററ": 3246,
      "കലശല": 3247,
      "രണ‍": 3248,
      "ഭഷക": 3249,
      "മമന": 3250,
      "മങകല‍": 3251,
      "രഘ": 3252,
      "ഓഗസററ": 3253,
      "പരവർതതക": 3254,
      "ആദര": 3255,
      "ചചടട": 3256,
      "തരഗ": 3257,
      "നൽകകനന": 3258,
      "വരടയ": 3259,
      "കവര": 3260,
      "ബനറ": 3261,
      "പപൽ": 3262,
      "വയകതമകകനന": 3263,
      "ഉപയഗകക": 3264,
      "ഇവര‍കക": 3265,
      "ചയയകയ": 3266,
      "രഹത": 3267,
      "ഇറകക": 3268,
      "കലശലയ": 3269,
      "കടടകള‍": 3270,
      "അവര‍ഡ": 3271,
      "കടടനന": 3272,
      "റപപര‍ടടകള‍": 3273,
      "ആളകള": 3274,
      "എഴതയ": 3275,
      "ഭകഷയ": 3276,
      "ചച‌": 3277,
      "സമമര‍": 3278,
      "രക": 3279,
      "കരണമയ": 3280,
      "ബസസ": 3281,
      "നതതവതതലളള": 3282,
      "രതത": 3283,
      "ചചരകകനനത": 3284,
      "പടടണ": 3285,
      "സരഭ": 3286,
      "തരഞഞടപപൽ": 3287,
      "നഷണല‍": 3288,
      "49": 3289,
      "എനതങകല": 3290,
      "ഇതണ": 3291,
      "മശര": 3292,
      "തതറ": 3293,
      "മണയ": 3294,
      "ചതരതതല‍": 3295,
      "ഒനനണ": 3296,
      "അറസററലയ": 3297,
      "ചടങങല‍": 3298,
      "ഉനന": 3299,
      "നയസ": 3300,
      "രയല‍": 3301,
      "ജഡജ": 3302,
      "നതകകൾ": 3303,
      "നതതവതതൽ": 3304,
      "ഉടൻ": 3305,
      "ബൻ": 3306,
      "തരതതലളള": 3307,
      "സജജ": 3308,
      "മനസലകക": 3309,
      "പരശ‌നങങള‍": 3310,
      "ഏപരല‍": 3311,
      "ചചകണട": 3312,
      "സ‌ല": 3313,
      "ഇടയകക": 3314,
      "കൺഗര": 3315,
      "നടതതയരനന": 3316,
      "കടതയൽ": 3317,
      "സവഭ": 3318,
      "കരളതതനറ": 3319,
      "അധയപക": 3320,
      "വശദമയ": 3321,
      "ഏകദന": 3322,
      "ഓവറ": 3323,
      "കഠ": 3324,
      "കകർകക": 3325,
      "കണ‍സല": 3326,
      "തതതന": 3327,
      "ഇനനതത": 3328,
      "പരവശയ": 3329,
      "വർദധ": 3330,
      "അപമന": 3331,
      "ഡറ": 3332,
      "കണടടട": 3333,
      "39": 3334,
      "കഫ": 3335,
      "ടററ": 3336,
      "ലടതത": 3337,
      "ണണമയ": 3338,
      "കകനനതനയ": 3339,
      "ഗപല": 3340,
      "കടടകള‍കക": 3341,
      "അതനൽ": 3342,
      "അനധകത": 3343,
      "ഡഎ": 3344,
      "കകപപ": 3345,
      "ചതരതതല": 3346,
      "വളപപട": 3347,
      "വങകല": 3348,
      "മണ‍": 3349,
      "കര‍ശന": 3350,
      "പചചകകറ": 3351,
      "സനമയല‍": 3352,
      "പരകഷഭ": 3353,
      "അബദബ": 3354,
      "ലധക": 3355,
      "പനതര": 3356,
      "പരതയകചച": 3357,
      "ഉതതര‍": 3358,
      "ഗഢ": 3359,
      "വരമനന": 3360,
      "നതരയ": 3361,
      "കടബഗ": 3362,
      "മകകള‍": 3363,
      "വടടലകക": 3364,
      "കണ‍ഗരസന": 3365,
      "വരയണ": 3366,
      "നകകറചച": 3367,
      "കലയണ": 3368,
      "കർകക": 3369,
      "സനദര": 3370,
      "ധനക": 3371,
      "ആഴച": 3372,
      "ധണ": 3373,
      "ലബ": 3374,
      "വങങയ": 3375,
      "തകര‍നന": 3376,
      "ചയ‌ത": 3377,
      "സഭവതതൽ": 3378,
      "ബലത": 3379,
      "സദദ": 3380,
      "മററര‍": 3381,
      "കഡ": 3382,
      "വജ": 3383,
      "ചനയ": 3384,
      "നയര": 3385,
      "ജവന‍": 3386,
      "മകൾ": 3387,
      "അതൽ": 3388,
      "സഥനർതഥ": 3389,
      "ചനദരന‍": 3390,
      "46": 3391,
      "വതതയ": 3392,
      "കരസത": 3393,
      "എനനവയണ": 3394,
      "അഭപരയപപടട": 3395,
      "വര‍ഗ": 3396,
      "വകനനര": 3397,
      "രഭ": 3398,
      "ധർ": 3399,
      "മകവ": 3400,
      "ലഫ": 3401,
      "സകള": 3402,
      "പരഷന": 3403,
      "ഉര": 3404,
      "തതന‍": 3405,
      "ള‍പപട": 3406,
      "ബജററ": 3407,
      "ജജ": 3408,
      "പശചതതലതതല‍": 3409,
      "കഷണൻ": 3410,
      "ദര‍ശ": 3411,
      "ആര‍ടടകകള‍": 3412,
      "പരസദ": 3413,
      "നമപര‍": 3414,
      "ഡസബര‍": 3415,
      "കജ": 3416,
      "നലകക": 3417,
      "മകളല‍": 3418,
      "കലയള": 3419,
      "മതവ": 3420,
      "ഓസ‌ടര": 3421,
      "തതവ": 3422,
      "വശതത": 3423,
      "സസകര": 3424,
      "കചചവട": 3425,
      "ഇടതപകഷ": 3426,
      "കളലല": 3427,
      "മലന": 3428,
      "തടരകയണ": 3429,
      "ബളവഡ": 3430,
      "അധയകഷത": 3431,
      "ലഭയമകക": 3432,
      "പൺകടട": 3433,
      "പലകക": 3434,
      "വനദര": 3435,
      "രജയതതനറ": 3436,
      "യതരകകര": 3437,
      "നററണട": 3438,
      "എതര‍": 3439,
      "ഒടവല‍": 3440,
      "ഓപപ": 3441,
      "അഭമന": 3442,
      "സവധയകന‍": 3443,
      "കണകകന": 3444,
      "വളപപടതത": 3445,
      "നമമള‍": 3446,
      "ആള‍": 3447,
      "ടറസ": 3448,
      "പദവ": 3449,
      "വബ": 3450,
      "പരനന": 3451,
      "അടതതട": 3452,
      "വകപപനറ": 3453,
      "ഗഹ": 3454,
      "രല": 3455,
      "തമസകകനന": 3456,
      "ഗവഷണ": 3457,
      "കകഴഞഞ": 3458,
      "പരതകള‍": 3459,
      "കകനനതനളള": 3460,
      "കടയര": 3461,
      "ഘടടതതല‍": 3462,
      "വദശതത": 3463,
      "അവയ": 3464,
      "കമറയ": 3465,
      "സള": 3466,
      "പണയ": 3467,
      "തരചചറഞഞ": 3468,
      "ബർഡ": 3469,
      "എമമ": 3470,
      "എപപഴ": 3471,
      "റള": 3472,
      "കരമന": 3473,
      "ർതതയ": 3474,
      "ൽനനന": 3475,
      "സററഡയ": 3476,
      "വടടര‍": 3477,
      "സസണ": 3478,
      "വചചണ": 3479,
      "നയക": 3480,
      "കകനനവനന": 3481,
      "ഉണടയത": 3482,
      "മനനല": 3483,
      "കവറനറ": 3484,
      "അലലങകല‍": 3485,
      "അടസഥനതതല‍": 3486,
      "ജണ": 3487,
      "ഫല‍": 3488,
      "യര‍": 3489,
      "കയകക": 3490,
      "അനതരചച": 3491,
      "നരങങ": 3492,
      "മകനനത": 3493,
      "പരതയല‍": 3494,
      "പരദശല": 3495,
      "ഒതത": 3496,
      "കങ": 3497,
      "തതന‌": 3498,
      "ടരഫ": 3499,
      "നല‍കമനന": 3500,
      "പരശധനയ": 3501,
      "ബസനസ": 3502,
      "രജഷ": 3503,
      "അഗകരചച": 3504,
      "വദശകരയ": 3505,
      "മഡയയല‍": 3506,
      "ഇഞച": 3507,
      "ഇനധന": 3508,
      "കഎസ": 3509,
      "ശങക": 3510,
      "തടസസ": 3511,
      "44": 3512,
      "ആകരമകക": 3513,
      "പരയപപടട": 3514,
      "സർകകരനറ": 3515,
      "കഴപപ": 3516,
      "ബനധന": 3517,
      "ഉപയ": 3518,
      "ഒനനന": 3519,
      "തടര‍ചചയയ": 3520,
      "ഉദഹരണ": 3521,
      "സഞ": 3522,
      "ഹബ": 3523,
      "ങങയത": 3524,
      "ലലങകല‍": 3525,
      "അവളട": 3526,
      "വണണ": 3527,
      "ആശരയ": 3528,
      "ആയരകക": 3529,
      "ജമ": 3530,
      "ബനദ": 3531,
      "മടതത": 3532,
      "ലകസ": 3533,
      "കലപ": 3534,
      "സപഐ": 3535,
      "റകള": 3536,
      "കരകകനന": 3537,
      "ങങളനന": 3538,
      "ഞഞടപപ": 3539,
      "കടവളള": 3540,
      "പലര‍ചച": 3541,
      "കണതയ": 3542,
      "രജന‍": 3543,
      "യവതയട": 3544,
      "പടചചടതത": 3545,
      "ശസതരകരയ": 3546,
      "ബലതസഗ": 3547,
      "ആസതര": 3548,
      "ഉറകക": 3549,
      "ഓള": 3550,
      "പപര‍": 3551,
      "റയദ": 3552,
      "ലകകട": 3553,
      "ഉദദശ": 3554,
      "സനമയല": 3555,
      "ന‌": 3556,
      "യക": 3557,
      "ദരതശ": 3558,
      "തമഴ‌നട": 3559,
      "തമപ": 3560,
      "വറയ": 3561,
      "ശദധ": 3562,
      "ആകരമചച": 3563,
      "വരകയണ": 3564,
      "മദയട": 3565,
      "അസഖ": 3566,
      "സറയ": 3567,
      "സഥതയ": 3568,
      "നല‍കന": 3569,
      "കകയളള": 3570,
      "യഥര‍തഥ": 3571,
      "ഓസ‌ടരലയ": 3572,
      "കടതയട": 3573,
      "ഇസരയ": 3574,
      "നതന": 3575,
      "ഡയറകട": 3576,
      "ഇനദര": 3577,
      "ഇതതരതതല‍": 3578,
      "തലങക": 3579,
      "പരധനമയ": 3580,
      "സസരകകകയയരനന": 3581,
      "ഡകടർ": 3582,
      "സങക": 3583,
      "ഇനതയകക": 3584,
      "ആദവസ": 3585,
      "എഎൽ": 3586,
      "മഷന‍": 3587,
      "അഭഭഷക": 3588,
      "ലകഷമ": 3589,
      "ശരയയ": 3590,
      "വളര‍ചച": 3591,
      "മര‍ദദ": 3592,
      "ഏററടകക": 3593,
      "വഭവ": 3594,
      "ജനങങള‍കക": 3595,
      "അവഗണ": 3596,
      "എല‍ഡഎഫ": 3597,
      "വയതയസ": 3598,
      "സനല‍": 3599,
      "ബഗലദശ": 3600,
      "കണടളള": 3601,
      "ജനന": 3602,
      "പകന": 3603,
      "‌സററ": 3604,
      "പണ‍കടടയ": 3605,
      "ആഗരഹകകനന": 3606,
      "അവർകക": 3607,
      "കരയയ": 3608,
      "സവഭവക": 3609,
      "ജഷ": 3610,
      "ടണ": 3611,
      "തനനനന": 3612,
      "അബദല‍": 3613,
      "ചറപപ": 3614,
      "ഹസററ": 3615,
      "കണടവനന": 3616,
      "കവല": 3617,
      "നകകയ": 3618,
      "മനസക": 3619,
      "പരഹരകക": 3620,
      "പരസഥത": 3621,
      "കസകള‍": 3622,
      "നൽകക": 3623,
      "ജലലയൽ": 3624,
      "ആയര": 3625,
      "നവബര‍": 3626,
      "മതസരകക": 3627,
      "എഎ": 3628,
      "ബലക": 3629,
      "കയക": 3630,
      "ബജപയട": 3631,
      "പരതഷധചച": 3632,
      "നയസല": 3633,
      "പണഡ": 3634,
      "സമഹമധയമ": 3635,
      "ർഷ": 3636,
      "കടകകനനത": 3637,
      "മസജ": 3638,
      "ദര‍ഘ": 3639,
      "ഉപദശ": 3640,
      "പരവർതതകർ": 3641,
      "ഡകട": 3642,
      "ർഡ": 3643,
      "ചയയമനന": 3644,
      "എഫ‌": 3645,
      "നടപടകൾ": 3646,
      "ആഴ": 3647,
      "ഉപപ": 3648,
      "കഹ": 3649,
      "ഘത": 3650,
      "ഡര‍": 3651,
      "സമപര‍കക": 3652,
      "അവന": 3653,
      "കലപപടതതയ": 3654,
      "കടടര": 3655,
      "നല‍കയടടണട": 3656,
      "അധയകഷന‍": 3657,
      "അനതയ": 3658,
      "സമപന": 3659,
      "കസററഡയല": 3660,
      "പപനന": 3661,
      "മയയ": 3662,
      "മയല‍": 3663,
      "മണകകര‍": 3664,
      "ആശപതരയല": 3665,
      "ബരകക": 3666,
      "തടസ": 3667,
      "വക‌സന": 3668,
      "42": 3669,
      "സവപ": 3670,
      "അമരകകൻ": 3671,
      "ഞന": 3672,
      "മഷട": 3673,
      "ഹറ": 3674,
      "ഞചര": 3675,
      "മന‍റ": 3676,
      "പങകടകക": 3677,
      "മപഴണ": 3678,
      "മയകകമരനന": 3679,
      "നയനപകഷ": 3680,
      "ബഷ": 3681,
      "സൺ": 3682,
      "ആശങകയ": 3683,
      "അമമയട": 3684,
      "മടങങയ": 3685,
      "ചയതരകകനനത": 3686,
      "കമനറ": 3687,
      "മഞജ": 3688,
      "പരഹസ": 3689,
      "നയകന": 3690,
      "സഭവന": 3691,
      "റകകര‍": 3692,
      "സമനമയ": 3693,
      "രതയൽ": 3694,
      "ഒരങങ": 3695,
      "നടടകര‍": 3696,
      "നൽകനനത": 3697,
      "വകസൻ": 3698,
      "​ത": 3699,
      "ചചരനനത": 3700,
      "ഇകകരയതതല‍": 3701,
      "ഷയല‍": 3702,
      "കടയയ": 3703,
      "പരസഡണട": 3704,
      "തററയ": 3705,
      "as": 3706,
      "കതതന": 3707,
      "വരവ": 3708,
      "പരതസഹ": 3709,
      "പര‍ണ": 3710,
      "പര‍ലമനറ": 3711,
      "ചലര‍": 3712,
      "നർമമണ": 3713,
      "പരതയയ": 3714,
      "റസററ": 3715,
      "മഹരഷടരയ": 3716,
      "കണ‍സല‍": 3717,
      "ഞഞത": 3718,
      "സമഗര": 3719,
      "സമർടട": 3720,
      "ചതരമണ": 3721,
      "വമർശന": 3722,
      "അതകരമ": 3723,
      "ഉണടനന": 3724,
      "അധകതർ": 3725,
      "ധനമനതര": 3726,
      "പരന": 3727,
      "തതലധക": 3728,
      "ഉതതരവടട": 3729,
      "അസസയഷന‍": 3730,
      "56": 3731,
      "മടര": 3732,
      "യശ": 3733,
      "റലയ": 3734,
      "വഭ": 3735,
      "സര‍ടട": 3736,
      "കകയയരനന": 3737,
      "പടകടയത": 3738,
      "മനഷ": 3739,
      "കലബബ": 3740,
      "കസർ": 3741,
      "ഡപയടട": 3742,
      "വളരയ": 3743,
      "അസസ": 3744,
      "ഖന": 3745,
      "ജർജ": 3746,
      "റകൾ": 3747,
      "കവത": 3748,
      "ഉണടകക": 3749,
      "പന‍വലകക": 3750,
      "കരര‍": 3751,
      "ആകട": 3752,
      "ദതയ": 3753,
      "ജയസ": 3754,
      "മര‍ടട": 3755,
      "രജയസഭ": 3756,
      "ചകതസയ": 3757,
      "കലമററര‍": 3758,
      "തന‍റ": 3759,
      "പരന‍സ": 3760,
      "കളതത": 3761,
      "കയളള": 3762,
      "പര‍വവ": 3763,
      "രഖപപടതതയ": 3764,
      "ദരതശവസ": 3765,
      "കവശ": 3766,
      "തനനയ": 3767,
      "കനദരമനതര": 3768,
      "ദവപ": 3769,
      "തരമനചചത": 3770,
      "ഭരണഘടന": 3771,
      "മചന": 3772,
      "കടയട": 3773,
      "മതല": 3774,
      "ജനകയ": 3775,
      "പരയജന": 3776,
      "കർഡ": 3777,
      "സനദര‍ശന": 3778,
      "പരതഫല": 3779,
      "അനല‍": 3780,
      "വലത": 3781,
      "വലപപ": 3782,
      "യഗയത": 3783,
      "അയള‍": 3784,
      "ർചചയയ": 3785,
      "പരഗണകക": 3786,
      "അങങനയ": 3787,
      "ഖന‍": 3788,
      "നകഷ": 3789,
      "ഗരനഥ": 3790,
      "കകനനതല‍": 3791,
      "പപടടരനന": 3792,
      "ചയയന": 3793,
      "കര‍ണടക": 3794,
      "സധയതയണട": 3795,
      "പറയന‍": 3796,
      "നലലത": 3797,
      "യപ": 3798,
      "തടവ": 3799,
      "തതലതത": 3800,
      "ഉചചയകക": 3801,
      "ഉദയ": 3802,
      "ഒടടറ": 3803,
      "ജതത": 3804,
      "ബഷപപ": 3805,
      "ർണണ": 3806,
      "വയര‍": 3807,
      "കടബതതന": 3808,
      "ഫട‌": 3809,
      "റവനയ": 3810,
      "അറബയ": 3811,
      "സ​ററ": 3812,
      "പരചച": 3813,
      "ജയലല‍": 3814,
      "അഭനനദ": 3815,
      "കളജല": 3816,
      "സഥനമയ": 3817,
      "പരസഡൻറ": 3818,
      "ഇപപഴതത": 3819,
      "ചമതലയ": 3820,
      "റഷദ": 3821,
      "ചവ": 3822,
      "രഞജ": 3823,
      "തതൻറ": 3824,
      "മററയ": 3825,
      "അവള‍": 3826,
      "നർബനധ": 3827,
      "ഉയർതത": 3828,
      "ആകഷപ": 3829,
      "കകസ": 3830,
      "മഖയമനതരയ": 3831,
      "അറസററല‍": 3832,
      "വഭഗതതല‍": 3833,
      "കളജല‍": 3834,
      "മകളല": 3835,
      "ഷനൽ": 3836,
      "കരളതതന": 3837,
      "കമപനയട": 3838,
      "ചയയണമനന": 3839,
      "നങങ": 3840,
      "നയമയ": 3841,
      "വയകതയ": 3842,
      "പലസല‍": 3843,
      "മറയല‍": 3844,
      "എനനവയട": 3845,
      "സനനദധ": 3846,
      "ഔടട": 3847,
      "തയകക": 3848,
      "വർണ": 3849,
      "അണയ": 3850,
      "ഡപപ": 3851,
      "ധരയ": 3852,
      "പരഡ": 3853,
      "സററഷന": 3854,
      "കറതത": 3855,
      "വജയൻ": 3856,
      "ടകകനന": 3857,
      "ങങടട": 3858,
      "കളനന": 3859,
      "കഷൻ": 3860,
      "പടഞഞറ": 3861,
      "ശവശ": 3862,
      "സബനധ": 3863,
      "പതപപ": 3864,
      "ദശയങങള‍": 3865,
      "വപണയല‍": 3866,
      "കയടടവ": 3867,
      "അഥ": 3868,
      "എനനറയ": 3869,
      "ചതരങങൾ": 3870,
      "കനദരകരചച": 3871,
      "ആരഭചചത": 3872,
      "ദള": 3873,
      "തമമൽ": 3874,
      "ഊര‍ജ": 3875,
      "വരജ": 3876,
      "കഴവ": 3877,
      "പരവർതതകകനന": 3878,
      "നഗമന": 3879,
      "അധയകഷനയ": 3880,
      "അകതത": 3881,
      "സററഫ": 3882,
      "എഎൽഎ": 3883,
      "അതയത": 3884,
      "പനല": 3885,
      "ടരള": 3886,
      "ജലലകളല‍": 3887,
      "സററററയടട": 3888,
      "ആനകലയ": 3889,
      "ഒകക": 3890,
      "ലകള‍": 3891,
      "തരമയ": 3892,
      "പലസററ": 3893,
      "കകരതനന": 3894,
      "അടസഥനതതലണ": 3895,
      "സപപർ": 3896,
      "അഖ": 3897,
      "ഇസ‌ല": 3898,
      "പരസവ": 3899,
      "പരവതത": 3900,
      "പതവയ": 3901,
      "ഒരകകയ": 3902,
      "ജകകബ": 3903,
      "പകട": 3904,
      "അനതമ": 3905,
      "ഉപകഷചച": 3906,
      "kvartha": 3907,
      "ആധനക": 3908,
      "ചഴ": 3909,
      "മ​": 3910,
      "കക‌": 3911,
      "കടയററ": 3912,
      "പഞചബ": 3913,
      "ഇരപ": 3914,
      "മനനററ": 3915,
      "കടടയത": 3916,
      "രഗതതതത": 3917,
      "കമമയണ": 3918,
      "പറതതറങങയ": 3919,
      "റഷന‍": 3920,
      "പരമർ": 3921,
      "ങങളകകറചച": 3922,
      "രനനലല": 3923,
      "തതനക": 3924,
      "പരതജഞ": 3925,
      "കഴയലല": 3926,
      "തശർ": 3927,
      "അള": 3928,
      "നഞച": 3929,
      "റയല": 3930,
      "നല‍കണമനന": 3931,
      "197": 3932,
      "കടകകഴച": 3933,
      "57": 3934,
      "ഫള": 3935,
      "സഥൻ": 3936,
      "അതട": 3937,
      "ഫനല": 3938,
      "കകമപള‍": 3939,
      "പരഭഷണ": 3940,
      "മനടട": 3941,
      "ജനചച": 3942,
      "തടടകകണട": 3943,
      "പടയലയ": 3944,
      "സര‍ടടഫകകററ": 3945,
      "66": 3946,
      "രററ": 3947,
      "വ​": 3948,
      "ഒനനര": 3949,
      "വര‍ഷമയ": 3950,
      "തകര‍തത": 3951,
      "വജലന‍സ": 3952,
      "മതതത": 3953,
      "ചചയ": 3954,
      "പനനടട": 3955,
      "വഴയ": 3956,
      "സബര‍": 3957,
      "മഖലയൽ": 3958,
      "ലമയ": 3959,
      "പയന‍": 3960,
      "സമനറ": 3961,
      "തളയ": 3962,
      "സർടട": 3963,
      "ആനനദ": 3964,
      "ണ​": 3965,
      "വരതതയ": 3966,
      "ലകകടട": 3967,
      "പരതഭ": 3968,
      "അനസ": 3969,
      "മററർ": 3970,
      "തരഞഞടപപന": 3971,
      "സഫററ": 3972,
      "ആബല": 3973,
      "ആകശ": 3974,
      "എഡററ": 3975,
      "പലന": 3976,
      "അതഭത": 3977,
      "വശയമയ": 3978,
      "പകൻ": 3979,
      "2013": 3980,
      "ദർശന": 3981,
      "ജർ": 3982,
      "ചയയപപടട": 3983,
      "വണടയണ": 3984,
      "നർമണ": 3985,
      "സകഷയ": 3986,
      "ബതത": 3987,
      "ഴലള": 3988,
      "വശദധ": 3989,
      "നടപടയട": 3990,
      "അപകടതതല‍": 3991,
      "പരകടപപചച": 3992,
      "300": 3993,
      "go": 3994,
      "അതവ": 3995,
      "ലഭകകനനത": 3996,
      "ഉനനയചച": 3997,
      "ദല‍ഹ": 3998,
      "സകള‍": 3999,
      "അതര‍തത": 4000,
      "സമപദ": 4001,
      "ഗനധയ": 4002,
      "സർകകരന": 4003,
      "ഗല‍": 4004,
      "ലഹര": 4005,
      "രയല": 4006,
      "ബജപകക": 4007,
      "ആളകൾ": 4008,
      "കവടട": 4009,
      "നൽകൻ": 4010,
      "ഇരപത": 4011,
      "ഇടട": 4012,
      "ദവയ": 4013,
      "വബ‌": 4014,
      "ഗരമപ": 4015,
      "അതപല": 4016,
      "കവററ": 4017,
      "കസന": 4018,
      "കകരന": 4019,
      "പപടതതനനത": 4020,
      "കമറന": 4021,
      "ചര‍ജ": 4022,
      "മതതയ": 4023,
      "പപകകന": 4024,
      "വഷന‍": 4025,
      "ലകതതല": 4026,
      "നടടലകക": 4027,
      "ലടയണ": 4028,
      "ആനധ": 4029,
      "കടകകന‍": 4030,
      "മററനന": 4031,
      "ചതരകരണ": 4032,
      "വജയചച": 4033,
      "ഹജര": 4034,
      "ഉൾപപടയളള": 4035,
      "ആഹവന": 4036,
      "ആചര": 4037,
      "എനതയ": 4038,
      "ശർ": 4039,
      "പരല": 4040,
      "കടല": 4041,
      "വരൽ": 4042,
      "വര‍ണണ": 4043,
      "സധചച": 4044,
      "ണനനണ": 4045,
      "അമരകകയല": 4046,
      "ടരയന": 4047,
      "സപഎമമ": 4048,
      "ഡസ‌": 4049,
      "രവനദര": 4050,
      "വഴച": 4051,
      "രജയങങളല‍": 4052,
      "അറയചചരനന": 4053,
      "നലലതണ": 4054,
      "അചഛന": 4055,
      "ഉപതര": 4056,
      "എനനടട": 4057,
      "പരസദധകരചച": 4058,
      "പരഖയപചചത": 4059,
      "പരസഥന": 4060,
      "പലനറ": 4061,
      "കലഘടട": 4062,
      "2000": 4063,
      "പര‍ശ": 4064,
      "നടടൽ": 4065,
      "ഗപ": 4066,
      "റഗ": 4067,
      "കളകക": 4068,
      "ആരഭകക": 4069,
      "ടകകനനത": 4070,
      "വരന": 4071,
      "പതതന‍": 4072,
      "കസററസ": 4073,
      "ഇരനന": 4074,
      "മടയ": 4075,
      "സനധയ": 4076,
      "മധയമങങളട": 4077,
      "ലകസഭ": 4078,
      "68": 4079,
      "കരസതയ": 4080,
      "സവതത": 4081,
      "ദവസങങളല‍": 4082,
      "യഥർതഥ": 4083,
      "ഉപതരഞഞടപപ": 4084,
      "ഏരയ": 4085,
      "ചവട": 4086,
      "സസര": 4087,
      "റയഡ": 4088,
      "ആരപ": 4089,
      "പരസകര": 4090,
      "മണടയത": 4091,
      "2011": 4092,
      "സരനദരന‍": 4093,
      "വകഷ": 4094,
      "കറവണ": 4095,
      "നർണയ": 4096,
      "സഹയതതട": 4097,
      "പളചച": 4098,
      "റങ": 4099,
      "കരരമയ": 4100,
      "ചയയകയയരനന": 4101,
      "വണടനന": 4102,
      "ചതരതതന": 4103,
      "പരവര‍തതകരട": 4104,
      "പരവര‍തതകര‍കക": 4105,
      "64": 4106,
      "മകളൽ": 4107,
      "രതനന": 4108,
      "മനനറ": 4109,
      "വനമയ": 4110,
      "ടകകന‍": 4111,
      "രഗകളട": 4112,
      "ശതമനവ": 4113,
      "പരമപരയ": 4114,
      "നഷണൽ": 4115,
      "കണൻ": 4116,
      "പരയങക": 4117,
      "രജയങങള": 4118,
      "മഡല‍": 4119,
      "ഫരഞച": 4120,
      "67": 4121,
      "രഷ": 4122,
      "തടങങയവര‍": 4123,
      "കയപററന‍": 4124,
      "ഐട": 4125,
      "മവയ": 4126,
      "രൽ": 4127,
      "ഹൽ": 4128,
      "കകലക": 4129,
      "കകറണട": 4130,
      "പര‍ടടയട": 4131,
      "വമര‍ശചച": 4132,
      "ഓൺലൻ": 4133,
      "കകഴ": 4134,
      "തളയകക": 4135,
      "ആരധകര‍": 4136,
      "ചക": 4137,
      "കരബരഞച": 4138,
      "പലസ‌": 4139,
      "ശരധര": 4140,
      "മബൽ": 4141,
      "ചതത": 4142,
      "ർപപ": 4143,
      "രജയനതര": 4144,
      "കകരനയ": 4145,
      "ന‍സര‍": 4146,
      "​​​": 4147,
      "സഷടചച": 4148,
      "ത‌": 4149,
      "പറതതയ": 4150,
      "ഗരവ": 4151,
      "വയകതമകകയരനന": 4152,
      "ഇയൾ": 4153,
      "തയയറകകയ": 4154,
      "ഫയ‌സ": 4155,
      "ഗർഭ": 4156,
      "ഗഢല": 4157,
      "ആഭ": 4158,
      "ഐഎസ": 4159,
      "റങക": 4160,
      "ഷഫ": 4161,
      "‌കകതര": 4162,
      "പറതതവനന": 4163,
      "ഴചയണ": 4164,
      "സററൽ": 4165,
      "മതർനന": 4166,
      "വമര‍ശ": 4167,
      "സണയ": 4168,
      "ചചച": 4169,
      "വര‍ധന": 4170,
      "തതലറ": 4171,
      "ദവസമണ": 4172,
      "സമപചച": 4173,
      "നലവലളള": 4174,
      "52": 4175,
      "കഴല‍": 4176,
      "പതകക": 4177,
      "ബനധകകള": 4178,
      "വര‍ഷക": 4179,
      "ഉപയഗകകനനത": 4180,
      "ഉറചച": 4181,
      "പപന‍": 4182,
      "എനനങങന": 4183,
      "സരത": 4184,
      "വലണ": 4185,
      "തരയളള": 4186,
      "ഫലപരദ": 4187,
      "നമമൾ": 4188,
      "കകൾകക": 4189,
      "ഐസ": 4190,
      "മസസ": 4191,
      "സ‌ഫ": 4192,
      "കററപതര": 4193,
      "കമമഷൻ": 4194,
      "നതകകളട": 4195,
      "പപടതതന‍": 4196,
      "തഴൽ": 4197,
      "പഠചച": 4198,
      "മനഷയവകശ": 4199,
      "തതനളളല‍": 4200,
      "അനയജയ": 4201,
      "സവശഷത": 4202,
      "അസവ": 4203,
      "ഇഡ": 4204,
      "പരര": 4205,
      "വര‍തതകള‍": 4206,
      "സകരടടറയററ": 4207,
      "ശകതയ": 4208,
      "കകപപടനന": 4209,
      "ജനങങൾ": 4210,
      "മർഗ": 4211,
      "ഒനനചച": 4212,
      "അഭനയചച": 4213,
      "ഗരമപഞ": 4214,
      "58": 4215,
      "ഇബരഹ": 4216,
      "സററഗര": 4217,
      "എസപ": 4218,
      "കണകകലടതത": 4219,
      "സഹതതകകള": 4220,
      "സസ‌കരക": 4221,
      "കഴയനനത": 4222,
      "ശരമകകനനത": 4223,
      "പടരള‍": 4224,
      "കഞചവ": 4225,
      "വകതവ": 4226,
      "ഇടപടട": 4227,
      "പരജയപപടട": 4228,
      "ഒകടബര‍": 4229,
      "അടടമറ": 4230,
      "അളവ": 4231,
      "വൾ": 4232,
      "കകനനവര": 4233,
      "കനദരസര‍കകര‍": 4234,
      "150": 4235,
      "കകലലനന": 4236,
      "പടടകയല‍": 4237,
      "റകകര‍ഡ": 4238,
      "41": 4239,
      "ഉറങങ": 4240,
      "എല": 4241,
      "ടങങ": 4242,
      "മധര": 4243,
      "വരന‍": 4244,
      "ജയലല": 4245,
      "വടടടപപ": 4246,
      "43": 4247,
      "ഡപ": 4248,
      "പ​": 4249,
      "വസ‌": 4250,
      "അതല": 4251,
      "ഡരവര‍": 4252,
      "അന‍": 4253,
      "ഖര‍": 4254,
      "മപല": 4255,
      "യദവ": 4256,
      "അതഥ": 4257,
      "പര‍വ": 4258,
      "മനഹരമയ": 4259,
      "ഫന": 4260,
      "തരങങള": 4261,
      "മകകന‍": 4262,
      "ഗജറതത": 4263,
      "ഉപയകത": 4264,
      "ധനയ": 4265,
      "ഇനതയയകക": 4266,
      "‌സല‍": 4267,
      "നളളല‍": 4268,
      "ദർഘ": 4269,
      "അനവഷചച": 4270,
      "ഏപരൽ": 4271,
      "വജഞ": 4272,
      "തരമണ": 4273,
      "കകടയല‍": 4274,
      "ളളതണ": 4275,
      "പരധനമനതരയട": 4276,
      "ഇന‍ഡ": 4277,
      "ടയയ": 4278,
      "റമ": 4279,
      "കഴകകന‍": 4280,
      "വശവ": 4281,
      "അതറററ": 4282,
      "പനനൽ": 4283,
      "മഗള": 4284,
      "സലല": 4285,
      "ചചരകകനന": 4286,
      "റയണ": 4287,
      "നടപടയ": 4288,
      "സനദർശ": 4289,
      "at": 4290,
      "പരകരമണ": 4291,
      "നടതതകയ": 4292,
      "തലതതല‍": 4293,
      "ഭരഭഗ": 4294,
      "ഹസന‍": 4295,
      "st": 4296,
      "അബബ": 4297,
      "തകകള": 4298,
      "തകചച": 4299,
      "യറപപ": 4300,
      "ചചതയ": 4301,
      "ചചതണ": 4302,
      "മഴയ": 4303,
      "ഇടവള": 4304,
      "സര‍വവ": 4305,
      "ഏര‍പപടതതയ": 4306,
      "ഡന‍": 4307,
      "ശതര": 4308,
      "വളതത": 4309,
      "സതരകള‍": 4310,
      "റപപര‍ടടല‍": 4311,
      "പടയലയത": 4312,
      "അഫഗന": 4313,
      "അഥവ": 4314,
      "ചല‍": 4315,
      "വമപ": 4316,
      "വയർ": 4317,
      "മഹരഷടര": 4318,
      "നയയര‍കക": 4319,
      "ആരധകര": 4320,
      "ഗവഷ": 4321,
      "മകളട": 4322,
      "യനതര": 4323,
      "നയർ": 4324,
      "സററകള‍": 4325,
      "സഗമ": 4326,
      "ലകര": 4327,
      "വമലല": 4328,
      "കക​": 4329,
      "പരയട": 4330,
      "ജലലകളല": 4331,
      "വർഷതത": 4332,
      "പശചമ": 4333,
      "സമമര‍ദദ": 4334,
      "അദ": 4335,
      "ബണട": 4336,
      "പരമറ": 4337,
      "ജവതതതല": 4338,
      "സതരയ": 4339,
      "ചദയതതന": 4340,
      "69": 4341,
      "കമയണ": 4342,
      "തചച": 4343,
      "നനണട": 4344,
      "പരള": 4345,
      "സ‌കര‍": 4346,
      "ടരഷറ": 4347,
      "മധയമങങള‍": 4348,
      "മല‍സര": 4349,
      "ഇയളട": 4350,
      "അസസററനറ": 4351,
      "ഇവയ": 4352,
      "ഗററ": 4353,
      "ഷയട": 4354,
      "നനദയ": 4355,
      "വർഡ": 4356,
      "ഇതനക": 4357,
      "പരമർശ": 4358,
      "മനതരയട": 4359,
      "നര‍വഹ": 4360,
      "വനനതട": 4361,
      "രഖകള‍": 4362,
      "ഉതതരവദതത": 4363,
      "തസത": 4364,
      "രശ": 4365,
      "വള‍": 4366,
      "പരഭ": 4367,
      "നയചച": 4368,
      "വരലല": 4369,
      "പറതതറകകയ": 4370,
      "വലലനന": 4371,
      "തളഞഞ": 4372,
      "ര‍നനത": 4373,
      "മന‍ഡ": 4374,
      "മണടക": 4375,
      "വയകതമകകയത": 4376,
      "ഫയര‍": 4377,
      "ജവനകകരട": 4378,
      "വയതയസതമയ": 4379,
      "കപസസ": 4380,
      "വളരയധക": 4381,
      "400": 4382,
      "മനതരയ": 4383,
      "വഹനങങള‍": 4384,
      "ഇരകക": 4385,
      "ജക": 4386,
      "മങകൽ": 4387,
      "ലതതയ": 4388,
      "ഷബ": 4389,
      "കൺസല": 4390,
      "എതരള": 4391,
      "ഗവര‍ണര‍": 4392,
      "നഴ‌സ": 4393,
      "ലന‍ഡ": 4394,
      "കടടകൾ": 4395,
      "കകനനണടനന": 4396,
      "ഓര‍മമ": 4397,
      "പരര‍തഥ": 4398,
      "ഇറങങയ": 4399,
      "ബരയ": 4400,
      "നയകന‍": 4401,
      "സ‌പഷ": 4402,
      "നലനല‍": 4403,
      "വണടയ": 4404,
      "പർവവ": 4405,
      "പരധനപപടട": 4406,
      "രകഷപപട": 4407,
      "പപറമപ": 4408,
      "മഡയയൽ": 4409,
      "അവർഡ": 4410,
      "രപയകക": 4411,
      "ലഘന": 4412,
      "അതയവശയ": 4413,
      "ഡർ": 4414,
      "പടകക": 4415,
      "സ‌കളല": 4416,
      "വറലയ": 4417,
      "ജയട": 4418,
      "രജസററർ": 4419,
      "പണ‍കടടയട": 4420,
      "ad": 4421,
      "ചമതത": 4422,
      "ദന‍": 4423,
      "നശന": 4424,
      "സകകന‍": 4425,
      "ശരത": 4426,
      "ആയരകകണ": 4427,
      "മദരവകയ": 4428,
      "or": 4429,
      "ഈടകക": 4430,
      "പസ‌": 4431,
      "കരസ": 4432,
      "തടരനനത": 4433,
      "കടടകൾകക": 4434,
      "പരതദന": 4435,
      "വടയ": 4436,
      "മകമനന": 4437,
      "സതരകളട": 4438,
      "പപറതത": 4439,
      "തടർനനണ": 4440,
      "പഞചയതതല": 4441,
      "on": 4442,
      "ആററ": 4443,
      "ഈസററ": 4444,
      "എഎസ": 4445,
      "രന": 4446,
      "പരമത": 4447,
      "നനന‌": 4448,
      "കരയതതൽ": 4449,
      "പരശനത": 4450,
      "രപകരചച": 4451,
      "വഴയണ": 4452,
      "ലഘചച": 4453,
      "51": 4454,
      "നടതതന": 4455,
      "കസകൾ": 4456,
      "അടപപ": 4457,
      "പടടയ": 4458,
      "രഗതതതതയ": 4459,
      "ലകഷയമടട": 4460,
      "ജയചച": 4461,
      "ആരധക": 4462,
      "ചതരങങള": 4463,
      "ചതരതതൽ": 4464,
      "അനനതത": 4465,
      "ജവതതതല‍": 4466,
      "റമയ": 4467,
      "ഷയൽ": 4468,
      "കരയങങള": 4469,
      "2012": 4470,
      "മഹന‍ലല‍": 4471,
      "അപരതകഷ": 4472,
      "കരണയ": 4473,
      "ടരസററ": 4474,
      "ഓഫസർ": 4475,
      "നവബർ": 4476,
      "ആഭമഖയ": 4477,
      "ഇങങനയ": 4478,
      "തര‍തത": 4479,
      "കലബ": 4480,
      "വസതത": 4481,
      "സഥനർഥ": 4482,
      "വളര‍തത": 4483,
      "സഭഷണ": 4484,
      "വചചരനന": 4485,
      "പർണമയ": 4486,
      "ഇപപഴത": 4487,
      "ഇനറർ": 4488,
      "സവപ‌ന": 4489,
      "ഡസന": 4490,
      "തർ": 4491,
      "സപത": 4492,
      "ഹർജ": 4493,
      "പപകകക": 4494,
      "തരങങള‍": 4495,
      "അനഭ": 4496,
      "പപഴകക": 4497,
      "എനതകണട": 4498,
      "എക‌സസ": 4499,
      "നര‍ണയക": 4500,
      "കണടപയ": 4501,
      "ദനതതല‍": 4502,
      "പനതല‍": 4503,
      "അകഷര": 4504,
      "ഗണട": 4505,
      "പരഷ‌": 4506,
      "കളകടര‍": 4507,
      "കററപപടതത": 4508,
      "കഴയതത": 4509,
      "ഉള‍പപടതത": 4510,
      "സമമർ": 4511,
      "ഡയല": 4512,
      "ദതത": 4513,
      "മള‍": 4514,
      "തരതമയ": 4515,
      "കളളള": 4516,
      "കരടട": 4517,
      "വയകതത": 4518,
      "കണടരനന": 4519,
      "അഭഭഷ": 4520,
      "ഡല‍ഹയല‍": 4521,
      "തരഞഞടകകപപടട": 4522,
      "ഇററലയ": 4523,
      "റൺസ": 4524,
      "ശവശങക": 4525,
      "ദധന": 4526,
      "ഫതത": 4527,
      "ബകകല‍": 4528,
      "ഹമദ": 4529,
      "വയമ": 4530,
      "നടടകര": 4531,
      "പരവർതതനങങൾ": 4532,
      "ഏജൻസ": 4533,
      "നടപപകക": 4534,
      "കണന": 4535,
      "സമദര": 4536,
      "സവനതമയ": 4537,
      "കമറനറ": 4538,
      "ശരദധയല‍": 4539,
      "അനതരകഷ": 4540,
      "തകയ": 4541,
      "സണണ": 4542,
      "തരതതല‍": 4543,
      "പലശ": 4544,
      "വനളള": 4545,
      "വണടത": 4546,
      "ഓഫസല‍": 4547,
      "ധരചച": 4548,
      "ഗനധയട": 4549,
      "ലഖന": 4550,
      "ആസവദ": 4551,
      "ഐസസ": 4552,
      "തതനനത": 4553,
      "മറകടനന": 4554,
      "വണത": 4555,
      "യയരകക": 4556,
      "ഫലപപ": 4557,
      "72": 4558,
      "അക": 4559,
      "ആഴചയ": 4560,
      "ഒന‍": 4561,
      "മസററര‍": 4562,
      "സവല‍": 4563,
      "സവകരണ": 4564,
      "പതററ": 4565,
      "കർശന": 4566,
      "ആലച": 4567,
      "കടടചചർതത": 4568,
      "ഇരയ": 4569,
      "യജ": 4570,
      "കടപപ": 4571,
      "തതനശഷ": 4572,
      "സഹത": 4573,
      "പരസയമയ": 4574,
      "30ന": 4575,
      "രച": 4576,
      "തതയകക": 4577,
      "നടതതൻ": 4578,
      "യഗതതൽ": 4579,
      "ഹമ": 4580,
      "പലചച": 4581,
      "ജയൽ": 4582,
      "മലലപപളള": 4583,
      "സഞചരചച": 4584,
      "ആവര‍തത": 4585,
      "റബ": 4586,
      "ലര‍": 4587,
      "വമ": 4588,
      "പരശല": 4589,
      "മതസരചച": 4590,
      "നഗരതതല": 4591,
      "ചങങ": 4592,
      "സകയ": 4593,
      "നനദന": 4594,
      "പരമപ": 4595,
      "മദധയ": 4596,
      "പശചതതലതതൽ": 4597,
      "ഒടവൽ": 4598,
      "ഇലലനന": 4599,
      "പരമററ": 4600,
      "ചയയണട": 4601,
      "പറതതറകക": 4602,
      "നലയലണ": 4603,
      "വഷയതതൽ": 4604,
      "അമപ": 4605,
      "ആർകക": 4606,
      "പരനറ": 4607,
      "പരഗര": 4608,
      "പലത": 4609,
      "യടകക": 4610,
      "കണണട": 4611,
      "സ‌കളല‍": 4612,
      "പണണ": 4613,
      "വസമയ": 4614,
      "അതര‍തതയ": 4615,
      "അഭയര‍തഥ": 4616,
      "ഉതസവ": 4617,
      "അയല‍": 4618,
      "ശരകക": 4619,
      "റയത": 4620,
      "മളളത": 4621,
      "വറത": 4622,
      "തഴല": 4623,
      "ആശപതരയലകക": 4624,
      "നഷടപരഹര": 4625,
      "ശഖരചച": 4626,
      "ചനദരൻ": 4627,
      "ഏതണട": 4628,
      "ഭർതതവ": 4629,
      "എഫ‌ഐ": 4630,
      "പൾ": 4631,
      "രയൽ": 4632,
      "സഘർഷ": 4633,
      "തടങങയവ": 4634,
      "കണകകകള‍": 4635,
      "മണഡലതതല‍": 4636,
      "വയയമ": 4637,
      "എബ": 4638,
      "ഭദര": 4639,
      "മയനന": 4640,
      "പടലല": 4641,
      "യണ‌": 4642,
      "തററദധ": 4643,
      "തല‍പരയ": 4644,
      "ചയർമൻ": 4645,
      "പനര‍": 4646,
      "ലമററ": 4647,
      "‌ലററ": 4648,
      "കടചച": 4649,
      "കകകയണനന": 4650,
      "കലമററർ": 4651,
      "അഫഗ": 4652,
      "85": 4653,
      "രന‍": 4654,
      "കഴകകനനത": 4655,
      "കള‍കകതര": 4656,
      "വയധ": 4657,
      "യകകട": 4658,
      "വണടയളള": 4659,
      "ഉപരധ": 4660,
      "ശല‍": 4661,
      "ഒരൾ": 4662,
      "ഗരററ": 4663,
      "ഉണടകനന": 4664,
      "രജയങങളല": 4665,
      "റഡല‍": 4666,
      "പരമഹ": 4667,
      "നയലല": 4668,
      "നടയല‍": 4669,
      "വടടത": 4670,
      "രഗമകത": 4671,
      "എലലവര‍കക": 4672,
      "മടടര‍": 4673,
      "ഫണല‍": 4674,
      "കമപള": 4675,
      "നലലര": 4676,
      "ലകഷയമട": 4677,
      "62": 4678,
      "ഖദ": 4679,
      "മഠ": 4680,
      "കരസററ": 4681,
      "തടര‍": 4682,
      "സഹദരയ": 4683,
      "പതചച": 4684,
      "പരദശങങളല": 4685,
      "ഇതതരമര": 4686,
      "അപകഷചച": 4687,
      "77": 4688,
      "ഥന": 4689,
      "ഷകക": 4690,
      "ങങല‍": 4691,
      "പര‍ട": 4692,
      "വണജയ": 4693,
      "ഷണല‍": 4694,
      "അജയ": 4695,
      "ചനയട": 4696,
      "ഡഗര": 4697,
      "ഫരണട": 4698,
      "എനനവര‍കക": 4699,
      "സ‌പ": 4700,
      "പയയ": 4701,
      "ആവശയമണ": 4702,
      "സരകഷത": 4703,
      "സജവമയ": 4704,
      "കവർ": 4705,
      "ധരകക": 4706,
      "പപരയ": 4707,
      "കളകകറചച": 4708,
      "വടനറ": 4709,
      "മറയത": 4710,
      "കമമററയട": 4711,
      "ആതമവശവസ": 4712,
      "യഥര‍ഥ": 4713,
      "അവശ": 4714,
      "ആണ‍": 4715,
      "കമല‍": 4716,
      "നജ": 4717,
      "മൾ": 4718,
      "മനര‍": 4719,
      "പടയല‍": 4720,
      "കണഠ": 4721,
      "ജവൻ": 4722,
      "പരസഡന‍റ": 4723,
      "കണ‍ഗരസനറ": 4724,
      "തകര‍കക": 4725,
      "ഖണഡ": 4726,
      "തസവ": 4727,
      "വര‍തതയ": 4728,
      "ഡയടട": 4729,
      "നമമള": 4730,
      "സവകരചചത": 4731,
      "മനജ‌മനറ": 4732,
      "മഹന‍ലല": 4733,
      "1000": 4734,
      "ഹന‍": 4735,
      "ചയയനനതന": 4736,
      "ദദന‍": 4737,
      "വഴകക": 4738,
      "ണടയരനനത": 4739,
      "ഓകസ": 4740,
      "യഗയ": 4741,
      "രസ": 4742,
      "സവരണ": 4743,
      "കഴകകൻ": 4744,
      "വടവചച": 4745,
      "വധശകഷ": 4746,
      "പരതയകത": 4747,
      "രകഷപപടട": 4748,
      "പരശധനയകക": 4749,
      "​ട": 4750,
      "ഭഗമയണ": 4751,
      "സഘവ": 4752,
      "മധയപരദശ": 4753,
      "ആവശയപപടടരനന": 4754,
      "തതലടയണ": 4755,
      "ഓര‍തത": 4756,
      "മനനടയയ": 4757,
      "സമതയട": 4758,
      "തതടർനന": 4759,
      "ഭകരകരമണ": 4760,
      "അയകക": 4761,
      "പരലണ": 4762,
      "ളളല‍": 4763,
      "വയകകനന": 4764,
      "കലന": 4765,
      "അതണ": 4766,
      "ബനധപപട": 4767,
      "ദകഷണഫരകക": 4768,
      "തരതതനറ": 4769,
      "ജനസഖയ": 4770,
      "le": 4771,
      "ഇതനന": 4772,
      "ഗവർണ": 4773,
      "മകസ": 4774,
      "ലകൾ": 4775,
      "കരകകനനത": 4776,
      "നര‍തതയ": 4777,
      "എറണകളതത": 4778,
      "സബനധമയ": 4779,
      "ഡഗ": 4780,
      "ദപക": 4781,
      "സയയ": 4782,
      "മസത": 4783,
      "സനറര‍": 4784,
      "ശസതരജഞ": 4785,
      "ആദതയ": 4786,
      "പരകരയ": 4787,
      "കലമയ": 4788,
      "മക‌സ": 4789,
      "കഴഞഞദവസ": 4790,
      "കകടടയ": 4791,
      "കലലപപടടത": 4792,
      "കറചചളള": 4793,
      "ഡയറകടർ": 4794,
      "യണവഴ‌സററ": 4795,
      "59": 4796,
      "am": 4797,
      "ചര‍കക": 4798,
      "സഭയട": 4799,
      "സസഥനങങളല‍": 4800,
      "ദവസമയ": 4801,
      "നഷടമയ": 4802,
      "സഘടനയട": 4803,
      "നരനദരമദ": 4804,
      "അപപള‍": 4805,
      "ഡബലയ": 4806,
      "ലകള": 4807,
      "കകയണ": 4808,
      "കടടകക": 4809,
      "കടതലയ": 4810,
      "വദനയ": 4811,
      "അവൾ": 4812,
      "മഷൻ": 4813,
      "കടനനത": 4814,
      "മസതത": 4815,
      "കര‍പപറ": 4816,
      "അഗങങള": 4817,
      "ഇതനതര": 4818,
      "ലളത": 4819,
      "ടരയന‍": 4820,
      "സനദര‍ശചച": 4821,
      "ആസതരണ": 4822,
      "ടവനറ": 4823,
      "പകത": 4824,
      "ണടര‍": 4825,
      "വശദശ": 4826,
      "കണടരകകനന": 4827,
      "വളർചച": 4828,
      "കറല‍": 4829,
      "കരണമനന": 4830,
      "നര‍മചച": 4831,
      "വദയലയ": 4832,
      "ലക‌സ": 4833,
      "മർദദ": 4834,
      "വശദകരചച": 4835,
      "ണടതണട": 4836,
      "രജവചച": 4837,
      "രഷടരപത": 4838,
      "ഉയരനന": 4839,
      "നടയട": 4840,
      "സഥനല": 4841,
      "സമജ": 4842,
      "സഭവചചത": 4843,
      "ബഹമന": 4844,
      "അങങ": 4845,
      "രസകര": 4846,
      "തതഴലള": 4847,
      "മകകൾ": 4848,
      "വടടലതത": 4849,
      "നര‍മമത": 4850,
      "നടതതമനന": 4851,
      "കകണകകന": 4852,
      "പരവര‍തതചച": 4853,
      "സവദശകളയ": 4854,
      "വദഗധ": 4855,
      "ഉടന": 4856,
      "കകപപട": 4857,
      "കരനറ": 4858,
      "കടല‍": 4859,
      "കഴകകടട": 4860,
      "ഇതലല": 4861,
      "കചചയല": 4862,
      "സഥരമയ": 4863,
      "ജമയപകഷ": 4864,
      "കസററഡയലടതത": 4865,
      "ടമല‍": 4866,
      "നകഷതര": 4867,
      "കഷട": 4868,
      "കറചചത": 4869,
      "ടയയരനന": 4870,
      "മര‍കകററ": 4871,
      "ലറററ": 4872,
      "ശപര‍ശ": 4873,
      "നയതനതര": 4874,
      "കയപ": 4875,
      "തടപഴ": 4876,
      "നലനര‍തത": 4877,
      "അറയപപടനന": 4878,
      "പന‍ഷന‍": 4879,
      "റയൽവ": 4880,
      "സപററബര‍": 4881,
      "എനതയല": 4882,
      "ഉദധ": 4883,
      "ബനയ": 4884,
      "പരസസ": 4885,
      "ററര‍": 4886,
      "മററയത": 4887,
      "കകളല‍": 4888,
      "അയളട": 4889,
      "ശവസന": 4890,
      "കരതല": 4891,
      "ആരധന": 4892,
      "പരഗണചച": 4893,
      "തടയന‍": 4894,
      "സധയതയളള": 4895,
      "എസസ": 4896,
      "ടമനറ": 4897,
      "ദൽ": 4898,
      "മകഷ": 4899,
      "സയട": 4900,
      "സവർണണ": 4901,
      "മതക": 4902,
      "ഗരഫ": 4903,
      "സസഥനങങളല": 4904,
      "രജൻ": 4905,
      "മറയൽ": 4906,
      "ദർശ": 4907,
      "കല‍കകതത": 4908,
      "മശമയ": 4909,
      "അചഛന‍": 4910,
      "സജനയമയ": 4911,
      "പനരരഭ": 4912,
      "ഉമമന‍ചണട": 4913,
      "പതററണട": 4914,
      "ic": 4915,
      "ഊർജ": 4916,
      "ഓക‌സ": 4917,
      "ടനന": 4918,
      "ദഖ": 4919,
      "ടടന": 4920,
      "കടവ": 4921,
      "ഇതല": 4922,
      "കര‍ണട": 4923,
      "പറയനനണട": 4924,
      "പസററവ": 4925,
      "നരടണട": 4926,
      "അദധയകഷ": 4927,
      "ഉതതര‍പരദശ": 4928,
      "ആഹര": 4929,
      "എബസ": 4930,
      "ര​": 4931,
      "കടടത": 4932,
      "കഷണചച": 4933,
      "ചതരമയ": 4934,
      "വധചച": 4935,
      "ഇതതരതതലളള": 4936,
      "കമമന": 4937,
      "സവധയകന": 4938,
      "ഹയര‍": 4939,
      "കരതനനത": 4940,
      "ടൺ": 4941,
      "ലനയ": 4942,
      "പഴകക": 4943,
      "ആരഗയവകപപ": 4944,
      "ലററര‍": 4945,
      "54": 4946,
      "ചർജ": 4947,
      "ണടയത": 4948,
      "കഴലളള": 4949,
      "നല‍കകയ": 4950,
      "തതതല‍": 4951,
      "വയകതമകകയ": 4952,
      "കഞഞലകകടട": 4953,
      "അധയപ": 4954,
      "ബസനസസ": 4955,
      "പരസരതത": 4956,
      "ഡ‌": 4957,
      "നനതര": 4958,
      "സമന‍": 4959,
      "സഘതത": 4960,
      "പരയസ": 4961,
      "സതരകള‍കക": 4962,
      "കമമഷന": 4963,
      "പതതൻ": 4964,
      "സനമയൽ": 4965,
      "അടയനതരമയ": 4966,
      "53": 4967,
      "തജ": 4968,
      "നയകനയ": 4969,
      "വയസകര": 4970,
      "ചര‍ചചകള‍": 4971,
      "ശരരക": 4972,
      "വപണയൽ": 4973,
      "ലസന‍സ": 4974,
      "ചകതസയലയരനന": 4975,
      "ടര‍ണ": 4976,
      "ഫൽ": 4977,
      "ബഎസ": 4978,
      "സന‍ടര": 4979,
      "പങകളതത": 4980,
      "അവല": 4981,
      "പരമണ": 4982,
      "പടനന": 4983,
      "അനഗരഹ": 4984,
      "ശരശര": 4985,
      "സമതയ": 4986,
      "പടടല‍": 4987,
      "ചകതസയല": 4988,
      "നഗര‍": 4989,
      "സവധയകൻ": 4990,
      "ഡസബർ": 4991,
      "അരങങററ": 4992,
      "പനതരണട": 4993,
      "ഡവഡ": 4994,
      "തങങള": 4995,
      "മമയട": 4996,
      "കകരകക": 4997,
      "കളഞഞ": 4998,
      "ചയയല": 4999,
      "വഴതത": 5000,
      "രജസടര": 5001,
      "വയകതപരമയ": 5002,
      "നശചത": 5003,
      "നഗററവ": 5004,
      "ഉതതരവദതവ": 5005,
      "കതതര": 5006,
      "പരദര‍ശന": 5007,
      "അതവഗ": 5008,
      "ആവശയപപട": 5009,
      "പരവർതതകര": 5010,
      "മണഡലതതല": 5011,
      "ഉതതർ": 5012,
      "കതയട": 5013,
      "ചചനന": 5014,
      "എസ​": 5015,
      "ലഭചചരനന": 5016,
      "സലന": 5017,
      "ഇവടതത": 5018,
      "ഉണടയരനനത": 5019,
      "പരമപരഗത": 5020,
      "പതനഞച": 5021,
      "സ‌ഫടന": 5022,
      "കതതല‍": 5023,
      "കബള": 5024,
      "ഛയ": 5025,
      "വഞച": 5026,
      "സവര‍ണണ": 5027,
      "തത‌": 5028,
      "നയമകക": 5029,
      "സറററ": 5030,
      "പരശനങങൾ": 5031,
      "സഘതതല": 5032,
      "രകകനനതനന": 5033,
      "ശകതമകക": 5034,
      "രജനദര": 5035,
      "ഞങങള": 5036,
      "തഹ": 5037,
      "തപപ": 5038,
      "പപകകമനന": 5039,
      "പപടതതയരനന": 5040,
      "en": 5041,
      "ബഹര": 5042,
      "കടയല": 5043,
      "സററല": 5044,
      "കലകടര‍": 5045,
      "ദയട": 5046,
      "നതവയ": 5047,
      "നരശ": 5048,
      "വഴചയ": 5049,
      "ഇടചച": 5050,
      "​​ൻറ": 5051,
      "സഘടനകള‍": 5052,
      "എനനവടങങളല‍": 5053,
      "78": 5054,
      "എങങനയണ": 5055,
      "ഓപപണ": 5056,
      "ടന‍": 5057,
      "സക‌സ": 5058,
      "ഹല": 5059,
      "പരവച": 5060,
      "ലലങകൽ": 5061,
      "കടതതയ": 5062,
      "വയചച": 5063,
      "സഥനതതകക": 5064,
      "സരവ": 5065,
      "വവരങങള": 5066,
      "മധയമങങളല‍": 5067,
      "ഡരവറ": 5068,
      "സഘടനയയ": 5069,
      "ചള": 5070,
      "നസര‍": 5071,
      "മതരമയ": 5072,
      "ഇനനങ": 5073,
      "കകരന‍": 5074,
      "മലയളകളട": 5075,
      "അനകലമയ": 5076,
      "ഡഡ": 5077,
      "നവരണ": 5078,
      "ലത": 5079,
      "തത​": 5080,
      "പപകകണമനന": 5081,
      "ഉദയഗസഥന": 5082,
      "വവദമയ": 5083,
      "സമർപപചച": 5084,
      "ആമസ": 5085,
      "ലഹ": 5086,
      "സററഷനല": 5087,
      "ചയയനളള": 5088,
      "കരയമണ": 5089,
      "മര‍തത": 5090,
      "പരതയട": 5091,
      "പപടതതകയ": 5092,
      "മഖയമനതരകക": 5093,
      "പരശധനയല‍": 5094,
      "ചണടകകണ": 5095,
      "കളജൽ": 5096,
      "ഗള‍ഫ": 5097,
      "ചഴലകക": 5098,
      "അരണ‍": 5099,
      "ആഗസററ": 5100,
      "തനനന": 5101,
      "ഭനന": 5102,
      "യലയ": 5103,
      "പരനത": 5104,
      "വരചച": 5105,
      "വനനല‍": 5106,
      "മർടട": 5107,
      "മരണതതന": 5108,
      "ആലവ": 5109,
      "സകഷചച": 5110,
      "അയയപപ": 5111,
      "തടർചചയയ": 5112,
      "സ‌ക": 5113,
      "കറനറ": 5114,
      "വഷൻ": 5115,
      "പരസകയ": 5116,
      "ടയളള": 5117,
      "നൽകയരനന": 5118,
      "വരദധമയ": 5119,
      "ഐപഎലല": 5120,
      "ഇവർകക": 5121,
      "ടപ": 5122,
      "രനനല": 5123,
      "ഉണടകകയ": 5124,
      "പർശ": 5125,
      "ഇതതരതതൽ": 5126,
      "സതയപരതജഞ": 5127,
      "അണകകടട": 5128,
      "ആനധര": 5129,
      "ആവഷ": 5130,
      "ഓഡററ": 5131,
      "ജങ": 5132,
      "ശവരയ": 5133,
      "പപർ": 5134,
      "കരറ": 5135,
      "നനതല‍": 5136,
      "സമര‍ടട": 5137,
      "പണമടകക": 5138,
      "വനനതന": 5139,
      "ഉള‍പപടട": 5140,
      "ജവനകകര‍": 5141,
      "അരവനദ": 5142,
      "റദദകക": 5143,
      "തകർനന": 5144,
      "അവശയ": 5145,
      "അനശച": 5146,
      "നല‍കണ": 5147,
      "ബലസററ": 5148,
      "എഴനന": 5149,
      "പര‍കകണ": 5150,
      "ഉൾപപടനന": 5151,
      "ഉറവട": 5152,
      "കവട": 5153,
      "മലകക": 5154,
      "മണകകർ": 5155,
      "അനവരയ": 5156,
      "ആശങ": 5157,
      "സമപർകക": 5158,
      "കടബതത": 5159,
      "തടടടതത": 5160,
      "ഘടടതതൽ": 5161,
      "ക‌ട": 5162,
      "അടയള": 5163,
      "പര‍തതയകക": 5164,
      "ഇതനടക": 5165,
      "ഒന‍പത": 5166,
      "ട20": 5167,
      "പപകകനനതന": 5168,
      "വരണട": 5169,
      "മനദര": 5170,
      "പലര‍തത": 5171,
      "കകനനതനറ": 5172,
      "കവറ": 5173,
      "വളളപപളള": 5174,
      "മഡൽ": 5175,
      "റപപർടടകൾ": 5176,
      "ഫറന‍സ": 5177,
      "അകകദമ": 5178,
      "അജത": 5179,
      "ഗപല‍": 5180,
      "അവനറ": 5181,
      "തഴനന": 5182,
      "തകകൾ": 5183,
      "കറഞഞത": 5184,
      "ടങക": 5185,
      "ബറററ": 5186,
      "മതതര": 5187,
      "കകതതയ": 5188,
      "വരകയയരനന": 5189,
      "കയര‍": 5190,
      "എനനരനനല": 5191,
      "തനലണ": 5192,
      "കണടതതന‍": 5193,
      "അതകണടതനന": 5194,
      "ഒളമപ": 5195,
      "പലസററക": 5196,
      "ചരനന": 5197,
      "വഴങങ": 5198,
      "കവഡ​": 5199,
      "എന‍ജനയ": 5200,
      "ഡളര‍": 5201,
      "ഒകടബർ": 5202,
      "ആല‍": 5203,
      "ടമല": 5204,
      "നബ": 5205,
      "ലലങകല": 5206,
      "ആരണ": 5207,
      "ബനധകകള‍": 5208,
      "രജയതതന": 5209,
      "ചറകട": 5210,
      "മസ‌ക": 5211,
      "സര‍വകലശല": 5212,
      "സരനദരൻ": 5213,
      "നഷധചച": 5214,
      "നവഷണ": 5215,
      "കരകകന‍": 5216,
      "തതലതതയ": 5217,
      "കഴ‌സ": 5218,
      "പരതകൾ": 5219,
      "പലയണ": 5220,
      "ചടങങൽ": 5221,
      "ആഡ": 5222,
      "ഐയട": 5223,
      "കമണ": 5224,
      "പരയണ": 5225,
      "റയസ": 5226,
      "സതശ": 5227,
      "പരപടകള‍": 5228,
      "കളളപപണ": 5229,
      "പരതനധയ": 5230,
      "ഡകടര‍മര‍": 5231,
      "അലയ": 5232,
      "ലൻഡ": 5233,
      "വടകളല‍": 5234,
      "യകകറചച": 5235,
      "ഉതപനന": 5236,
      "സടരലയ": 5237,
      "79": 5238,
      "രവലയ": 5239,
      "മയൽ": 5240,
      "മപട": 5241,
      "രഗയ": 5242,
      "കചചയല‍": 5243,
      "വകകകള‍": 5244,
      "സഹദരന‍": 5245,
      "രകകമനന": 5246,
      "സ‌കടട": 5247,
      "അതജവ": 5248,
      "മകകയത": 5249,
      "വനതര": 5250,
      "നര‍മത": 5251,
      "ശരമകകനന": 5252,
      "ശരമചചത": 5253,
      "2010": 5254,
      "മതസരതതൽ": 5255,
      "അടസഥനതതൽ": 5256,
      "ഉമമൻ": 5257,
      "പരഗത": 5258,
      "പപകകനളള": 5259,
      "കടക": 5260,
      "വര‍ഗസ": 5261,
      "കരണങങള‍": 5262,
      "പറയന": 5263,
      "സഘമണ": 5264,
      "ലഭയമയ": 5265,
      "ജലലകളൽ": 5266,
      "നമപർ": 5267,
      "ഇതസബനധചച": 5268,
      "മലബര‍": 5269,
      "വധകക": 5270,
      "ഒരകകല‍": 5271,
      "നതകകളയ": 5272,
      "വയസസളള": 5273,
      "കണടടതത": 5274,
      "ഇനറര‍നററ": 5275,
      "അങക": 5276,
      "ങകട": 5277,
      "തതപരയ": 5278,
      "റയരനന": 5279,
      "കസമയ": 5280,
      "മറകക": 5281,
      "യകകന‍": 5282,
      "പടടകയൽ": 5283,
      "ആരഗയമനതര": 5284,
      "ഉദയഗസഥർ": 5285,
      "സമമളനതതൽ": 5286,
      "ഉദയഗസഥരട": 5287,
      "സദദഖ": 5288,
      "ഏല‍": 5289,
      "ധപതയ": 5290,
      "നനതട": 5291,
      "പരതകളയ": 5292,
      "ഭഗങങളല‍": 5293,
      "ശഷവ": 5294,
      "ഗയസ": 5295,
      "നർമമത": 5296,
      "കണ‍വന‍": 5297,
      "ഷയന‍": 5298,
      "അഗങങള‍": 5299,
      "കടബതതല": 5300,
      "പദധതകക": 5301,
      "ചയയനനണട": 5302,
      "ഒഴഞഞ": 5303,
      "അവസനചച": 5304,
      "2009": 5305,
      "തടരമനന": 5306,
      "മണകകറനട": 5307,
      "അല‍പ": 5308,
      "ജദദ": 5309,
      "സലയ": 5310,
      "ററല": 5311,
      "വസതവ": 5312,
      "ജയത": 5313,
      "പതനയര": 5314,
      "തതതനറ": 5315,
      "വലലജ": 5316,
      "പളയ": 5317,
      "മഖലകളല‍": 5318,
      "സന‍ടരല‍": 5319,
      "ണത": 5320,
      "റഡയ": 5321,
      "മനമ": 5322,
      "രകകര": 5323,
      "രജയങങളൽ": 5324,
      "കടബവ": 5325,
      "അര‍ഹ": 5326,
      "ഓപ": 5327,
      "ഗൽ": 5328,
      "ജപ": 5329,
      "കരററ": 5330,
      "കനണ": 5331,
      "കടതല": 5332,
      "കടതലണ": 5333,
      "കകണമനനണ": 5334,
      "വലയല‍": 5335,
      "ആര‍എസഎസ": 5336,
      "കൺസൽ": 5337,
      "മണനനണ": 5338,
      "ഹജരയ": 5339,
      "നഷദ": 5340,
      "അസസയഷൻ": 5341,
      "ഫചച": 5342,
      "റനന": 5343,
      "വശരമ": 5344,
      "ധനകരയ": 5345,
      "അവന‍": 5346,
      "കകടയൽ": 5347,
      "ബധചചത": 5348,
      "പരവര‍തതക": 5349,
      "അനവഷണതതല‍": 5350,
      "ആരഗയതതന": 5351,
      "ഒഴചച": 5352,
      "ആകരമണതതല‍": 5353,
      "എൽഡഎഫ": 5354,
      "സധനങങള‍": 5355,
      "ഇലകടരക": 5356,
      "കമമഷണര‍": 5357,
      "നവല": 5358,
      "രചന": 5359,
      "പടടതത": 5360,
      "കർണടക": 5361,
      "കററവള": 5362,
      "പദധതകള‍": 5363,
      "അഴചച": 5364,
      "ലഭയമണ": 5365,
      "വമനതതവളതതല‍": 5366,
      "ഗരമപഞചയതത": 5367,
      "ആൽ": 5368,
      "ഗ‌": 5369,
      "നഷ‌": 5370,
      "ലലണ": 5371,
      "മര‍ദ": 5372,
      "തടങങയവർ": 5373,
      "മമപണ": 5374,
      "അയൾ": 5375,
      "സർടടഫകകററ": 5376,
      "ടര‍ണമനറ": 5377,
      "95": 5378,
      "ബയറ": 5379,
      "യ‌കക": 5380,
      "നനന​": 5381,
      "ഗരണട": 5382,
      "കഷണന": 5383,
      "ലകഷതതള": 5384,
      "കററകതയ": 5385,
      "ബഹ‌റ": 5386,
      "എതതയരനന": 5387,
      "പലയളള": 5388,
      "98": 5389,
      "പഷക": 5390,
      "മനന‍": 5391,
      "യടയണ": 5392,
      "കഴൽ": 5393,
      "ബരഡ": 5394,
      "എലലവരയ": 5395,
      "ഗണന": 5396,
      "പരപടയല‍": 5397,
      "തഴലളകള": 5398,
      "വദയര‍തഥകള‍": 5399,
      "റഹമന‍": 5400,
      "ഏഷയനററ": 5401,
      "ഓവറല‍": 5402,
      "ആയരകകണകകന": 5403,
      "ഫകക": 5404,
      "വര‍ഗയ": 5405,
      "സനൽ": 5406,
      "ദശലകഷ": 5407,
      "ഗരമണ": 5408,
      "പറയൻ": 5409,
      "പഴ‌സ": 5410,
      "സഥലങങളല‍": 5411,
      "സവയഭരണ": 5412,
      "സചചന‍": 5413,
      "കകനനതനട": 5414,
      "വട‌സ": 5415,
      "തരചചതത": 5416,
      "വര‍ഷങങള‍കക": 5417,
      "പരവര‍തതകന‍": 5418,
      "അമരകകയല‍": 5419,
      "നൽകയടടണട": 5420,
      "സവകരകക": 5421,
      "തയയറകക": 5422,
      "ഫയർ": 5423,
      "പടരൾ": 5424,
      "ആൾ": 5425,
      "ഓപപറ": 5426,
      "ഞചയ": 5427,
      "തപത": 5428,
      "ദവന": 5429,
      "യർ": 5430,
      "കളകട": 5431,
      "മയല": 5432,
      "ശരനവസ": 5433,
      "അടകകള": 5434,
      "അറയലല": 5435,
      "പര‍തതയയ": 5436,
      "മദരസ": 5437,
      "കശമരല": 5438,
      "61": 5439,
      "കമല": 5440,
      "ഞജല": 5441,
      "നള‍": 5442,
      "യ​": 5443,
      "എനനങങനയണ": 5444,
      "കലപപടതത": 5445,
      "സരജ": 5446,
      "വലസ": 5447,
      "ൻസർ": 5448,
      "രകകകയണനന": 5449,
      "ഭരയയട": 5450,
      "ചർമമ": 5451,
      "ഖനന": 5452,
      "ബണ": 5453,
      "തതണ": 5454,
      "രയകക": 5455,
      "സഹകരചച": 5456,
      "പതനനന": 5457,
      "ഹരത": 5458,
      "ചരതരതതല": 5459,
      "di": 5460,
      "അകര": 5461,
      "ഐശവരയ": 5462,
      "പപനയ": 5463,
      "കകനനലലനന": 5464,
      "ആരങകല": 5465,
      "മതരമയരനന": 5466,
      "ഫലമയ": 5467,
      "എനതന": 5468,
      "കശമര‍": 5469,
      "പററനന": 5470,
      "ഉദയഗസഥര‍കക": 5471,
      "വകസന‍": 5472,
      "ടവറററല‍": 5473,
      "അഗത": 5474,
      "ആസഡ": 5475,
      "ഞങങള‍കക": 5476,
      "ഭടട": 5477,
      "രകതത": 5478,
      "പരൻസ": 5479,
      "വയകകനനത": 5480,
      "തതനപപ": 5481,
      "കടടന‍": 5482,
      "ദവസങങളൽ": 5483,
      "പപചചരനന": 5484,
      "പററയ": 5485,
      "ടക‌ന": 5486,
      "ങങളളള": 5487,
      "കഴചയ": 5488,
      "ഇതലട": 5489,
      "സമപള": 5490,
      "വയകതമകകനനത": 5491,
      "മതയയ": 5492,
      "അധയകഷൻ": 5493,
      "അടസഥനമകക": 5494,
      "നയനതരണങങള‍": 5495,
      "മവയസററ": 5496,
      "പയല‍": 5497,
      "ഫന‍": 5498,
      "ഹലക": 5499,
      "പപള": 5500,
      "റയയ": 5501,
      "മതലയ": 5502,
      "വർഗ": 5503,
      "കര‍ണ": 5504,
      "ടരററ": 5505,
      "രജസ‌ടര": 5506,
      "പർണ": 5507,
      "തരചചല‍": 5508,
      "ഉള‍പപടനന": 5509,
      "ആകരമണതതന": 5510,
      "ഹകകടതയ": 5511,
      "വസതകകള": 5512,
      "ഇറകകമത": 5513,
      "ഇൻഡ": 5514,
      "ചവടട": 5515,
      "മഘ": 5516,
      "വസന": 5517,
      "നനതനറ": 5518,
      "നടപടകള": 5519,
      "ഉറപപവരതത": 5520,
      "ഡജപ": 5521,
      "പരഥമ": 5522,
      "ഇസലമക": 5523,
      "ഖൻ": 5524,
      "ഫഷ": 5525,
      "ററയ": 5526,
      "വരല": 5527,
      "ജയനറ": 5528,
      "വടടർ": 5529,
      "ചലന": 5530,
      "ആദയമയണ": 5531,
      "കടടയതത": 5532,
      "നയമപരമയ": 5533,
      "2008": 5534,
      "ch": 5535,
      "ടക‌സ": 5536,
      "നനതനയ": 5537,
      "ലയല": 5538,
      "കലസസ": 5539,
      "ധനസഹയ": 5540,
      "വനര‍": 5541,
      "പരതയൽ": 5542,
      "തതതണ": 5543,
      "വവഹതതന": 5544,
      "ഫട‌ബള‍": 5545,
      "ഉല": 5546,
      "ഓടകക": 5547,
      "തങക": 5548,
      "മൺ": 5549,
      "ചയതതന": 5550,
      "കകനക": 5551,
      "പർവ": 5552,
      "വതകരണ": 5553,
      "തമഴനട": 5554,
      "അബസ": 5555,
      "ജവല": 5556,
      "കടകള‍": 5557,
      "രകകയണ": 5558,
      "കലക": 5559,
      "നരപപ": 5560,
      "നര‍വഹചച": 5561,
      "വജയന": 5562,
      "മനജര‍": 5563,
      "കസററഡയല‍": 5564,
      "സകയരററ": 5565,
      "എങങനയ": 5566,
      "രഷ‌": 5567,
      "തതടട": 5568,
      "പരഞഞ": 5569,
      "നയത": 5570,
      "ചയതനന": 5571,
      "പനനകക": 5572,
      "കരളതത": 5573,
      "ചലഞച": 5574,
      "സമപനന": 5575,
      "കണ‍ടര": 5576,
      "ഓഫസല": 5577,
      "മലയളകള‍": 5578,
      "വകപപന": 5579,
      "നമരയ": 5580,
      "അശലല": 5581,
      "കസർകട": 5582,
      "ഫമല": 5583,
      "റലല": 5584,
      "ൻറയ": 5585,
      "നയകകനന": 5586,
      "കണകകനന": 5587,
      "ഇതമയ": 5588,
      "വടകളല": 5589,
      "വളർതത": 5590,
      "പതരക": 5591,
      "ആരഭകകനന": 5592,
      "അയള": 5593,
      "സഥപനങങള‍": 5594,
      "സവകരകകമനന": 5595,
      "ചര‍നനണ": 5596,
      "ആരധകർ": 5597,
      "ദലപന": 5598,
      "ചമപയ": 5599,
      "കരർ": 5600,
      "ഒരഴച": 5601,
      "കടടന": 5602,
      "മരത": 5603,
      "കകനനത‌": 5604,
      "വളളപപകക": 5605,
      "മൻഡ": 5606,
      "തളയചച": 5607,
      "ഭരതയ": 5608,
      "മധയമങങള": 5609,
      "തടങങനന": 5610,
      "ing": 5611,
      "പരന‍സപപല‍": 5612,
      "ഗതത": 5613,
      "ഴ​": 5614,
      "അനമതയ": 5615,
      "മററതത": 5616,
      "ടതതള": 5617,
      "കഞഞങങട": 5618,
      "നൽകമനന": 5619,
      "ബഗള‍": 5620,
      "അശക": 5621,
      "പകസതന‍": 5622,
      "പഡനതതന": 5623,
      "പബലക": 5624,
      "ഫസല‍": 5625,
      "പരസ‌": 5626,
      "ങങൽ": 5627,
      "ലലര‍": 5628,
      "നയന‍": 5629,
      "ചയതതയ": 5630,
      "യല‍നനന": 5631,
      "പർണണമയ": 5632,
      "യവകകള": 5633,
      "അവസനപപചച": 5634,
      "തല‍കകലക": 5635,
      "ഗര‍ഭണ": 5636,
      "ജനമദന": 5637,
      "എസന": 5638,
      "ബവ": 5639,
      "പരദപ": 5640,
      "പക‌സ": 5641,
      "മൻറ": 5642,
      "അബദലല": 5643,
      "ഇടപടല‍": 5644,
      "ശരലങക": 5645,
      "ഓറഞച": 5646,
      "കതതലകക": 5647,
      "നഖ": 5648,
      "പരദര‍ശ": 5649,
      "കലശ": 5650,
      "അതർതത": 5651,
      "കസനറ": 5652,
      "വവചന": 5653,
      "യകകണ": 5654,
      "സധകരന‍": 5655,
      "കമപനയയ": 5656,
      "ആശപതരയലതത": 5657,
      "കണടതതയരനന": 5658,
      "ജവതതതൽ": 5659,
      "വപലവ": 5660,
      "സഞജയ": 5661,
      "ചർകക": 5662,
      "ദവലയ": 5663,
      "ഹസന": 5664,
      "‌സ‌": 5665,
      "തരതതന": 5666,
      "വരകയ": 5667,
      "തതല‍നനന": 5668,
      "സഹയവ": 5669,
      "ഭഗമണ": 5670,
      "ആരപണങങള‍": 5671,
      "സഹദരന": 5672,
      "88": 5673,
      "ഓസടരലയ": 5674,
      "കമക": 5675,
      "ചനല‍": 5676,
      "ദദയ": 5677,
      "പചക": 5678,
      "ഴത": 5679,
      "സങങ": 5680,
      "തരയട": 5681,
      "കരര": 5682,
      "നയജക": 5683,
      "വരമപള‍": 5684,
      "മനനമതത": 5685,
      "വടക": 5686,
      "ടകകമളള": 5687,
      "രഗകള": 5688,
      "കഴഞഞലല": 5689,
      "തലമറ": 5690,
      "നതതനയ": 5691,
      "അറസററലയത": 5692,
      "ബഹള": 5693,
      "തതനളളൽ": 5694,
      "മററളളവര": 5695,
      "മലനകരണ": 5696,
      "it": 5697,
      "അൻ": 5698,
      "ചഹന": 5699,
      "ബക‌സ": 5700,
      "ന‍സ‌": 5701,
      "സസണല‍": 5702,
      "അവൻ": 5703,
      "മഹനദര": 5704,
      "സപദ": 5705,
      "കഴയലലനന": 5706,
      "സഥലതതതത": 5707,
      "പൻവലകക": 5708,
      "എവടയ": 5709,
      "പഥവരജ": 5710,
      "ആകക": 5711,
      "ചഷണ": 5712,
      "നര‍കക": 5713,
      "മച": 5714,
      "തരനനത": 5715,
      "തനണ": 5716,
      "മകകല‍": 5717,
      "മനതരമര": 5718,
      "വഷമ": 5719,
      "പര‍തത": 5720,
      "വകഭദ": 5721,
      "സമപചചത": 5722,
      "ഇന‍സററററയടട": 5723,
      "തഴലളകള‍": 5724,
      "മലപപറതത": 5725,
      "ഴ‌ച": 5726,
      "കര‍ഷകര‍": 5727,
      "ടകന": 5728,
      "പരർതഥ": 5729,
      "നറകണകകന": 5730,
      "രകകണട": 5731,
      "സവൽ": 5732,
      "സഘതതന": 5733,
      "ഇടഞഞ": 5734,
      "ആവശയതതന": 5735,
      "അമരകകയട": 5736,
      "സതയവങ": 5737,
      "ശരരതതല": 5738,
      "പൺകടടയ": 5739,
      "സര‍വകലശലയ": 5740,
      "ഖതതര‍": 5741,
      "ഒഡ": 5742,
      "ടകസ": 5743,
      "പഞഞ": 5744,
      "യ‌": 5745,
      "സഊ": 5746,
      "സകകള": 5747,
      "ണടകനന": 5748,
      "കടൽ": 5749,
      "തടചച": 5750,
      "പയയനന": 5751,
      "വടകര": 5752,
      "വളകകനന": 5753,
      "പരസകത": 5754,
      "പറയകയ": 5755,
      "കഴയമനന": 5756,
      "കഞഞര": 5757,
      "കഞഞനറ": 5758,
      "ഗരഹണ": 5759,
      "കൺഗരസന": 5760,
      "കങകണ": 5761,
      "അസധരണ": 5762,
      "തപടതത": 5763,
      "ഫറസ": 5764,
      "ഹവ": 5765,
      "പര‍ണണമയ": 5766,
      "ജനപരതനധ": 5767,
      "നടതതയനന": 5768,
      "വല‍പപന": 5769,
      "തരമനമടകക": 5770,
      "സമഹതതന": 5771,
      "സനയര‍": 5772,
      "മഖലകളല": 5773,
      "വദയര‍ഥകള‍": 5774,
      "എക‌സകയടടവ": 5775,
      "ആഫരകക": 5776,
      "കബ": 5777,
      "ടർ": 5778,
      "നകതത": 5779,
      "ൾപപട": 5780,
      "മനത": 5781,
      "കനളള": 5782,
      "മറവ": 5783,
      "കകടയല": 5784,
      "അറയചചടടണട": 5785,
      "ദശയങങൾ": 5786,
      "റഡല": 5787,
      "പരവര‍തതനങങള‍കക": 5788,
      "76": 5789,
      "kas": 5790,
      "അരണ": 5791,
      "ഒബ": 5792,
      "ദഷട": 5793,
      "സനയട": 5794,
      "തരര‍": 5795,
      "സററഷനല‍": 5796,
      "വശല": 5797,
      "കവതത": 5798,
      "പരദശവസ": 5799,
      "നയമപരകര": 5800,
      "ഉള‍പപടതതയ": 5801,
      "മനഷയന": 5802,
      "അഭയര‍ഥ": 5803,
      "അവസഥയണ": 5804,
      "ഔദയഗകമയ": 5805,
      "പരവചന": 5806,
      "250": 5807,
      "അപല": 5808,
      "മഥ": 5809,
      "​ററ": 5810,
      "ചചല": 5811,
      "തരകകന‍": 5812,
      "വയ‌": 5813,
      "മറററ": 5814,
      "മസക": 5815,
      "വഷങ": 5816,
      "രകകനനതന": 5817,
      "ടനള": 5818,
      "ചയതതനന": 5819,
      "മലയളതതല": 5820,
      "ഭരണഘട": 5821,
      "ആവശയപപടടത": 5822,
      "ഉൾപപടതത": 5823,
      "ഡജററൽ": 5824,
      "തളവകള‍": 5825,
      "god": 5826,
      "ഡസല‍": 5827,
      "പരപപ": 5828,
      "മനർ": 5829,
      "യണയന‍": 5830,
      "വവധയ": 5831,
      "രഗവയപന": 5832,
      "സഘതതനറ": 5833,
      "ഇന‍ഷറ": 5834,
      "മധക": 5835,
      "യസ": 5836,
      "ഹരജ": 5837,
      "കകമപൾ": 5838,
      "നടയരനന": 5839,
      "സനദപ": 5840,
      "ലകക‌": 5841,
      "അനഷ": 5842,
      "അനൽ": 5843,
      "സമസ": 5844,
      "അറയനനത": 5845,
      "നടടലതത": 5846,
      "തലശശര": 5847,
      "അഗങങളയ": 5848,
      "പരദശങങളല‍": 5849,
      "പഠകകനന": 5850,
      "സഹയചച": 5851,
      "ശലജ": 5852,
      "പനതണചച": 5853,
      "മജസ‌ടര": 5854,
      "സമമതചച": 5855,
      "ചവനന": 5856,
      "ടക‌": 5857,
      "നബനധന": 5858,
      "വമനന": 5859,
      "തയറയ": 5860,
      "എനനയ": 5861,
      "മതലണ": 5862,
      "കണടനന": 5863,
      "മരല‍": 5864,
      "നലണ": 5865,
      "കര‍മമ": 5866,
      "കണ‍വനര‍": 5867,
      "സഭവതത": 5868,
      "രഗതതതതയരനന": 5869,
      "ഉപദര": 5870,
      "ബയടട": 5871,
      "സനനധന": 5872,
      "ഇന‍സററഗര": 5873,
      "ഇവരല‍": 5874,
      "പങകടകകനന": 5875,
      "പരസഗചച": 5876,
      "സയയദ": 5877,
      "ഗതയ": 5878,
      "ൾഡ": 5879,
      "മയസയ": 5880,
      "കടകകൻ": 5881,
      "എനനട": 5882,
      "നതവന": 5883,
      "കണട‌": 5884,
      "പലസൽ": 5885,
      "പലസകര": 5886,
      "കരളതതലകക": 5887,
      "ഇരമപ": 5888,
      "സവദശന": 5889,
      "ഹജജ": 5890,
      "വയസളള": 5891,
      "71": 5892,
      "ആന‍": 5893,
      "ശശന": 5894,
      "മണണട": 5895,
      "പലർചച": 5896,
      "കഴടകക": 5897,
      "ഗരഡ": 5898,
      "സ‌തര": 5899,
      "മററവചച": 5900,
      "ശരണ": 5901,
      "നല‍കയരകകനനത": 5902,
      "മരണപപടട": 5903,
      "മമപട": 5904,
      "പന‍വലചച": 5905,
      "സചപപകകനനത": 5906,
      "സധയതയണടനന": 5907,
      "സമമനചച": 5908,
      "എനനവടങങളല": 5909,
      "കരമകകട": 5910,
      "പരയടന": 5911,
      "kasar": 5912,
      "63": 5913,
      "അജഞ": 5914,
      "എക": 5915,
      "ചരണ": 5916,
      "റഷൻ": 5917,
      "സയല‍": 5918,
      "വയപപ": 5919,
      "കഴതത": 5920,
      "കവമയ": 5921,
      "പരയമയ": 5922,
      "ലഭചചടടണട": 5923,
      "മളക": 5924,
      "ലണടന‍": 5925,
      "പശചതതലതതലണ": 5926,
      "മതസയതതഴലള": 5927,
      "മരളധരന‍": 5928,
      "ഓപപറററ": 5929,
      "അരകക": 5930,
      "അസമ": 5931,
      "തറപപ": 5932,
      "ബനന": 5933,
      "കകതരയ": 5934,
      "ചചൽ": 5935,
      "തരവലല": 5936,
      "മര‍ഗഗ": 5937,
      "ടരഡ": 5938,
      "ഷണൽ": 5939,
      "എനതനണ": 5940,
      "റകകർഡ": 5941,
      "അനനത": 5942,
      "അകഷയ": 5943,
      "ദവര": 5944,
      "കസടകക": 5945,
      "വടടയ": 5946,
      "ചയതല‍": 5947,
      "ശഷമളള": 5948,
      "മഴയട": 5949,
      "അനവഷണതതന": 5950,
      "അതനളള": 5951,
      "ബഹരകശ": 5952,
      "74": 5953,
      "ne": 5954,
      "ആട": 5955,
      "ഓള‍": 5956,
      "തങങള‍കക": 5957,
      "ബയണ": 5958,
      "ഷര": 5959,
      "പരബലയ": 5960,
      "മനസരചച": 5961,
      "രണടര": 5962,
      "പടടള": 5963,
      "മഴ‌സ": 5964,
      "ണണയ": 5965,
      "തലമറയ": 5966,
      "നളളൽ": 5967,
      "മബയല": 5968,
      "കണ‍ഗരസല‍": 5969,
      "നര‍ദശങങള‍": 5970,
      "പകസതന": 5971,
      "120": 5972,
      "രള": 5973,
      "വതന": 5974,
      "കളമണ": 5975,
      "കൾകകയ": 5976,
      "വയകതമലല": 5977,
      "സപകകര‍": 5978,
      "ആര‍ടസ": 5979,
      "ഇടതമനനണ": 5980,
      "പറപപടവചച": 5981,
      "എൻഡ": 5982,
      "ജഎസ": 5983,
      "സകമര": 5984,
      "കടടല‍": 5985,
      "പയൻ": 5986,
      "ആരട": 5987,
      "കവദയ": 5988,
      "തലചച": 5989,
      "അപകടതതൽ": 5990,
      "കകണടതണട": 5991,
      "യളണ": 5992,
      "ലമററഡ": 5993,
      "godvartha": 5994,
      "അങ": 5995,
      "ടഗ": 5996,
      "ടര‍": 5997,
      "ശങകര": 5998,
      "കയയട": 5999,
      "ലയൽ": 6000,
      "കതചച": 6001,
      "കകനനതൽ": 6002,
      "വണടട": 6003,
      "ആവശയമളള": 6004,
      "ജലനരപപ": 6005,
      "നടപടകരമ": 6006,
      "ഫരന‍സ": 6007,
      "ചനദരശഖര": 6008,
      "വകസപപചച": 6009,
      "വര‍ധചച": 6010,
      "ചകല‍": 6011,
      "ഷല": 6012,
      "നടകയ": 6013,
      "കണടരകകനനത": 6014,
      "മററങങള‍": 6015,
      "ആവശയപപടനന": 6016,
      "സബർ": 6017,
      "ഗലസ": 6018,
      "രഗതതതതയത": 6019,
      "സപരണട": 6020,
      "kasargodvartha": 6021,
      "73": 6022,
      "ma": 6023,
      "ആസഥന": 6024,
      "ആധര‍": 6025,
      "ഏറയ": 6026,
      "തതയട": 6027,
      "അനബനധ": 6028,
      "വടനന": 6029,
      "കനദരമയ": 6030,
      "കർതത": 6031,
      "തഴയളള": 6032,
      "റഡൽ": 6033,
      "അലങകര": 6034,
      "ലററർ": 6035,
      "ശരദധയമയ": 6036,
      "വളപപടതതല": 6037,
      "is": 6038,
      "അവശഷ": 6039,
      "പതഞഞ": 6040,
      "പരശലക": 6041,
      "ബലററ": 6042,
      "ലഗല‍": 6043,
      "അചഛൻ": 6044,
      "ഷറഫ": 6045,
      "കസര‍ഗഡ": 6046,
      "പരജകട": 6047,
      "ഔഷധ": 6048,
      "ഗവണ‍": 6049,
      "ഡസസ": 6050,
      "ബറല‍": 6051,
      "നനനത": 6052,
      "പപതത": 6053,
      "കളയണ": 6054,
      "നടകകക": 6055,
      "മണ​": 6056,
      "ഒരപല": 6057,
      "ജവകകനന": 6058,
      "പകമനന": 6059,
      "അഭനനദന": 6060,
      "മടടർ": 6061,
      "പര‍ടടയ": 6062,
      "പരചദന": 6063,
      "സധരണയയ": 6064,
      "ഡജററല‍": 6065,
      "എഞചനയ": 6066,
      "ഗവനദ": 6067,
      "തമര": 6068,
      "പറററ": 6069,
      "പപകകണ": 6070,
      "മകകൻ": 6071,
      "വലപ": 6072,
      "വജയകരമയ": 6073,
      "ടനബനധചച": 6074,
      "ബധതരട": 6075,
      "പര‍ടടകക": 6076,
      "രഖകള": 6077,
      "അലപ": 6078,
      "ചദകകനന": 6079,
      "ഭഷണയ": 6080,
      "മർകകററ": 6081,
      "ആരപകകനന": 6082,
      "ലകരഗയ": 6083,
      "അതനന": 6084,
      "ഇകകഴഞഞ": 6085,
      "എന‍റ": 6086,
      "പവന": 6087,
      "സവത": 6088,
      "കസകള": 6089,
      "കസകളല‍": 6090,
      "വളര‍നന": 6091,
      "പതമര": 6092,
      "നടതതണമനന": 6093,
      "കകയനന": 6094,
      "നർവഹ": 6095,
      "തലതതൽ": 6096,
      "വറസന": 6097,
      "ജവനകകര‍കക": 6098,
      "അബദളള": 6099,
      "ഡരവർ": 6100,
      "സങകട": 6101,
      "സഘടനകള": 6102,
      "എസ‌ഐ": 6103,
      "അധകതരട": 6104,
      "സമമർദദ": 6105,
      "രസകരമയ": 6106,
      "സതയവങമല": 6107,
      "ഇന‍ഷറന‍സ": 6108,
      "05": 6109,
      "89": 6110,
      "അര‍ജ": 6111,
      "കമററ": 6112,
      "നഡ": 6113,
      "വചര": 6114,
      "സശ": 6115,
      "സകകൻ": 6116,
      "കരഡററ": 6117,
      "ഇനതയയലകക": 6118,
      "പനർ": 6119,
      "ആളകളട": 6120,
      "കമകന": 6121,
      "വപണയല": 6122,
      "സചനയ": 6123,
      "സര‍വവസ": 6124,
      "സപററബർ": 6125,
      "പരകശന": 6126,
      "യണവഴസററ": 6127,
      "തര‍തഥ": 6128,
      "ബയട": 6129,
      "കളന": 6130,
      "നടനറ": 6131,
      "വയകകക": 6132,
      "സവദശയ": 6133,
      "പടചചത": 6134,
      "മരടയ": 6135,
      "ജനങങൾകക": 6136,
      "ജവനറ": 6137,
      "എലലവർകക": 6138,
      "രജസഥന‍": 6139,
      "അറവ": 6140,
      "വർഷമയ": 6141,
      "ഡല‍ഹയല": 6142,
      "പങകവചചത": 6143,
      "സഥപനങങള": 6144,
      "അവടതത": 6145,
      "ഒററപപടട": 6146,
      "ടരഷറര‍": 6147,
      "ഒൻ": 6148,
      "മസററ": 6149,
      "ലങ": 6150,
      "സപല": 6151,
      "കരതയ": 6152,
      "കഷയട": 6153,
      "മനഭവ": 6154,
      "നടകകന": 6155,
      "ദരനതത": 6156,
      "സയദ": 6157,
      "വഭഗതതൽ": 6158,
      "നഷടപപട": 6159,
      "എനനവയകക": 6160,
      "രതയലളള": 6161,
      "ഫയ‌സബകക": 6162,
      "ഡകടറ": 6163,
      "തങങൾ": 6164,
      "ലബര": 6165,
      "ലണടയ": 6166,
      "സഐ": 6167,
      "ലലകക": 6168,
      "നയഡ": 6169,
      "കയയല‍": 6170,
      "ഓഫസന": 6171,
      "മയരനനലല": 6172,
      "അമതമയ": 6173,
      "ഴ‌സന": 6174,
      "ഇലകടരണ": 6175,
      "ഡയറകടറററ": 6176,
      "നയസലന‍ഡ": 6177,
      "ഹൻ": 6178,
      "പപത": 6179,
      "കരശ": 6180,
      "ലകകണ": 6181,
      "തനനയയരനന": 6182,
      "വനണ": 6183,
      "നടതതക": 6184,
      "നടതതണ": 6185,
      "അറയപപ": 6186,
      "എനതണനന": 6187,
      "വലലത": 6188,
      "വങങന‍": 6189,
      "പരതകഷകകനനത": 6190,
      "ചദബര": 6191,
      "ഏര‍പപടതത": 6192,
      "നശചയചച": 6193,
      "ഭരവഹകള‍": 6194,
      "അകററ": 6195,
      "ഭമയട": 6196,
      "സപരധന": 6197,
      "മയര‍": 6198,
      "എനനല": 6199,
      "നനനതതയ": 6200,
      "ഇതഹസ": 6201,
      "പര‍ണണ": 6202,
      "വദവഷ": 6203,
      "പനനയ": 6204,
      "ണയമയ": 6205,
      "ഏററവമധക": 6206,
      "നയമചച": 6207,
      "സറന": 6208,
      "മഹൻലൽ": 6209,
      "ഫലപരദമയ": 6210,
      "ചങങനന": 6211,
      "നധയ": 6212,
      "തരതതല": 6213,
      "സററന‍": 6214,
      "കഴടങങ": 6215,
      "മററക": 6216,
      "സഭവവ": 6217,
      "കവഡന": 6218,
      "ആതമയ": 6219,
      "ബരഹമണ": 6220,
      "ശങകര‍": 6221,
      "ദളത": 6222,
      "അതരയ": 6223,
      "ഓടചച": 6224,
      "കഗ": 6225,
      "പവര‍": 6226,
      "ഭമന": 6227,
      "വതല": 6228,
      "സപന": 6229,
      "തതൻ": 6230,
      "ന‍റയ": 6231,
      "നനതനളള": 6232,
      "നലനർതത": 6233,
      "മറന": 6234,
      "പലസനട": 6235,
      "രഗലകഷണ": 6236,
      "മഹമരയ": 6237,
      "പരസഡനറ‌": 6238,
      "നര‍ദശചച": 6239,
      "വലയരതതല‍": 6240,
      "കഥപതരങങള": 6241,
      "പവപപടട": 6242,
      "വസതകകള‍": 6243,
      "ആബലന‍സ": 6244,
      "ചതമയ": 6245,
      "ഫഹദ": 6246,
      "വരൻ": 6247,
      "മനഭ": 6248,
      "ലഭകകമനന": 6249,
      "ഷയൻ": 6250,
      "ഇരവരയ": 6251,
      "2007": 6252,
      "ഉദയഗസഥന‍": 6253,
      "കയയററ": 6254,
      "അതടപപ": 6255,
      "അമര‍": 6256,
      "അയൽ": 6257,
      "ആപലകക": 6258,
      "ഏജനറ": 6259,
      "ഡഫ": 6260,
      "തണണ": 6261,
      "സന‍റ": 6262,
      "ര‍മര‍": 6263,
      "തയണട": 6264,
      "കടതതത": 6265,
      "രയഡ": 6266,
      "വർഷക": 6267,
      "ഉറപപചച": 6268,
      "കഷതരതതല‍": 6269,
      "ആരധകരട": 6270,
      "ഉണടകമനന": 6271,
      "എതര‍പപ": 6272,
      "ഫനലല‍": 6273,
      "വജഞപന": 6274,
      "il": 6275,
      "ഫയല": 6276,
      "യനററ": 6277,
      "തരങങളട": 6278,
      "നയദല‍ഹ": 6279,
      "സഥനല‍": 6280,
      "സററയ": 6281,
      "തടർ": 6282,
      "മകകളയ": 6283,
      "ബധകകനന": 6284,
      "തളവട": 6285,
      "മരചചവരട": 6286,
      "അബദൽ": 6287,
      "2006": 6288,
      "ഹടടല‍": 6289,
      "ശര‍മ": 6290,
      "പരഹസചച": 6291,
      "ജഹദ": 6292,
      "ഡൻ": 6293,
      "ഭകഷ": 6294,
      "യസഫ": 6295,
      "വദധ": 6296,
      "സസരകകനന": 6297,
      "കരയമലല": 6298,
      "നതതട": 6299,
      "സമഹതതനറ": 6300,
      "പളററ": 6301,
      "രഖകൾ": 6302,
      "നലപടണ": 6303,
      "അബദള‍": 6304,
      "തവണയണ": 6305,
      "സഘടനകളട": 6306,
      "ശസതരയ": 6307,
      "ബററങ": 6308,
      "വർതതകൾ": 6309,
      "read": 6310,
      "ആഡബര": 6311,
      "04": 6312,
      "ue": 6313,
      "അസഹ": 6314,
      "കതതല": 6315,
      "നദയ": 6316,
      "കയനന": 6317,
      "ജയല": 6318,
      "ജയകക": 6319,
      "ശരദ": 6320,
      "അടയകക": 6321,
      "വറടട": 6322,
      "തളകക": 6323,
      "എന‍ഡഎ": 6324,
      "അലലത": 6325,
      "അനവദകക": 6326,
      "ബനഷ": 6327,
      "തഴലളകളട": 6328,
      "ചണടകകടടനന": 6329,
      "വദഗധര": 6330,
      "ജവതതതനറ": 6331,
      "കമമയണസററ": 6332,
      "ഗഢലചന": 6333,
      "84": 6334,
      "ഇകകറ": 6335,
      "ടയല‍": 6336,
      "ദഷയ": 6337,
      "സശനത": 6338,
      "കളയരനന": 6339,
      "നയളള": 6340,
      "വരത": 6341,
      "നനനരനന": 6342,
      "പറഞഞല‍": 6343,
      "മഖന": 6344,
      "മസമയ": 6345,
      "സതരയട": 6346,
      "സതരകൾ": 6347,
      "കകണടതണ": 6348,
      "ബധകക": 6349,
      "കമപനകക": 6350,
      "തരഞഞടപപല": 6351,
      "വതക": 6352,
      "സവധനവ": 6353,
      "പളളയട": 6354,
      "കകറചചളള": 6355,
      "ഫരന‍": 6356,
      "പരഗണന": 6357,
      "അഭയർതഥ": 6358,
      "അവകശവദ": 6359,
      "രജനകനത": 6360,
      "പനറ": 6361,
      "മഷന": 6362,
      "വകകനന": 6363,
      "ശപർശ": 6364,
      "പറപപടട": 6365,
      "സഹകര": 6366,
      "സസടവ": 6367,
      "അടഞഞ": 6368,
      "ചലർ": 6369,
      "ദവസങങള‍കക": 6370,
      "എഫഐ": 6371,
      "നതതവതതലണ": 6372,
      "അതനശഷ": 6373,
      "പരചരകകനന": 6374,
      "വനയഗ": 6375,
      "ഇകകരയതതൽ": 6376,
      "ഒററയകക": 6377,
      "കര‍ഷകര‍കക": 6378,
      "കരമനല‍": 6379,
      "ശരധരന‍": 6380,
      "അവശവസ": 6381,
      "അവയട": 6382,
      "ലചച": 6383,
      "കലനകക": 6384,
      "സമസത": 6385,
      "നടടകർ": 6386,
      "എതതചചത": 6387,
      "വരനനണട": 6388,
      "അഭയഹ": 6389,
      "ലസൻസ": 6390,
      "റണ‍സടതത": 6391,
      "അററകററ": 6392,
      "എക‌സ‌": 6393,
      "ശശനദര": 6394,
      "87": 6395,
      "എജ": 6396,
      "ഡന‍സ": 6397,
      "പകവ": 6398,
      "ശബ": 6399,
      "കകകല": 6400,
      "കരസഥ": 6401,
      "പപടതതന": 6402,
      "ദരപയഗ": 6403,
      "മകകകയണ": 6404,
      "പതനറ": 6405,
      "ചലപപള‍": 6406,
      "മണടകക": 6407,
      "തതതൽ": 6408,
      "​​​​": 6409,
      "ഉണടയരകക": 6410,
      "നയമസഭയല‍": 6411,
      "അഴമതയ": 6412,
      "മനതരലയതതനറ": 6413,
      "എനനതന": 6414,
      "മപര": 6415,
      "റങങയ": 6416,
      "വമത": 6417,
      "സഞജ": 6418,
      "സററകൾ": 6419,
      "സററഷന‍": 6420,
      "ജയരജന‍": 6421,
      "പരതല": 6422,
      "പരതകരചചത": 6423,
      "സഭരണ": 6424,
      "ലണനന": 6425,
      "യവജന": 6426,
      "പരദശങങളൽ": 6427,
      "കണകകകൾ": 6428,
      "പരശ‌നങങള": 6429,
      "അവതരപപചചത": 6430,
      "നയനതരണങങൾ": 6431,
      "അഭമഖതതല‍": 6432,
      "സനദർശന": 6433,
      "സസകരക": 6434,
      "ആസ": 6435,
      "ഇമര": 6436,
      "ഡമകര": 6437,
      "നകള‍": 6438,
      "ബനര‍": 6439,
      "ലകകല‍": 6440,
      "രഗങങള‍": 6441,
      "പരതയമയ": 6442,
      "സബധന": 6443,
      "നയമങങള‍": 6444,
      "പര‍ടടയല‍": 6445,
      "കരമകരണ": 6446,
      "ബഹറ": 6447,
      "അലര‍ടട": 6448,
      "റകകഡ": 6449,
      "തവണയ": 6450,
      "ബങകകള": 6451,
      "01": 6452,
      "ആവർതത": 6453,
      "എബരഹ": 6454,
      "ഐസല": 6455,
      "കവള": 6456,
      "വഎസ": 6457,
      "തരദശ": 6458,
      "കഴ‌": 6459,
      "കരണ‍": 6460,
      "റപപബലകക": 6461,
      "ഇരവരടയ": 6462,
      "ഭരണധകര": 6463,
      "അവതരപപകകനന": 6464,
      "ടസററല‍": 6465,
      "ചമതതയ": 6466,
      "അനധകതമയ": 6467,
      "ടരഫക": 6468,
      "ഓടയ": 6469,
      "ചഞച": 6470,
      "ശഹബ": 6471,
      "കകനനവര‍കക": 6472,
      "അനശ": 6473,
      "സ‌മനറ": 6474,
      "സ‌പര‍ട": 6475,
      "വളയ": 6476,
      "ടരന‍സ": 6477,
      "വളളതതല‍": 6478,
      "അറസററൽ": 6479,
      "ഇറന‍": 6480,
      "മനസസല‍": 6481,
      "കണടതതയടടണട": 6482,
      "06": 6483,
      "es": 6484,
      "അപപൾ": 6485,
      "തമക": 6486,
      "ഷല‍": 6487,
      "ചയയകയണ": 6488,
      "കവല‍": 6489,
      "രപകര": 6490,
      "നകകള‍": 6491,
      "കഴഞഞല‍": 6492,
      "തരചചതതയ": 6493,
      "പദധതയല‍": 6494,
      "പരഖയപചചരനന": 6495,
      "സ​ഥ": 6496,
      "മഞചര": 6497,
      "അചചടകക": 6498,
      "600": 6499,
      "800": 6500,
      "ആഗ": 6501,
      "ഖനറ": 6502,
      "മകളയ": 6503,
      "വൺ": 6504,
      "റയനന": 6505,
      "പടകടയ": 6506,
      "നതവമയ": 6507,
      "വശഷപപ": 6508,
      "നല‍കകനനത": 6509,
      "വളയല‍": 6510,
      "പനമറ": 6511,
      "കനദരതതല‍": 6512,
      "സല‍മന‍": 6513,
      "ആരഭകകനനത": 6514,
      "ശതമനമണ": 6515,
      "പരധനമനതരയ": 6516,
      "ഒരകകൽ": 6517,
      "വര‍തതസമമളനതതല‍": 6518,
      "ഭര‍തതവന": 6519,
      "മസജദ": 6520,
      "ടറ": 6521,
      "റലകക": 6522,
      "റകകററ": 6523,
      "ലങക": 6524,
      "ളക": 6525,
      "പരലളള": 6526,
      "തരങങൾ": 6527,
      "ണടർ": 6528,
      "മനന‌": 6529,
      "ഒരളട": 6530,
      "ഗരന‍": 6531,
      "പപടതതൻ": 6532,
      "ബലന‍": 6533,
      "സരകഷതമയ": 6534,
      "അയധയ": 6535,
      "അവതരപപകകനനത": 6536,
      "കഴചപപട": 6537,
      "ശബരമലയല‍": 6538,
      "അമര": 6539,
      "ആഞഞ": 6540,
      "ആർടട": 6541,
      "തർതത": 6542,
      "നസര": 6543,
      "ലനന": 6544,
      "വതയ": 6545,
      "‌ഫ": 6546,
      "മനനന": 6547,
      "കഴയത": 6548,
      "ഇനതയകകര": 6549,
      "മകനറ": 6550,
      "കനദരങങളല‍": 6551,
      "ലകതതനറ": 6552,
      "കമപയടട": 6553,
      "മതസരങങളല‍": 6554,
      "അധയപകര": 6555,
      "വശവസകകനന": 6556,
      "കലയട": 6557,
      "നളയ": 6558,
      "കമപനകള‍": 6559,
      "ഒളചച": 6560,
      "യവവനറ": 6561,
      "വക‌സൻ": 6562,
      "ഓർമമ": 6563,
      "അനയജയമയ": 6564,
      "ലകഷയമടനനത": 6565,
      "ബസല‍": 6566,
      "ഹണ": 6567,
      "തയരകക": 6568,
      "വയഗ": 6569,
      "കടടനനത": 6570,
      "വളപപടതതയ": 6571,
      "രണടഴച": 6572,
      "കരണമക": 6573,
      "ബരൻഡ": 6574,
      "ദവസതതകക": 6575,
      "മയരനനവനന": 6576,
      "വകകകൾ": 6577,
      "എനനവരയണ": 6578,
      "ഹയർ": 6579,
      "മതസരകകനന": 6580,
      "നർമമചച": 6581,
      "നശനഷട": 6582,
      "ഋഷ": 6583,
      "ജപത": 6584,
      "നണയ": 6585,
      "ഫഫ": 6586,
      "എനനര": 6587,
      "ഒരങങനന": 6588,
      "സ‌കൾ": 6589,
      "സരസ": 6590,
      "വടടകള‍": 6591,
      "കനദരസർകകർ": 6592,
      "ചനദ": 6593,
      "കതതചച": 6594,
      "യവകകള‍": 6595,
      "ഹരഷ": 6596,
      "ഉയരനനത": 6597,
      "വനറയ": 6598,
      "അപകഷകക": 6599,
      "തടകകതതല‍": 6600,
      "വനദസഞചര": 6601,
      "സഘടപപകകനന": 6602,
      "അതകണടണ": 6603,
      "ധര‍മമ": 6604,
      "രതയലണ": 6605,
      "സളര‍": 6606,
      "അവസ": 6607,
      "അഷ‌": 6608,
      "ബകകയളള": 6609,
      "ലഷ": 6610,
      "വകകനനത": 6611,
      "കയലല": 6612,
      "വനനടടണട": 6613,
      "ചതരവ": 6614,
      "കനദരങങള‍": 6615,
      "കനദരതതനറ": 6616,
      "രജയങങള‍": 6617,
      "രജയങങളട": 6618,
      "വറല‍": 6619,
      "സപഐഎ": 6620,
      "അഗമയ": 6621,
      "കലലതത": 6622,
      "ഉതപദ": 6623,
      "ദബയല‍": 6624,
      "യതരയ": 6625,
      "ഹഷ": 6626,
      "വരമചച": 6627,
      "മതഭമ": 6628,
      "ബലകഷണ": 6629,
      "വല‍പന": 6630,
      "മദയപചച": 6631,
      "സങകതകവദയ": 6632,
      "മതപതകകള": 6633,
      "അതര‍തതയല‍": 6634,
      "ഏതര": 6635,
      "ത​": 6636,
      "ദവദ": 6637,
      "ബഴ‌സ": 6638,
      "ഹസയ": 6639,
      "കയർ": 6640,
      "തനതതടര‍നന": 6641,
      "പരതകളട": 6642,
      "ചചതനറ": 6643,
      "കരയകഷ": 6644,
      "ശഷയ": 6645,
      "കകകയളള": 6646,
      "ഫലററ": 6647,
      "സർവവ": 6648,
      "പററര‍": 6649,
      "ഇനറലജ": 6650,
      "വജലൻസ": 6651,
      "കഠന": 6652,
      "82": 6653,
      "അപപഴ": 6654,
      "ഓർതത": 6655,
      "പസയ": 6656,
      "ബഐ": 6657,
      "എനനകക": 6658,
      "കള‍കകയ": 6659,
      "ഇതകക": 6660,
      "നലതത": 6661,
      "ചയയണടത": 6662,
      "കറന": 6663,
      "ചയതടടലല": 6664,
      "മർഗഗ": 6665,
      "ഓഫസറ": 6666,
      "ഏററവങങ": 6667,
      "ഉയര‍": 6668,
      "കകണമനനവശയപപടട": 6669,
      "രമചനദരന‍": 6670,
      "പഷപ": 6671,
      "അതതരമര": 6672,
      "ഞടടചച": 6673,
      "സവഗതവ": 6674,
      "ഗവണ‍മനറ": 6675,
      "ബഷര‍": 6676,
      "ഭര‍": 6677,
      "ല​": 6678,
      "വമകത": 6679,
      "വര‍ഗഗ": 6680,
      "അതനയ": 6681,
      "പയല": 6682,
      "ഇത‌": 6683,
      "മലക": 6684,
      "പതയട": 6685,
      "കകയടടണട": 6686,
      "വഹത": 6687,
      "വറനറ": 6688,
      "വര‍ഷങങളയ": 6689,
      "ഉയർ": 6690,
      "വയകതമകകയടടണട": 6691,
      "വഹനപകട": 6692,
      "പസററ‌": 6693,
      "ആവശയപപടടടടണട": 6694,
      "വങങനന": 6695,
      "മണഡലതതൽ": 6696,
      "നരയണന‍": 6697,
      "കഎസആര‍ടസ": 6698,
      "ചഴലകകററ": 6699,
      "ഡമകരററ": 6700,
      "ഇരയയ": 6701,
      "ചനയല‍": 6702,
      "ഫസ‌": 6703,
      "ര‍വദ": 6704,
      "ററർ": 6705,
      "ജയലൽ": 6706,
      "വർധന": 6707,
      "വടകകന‍": 6708,
      "പകസഥന": 6709,
      "ഇടയല‍": 6710,
      "കയയരനനവനന": 6711,
      "അവസനമയ": 6712,
      "നലയല": 6713,
      "അവകശപപടട": 6714,
      "con": 6715,
      "ആദമ": 6716,
      "09": 6717,
      "അഖല": 6718,
      "അചയതനന": 6719,
      "എഐ": 6720,
      "ഒരകകനന": 6721,
      "ഷയകക": 6722,
      "ഹണട": 6723,
      "പരന‍": 6724,
      "തരയണ": 6725,
      "ലലട": 6726,
      "കടയല‍": 6727,
      "നടമപ": 6728,
      "നടകകനനണട": 6729,
      "പരതമസ": 6730,
      "മററന‍": 6731,
      "പലസ​": 6732,
      "കര‍പറ": 6733,
      "പര‍ല": 6734,
      "കരണമകനന": 6735,
      "വര‍ഷവ": 6736,
      "മഡര": 6737,
      "ഉയര‍തതയ": 6738,
      "‌നഥ": 6739,
      "എന‍ഫ": 6740,
      "സമരതതന": 6741,
      "ആളണ": 6742,
      "മനജമനറ": 6743,
      "അധകതര": 6744,
      "ഇഷടപപടനന": 6745,
      "ആഭയനതരമനതര": 6746,
      "എനനവടങങളൽ": 6747,
      "നര‍മമചച": 6748,
      "ശരലങകയ": 6749,
      "രധകഷണന‍": 6750,
      "83": 6751,
      "ro": 6752,
      "ചണടയ": 6753,
      "തവണട": 6754,
      "തര‍ഥ": 6755,
      "പരവററ": 6756,
      "ജയന‍": 6757,
      "ചചത‌": 6758,
      "യകകഷ": 6759,
      "നര‍വവഹ": 6760,
      "ബലകഷണന‍": 6761,
      "ദശയപത": 6762,
      "യറപയന‍": 6763,
      "പരവര‍തതനങങള": 6764,
      "വതതങങള‍": 6765,
      "ഭകരവദ": 6766,
      "ഡൽഹയൽ": 6767,
      "മണയടയണ": 6768,
      "രഞ": 6769,
      "പരവഹ": 6770,
      "കരഞഞ": 6771,
      "നനതൽ": 6772,
      "കടങങയ": 6773,
      "കയയല": 6774,
      "റയന‍": 6775,
      "വയകകന‍": 6776,
      "കലപത": 6777,
      "ഒരപകഷ": 6778,
      "കടടകടട": 6779,
      "വർഗഗ": 6780,
      "രണടമത": 6781,
      "സഭഷ": 6782,
      "കണണരല‍": 6783,
      "സമരക": 6784,
      "അലടട": 6785,
      "പപകകകയണ": 6786,
      "ശരരതതല‍": 6787,
      "സഘടനയ": 6788,
      "അര‍ജനറ": 6789,
      "പതനടട": 6790,
      "ചമപയന‍": 6791,
      "ഹല‍തത": 6792,
      "ആഭമഖയതതല‍": 6793,
      "കണ‍ടരള‍": 6794,
      "ആയത": 6795,
      "തകള": 6796,
      "വയറ": 6797,
      "ലകകഡണ‍": 6798,
      "നലന": 6799,
      "യകകമനന": 6800,
      "ലഭകകക": 6801,
      "ഓഫസൽ": 6802,
      "ശരമങങള‍": 6803,
      "വരയനറ": 6804,
      "നഗരതതല‍": 6805,
      "ഉതപദന": 6806,
      "ഉടമസഥതയ": 6807,
      "അഹമമദബദ": 6808,
      "പരകപന": 6809,
      "പരവർതതകർകക": 6810,
      "അധന": 6811,
      "എകകല": 6812,
      "തരതതൽ": 6813,
      "നറചച": 6814,
      "സററന‍ഡ": 6815,
      "പടയൽ": 6816,
      "കണപപടനന": 6817,
      "അനക": 6818,
      "അഭസബധന": 6819,
      "സഭവങങള‍": 6820,
      "സബസററ": 6821,
      "ന‍സനറ": 6822,
      "വമനതതല‍": 6823,
      "സമമള": 6824,
      "വങങയത": 6825,
      "തശശര‍": 6826,
      "അചഛനറ": 6827,
      "ആവര‍തതചച": 6828,
      "അങങനയണ": 6829,
      "പകകററ": 6830,
      "കകവനന": 6831,
      "പലകകണമനന": 6832,
      "കണടതതല‍": 6833,
      "കണടരകകകയണ": 6834,
      "ബനധവ": 6835,
      "മഹഷ": 6836,
      "പടടകയ": 6837,
      "മഴയകക": 6838,
      "പര‍ടടകള‍": 6839,
      "ൻസൽ": 6840,
      "ഹടടലല‍": 6841,
      "ഗൾഫ": 6842,
      "ഉൽപപനന": 6843,
      "03": 6844,
      "5000": 6845,
      "94": 6846,
      "അണണ": 6847,
      "ആകര‍ഷ": 6848,
      "ഗഭര": 6849,
      "ടപട": 6850,
      "ഡയട": 6851,
      "സതന": 6852,
      "സററകക": 6853,
      "ലകകഡൺ": 6854,
      "സഭയ": 6855,
      "ആവശയമലല": 6856,
      "തലസഥനമയ": 6857,
      "സഭവതതന": 6858,
      "ദവന‍": 6859,
      "ചര‍ചചയല‍": 6860,
      "പദധതകൾ": 6861,
      "സഥലങങളല": 6862,
      "സമപതതകമയ": 6863,
      "എതര‍തത": 6864,
      "ജലയല‍": 6865,
      "ശവസകശ": 6866,
      "മതപതകകള‍": 6867,
      "മകളലളള": 6868,
      "ഒമന": 6869,
      "ഒരയ": 6870,
      "ഫനല‍": 6871,
      "റമനറ": 6872,
      "തരവത": 6873,
      "നനത‌": 6874,
      "പലതവണ": 6875,
      "സററകളല‍": 6876,
      "നരതതയ": 6877,
      "കരയങങളല‍": 6878,
      "കഴഞഞത": 6879,
      "ദനതതൽ": 6880,
      "കർപപറ": 6881,
      "കതതരനന": 6882,
      "യതരയകക": 6883,
      "ഭയനന": 6884,
      "പരഖയപകക": 6885,
      "സഫടന": 6886,
      "പളങ": 6887,
      "അലലതത": 6888,
      "ഭകഷണവ": 6889,
      "സഥപനങങള‍കക": 6890,
      "പടരള": 6891,
      "മകനണ": 6892,
      "ഡണള‍ഡ": 6893,
      "രപപപടട": 6894,
      "പടടകജത": 6895,
      "ദലപനറ": 6896,
      "അഗര": 6897,
      "ജള": 6898,
      "ഫയല‍": 6899,
      "പരകകല‍": 6900,
      "കണടലല": 6901,
      "യണയൻ": 6902,
      "മററത": 6903,
      "വളരനന": 6904,
      "വനൽ": 6905,
      "വനനലല": 6906,
      "മഹന": 6907,
      "മതസരങങള‍": 6908,
      "തതകകൾ": 6909,
      "ഇതടയണ": 6910,
      "പർതതയകക": 6911,
      "ഭമയല‍": 6912,
      "വക‌സനഷന‍": 6913,
      "അണയറ": 6914,
      "ആസഥനതത": 6915,
      "ഒഫ": 6916,
      "ദനറ": 6917,
      "കലകട": 6918,
      "വടകള‍": 6919,
      "സസഥനങങളൽ": 6920,
      "വല‍പപ": 6921,
      "കടബതതനറ": 6922,
      "കനനഡ": 6923,
      "മരണസഖയ": 6924,
      "പരശധകക": 6925,
      "അനവദചചത": 6926,
      "ഹകകടതയല‍": 6927,
      "സകരയങങള‍": 6928,
      "ഒരള‍കക": 6929,
      "നരധചച": 6930,
      "86": 6931,
      "ഗയല": 6932,
      "തശര": 6933,
      "പതതല": 6934,
      "റമന‍ഡ": 6935,
      "അതർതതയ": 6936,
      "മകകയണ": 6937,
      "നലമപ": 6938,
      "ചയയമപള‍": 6939,
      "കരണതതന": 6940,
      "അമമയകക": 6941,
      "സമഹതതല‍": 6942,
      "ആര‍ട": 6943,
      "പരതകഷകകനന": 6944,
      "എൻജനയ": 6945,
      "കര‍ഷകര": 6946,
      "നരകഷചച": 6947,
      "തകർതത": 6948,
      "സവനതമകകയത": 6949,
      "ജമഅതത": 6950,
      "അഗതവ": 6951,
      "ഒൻപത": 6952,
      "ഇകക": 6953,
      "മദന": 6954,
      "ഷരഖ": 6955,
      "സ‌ഥ": 6956,
      "പണവ": 6957,
      "ആശസ": 6958,
      "സപൺ": 6959,
      "അമപല": 6960,
      "കൺടര": 6961,
      "പളളയല‍": 6962,
      "പകകസഥന": 6963,
      "കറയകകന‍": 6964,
      "ടരയൻ": 6965,
      "ഹളല‍": 6966,
      "ഓടടറ": 6967,
      "ഴതത": 6968,
      "വതര": 6969,
      "തതര‍": 6970,
      "ലലയരനന": 6971,
      "കയമറയ": 6972,
      "സവമയ": 6973,
      "പടര‍നന": 6974,
      "ഇതദയ": 6975,
      "ജനപരയ": 6976,
      "വണനന": 6977,
      "അറയത": 6978,
      "ടരൻസ": 6979,
      "കകരൻ": 6980,
      "തലബന‍": 6981,
      "പരതഷധവമയ": 6982,
      "അലലഹ": 6983,
      "വഡയയല‍": 6984,
      "ജര‍ജജ": 6985,
      "സർവകലശല": 6986,
      "വളപപടതതല‍": 6987,
      "സകകന‍ഡറ": 6988,
      "ചടയ": 6989,
      "നസർ": 6990,
      "പസസ": 6991,
      "പഎസ": 6992,
      "ഫഴ‌സ": 6993,
      "ബകസ": 6994,
      "മതതല": 6995,
      "ഴതയ": 6996,
      "നനകക": 6997,
      "ലയരകക": 6998,
      "ചയ​ത": 6999,
      "വസമമത": 7000,
      "പപടചച": 7001,
      "നലനൽ": 7002,
      "വടകയ": 7003,
      "ലകതതന": 7004,
      "രജകമര": 7005,
      "പർലമനറ": 7006,
      "കള‍കക‌": 7007,
      "കടടയമ": 7008,
      "തറകക": 7009,
      "പസററര‍": 7010,
      "ഉള‍കകളള": 7011,
      "കഷതരതതല": 7012,
      "സവകരകകനന": 7013,
      "യഥർഥ": 7014,
      "‌കകപപ": 7015,
      "സവര‍ണകകടതത": 7016,
      "വടയററ": 7017,
      "അവലകന": 7018,
      "അനയയ": 7019,
      "യമ": 7020,
      "യലയരനന": 7021,
      "പരദർശന": 7022,
      "വരക": 7023,
      "മനററല‍": 7024,
      "വയരനന": 7025,
      "സമതത": 7026,
      "കറൽ": 7027,
      "വദയല‍": 7028,
      "സധകരൻ": 7029,
      "ഒഴക": 7030,
      "ഇതനളള": 7031,
      "പകകജ": 7032,
      "പകകസഥന‍": 7033,
      "ആലചചച": 7034,
      "ബഹര‍": 7035,
      "മചചപപടട": 7036,
      "ഭഷണപപടതത": 7037,
      "സഞചവറ": 7038,
      "മപപത": 7039,
      "മജദ": 7040,
      "ബസസഐ": 7041,
      "അനഭവചച": 7042,
      "എറഞഞ": 7043,
      "മവററ": 7044,
      "രപത": 7045,
      "റഗല": 7046,
      "കകറപപ": 7047,
      "പപനറ": 7048,
      "തതയനന": 7049,
      "ലകകയ": 7050,
      "പറയണട": 7051,
      "കഴഞഞടട": 7052,
      "ലകമമപട": 7053,
      "ഇടവക": 7054,
      "ആവശയങങള‍": 7055,
      "കതതരകകനന": 7056,
      "പരധനമണ": 7057,
      "ഷയസ": 7058,
      "സപഡ": 7059,
      "വഹനങങൾ": 7060,
      "ഡളർ": 7061,
      "പനതണയമയ": 7062,
      "ഇളയ": 7063,
      "ടറസററ": 7064,
      "തപനല": 7065,
      "ശവക": 7066,
      "ശശരയ": 7067,
      "ഷർ": 7068,
      "ഷൽ": 7069,
      "പരദയ": 7070,
      "പരഷന‍": 7071,
      "കലറ": 7072,
      "സനററല‍": 7073,
      "വസതകകൾ": 7074,
      "കഴകകനന": 7075,
      "പരശസ": 7076,
      "പകല‍": 7077,
      "വചച‌": 7078,
      "യവമയ": 7079,
      "കകണടയ": 7080,
      "വളളതത": 7081,
      "രകഷത": 7082,
      "വതല‍": 7083,
      "മധയമങങൾ": 7084,
      "നശപപചച": 7085,
      "ഫരൻ": 7086,
      "സഥലങങളൽ": 7087,
      "മഖലകളൽ": 7088,
      "ഗഗള‍": 7089,
      "ഫസബകകല‍": 7090,
      "വപലമയ": 7091,
      "പറമപല‍": 7092,
      "ചനയല": 7093,
      "നവക": 7094,
      "ബണ‍": 7095,
      "അതലല": 7096,
      "ഇതവഴ": 7097,
      "കനമയ": 7098,
      "രണടന": 7099,
      "നകകൾ": 7100,
      "ഉണടകകനന": 7101,
      "ദവസങങളല": 7102,
      "കമമഷനറ": 7103,
      "വതവ": 7104,
      "പരകഷകരട": 7105,
      "വർഷങങൾകക": 7106,
      "സവകരകകണമനന": 7107,
      "2004": 7108,
      "ഭഗതതനനന": 7109,
      "ലഖകന‍": 7110,
      "തമഴ‌നടടല‍": 7111,
      "വമര‍ശനവമയ": 7112,
      "നന‍സ": 7113,
      "96": 7114,
      "ആഭരണ": 7115,
      "നകള": 7116,
      "ബളള": 7117,
      "ലയര‍": 7118,
      "റയൻ": 7119,
      "പണഡയ": 7120,
      "മഹതമ": 7121,
      "സമയവ": 7122,
      "ചചരനനലല": 7123,
      "തണമല‍": 7124,
      "ജവനകകരയ": 7125,
      "കമള": 7126,
      "കണടതതൻ": 7127,
      "നഗർ": 7128,
      "സവകരകകന‍": 7129,
      "അടചചടട": 7130,
      "ഇൻസററററയടട": 7131,
      "കഥപതരതത": 7132,
      "വദഗദധ": 7133,
      "വദഗധര‍": 7134,
      "ഷടടഗ": 7135,
      "മതസയബനധന": 7136,
      "വമർശചച": 7137,
      "ഐകയരഷടര": 7138,
      "എനനറയപപടനന": 7139,
      "അഖലന": 7140,
      "അപര": 7141,
      "ടല‍": 7142,
      "റസർ": 7143,
      "ര‍ഡ": 7144,
      "പരടയ": 7145,
      "മണഡ": 7146,
      "സഥനറ": 7147,
      "കടടതത": 7148,
      "തനനട": 7149,
      "പയനന": 7150,
      "നകകര": 7151,
      "കഴഞഞരനന": 7152,
      "സസഥനതതനറ": 7153,
      "ദനമയ": 7154,
      "കരമണനന": 7155,
      "സരകഷയ": 7156,
      "പരസഡനറയ": 7157,
      "വഭഗതതനറ": 7158,
      "ആളകള‍കക": 7159,
      "ചകതസയലണ": 7160,
      "കളളനന": 7161,
      "ഫയസബ": 7162,
      "എകസകയടടവ": 7163,
      "കവര‍ചച": 7164,
      "നയഗചച": 7165,
      "അഭഭഷകന‍": 7166,
      "ആദതയനഥ": 7167,
      "തനനനതയ": 7168,
      "ആവഷ‌": 7169,
      "de": 7170,
      "എസററററ": 7171,
      "ഓവര‍": 7172,
      "തമശ": 7173,
      "നവദന": 7174,
      "റളള": 7175,
      "റസര‍": 7176,
      "ലറയ": 7177,
      "പടകകന‍": 7178,
      "ധയന": 7179,
      "പയകക": 7180,
      "വടടയട": 7181,
      "പതമ": 7182,
      "രഗകള‍കക": 7183,
      "നൽകണമനന": 7184,
      "പതയതയ": 7185,
      "തലസഥന": 7186,
      "അഞചന": 7187,
      "തഴലളകള‍കക": 7188,
      "ഹര‍ജയല‍": 7189,
      "ഞടടകകനന": 7190,
      "ദമപതകളട": 7191,
      "കലയളവല‍": 7192,
      "ac": 7193,
      "എന‍സ": 7194,
      "സകല": 7195,
      "സദധയ": 7196,
      "സരമയ": 7197,
      "പതജന": 7198,
      "കര‍ടട": 7199,
      "രഗമക": 7200,
      "ടടണട‌": 7201,
      "രപചച": 7202,
      "ടരൽ": 7203,
      "തരചചടയ": 7204,
      "അഗന": 7205,
      "ആശപതരകളല‍": 7206,
      "പനതൽ": 7207,
      "ആറന": 7208,
      "ണമനനവശയപപടട": 7209,
      "ഉപയഗചചണ": 7210,
      "തളളയ": 7211,
      "എടതതത": 7212,
      "പലയടതത": 7213,
      "ചരതരതതല‍": 7214,
      "നടതതനനണട": 7215,
      "ഫണൽ": 7216,
      "കകളളല‍": 7217,
      "സചപപചച": 7218,
      "പൺകടടയട": 7219,
      "ഓര‍ഡ": 7220,
      "എതർ": 7221,
      "കകനയലല": 7222,
      "സവഭവകമയ": 7223,
      "അപരതകഷതമയ": 7224,
      "ഓയല‍": 7225,
      "ചപപ": 7226,
      "യമണ": 7227,
      "തരര": 7228,
      "വയമയ": 7229,
      "തതന​": 7230,
      "കണടല‍": 7231,
      "പരതനയ": 7232,
      "സഭയല‍": 7233,
      "ജവചച": 7234,
      "നടടകരട": 7235,
      "തരഞഞടതതത": 7236,
      "ഇവടയ": 7237,
      "തയയറടപപ": 7238,
      "റണ‍സന": 7239,
      "പതമരമതത": 7240,
      "ചങ": 7241,
      "ഡവഷ": 7242,
      "ബപപ": 7243,
      "വനല‍": 7244,
      "ഷമ": 7245,
      "സകളല": 7246,
      "കരസമസ": 7247,
      "വയഖയ": 7248,
      "സഥപകക": 7249,
      "ദരണ": 7250,
      "പറഞഞണ": 7251,
      "വടടകര‍": 7252,
      "പതമഖല": 7253,
      "നൽകകയ": 7254,
      "രഖപപടതതയത": 7255,
      "പരപടയട": 7256,
      "മനദണഡങങള‍": 7257,
      "വബ‌സററ": 7258,
      "എപപ": 7259,
      "ണൽ": 7260,
      "ണമനനണ": 7261,
      "ഷഹ": 7262,
      "സപർ": 7263,
      "ണട‌": 7264,
      "സമഹര": 7265,
      "വനനപപള‍": 7266,
      "ടകകൻ": 7267,
      "പതയര": 7268,
      "സതഷ": 7269,
      "തരമനമയ": 7270,
      "ഉതതരവറ": 7271,
      "ഓരര": 7272,
      "ചനദരന": 7273,
      "ബങകനറ": 7274,
      "പര‍തതയകകയ": 7275,
      "ബധയത": 7276,
      "കര‍ഷകരട": 7277,
      "കശമരല‍": 7278,
      "കമയണസററ": 7279,
      "ഗരയ": 7280,
      "ചൽ": 7281,
      "ചലകകട": 7282,
      "മഫ": 7283,
      "യയണ": 7284,
      "റസര‍വ": 7285,
      "പരര‍ഥ": 7286,
      "തരങങളയ": 7287,
      "ണടകക": 7288,
      "മയന‍": 7289,
      "കലകകററ": 7290,
      "മകകളട": 7291,
      "ചയയമപൾ": 7292,
      "കറകക": 7293,
      "വചചയരനന": 7294,
      "ചലത": 7295,
      "ലകനന": 7296,
      "കവഡനറ": 7297,
      "കകകയനന": 7298,
      "ചരററ": 7299,
      "വജയനറ": 7300,
      "വളളവ": 7301,
      "ബലല‍": 7302,
      "കമപനയ": 7303,
      "മധയമങങളൽ": 7304,
      "വഹനതതനറ": 7305,
      "വഭഗതതല": 7306,
      "വഗതതൽ": 7307,
      "മതയനന": 7308,
      "ശരരതതന": 7309,
      "ശരരഭര": 7310,
      "ശരദധകകണ": 7311,
      "സചപപകകനന": 7312,
      "ടലവഷന‍": 7313,
      "ala": 7314,
      "ഗപന": 7315,
      "പപപറ": 7316,
      "മതകയ": 7317,
      "കവഞഞ": 7318,
      "കരയതതല": 7319,
      "എലലവരടയ": 7320,
      "കർടട": 7321,
      "മഖയമനതരയയ": 7322,
      "കമപള‍": 7323,
      "തളചച": 7324,
      "പരവശചച": 7325,
      "കപപല‍": 7326,
      "പർടടയട": 7327,
      "മനഷയര": 7328,
      "ചചടടണടനന": 7329,
      "ണടകമനന": 7330,
      "പതനല": 7331,
      "വയസസന": 7332,
      "ഓഡറററയ": 7333,
      "മവററപഴ": 7334,
      "ഉപര": 7335,
      "പവന‍": 7336,
      "റസ‌": 7337,
      "വഗത": 7338,
      "സഇ": 7339,
      "പരസഥ": 7340,
      "പരഭവ": 7341,
      "ലയസ": 7342,
      "പടതതയ": 7343,
      "പരതപ": 7344,
      "കസകളണ": 7345,
      "കസടതതത": 7346,
      "പണമട": 7347,
      "മന‍കര‍": 7348,
      "തലപരയ": 7349,
      "മലയളകള": 7350,
      "കണണര": 7351,
      "ജവനകകർ": 7352,
      "125": 7353,
      "സബനധചചടതതള": 7354,
      "നമര‍കക": 7355,
      "ആരപണവമയ": 7356,
      "​​​ൻറ": 7357,
      "ഭഷണപപടതതയ": 7358,
      "പരവസകളട": 7359,
      "അനതര‍": 7360,
      "വദയര‍തഥകള‍കക": 7361,
      "ആദരചച": 7362,
      "ഇവയട": 7363,
      "ഓസ": 7364,
      "ഭഷയ": 7365,
      "റപര‍ടട": 7366,
      "ലഞച": 7367,
      "വ‌": 7368,
      "മനട": 7369,
      "സററഷനൽ": 7370,
      "കതവ": 7371,
      "അത‌": 7372,
      "വടകളൽ": 7373,
      "വനവകപപ": 7374,
      "സസണ‍": 7375,
      "മതരമണനന": 7376,
      "സമപദയ": 7377,
      "രജശഖര": 7378,
      "പരവര‍തതകകനനത": 7379,
      "നശചച": 7380,
      "ചകതസയല‍": 7381,
      "അധകരതതല‍": 7382,
      "പരഹരകകന‍": 7383,
      "ടരപനറ": 7384,
      "ജഡഷയല‍": 7385,
      "അഭനനദചച": 7386,
      "മഗളര": 7387,
      "മദധയമ": 7388,
      "കര‍പപറഷന‍": 7389,
      "02": 7390,
      "700": 7391,
      "92": 7392,
      "ആനതര": 7393,
      "ഓസസ": 7394,
      "ടലക": 7395,
      "തവള": 7396,
      "നയരട": 7397,
      "കകനനവര‍": 7398,
      "മകകന": 7399,
      "കരണവ": 7400,
      "കരണമണ": 7401,
      "അഭവ": 7402,
      "ജലല‍": 7403,
      "വര‍ഷതതല‍": 7404,
      "രഹലന": 7405,
      "സല‍ഫ": 7406,
      "പസററല‍": 7407,
      "ലളതമയ": 7408,
      "പപകകപപടട": 7409,
      "സജത": 7410,
      "പരവർതതചച": 7411,
      "വലകകയ": 7412,
      "കടകകഴചയ": 7413,
      "2005": 7414,
      "സനനഹ": 7415,
      "അഡഷണല‍": 7416,
      "മണകകറള": 7417,
      "പരശനങങള": 7418,
      "അകകലതത": 7419,
      "കതരമ": 7420,
      "ഐപഎല‍": 7421,
      "ഏർപപടതതയ": 7422,
      "ആകരമകകപപടട": 7423,
      "ഉദഹരണതതന": 7424,
      "ഉടമസഥതയലളള": 7425,
      "vi": 7426,
      "ഘടപപ": 7427,
      "‍ർ": 7428,
      "കയബ": 7429,
      "ജയലള": 7430,
      "വശര": 7431,
      "ലകകപപല‍": 7432,
      "കരയവ": 7433,
      "മകനയ": 7434,
      "അവതരണ": 7435,
      "പകസഥന‍": 7436,
      "മണടകകയ": 7437,
      "നർമചച": 7438,
      "സതഭ": 7439,
      "യതരകകര‍കക": 7440,
      "തണതത": 7441,
      "ഇറഖ": 7442,
      "പളളലററ": 7443,
      "വഗതതല‍": 7444,
      "ചകതസയകക": 7445,
      "തല‍വ": 7446,
      "സകരയങങള": 7447,
      "ഉചചകക": 7448,
      "ഹടടല": 7449,
      "മകകയടടണട": 7450,
      "യണററഡ": 7451,
      "സനദർശചച": 7452,
      "ഗജറതതല": 7453,
      "ഡകടറട": 7454,
      "തടടകകണടപയ": 7455,
      "എയട": 7456,
      "ചങങന": 7457,
      "ടമകള": 7458,
      "തരലല": 7459,
      "ങങര": 7460,
      "തയലല": 7461,
      "തയടയ": 7462,
      "വരമയ": 7463,
      "മണല‍": 7464,
      "വയററ": 7465,
      "തതയല‍": 7466,
      "സമൻ": 7467,
      "ചതരകരചച": 7468,
      "വഴയല‍": 7469,
      "അധകഷപ": 7470,
      "തറമഖ": 7471,
      "യഗതതലണ": 7472,
      "മബയല‍": 7473,
      "തമസചച": 7474,
      "നവലല": 7475,
      "കമപനകള": 7476,
      "ജഞന": 7477,
      "പരചരണതതന": 7478,
      "തടയൻ": 7479,
      "നരടന‍": 7480,
      "സഹദരൻ": 7481,
      "വസതരങങൾ": 7482,
      "സരനദരന": 7483,
      "സർവകലശലയ": 7484,
      "അരങങറ": 7485,
      "ഫ‌ളററ": 7486,
      "മരളധരൻ": 7487,
      "ചവകകട": 7488,
      "ഗവർണർ": 7489,
      "മജസ‌ടരററ": 7490,
      "ആസഥനമയ": 7491,
      "എമമന": 7492,
      "ടൻ": 7493,
      "ദൻ": 7494,
      "വഖ": 7495,
      "ഹമയ": 7496,
      "പരശരമ": 7497,
      "ങങളള": 7498,
      "നനതനട": 7499,
      "കയമയ": 7500,
      "പടകകനന": 7501,
      "നതവനറ": 7502,
      "തതലണനന": 7503,
      "ശരറ": 7504,
      "ബനധമളള": 7505,
      "ചലപപൾ": 7506,
      "കണ‍ഫറന‍സ": 7507,
      "സതരകൾകക": 7508,
      "വളളതതൽ": 7509,
      "തഴതത": 7510,
      "അഗങങളട": 7511,
      "1500": 7512,
      "പരഖയപചചടടണട": 7513,
      "അനഭവപപടട": 7514,
      "നരകകല‍": 7515,
      "പണ‍കടടകള": 7516,
      "പൻഷൻ": 7517,
      "സപതബര‍": 7518,
      "08": 7519,
      "അമപത": 7520,
      "ആശരമ": 7521,
      "പജയ": 7522,
      "പവർ": 7523,
      "ഫൻ": 7524,
      "ബഡജ": 7525,
      "ഭരകകനന": 7526,
      "ഷര‍ടട": 7527,
      "നറതതലളള": 7528,
      "രകകകയ": 7529,
      "തതലണട": 7530,
      "പതവനറ": 7531,
      "കറണട": 7532,
      "കരളയ": 7533,
      "നർവവഹ": 7534,
      "സതമയ": 7535,
      "ഉപയഗകകക": 7536,
      "പഴവ": 7537,
      "യതരകകര‍": 7538,
      "പരപടകൾ": 7539,
      "തശശർ": 7540,
      "പരശ‌നങങള‍കക": 7541,
      "ഉൾകകളള": 7542,
      "റപപർടടൽ": 7543,
      "കയററമത": 7544,
      "പരശധനയലണ": 7545,
      "മഹരഷടരയല": 7546,
      "അമല": 7547,
      "ഇമ": 7548,
      "വന‍റ": 7549,
      "ഷഡ": 7550,
      "ഷഡയ": 7551,
      "തതചച": 7552,
      "പരവണ": 7553,
      "ളളൽ": 7554,
      "കടലല‍": 7555,
      "പലര‍കക": 7556,
      "സററന": 7557,
      "അടങങനന": 7558,
      "രഗകള‍": 7559,
      "ഭഗവത": 7560,
      "വദചച": 7561,
      "പതയല‍": 7562,
      "ഇടവ": 7563,
      "തലസഥനതത": 7564,
      "യവതകക": 7565,
      "ബദധയ": 7566,
      "ആശപതരകളല": 7567,
      "അപ‌": 7568,
      "ഇന‍സ‌പ": 7569,
      "ഉണടയരനനലല": 7570,
      "വദയര‍ഥകള‍കക": 7571,
      "ആരപചചരനന": 7572,
      "കണ‍ഗരസസ": 7573,
      "ശശരഷ": 7574,
      "അകകരയ": 7575,
      "ഇടതത": 7576,
      "ഒരകകനനത": 7577,
      "കന‍സര‍": 7578,
      "നമര": 7579,
      "ഫരകകന‍": 7580,
      "വയസന": 7581,
      "കടടൻ": 7582,
      "നരഹര": 7583,
      "നലനല‍കകനന": 7584,
      "പതവന": 7585,
      "ആരടയ": 7586,
      "വനനൽ": 7587,
      "ഭഗവ": 7588,
      "നകകള": 7589,
      "പടടചച": 7590,
      "സമപമളള": 7591,
      "സപകകറ": 7592,
      "തഴകക": 7593,
      "ഇരങങ": 7594,
      "രകഷപരവര‍തതന": 7595,
      "എന‍ഐഎ": 7596,
      "നടയടടണട": 7597,
      "സഥപനങങളല": 7598,
      "പരഗണനയ": 7599,
      "തടകകതതൽ": 7600,
      "ശരദധയൽ": 7601,
      "സദയല‍": 7602,
      "മനനതവട": 7603,
      "കടകപളള": 7604,
      "91": 7605,
      "അരയ": 7606,
      "ഓര‍കക": 7607,
      "ജററ": 7608,
      "ഡകക": 7609,
      "സയൽ": 7610,
      "നനര‍": 7611,
      "ടടന‍": 7612,
      "പപൻ": 7613,
      "കളകടർ": 7614,
      "കടര": 7615,
      "കടകകണ": 7616,
      "നയമല": 7617,
      "കലപപടതതയത": 7618,
      "സമപരദയ": 7619,
      "സസരകകനനത": 7620,
      "കരയന‍": 7621,
      "കകടകകനന": 7622,
      "മഴകക": 7623,
      "വറൽ": 7624,
      "നടതതയതനന": 7625,
      "കടബശര": 7626,
      "വവരമറയ": 7627,
      "അടതതളള": 7628,
      "പങകവയ": 7629,
      "സ‌കരന‍": 7630,
      "നരയല‍": 7631,
      "വനയസ": 7632,
      "പഞചസര": 7633,
      "രചചച": 7634,
      "പനരധ": 7635,
      "റഷയന‍": 7636,
      "പസ‌പര‍ടട": 7637,
      "അഷ‌റഫ": 7638,
      "ആൺ": 7639,
      "കവസ": 7640,
      "കസ‌": 7641,
      "ഗറ": 7642,
      "റണണ": 7643,
      "വകഷണ": 7644,
      "സകസ": 7645,
      "സകളൽ": 7646,
      "പരവണത": 7647,
      "പപകകകയയരനന": 7648,
      "ററന‍": 7649,
      "നലകയ": 7650,
      "മറന‍": 7651,
      "കവന‍": 7652,
      "നലയലയരനന": 7653,
      "ഹസൻ": 7654,
      "ഇടപടൽ": 7655,
      "പരമപരയല": 7656,
      "തമഴ‌നടടല": 7657,
      "ആശയവനമയ": 7658,
      "പകര‍നന": 7659,
      "സ‌പഷയല‍": 7660,
      "അപരതകഷത": 7661,
      "അബദധ": 7662,
      "ഖർ": 7663,
      "ജഥ": 7664,
      "പയരനന": 7665,
      "പഎഫ": 7666,
      "പന‍ഡ": 7667,
      "ഹക": 7668,
      "കളകകനന": 7669,
      "ജയ‌": 7670,
      "ജയരജന": 7671,
      "ദരവഡ": 7672,
      "പതമയ": 7673,
      "പതമനന": 7674,
      "വണടതര": 7675,
      "സധകകലല": 7676,
      "തളങങ": 7677,
      "നയമങങൾ": 7678,
      "മരണതതല‍": 7679,
      "സനറർ": 7680,
      "ശചകരണ": 7681,
      "മണഡലങങളല": 7682,
      "മറപടയമയ": 7683,
      "രപയയ": 7684,
      "ലഭയമക": 7685,
      "പങകടകകന‍": 7686,
      "‌കക‌": 7687,
      "പരചരപപചച": 7688,
      "സൻടരൽ": 7689,
      "സധനങങൾ": 7690,
      "വഭജന": 7691,
      "ഓര‍തതഡ": 7692,
      "അര‍തഥ": 7693,
      "ഖണ": 7694,
      "ലർ": 7695,
      "വയത": 7696,
      "പലർതത": 7697,
      "കലഗര": 7698,
      "നതഷ": 7699,
      "ടരപന": 7700,
      "ലണ‌": 7701,
      "സയന‍സ": 7702,
      "ബധക": 7703,
      "കമപയ": 7704,
      "ഇതടപപ": 7705,
      "ണടതലല": 7706,
      "ബളര‍": 7707,
      "പങകടതതത": 7708,
      "മടങങയത": 7709,
      "സര‍വസകള‍": 7710,
      "ഉടമസഥ": 7711,
      "എകസസ": 7712,
      "ഷരഫ": 7713,
      "81": 7714,
      "97": 7715,
      "ion": 7716,
      "ടയട": 7717,
      "ഢയ": 7718,
      "തമസ‌": 7719,
      "പനനന": 7720,
      "ടടമണട": 7721,
      "നറങങയ": 7722,
      "നയകയയ": 7723,
      "കടടകകല": 7724,
      "വശഷട": 7725,
      "മകകകയ": 7726,
      "ടകകയ": 7727,
      "നൽകണ": 7728,
      "ശഷയളള": 7729,
      "കകനവലല": 7730,
      "പയഗചച": 7731,
      "വഹനങങള": 7732,
      "ഉപഗരഹ": 7733,
      "15ന": 7734,
      "സമരജയ": 7735,
      "അനനയ": 7736,
      "നമപറ": 7737,
      "അധകരതതല": 7738,
      "ഒളപപചച": 7739,
      "വഡയയ": 7740,
      "വര‍ധപപചച": 7741,
      "ള‍പപടയളള": 7742,
      "ഓടടറകഷ": 7743,
      "ഇന‍സ‌പകടര‍": 7744,
      "മങങയ": 7745,
      "ലലന": 7746,
      "വയന": 7747,
      "പടലലനന": 7748,
      "പരതമ": 7749,
      "വർതതയ": 7750,
      "ശരജ": 7751,
      "ടകകകയ": 7752,
      "സസഥനതതന": 7753,
      "മലയല‍": 7754,
      "നവതഥ": 7755,
      "സനമകള‍": 7756,
      "സനമയകക": 7757,
      "പരമയര‍": 7758,
      "ശരരതതൽ": 7759,
      "ഉളളടകക": 7760,
      "പർകകണ": 7761,
      "ടവററര‍": 7762,
      "ഴ‌സ‌മനറ": 7763,
      "പരധയല‍": 7764,
      "റസറററനറ": 7765,
      "നയമലഘ": 7766,
      "ചവപപ": 7767,
      "ടയല": 7768,
      "പകയ": 7769,
      "റതത": 7770,
      "സന‍സ": 7771,
      "പരമദ": 7772,
      "കടയകക": 7773,
      "നയകൻ": 7774,
      "സനതര": 7775,
      "തതനതരയ": 7776,
      "പടയല": 7777,
      "ഭഗങങളൽ": 7778,
      "മലമണ": 7779,
      "ഇടയ": 7780,
      "കചചയൽ": 7781,
      "അഗങങൾ": 7782,
      "മടയല‍": 7783,
      "ഉയര‍നനത": 7784,
      "ലഗന": 7785,
      "വമനങങള‍": 7786,
      "സഗനധ": 7787,
      "പരവർതതകരട": 7788,
      "കമപനകളട": 7789,
      "നയമനടപട": 7790,
      "അജണട": 7791,
      "മമമടടയട": 7792,
      "പരശസതമയ": 7793,
      "പറനനള‍": 7794,
      "പരസതവനയ": 7795,
      "ഇസരയല‍": 7796,
      "ഇസ‌ലമക": 7797,
      "കതതരപപ": 7798,
      "ജഴ‌സ": 7799,
      "ലടട": 7800,
      "വകയണ": 7801,
      "വങങന": 7802,
      "ഷനയ": 7803,
      "പരപ": 7804,
      "പരയകക": 7805,
      "കരയട": 7806,
      "കടകൾ": 7807,
      "രയണ": 7808,
      "പറക": 7809,
      "വശഖ": 7810,
      "കണടവരനന": 7811,
      "അതററ": 7812,
      "സമരകക": 7813,
      "വധതതല‍": 7814,
      "കകകയണടയ": 7815,
      "വജയരഘ": 7816,
      "മടചച": 7817,
      "എനതകക": 7818,
      "ലഗകമയ": 7819,
      "വരണമനന": 7820,
      "പരപടയൽ": 7821,
      "സഥപനങങളട": 7822,
      "അനഭവകകനന": 7823,
      "ഉണടകനനത": 7824,
      "ചയര‍മന": 7825,
      "ചലവഴചച": 7826,
      "ആള‍കകടട": 7827,
      "ഉദധരചച": 7828,
      "ഉതതർപരദശ": 7829,
      "എര": 7830,
      "ഛതത": 7831,
      "ഡവസ": 7832,
      "റജയ": 7833,
      "ലവര‍": 7834,
      "പപമണ": 7835,
      "സററഷൻ": 7836,
      "പതകകയ": 7837,
      "വണമങകല": 7838,
      "പനനലയ": 7839,
      "വഹകകനന": 7840,
      "ആദയഘടട": 7841,
      "സഥരകര": 7842,
      "തടങങയവയ": 7843,
      "പരശധനയൽ": 7844,
      "എതരതതള": 7845,
      "സഥതഗത": 7846,
      "ടചചര‍": 7847,
      "തവരത": 7848,
      "പരശനങങള‍": 7849,
      "സകരടടറയയ": 7850,
      "ഹജരകകയ": 7851,
      "വശവസവ": 7852,
      "അററകററപപണ": 7853,
      "cont": 7854,
      "ഡപല": 7855,
      "ബഫ": 7856,
      "റന‍റ": 7857,
      "വദര": 7858,
      "തതലളളത": 7859,
      "വടന‍": 7860,
      "വടകകടട": 7861,
      "ലഭകകതത": 7862,
      "നടതതപപ": 7863,
      "ബരന‍ഡ": 7864,
      "രജനറ": 7865,
      "ഇരചകര": 7866,
      "വഭഗതതന": 7867,
      "തകർകക": 7868,
      "പലയട": 7869,
      "മതദഹങങള‍": 7870,
      "പദവയ": 7871,
      "പമപന": 7872,
      "ചതനയ": 7873,
      "തയയറയലല": 7874,
      "ഇടയകകട": 7875,
      "ഫതതമ": 7876,
      "ഗണയമയ": 7877,
      "നഴഞഞ": 7878,
      "മസവ": 7879,
      "ലബര‍": 7880,
      "വഫ": 7881,
      "സ‍": 7882,
      "ര‍ഷപപ": 7883,
      "കടയത": 7884,
      "ദരഹത": 7885,
      "വളഞഞ": 7886,
      "വളർനന": 7887,
      "മസതതല‍": 7888,
      "രപകൽ": 7889,
      "ദനശ": 7890,
      "കകരനറ": 7891,
      "നർതതയ": 7892,
      "മലയണ‍": 7893,
      "ങങള‍കകതര": 7894,
      "തടങങയവര": 7895,
      "കണണരല": 7896,
      "വകപപകള‍": 7897,
      "കടയള": 7898,
      "സപരകടതയ": 7899,
      "ശഖര‍": 7900,
      "മനസകമയ": 7901,
      "മനസസല": 7902,
      "പരകകററത": 7903,
      "ഏഷയന‍": 7904,
      "കരസതവ": 7905,
      "അർജ": 7906,
      "ആകഷന‍": 7907,
      "ഏൽ": 7908,
      "ഗതര": 7909,
      "ടയൽ": 7910,
      "തകഞഞ": 7911,
      "നമത": 7912,
      "നസമ": 7913,
      "നകതയ": 7914,
      "റമദ": 7915,
      "രകകകയയരനന": 7916,
      "തനചച": 7917,
      "മരമയ": 7918,
      "യരനനലല": 7919,
      "മററവ": 7920,
      "കര‍മ": 7921,
      "കഴഞഞൽ": 7922,
      "ഇടയൽ": 7923,
      "പപറഞഞ": 7924,
      "നവകരണ": 7925,
      "ഉടമയ": 7926,
      "ജവനകകർകക": 7927,
      "ചര‍ചചയ": 7928,
      "പരഗണകകനനത": 7929,
      "ഇദദഹതതനറ": 7930,
      "പറതതവടടത": 7931,
      "ഒരകകയരകകനനത": 7932,
      "ഭരഭഗവ": 7933,
      "ഗപനഥ": 7934,
      "ed": 7935,
      "ഇലകഷ": 7936,
      "ഐസക": 7937,
      "കഭ": 7938,
      "മങങട": 7939,
      "യമന": 7940,
      "യള‍": 7941,
      "സയല": 7942,
      "ഹസപററ": 7943,
      "കകമപ": 7944,
      "തയയത": 7945,
      "സവററ": 7946,
      "കണടതനന": 7947,
      "ശരജതത": 7948,
      "വടയത": 7949,
      "സഘപരവര‍": 7950,
      "പടടൽ": 7951,
      "വലയൽ": 7952,
      "എഫന": 7953,
      "സവധനങങള‍": 7954,
      "ഉപധയ": 7955,
      "നററര‍": 7956,
      "ബകകൽ": 7957,
      "രതരയല‍": 7958,
      "സൽഫ": 7959,
      "ഉൾപപടതതയ": 7960,
      "മനസസൽ": 7961,
      "സപഎമമന": 7962,
      "മണകകറല‍": 7963,
      "ശരദധയമണ": 7964,
      "നഹ‌റ": 7965,
      "സകരടടറയട": 7966,
      "പരതകരണവമയ": 7967,
      "ഇതതവണതത": 7968,
      "കണ‍ഗരസ‌": 7969,
      "അമമയയ": 7970,
      "റദദകകയ": 7971,
      "കർഷകർ": 7972,
      "സസണല": 7973,
      "മസതഫ": 7974,
      "രഷ‌ടരയ": 7975,
      "സ‌പര‍ട‌സ": 7976,
      "ഇരങങലകകട": 7977,
      "അസധ": 7978,
      "ഒതതത": 7979,
      "കപല": 7980,
      "ഭവന‍": 7981,
      "മസററർ": 7982,
      "ലപ": 7983,
      "സള‍": 7984,
      "പപപല": 7985,
      "തയറകക": 7986,
      "കടകളട": 7987,
      "കടകകക": 7988,
      "തടരണ": 7989,
      "വശകലന": 7990,
      "പരതഷഠ": 7991,
      "മററങങൾ": 7992,
      "പയൽ": 7993,
      "വളചചത": 7994,
      "വനനരകകനനത": 7995,
      "ഭഗങങളല": 7996,
      "ഭഗകമയ": 7997,
      "ജവലല": 7998,
      "ജവതവ": 7999
    },
    "merges": [
      [
        "ന",
        "ന"
      ],
      [
        "ക",
        "ക"
      ],
      [
        "ത",
        "ത"
      ],
      [
        "ര",
        "‍"
      ],
      [
        "ല",
        "‍"
      ],
      [
        "പ",
        "ര"
      ],
      [
        "ട",
        "ട"
      ],
      [
        "ച",
        "ച"
      ],
      [
        "പ",
        "പ"
      ],
      [
        "ത",
        "ര"
      ],
      [
        "റ",
        "റ"
      ],
      [
        "ങ",
        "ങ"
      ],
      [
        "ണ",
        "ട"
      ],
      [
        "ക",
        "ള"
      ],
      [
        "ന",
        "‍"
      ],
      [
        "ക",
        "ര"
      ],
      [
        "മ",
        "യ"
      ],
      [
        "ല",
        "ല"
      ],
      [
        "ന",
        "റ"
      ],
      [
        "ത",
        "യ"
      ],
      [
        "ങങ",
        "ള"
      ],
      [
        "നന",
        "ത"
      ],
      [
        "ള",
        "ള"
      ],
      [
        "ക",
        "ട"
      ],
      [
        "ന",
        "യ"
      ],
      [
        "വ",
        "ര"
      ],
      [
        "ക",
        "ഷ"
      ],
      [
        "ക",
        "യ"
      ],
      [
        "മ",
        "ന"
      ],
      [
        "ന",
        "ട"
      ],
      [
        "ര",
        "നന"
      ],
      [
        "ഞ",
        "ഞ"
      ],
      [
        "ല",
        "യ"
      ],
      [
        "റ",
        "യ"
      ],
      [
        "എ",
        "നന"
      ],
      [
        "മ",
        "ണ"
      ],
      [
        "വ",
        "യ"
      ],
      [
        "ച",
        "യ"
      ],
      [
        "മ",
        "നന"
      ],
      [
        "സ",
        "ഥ"
      ],
      [
        "പ",
        "ല"
      ],
      [
        "ര",
        "കക"
      ],
      [
        "വ",
        "ര‍"
      ],
      [
        "മ",
        "പ"
      ],
      [
        "സ",
        "ററ"
      ],
      [
        "ര",
        "യ"
      ],
      [
        "ക",
        "ല"
      ],
      [
        "സ",
        "ന"
      ],
      [
        "കള",
        "‍"
      ],
      [
        "തത",
        "യ"
      ],
      [
        "സ",
        "വ"
      ],
      [
        "ത",
        "ട"
      ],
      [
        "ദ",
        "യ"
      ],
      [
        "പ",
        "റ"
      ],
      [
        "തത",
        "ന"
      ],
      [
        "ഒ",
        "ര"
      ],
      [
        "മ",
        "ത"
      ],
      [
        "കക",
        "നന"
      ],
      [
        "പ",
        "ട"
      ],
      [
        "ള",
        "‍"
      ],
      [
        "ന",
        "ത"
      ],
      [
        "യ",
        "ട"
      ],
      [
        "വ",
        "സ"
      ],
      [
        "ക",
        "ടട"
      ],
      [
        "തത",
        "ല"
      ],
      [
        "തത",
        "ല‍"
      ],
      [
        "മ",
        "മ"
      ],
      [
        "ങങള",
        "‍"
      ],
      [
        "ക",
        "ത"
      ],
      [
        "ജ",
        "യ"
      ],
      [
        "ക",
        "ണ"
      ],
      [
        "ക",
        "ഴ"
      ],
      [
        "നന",
        "ന"
      ],
      [
        "വ",
        "ശ"
      ],
      [
        "പപ",
        "ട"
      ],
      [
        "ത",
        "ന"
      ],
      [
        "ദ",
        "ര"
      ],
      [
        "ദ",
        "ശ"
      ],
      [
        "ക",
        "ണട"
      ],
      [
        "ഗ",
        "ര"
      ],
      [
        "മ",
        "ര"
      ],
      [
        "ല",
        "കക"
      ],
      [
        "ക",
        "ൾ"
      ],
      [
        "ധ",
        "യ"
      ],
      [
        "യ",
        "രനന"
      ],
      [
        "പര",
        "ത"
      ],
      [
        "ത",
        "നന"
      ],
      [
        "യ",
        "ണ"
      ],
      [
        "അ",
        "ന"
      ],
      [
        "വ",
        "ർ"
      ],
      [
        "ന",
        "ര"
      ],
      [
        "സ",
        "‌"
      ],
      [
        "കക",
        "നനത"
      ],
      [
        "അ",
        "ത"
      ],
      [
        "ന",
        "ല‍"
      ],
      [
        "ധ",
        "ന"
      ],
      [
        "മ",
        "ററ"
      ],
      [
        "ശ",
        "ര"
      ],
      [
        "ര‍",
        "കക"
      ],
      [
        "പപ",
        "ടട"
      ],
      [
        "യ",
        "ല‍"
      ],
      [
        "മ",
        "കക"
      ],
      [
        "ങങ",
        "ൾ"
      ],
      [
        "സഥ",
        "ന"
      ],
      [
        "പ",
        "യ"
      ],
      [
        "സ",
        "ര"
      ],
      [
        "ഇ",
        "ത"
      ],
      [
        "ന",
        "ല"
      ],
      [
        "വ",
        "ട"
      ],
      [
        "ക",
        "സ"
      ],
      [
        "വ",
        "ള"
      ],
      [
        "സ",
        "ഹ"
      ],
      [
        "സ",
        "മ"
      ],
      [
        "യ",
        "ല"
      ],
      [
        "മന",
        "തര"
      ],
      [
        "ങ",
        "ക"
      ],
      [
        "ഇ",
        "ന"
      ],
      [
        "പറ",
        "ഞഞ"
      ],
      [
        "തത",
        "ൽ"
      ],
      [
        "വ",
        "ന"
      ],
      [
        "വ",
        "ടട"
      ],
      [
        "പ",
        "ത"
      ],
      [
        "ന",
        "ധ"
      ],
      [
        "ചയ",
        "യ"
      ],
      [
        "ആ",
        "ര"
      ],
      [
        "ചച",
        "ത"
      ],
      [
        "ക",
        "ന"
      ],
      [
        "മ",
        "ഖ"
      ],
      [
        "സ",
        "സ"
      ],
      [
        "ദ",
        "ധ"
      ],
      [
        "മ",
        "റ"
      ],
      [
        "ക",
        "വ"
      ],
      [
        "ക",
        "റ"
      ],
      [
        "തത",
        "നറ"
      ],
      [
        "മ",
        "സ"
      ],
      [
        "കര",
        "യ"
      ],
      [
        "ഞ",
        "ച"
      ],
      [
        "പ",
        "ണ"
      ],
      [
        "എ",
        "സ"
      ],
      [
        "അ",
        "ട"
      ],
      [
        "വ",
        "വ"
      ],
      [
        "വ",
        "ഷ"
      ],
      [
        "ദ",
        "ദ"
      ],
      [
        "ഇന",
        "തയ"
      ],
      [
        "2",
        "0"
      ],
      [
        "പല",
        "സ"
      ],
      [
        "ക",
        "ര‍"
      ],
      [
        "ര",
        "ണ"
      ],
      [
        "വ",
        "നന"
      ],
      [
        "ര",
        "ണട"
      ],
      [
        "യ",
        "കക"
      ],
      [
        "പ",
        "ര‍"
      ],
      [
        "വ",
        "ല"
      ],
      [
        "ഷ",
        "ട"
      ],
      [
        "സ",
        "ഭ"
      ],
      [
        "കര",
        "ണ"
      ],
      [
        "വ",
        "ക"
      ],
      [
        "ജ",
        "ന"
      ],
      [
        "ബ",
        "നധ"
      ],
      [
        "ചയ",
        "ത"
      ],
      [
        "പര",
        "സ"
      ],
      [
        "ന",
        "ര‍"
      ],
      [
        "കട",
        "ത"
      ],
      [
        "പര",
        "ശ"
      ],
      [
        "മ",
        "ര‍"
      ],
      [
        "യ",
        "ൽ"
      ],
      [
        "ട",
        "കക"
      ],
      [
        "ര",
        "ഗ"
      ],
      [
        "കള",
        "ട"
      ],
      [
        "ർ",
        "കക"
      ],
      [
        "ഭ",
        "ഗ"
      ],
      [
        "ന",
        "ൽ"
      ],
      [
        "യ",
        "ത"
      ],
      [
        "വ",
        "ദ"
      ],
      [
        "പ",
        "റയ"
      ],
      [
        "മ",
        "ല"
      ],
      [
        "വ",
        "ണ"
      ],
      [
        "കഷ",
        "ണ"
      ],
      [
        "മ",
        "ലല"
      ],
      [
        "‌",
        "സ"
      ],
      [
        "റ",
        "പപ"
      ],
      [
        "മ",
        "ക"
      ],
      [
        "ടട",
        "ണട"
      ],
      [
        "മ",
        "തര"
      ],
      [
        "പ",
        "ന"
      ],
      [
        "അ",
        "വ"
      ],
      [
        "വശ",
        "യ"
      ],
      [
        "കയ",
        "ണ"
      ],
      [
        "ജ",
        "വ"
      ],
      [
        "മ",
        "ഹ"
      ],
      [
        "സ",
        "ഘ"
      ],
      [
        "ര",
        "പ"
      ],
      [
        "ങങള",
        "ട"
      ],
      [
        "ല",
        "ഭ"
      ],
      [
        "യ",
        "യ"
      ],
      [
        "തത",
        "ര"
      ],
      [
        "ശ",
        "ഷ"
      ],
      [
        "ന",
        "കക"
      ],
      [
        "വ",
        "ണട"
      ],
      [
        "കഴ",
        "ഞഞ"
      ],
      [
        "പര",
        "യ"
      ],
      [
        "ച",
        "തര"
      ],
      [
        "പ",
        "നന"
      ],
      [
        "ദദ",
        "ഹ"
      ],
      [
        "ര‍",
        "നന"
      ],
      [
        "കക",
        "ട"
      ],
      [
        "പ",
        "ക"
      ],
      [
        "ഉ",
        "ണട"
      ],
      [
        "കക",
        "ന"
      ],
      [
        "0",
        "0"
      ],
      [
        "കക",
        "ന‍"
      ],
      [
        "കര",
        "ള"
      ],
      [
        "നട",
        "തത"
      ],
      [
        "അ",
        "റയ"
      ],
      [
        "ണ",
        "‍"
      ],
      [
        "വ",
        "ഴ"
      ],
      [
        "ങ",
        "കല"
      ],
      [
        "ഡ",
        "യ"
      ],
      [
        "പ",
        "കഷ"
      ],
      [
        "പ",
        "തര"
      ],
      [
        "ട",
        "പപ"
      ],
      [
        "ബ",
        "ര"
      ],
      [
        "ന",
        "തര"
      ],
      [
        "അ",
        "ദദഹ"
      ],
      [
        "മ",
        "ന‍"
      ],
      [
        "ട",
        "തത"
      ],
      [
        "ട",
        "ര"
      ],
      [
        "പ",
        "ടട"
      ],
      [
        "സ",
        "സഥന"
      ],
      [
        "വ",
        "ചച"
      ],
      [
        "സ",
        "മയ"
      ],
      [
        "കക",
        "ണ"
      ],
      [
        "അ",
        "ഭ"
      ],
      [
        "ആ",
        "ശ"
      ],
      [
        "വ",
        "ലയ"
      ],
      [
        "കന",
        "ദര"
      ],
      [
        "ര",
        "ജയ"
      ],
      [
        "ച",
        "ല"
      ],
      [
        "പ",
        "തയ"
      ],
      [
        "കക",
        "യ"
      ],
      [
        "വ",
        "ധ"
      ],
      [
        "ജ",
        "ലല"
      ],
      [
        "ങങ",
        "യ"
      ],
      [
        "ഇ",
        "നന"
      ],
      [
        "മ",
        "ഴ"
      ],
      [
        "വ",
        "ദയ"
      ],
      [
        "ദ",
        "വസ"
      ],
      [
        "ല",
        "ണ"
      ],
      [
        "ല",
        "ക"
      ],
      [
        "കവ",
        "ഡ"
      ],
      [
        "മ",
        "ണട"
      ],
      [
        "വ",
        "നനത"
      ],
      [
        "ഇ",
        "ട"
      ],
      [
        "ആ",
        "വശയ"
      ],
      [
        "കക",
        "ള"
      ],
      [
        "മ",
        "ളള"
      ],
      [
        "ന",
        "ടട"
      ],
      [
        "പപ",
        "ചച"
      ],
      [
        "ലല",
        "നന"
      ],
      [
        "സ",
        "മപ"
      ],
      [
        "പര",
        "വര‍"
      ],
      [
        "സ",
        "ര‍കക"
      ],
      [
        "വ",
        "ഹ"
      ],
      [
        "എ",
        "ലല"
      ],
      [
        "ര",
        "ജ"
      ],
      [
        "ഗ",
        "യ"
      ],
      [
        "ദ",
        "ന"
      ],
      [
        "ല",
        "കഷ"
      ],
      [
        "പറ",
        "തത"
      ],
      [
        "കക",
        "ര"
      ],
      [
        "ആ",
        "ദയ"
      ],
      [
        "പ",
        "ർ"
      ],
      [
        "ണ",
        "ണ"
      ],
      [
        "വയ",
        "കത"
      ],
      [
        "ന",
        "ർ"
      ],
      [
        "ക",
        "ർ"
      ],
      [
        "കക",
        "കയ"
      ],
      [
        "ത",
        "ല"
      ],
      [
        "ച",
        "ന"
      ],
      [
        "കള",
        "ല‍"
      ],
      [
        "മ",
        "ലയ"
      ],
      [
        "ഏ",
        "ററ"
      ],
      [
        "വ",
        "റ"
      ],
      [
        "പര",
        "തയ"
      ],
      [
        "ന‍",
        "റ"
      ],
      [
        "തര",
        "ഞഞ"
      ],
      [
        "കക",
        "റ"
      ],
      [
        "ത",
        "ഥ"
      ],
      [
        "കണ",
        "‍"
      ],
      [
        "രകക",
        "നനത"
      ],
      [
        "മഖ",
        "യ"
      ],
      [
        "വര",
        "ട"
      ],
      [
        "സ",
        "യ"
      ],
      [
        "കര",
        "ചച"
      ],
      [
        "കള‍",
        "കക"
      ],
      [
        "ക",
        "തത"
      ],
      [
        "സ",
        "തര"
      ],
      [
        "പപ",
        "ഴ"
      ],
      [
        "ങങള",
        "ല‍"
      ],
      [
        "യ",
        "വ"
      ],
      [
        "നട",
        "തതയ"
      ],
      [
        "സ",
        "ല"
      ],
      [
        "ജ",
        "ല"
      ],
      [
        "മ",
        "ർ"
      ],
      [
        "1",
        "9"
      ],
      [
        "കക",
        "ണട"
      ],
      [
        "പര",
        "ധന"
      ],
      [
        "ച",
        "ര"
      ],
      [
        "പ",
        "ചച"
      ],
      [
        "നല‍",
        "ക"
      ],
      [
        "സഭ",
        "വ"
      ],
      [
        "പപ",
        "ള‍"
      ],
      [
        "ര‍",
        "ടട"
      ],
      [
        "പപട",
        "തത"
      ],
      [
        "ന",
        "തത"
      ],
      [
        "കക",
        "ൻ"
      ],
      [
        "പയ",
        "ഗ"
      ],
      [
        "സ",
        "ബ"
      ],
      [
        "കള",
        "ല"
      ],
      [
        "അ",
        "റ"
      ],
      [
        "വ",
        "ജയ"
      ],
      [
        "സ",
        "ത"
      ],
      [
        "ട",
        "യ"
      ],
      [
        "ട",
        "ന"
      ],
      [
        "ഷ",
        "ണ"
      ],
      [
        "ഒ",
        "നന"
      ],
      [
        "വ",
        "ളള"
      ],
      [
        "ന‍",
        "സ"
      ],
      [
        "ഷ",
        "യ"
      ],
      [
        "ഗ",
        "ത"
      ],
      [
        "ബ",
        "ജ"
      ],
      [
        "ബ",
        "ല"
      ],
      [
        "ഓ",
        "ഫ"
      ],
      [
        "എനന",
        "ല‍"
      ],
      [
        "ദ",
        "വ"
      ],
      [
        "ഹ",
        "ര"
      ],
      [
        "ബ",
        "ധ"
      ],
      [
        "തര",
        "ചച"
      ],
      [
        "വര‍",
        "ഷ"
      ],
      [
        "ങങള‍",
        "കക"
      ],
      [
        "ഉ",
        "പയഗ"
      ],
      [
        "സ",
        "കര"
      ],
      [
        "ര‍",
        "തത"
      ],
      [
        "വ",
        "ല‍"
      ],
      [
        "തര",
        "മന"
      ],
      [
        "ർ",
        "നന"
      ],
      [
        "സ",
        "ധ"
      ],
      [
        "കക",
        "ററ"
      ],
      [
        "ഖ",
        "യ"
      ],
      [
        "എ",
        "ഫ"
      ],
      [
        "വഷ",
        "ണ"
      ],
      [
        "സ",
        "പ"
      ],
      [
        "തത",
        "ട"
      ],
      [
        "ഴ",
        "ച"
      ],
      [
        "ഷ",
        "ന‍"
      ],
      [
        "അ",
        "ധ"
      ],
      [
        "ത",
        "ഴ"
      ],
      [
        "നട",
        "പട"
      ],
      [
        "ക",
        "ററ"
      ],
      [
        "മഖയ",
        "മനതര"
      ],
      [
        "സ",
        "ര‍"
      ],
      [
        "മ",
        "ൻ"
      ],
      [
        "തര",
        "യ"
      ],
      [
        "രകക",
        "നന"
      ],
      [
        "തത",
        "ത"
      ],
      [
        "ക",
        "ചച"
      ],
      [
        "നല‍",
        "കയ"
      ],
      [
        "ഗര",
        "സ"
      ],
      [
        "ക",
        "മപ"
      ],
      [
        "മ",
        "ടട"
      ],
      [
        "മ",
        "നറ"
      ],
      [
        "അ",
        "മ"
      ],
      [
        "കക",
        "ക"
      ],
      [
        "അ",
        "ഗ"
      ],
      [
        "ങങള",
        "ല"
      ],
      [
        "ണ",
        "നന"
      ],
      [
        "എ",
        "തത"
      ],
      [
        "ളള",
        "ത"
      ],
      [
        "ബ",
        "ദ"
      ],
      [
        "കട",
        "ബ"
      ],
      [
        "ണ",
        "യ"
      ],
      [
        "വ",
        "ന‍"
      ],
      [
        "മ",
        "ട"
      ],
      [
        "മ",
        "ഡ"
      ],
      [
        "മയ",
        "രനന"
      ],
      [
        "ഏററ",
        "വ"
      ],
      [
        "ഫ",
        "ല"
      ],
      [
        "പ",
        "ഴ"
      ],
      [
        "പരവര‍",
        "തത"
      ],
      [
        "യ",
        "തര"
      ],
      [
        "ക",
        "നന"
      ],
      [
        "മ",
        "ധയ"
      ],
      [
        "വ",
        "വര"
      ],
      [
        "ആ",
        "യ"
      ],
      [
        "കക",
        "ടട"
      ],
      [
        "ക",
        "ലല"
      ],
      [
        "ഗ",
        "ണ"
      ],
      [
        "ഉ",
        "യ"
      ],
      [
        "ര",
        "ഷട"
      ],
      [
        "കള",
        "ൽ"
      ],
      [
        "അറയ",
        "ചച"
      ],
      [
        "പറയ",
        "നന"
      ],
      [
        "തര",
        "വനനത"
      ],
      [
        "ശ",
        "ന"
      ],
      [
        "തരവനനത",
        "പര"
      ],
      [
        "കക",
        "ള‍"
      ],
      [
        "ഇ",
        "ര"
      ],
      [
        "കഴ",
        "യ"
      ],
      [
        "ശര",
        "മ"
      ],
      [
        "തരഞഞ",
        "ടപപ"
      ],
      [
        "ങങ",
        "ന"
      ],
      [
        "പര",
        "ദശ"
      ],
      [
        "ത",
        "ള"
      ],
      [
        "തതയ",
        "ത"
      ],
      [
        "കടട",
        "യ"
      ],
      [
        "നട",
        "നന"
      ],
      [
        "ടട",
        "റ"
      ],
      [
        "പരസ",
        "ഡ"
      ],
      [
        "ഗ",
        "ല"
      ],
      [
        "നയ",
        "മ"
      ],
      [
        "വ",
        "മയ"
      ],
      [
        "പര",
        "വർ"
      ],
      [
        "ത",
        "ടട"
      ],
      [
        "ക",
        "മമ"
      ],
      [
        "ദ",
        "ര‍"
      ],
      [
        "ചയ",
        "തത"
      ],
      [
        "മര",
        "ണ"
      ],
      [
        "ആശ",
        "പതര"
      ],
      [
        "സര‍കക",
        "ര‍"
      ],
      [
        "ദശ",
        "യ"
      ],
      [
        "ങങള",
        "ൽ"
      ],
      [
        "ആ",
        "ണ"
      ],
      [
        "തട",
        "ര‍നന"
      ],
      [
        "20",
        "1"
      ],
      [
        "ൻ",
        "റ"
      ],
      [
        "പ",
        "ഠ"
      ],
      [
        "സഥ",
        "ര"
      ],
      [
        "കട",
        "തത"
      ],
      [
        "കക",
        "മനന"
      ],
      [
        "ദയ",
        "ഗ"
      ],
      [
        "പ",
        "ങ"
      ],
      [
        "മ",
        "റയ"
      ],
      [
        "മ",
        "തത"
      ],
      [
        "ല",
        "തത"
      ],
      [
        "യ",
        "റ"
      ],
      [
        "ര‍",
        "ചച"
      ],
      [
        "കയ",
        "യരനന"
      ],
      [
        "കറ",
        "ചച"
      ],
      [
        "വര‍",
        "കക"
      ],
      [
        "ര",
        "കഷ"
      ],
      [
        "അന",
        "വഷണ"
      ],
      [
        "മലയ",
        "ള"
      ],
      [
        "ഭ",
        "യ"
      ],
      [
        "ഭ",
        "വ"
      ],
      [
        "പ",
        "ദധ"
      ],
      [
        "തതല",
        "ണ"
      ],
      [
        "പര‍",
        "ടട"
      ],
      [
        "സമ",
        "ഹ"
      ],
      [
        "കൾ",
        "കക"
      ],
      [
        "കള",
        "യ"
      ],
      [
        "ന",
        "ണ"
      ],
      [
        "ററ",
        "റ"
      ],
      [
        "തട",
        "ങങയ"
      ],
      [
        "ന",
        "ളള"
      ],
      [
        "ആര",
        "ഗയ"
      ],
      [
        "സ",
        "ർകക"
      ],
      [
        "ത",
        "റ"
      ],
      [
        "പപ",
        "ൾ"
      ],
      [
        "ഭ",
        "രണ"
      ],
      [
        "കണ",
        "ണ"
      ],
      [
        "ത",
        "നറ"
      ],
      [
        "‌",
        "ന"
      ],
      [
        "ങക",
        "ല‍"
      ],
      [
        "ൻ",
        "സ"
      ],
      [
        "ആ",
        "ര‍"
      ],
      [
        "വക",
        "പപ"
      ],
      [
        "പപ",
        "റ"
      ],
      [
        "യ",
        "ളള"
      ],
      [
        "നതത",
        "വ"
      ],
      [
        "ര",
        "ഹ"
      ],
      [
        "എ",
        "നത"
      ],
      [
        "ചയയ",
        "നന"
      ],
      [
        "റ",
        "ഡ"
      ],
      [
        "ച",
        "രയ"
      ],
      [
        "യ",
        "ഗ"
      ],
      [
        "ഒ",
        "ഴ"
      ],
      [
        "എ",
        "ന‍"
      ],
      [
        "ബ",
        "ബ"
      ],
      [
        "അ",
        "ഞച"
      ],
      [
        "സ",
        "ല‍"
      ],
      [
        "ഇ",
        "തന"
      ],
      [
        "കര",
        "മ"
      ],
      [
        "ശ",
        "കത"
      ],
      [
        "തയ",
        "ട"
      ],
      [
        "ന",
        "ലല"
      ],
      [
        "അ",
        "തന"
      ],
      [
        "വയകത",
        "മകക"
      ],
      [
        "ക",
        "ശ"
      ],
      [
        "ങങൾ",
        "കക"
      ],
      [
        "ഷ",
        "ധ"
      ],
      [
        "കള",
        "ണ"
      ],
      [
        "സഹ",
        "യ"
      ],
      [
        "ര‍",
        "തഥ"
      ],
      [
        "കര",
        "മണ"
      ],
      [
        "പ",
        "നത"
      ],
      [
        "അ",
        "പ"
      ],
      [
        "1",
        "0"
      ],
      [
        "ഭ",
        "ര"
      ],
      [
        "റപപ",
        "ര‍ടട"
      ],
      [
        "ക",
        "ൺ"
      ],
      [
        "ശ",
        "ത"
      ],
      [
        "ചച",
        "രനന"
      ],
      [
        "കക",
        "രയ"
      ],
      [
        "മത",
        "സര"
      ],
      [
        "വ",
        "ൽ"
      ],
      [
        "വ",
        "ത"
      ],
      [
        "സര",
        "കഷ"
      ],
      [
        "മ",
        "മപ"
      ],
      [
        "വ",
        "കക"
      ],
      [
        "പര",
        "ഖയ"
      ],
      [
        "ഷ",
        "ന"
      ],
      [
        "സ",
        "ർ"
      ],
      [
        "എ",
        "ല‍"
      ],
      [
        "ധ",
        "ര"
      ],
      [
        "മധയ",
        "മ"
      ],
      [
        "ഉ",
        "തതര"
      ],
      [
        "മ",
        "ദ"
      ],
      [
        "ബജ",
        "പ"
      ],
      [
        "ബ",
        "ര‍"
      ],
      [
        "പ",
        "ററ"
      ],
      [
        "കക",
        "ല‍"
      ],
      [
        "രഷട",
        "രയ"
      ],
      [
        "ക",
        "ഞഞ"
      ],
      [
        "ഗ",
        "ള"
      ],
      [
        "വവ",
        "ഹ"
      ],
      [
        "പപട",
        "നന"
      ],
      [
        "അ",
        "ധയ"
      ],
      [
        "ങക",
        "ൽ"
      ],
      [
        "ഡ",
        "ല‍"
      ],
      [
        "അറ",
        "സററ"
      ],
      [
        "തട",
        "ങങ"
      ],
      [
        "മ",
        "ബ"
      ],
      [
        "സവ",
        "ധന"
      ],
      [
        "ത",
        "മസ"
      ],
      [
        "വര",
        "നന"
      ],
      [
        "അവ",
        "സന"
      ],
      [
        "വഹ",
        "ന"
      ],
      [
        "ഷ",
        "ൻ"
      ],
      [
        "ത",
        "ണ"
      ],
      [
        "പ",
        "സററ"
      ],
      [
        "ഡ",
        "ല"
      ],
      [
        "പരസഡ",
        "നറ"
      ],
      [
        "ര",
        "നനത"
      ],
      [
        "ർ",
        "തത"
      ],
      [
        "ന",
        "വ"
      ],
      [
        "ആര",
        "ഭ"
      ],
      [
        "കണ‍",
        "ഗരസ"
      ],
      [
        "പര",
        "കഷ"
      ],
      [
        "ശത",
        "മന"
      ],
      [
        "ല",
        "ഗ"
      ],
      [
        "ക",
        "തയ"
      ],
      [
        "വ",
        "ററ"
      ],
      [
        "മത",
        "ല‍"
      ],
      [
        "സവ",
        "ദശ"
      ],
      [
        "ർ",
        "ടട"
      ],
      [
        "വർ",
        "ഷ"
      ],
      [
        "രഗ",
        "തത"
      ],
      [
        "വ",
        "ഭഗ"
      ],
      [
        "എനന",
        "ൽ"
      ],
      [
        "ഉ",
        "പ"
      ],
      [
        "സകര",
        "ടടറ"
      ],
      [
        "സഹ",
        "ചരയ"
      ],
      [
        "ണട",
        "യ"
      ],
      [
        "മനന",
        "ണ"
      ],
      [
        "സ",
        "ധയ"
      ],
      [
        "ടട",
        "ലല"
      ],
      [
        "വ",
        "മന"
      ],
      [
        "ആവശയ",
        "പപടട"
      ],
      [
        "സ",
        "ഫ"
      ],
      [
        "ന",
        "ലയ"
      ],
      [
        "ത",
        "കക"
      ],
      [
        "മര",
        "ചച"
      ],
      [
        "ആ",
        "റ"
      ],
      [
        "ഉ",
        "ദയഗ"
      ],
      [
        "അട",
        "തത"
      ],
      [
        "ച",
        "ദയ"
      ],
      [
        "ല",
        "ട"
      ],
      [
        "നനത",
        "ന"
      ],
      [
        "വ",
        "ലല"
      ],
      [
        "വര",
        "ണ"
      ],
      [
        "ബനധ",
        "ചച"
      ],
      [
        "സ",
        "ഗ"
      ],
      [
        "1",
        "5"
      ],
      [
        "വശ",
        "വസ"
      ],
      [
        "പ",
        "തത"
      ],
      [
        "ഇ",
        "റ"
      ],
      [
        "മണ",
        "നന"
      ],
      [
        "ല",
        "ളള"
      ],
      [
        "ഉ",
        "ദ"
      ],
      [
        "ജ",
        "നറ"
      ],
      [
        "ബനധ",
        "പപടട"
      ],
      [
        "പര",
        "മ"
      ],
      [
        "സ",
        "മര"
      ],
      [
        "പ",
        "ള"
      ],
      [
        "തത",
        "ക"
      ],
      [
        "മ",
        "ല‍"
      ],
      [
        "സ",
        "നറ"
      ],
      [
        "ഇ",
        "തതര"
      ],
      [
        "മപ",
        "ള‍"
      ],
      [
        "ഇ",
        "വട"
      ],
      [
        "ഉ",
        "ള‍"
      ],
      [
        "സവ",
        "നത"
      ],
      [
        "രജയ",
        "തത"
      ],
      [
        "പപട",
        "തതയ"
      ],
      [
        "ല",
        "ന"
      ],
      [
        "വവ",
        "ധ"
      ],
      [
        "വര",
        "യ"
      ],
      [
        "ആ",
        "ള"
      ],
      [
        "കകണ",
        "മനന"
      ],
      [
        "ര‍",
        "ഥ"
      ],
      [
        "ക",
        "ഥ"
      ],
      [
        "പ",
        "ളള"
      ],
      [
        "3",
        "0"
      ],
      [
        "ത",
        "വ"
      ],
      [
        "ഉ",
        "ട"
      ],
      [
        "കക",
        "ര‍"
      ],
      [
        "പരശ",
        "ധ"
      ],
      [
        "കട",
        "യ"
      ],
      [
        "പനന",
        "ട"
      ],
      [
        "ക",
        "‌സ"
      ],
      [
        "കടത",
        "ല‍"
      ],
      [
        "അ",
        "യ"
      ],
      [
        "തയ",
        "ല‍"
      ],
      [
        "നയ",
        "ട"
      ],
      [
        "ന",
        "ററ"
      ],
      [
        "ന",
        "മമ"
      ],
      [
        "വ",
        "നറ"
      ],
      [
        "രകക",
        "കയണ"
      ],
      [
        "നൽ",
        "ക"
      ],
      [
        "പരത",
        "ഷധ"
      ],
      [
        "നര",
        "വധ"
      ],
      [
        "ര‍",
        "ജ"
      ],
      [
        "ജ",
        "വന"
      ],
      [
        "അമ",
        "രകക"
      ],
      [
        "സ",
        "മമ"
      ],
      [
        "ന‍",
        "ഡ"
      ],
      [
        "ന",
        "ശ"
      ],
      [
        "നര",
        "തത"
      ],
      [
        "ച",
        "ട"
      ],
      [
        "ല",
        "ള"
      ],
      [
        "ച",
        "കത"
      ],
      [
        "1",
        "2"
      ],
      [
        "എ",
        "നനത"
      ],
      [
        "ബ",
        "സ"
      ],
      [
        "ഇനതയ",
        "ന‍"
      ],
      [
        "ഇ",
        "ലല"
      ],
      [
        "പര",
        "വശ"
      ],
      [
        "അ",
        "ലല"
      ],
      [
        "എ",
        "ണണ"
      ],
      [
        "ബ",
        "കക"
      ],
      [
        "ഷ",
        "ക"
      ],
      [
        "ര",
        "ഖ"
      ],
      [
        "ര",
        "മ"
      ],
      [
        "കട",
        "നന"
      ],
      [
        "കര",
        "ട"
      ],
      [
        "വ",
        "ൻ"
      ],
      [
        "പ",
        "കക"
      ],
      [
        "ആ",
        "ല"
      ],
      [
        "മയ",
        "ണ"
      ],
      [
        "ക",
        "പപ"
      ],
      [
        "ന",
        "ഷട"
      ],
      [
        "പരധന",
        "മനതര"
      ],
      [
        "ച",
        "ണട"
      ],
      [
        "ലഭ",
        "ചച"
      ],
      [
        "ച",
        "നന"
      ],
      [
        "നയ",
        "നതര"
      ],
      [
        "കകറ",
        "ചച"
      ],
      [
        "സ",
        "പര"
      ],
      [
        "ന",
        "ദ"
      ],
      [
        "വ",
        "ഗ"
      ],
      [
        "നന",
        "ണ"
      ],
      [
        "യ",
        "മയ"
      ],
      [
        "പട",
        "ചച"
      ],
      [
        "നൽ",
        "കയ"
      ],
      [
        "00",
        "0"
      ],
      [
        "മക",
        "ചച"
      ],
      [
        "ന",
        "ദര"
      ],
      [
        "സന",
        "മ"
      ],
      [
        "ഗര",
        "ഹ"
      ],
      [
        "എ",
        "ഴ"
      ],
      [
        "മമ",
        "ദ"
      ],
      [
        "ണ",
        "മനന"
      ],
      [
        "ബ",
        "ഹ"
      ],
      [
        "പരവര‍",
        "തതന"
      ],
      [
        "സ",
        "കഷ"
      ],
      [
        "കകനനത",
        "ന"
      ],
      [
        "പര",
        "ച"
      ],
      [
        "അ",
        "ല"
      ],
      [
        "ബ",
        "യ"
      ],
      [
        "തതല",
        "കക"
      ],
      [
        "അന",
        "വദ"
      ],
      [
        "ന",
        "ഗര"
      ],
      [
        "തത",
        "കക"
      ],
      [
        "വർ",
        "കക"
      ],
      [
        "ഭ",
        "രയ"
      ],
      [
        "റ",
        "ണ"
      ],
      [
        "നയ",
        "യ"
      ],
      [
        "സര‍കക",
        "ര"
      ],
      [
        "വ",
        "ങങ"
      ],
      [
        "ക",
        "ലയ"
      ],
      [
        "ശ",
        "ച"
      ],
      [
        "പപ",
        "കക"
      ],
      [
        "സര",
        "ചച"
      ],
      [
        "സന",
        "മയ"
      ],
      [
        "വള",
        "ര"
      ],
      [
        "ക",
        "മ"
      ],
      [
        "സ",
        "ബനധചച"
      ],
      [
        "ദ",
        "ധയ"
      ],
      [
        "എനന",
        "ണ"
      ],
      [
        "അത",
        "സമയ"
      ],
      [
        "വഷ",
        "യ"
      ],
      [
        "തതല",
        "ളള"
      ],
      [
        "ഘ",
        "ടന"
      ],
      [
        "കണ",
        "കക"
      ],
      [
        "ർ",
        "തഥ"
      ],
      [
        "ച",
        "ര‍ചച"
      ],
      [
        "ങങള",
        "ണ"
      ],
      [
        "സ",
        "ജ"
      ],
      [
        "പര",
        "മയ"
      ],
      [
        "ദ",
        "ദശ"
      ],
      [
        "സസഥന",
        "തത"
      ],
      [
        "ല",
        "ല‍"
      ],
      [
        "ല",
        "ററ"
      ],
      [
        "ഇ",
        "പപള‍"
      ],
      [
        "അ",
        "വര‍"
      ],
      [
        "പരത",
        "കഷ"
      ],
      [
        "പരതയ",
        "ക"
      ],
      [
        "പദധ",
        "ത"
      ],
      [
        "ർ",
        "ചച"
      ],
      [
        "ഡല‍",
        "ഹ"
      ],
      [
        "ദ",
        "ർ"
      ],
      [
        "ഘ",
        "ടട"
      ],
      [
        "ൻ",
        "ഡ"
      ],
      [
        "അ",
        "ര"
      ],
      [
        "ന",
        "ള"
      ],
      [
        "അപ",
        "കട"
      ],
      [
        "ഉ",
        "റപപ"
      ],
      [
        "ഗ",
        "ന"
      ],
      [
        "പ",
        "ങക"
      ],
      [
        "ങങള",
        "യ"
      ],
      [
        "മററ",
        "ര"
      ],
      [
        "കള",
        "ജ"
      ],
      [
        "റ",
        "സ"
      ],
      [
        "ശ",
        "യ"
      ],
      [
        "പ",
        "ഞ"
      ],
      [
        "ഭ",
        "കഷണ"
      ],
      [
        "ഒ",
        "രകക"
      ],
      [
        "സ",
        "തയ"
      ],
      [
        "പ",
        "ര‍കക"
      ],
      [
        "നറ",
        "യ"
      ],
      [
        "വ",
        "ഡയ"
      ],
      [
        "മ",
        "ദയ"
      ],
      [
        "സർകക",
        "ർ"
      ],
      [
        "മഖ",
        "ലയ"
      ],
      [
        "എനന",
        "വയ"
      ],
      [
        "കല",
        "തത"
      ],
      [
        "ദ",
        "ഹ"
      ],
      [
        "റ",
        "ല"
      ],
      [
        "ചകത",
        "സ"
      ],
      [
        "ഇ",
        "യ"
      ],
      [
        "ശ",
        "ഖ"
      ],
      [
        "ലയ",
        "രനന"
      ],
      [
        "പറയ",
        "നനത"
      ],
      [
        "മത",
        "ൽ"
      ],
      [
        "വള",
        "ചച"
      ],
      [
        "ക",
        "റയ"
      ],
      [
        "ന",
        "മ"
      ],
      [
        "പ",
        "ഡ"
      ],
      [
        "വ",
        "ദശ"
      ],
      [
        "കണട",
        "തത"
      ],
      [
        "ര",
        "വല"
      ],
      [
        "നയ",
        "ണ"
      ],
      [
        "എ",
        "തതയ"
      ],
      [
        "ഫ",
        "ര"
      ],
      [
        "1",
        "1"
      ],
      [
        "മന",
        "സ"
      ],
      [
        "ച",
        "ദ"
      ],
      [
        "മ",
        "തയ"
      ],
      [
        "ത",
        "ററ"
      ],
      [
        "അ",
        "നന"
      ],
      [
        "ള",
        "ന"
      ],
      [
        "ശര",
        "ര"
      ],
      [
        "ചയയ",
        "നനത"
      ],
      [
        "വ",
        "സഥ"
      ],
      [
        "തട",
        "ർനന"
      ],
      [
        "ഉ",
        "ളള"
      ],
      [
        "നട",
        "യ"
      ],
      [
        "ആര",
        "പണ"
      ],
      [
        "കട",
        "ര‍"
      ],
      [
        "ര",
        "തര"
      ],
      [
        "5",
        "0"
      ],
      [
        "അ",
        "വരട"
      ],
      [
        "കക",
        "ൾ"
      ],
      [
        "സ",
        "ഷ"
      ],
      [
        "ന",
        "ങങളട"
      ],
      [
        "പര",
        "പട"
      ],
      [
        "വര‍",
        "തത"
      ],
      [
        "ഏ",
        "റ"
      ],
      [
        "ആ",
        "ത"
      ],
      [
        "ക",
        "ന‍"
      ],
      [
        "​",
        "​"
      ],
      [
        "ക",
        "മയ"
      ],
      [
        "കക",
        "തര"
      ],
      [
        "കകനന",
        "ണട"
      ],
      [
        "സഥ",
        "പന"
      ],
      [
        "പരവർ",
        "തത"
      ],
      [
        "ലകഷ",
        "യ"
      ],
      [
        "വക",
        "ശ"
      ],
      [
        "തര",
        "ണ"
      ],
      [
        "കമമ",
        "ററ"
      ],
      [
        "മ",
        "ചച"
      ],
      [
        "ന",
        "ഗ"
      ],
      [
        "വ",
        "ലകക"
      ],
      [
        "പര",
        "കട"
      ],
      [
        "നത",
        "വ"
      ],
      [
        "ക",
        "മറ"
      ],
      [
        "ആ",
        "ർ"
      ],
      [
        "പണ",
        "‍"
      ],
      [
        "സ",
        "ൽ"
      ],
      [
        "കടത",
        "ൽ"
      ],
      [
        "സഥ",
        "ല"
      ],
      [
        "നല",
        "പട"
      ],
      [
        "പപ",
        "ന"
      ],
      [
        "എ",
        "നറ"
      ],
      [
        "അ",
        "ബദ"
      ],
      [
        "സ",
        "റ"
      ],
      [
        "മണ",
        "ഡല"
      ],
      [
        "ഞ",
        "ന‍"
      ],
      [
        "ധ",
        "ക"
      ],
      [
        "1",
        "8"
      ],
      [
        "പ",
        "കര"
      ],
      [
        "അധയ",
        "കഷ"
      ],
      [
        "ക",
        "‌"
      ],
      [
        "മപ",
        "ൾ"
      ],
      [
        "ഉപയഗ",
        "ചച"
      ],
      [
        "കകന",
        "ളള"
      ],
      [
        "ക",
        "ല‍"
      ],
      [
        "യ",
        "നന"
      ],
      [
        "എ",
        "ൻ"
      ],
      [
        "ത",
        "ശ"
      ],
      [
        "പരശ",
        "ധന"
      ],
      [
        "ച",
        "റ"
      ],
      [
        "ശര",
        "ദധ"
      ],
      [
        "പര",
        "ഗണ"
      ],
      [
        "സന",
        "ത"
      ],
      [
        "കഷ",
        "തര"
      ],
      [
        "നട",
        "പപ"
      ],
      [
        "പർ",
        "ടട"
      ],
      [
        "കട",
        "കക"
      ],
      [
        "ബ",
        "ർ"
      ],
      [
        "സവ",
        "കര"
      ],
      [
        "അട",
        "സഥന"
      ],
      [
        "കമപ",
        "ന"
      ],
      [
[...]
