<unk>	0
<s>	0
</s>	0
ന്	-0
se	-1
sep	-2
ക്	-3
ത്	-4
്‍	-5
▁പ	-6
ന്ന	-7
ക്ക	-8
ില	-9
▁ക	-10
ത്ത	-11
്ട	-12
▁സ	-13
▁വ	-14
ും	-15
ിയ	-16
▁മ	-17
▁ന	-18
ര്‍	-19
▁അ	-20
ച്	-21
പ്	-22
്ര	-23
്യ	-24
ുന്ന	-25
ങ്	-26
ട്ട	-27
മാ	-28
റ്	-29
സ്	-30
▁ത	-31
ിക്ക	-32
ണ്	-33
പ്പ	-34
ച്ച	-35
ങ്ങ	-36
ിര	-37
ില്‍	-38
▁എ	-39
ണ്ട	-40
▁ഇ	-41
ിന്	-42
▁ച	-43
ടെ	-44
▁ആ	-45
ിച്ച	-46
ാണ്	-47
ായ	-48
ുക	-49
ന്‍	-50
റ്റ	-51
ിന	-52
▁പ്ര	-53
്ല	-54
ള്‍	-55
ിക	-56
ാര	-57
രു	-58
ിൽ	-59
ാന	-60
ല്‍	-61
▁ര	-62
െയ	-63
ത്ര	-64
യി	-65
ഞ്	-66
▁ബ	-67
▁വി	-68
്ള	-69
ള്ള	-70
ക്ക്	-71
റെ	-72
മ്	-73
▁സ്	-74
ുടെ	-75
▁ജ	-76
▁ഉ	-77
ടു	-78
ുന്നു	-79
ക്ഷ	-80
▁ഒ	-81
ന്ന്	-82
ുള്ള	-83
തി	-84
ങ്ങള	-85
▁ശ	-86
▁ല	-87
വി	-88
ദ്	-89
ഞ്ഞ	-90
െന്ന	-91
രി	-92
ിലെ	-93
▁എന്ന	-94
ാല	-95
ുവ	-96
▁നി	-97
▁സം	-98
ിന്റെ	-99
▁മു	-100
ില്ല	-101
പ്പെ	-102
ല്ല	-103
ാവ	-104
▁മാ	-105
ിവ	-106
ദേ	-107
▁കു	-108
▁കോ	-109
▁നട	-110
ണ്ട്	-111
മായ	-112
ങ്ക	-113
ടി	-114
▁ചെയ	-115
യാ	-116
▁റ	-117
ുന്നത്	-118
▁ഗ	-119
▁ഭ	-120
ാര്‍	-121
ാന്‍	-122
ാക്ക	-123
േഷ	-124
ുമ	-125
മ്പ	-126
ണം	-127
ിച്ചു	-128
ോഗ	-129
കര	-130
▁ദ	-131
െന്ന്	-132
▁പോ	-133
േര	-134
▁പു	-135
മ്മ	-136
▁ഒരു	-137
ച്ച്	-138
ായിര	-139
വാ	-140
ത്യ	-141
ത്ത്	-142
▁പറ	-143
▁ഫ	-144
▁കൊ	-145
ാം	-146
റ്റ്	-147
ുകയ	-148
▁പി	-149
ഡ്	-150
ങ്ങള്‍	-151
▁ഡ	-152
ന്ത	-153
ിട്ട	-154
ടുത്ത	-155
സി	-156
ത്തില്‍	-157
▁ഹ	-158
▁യ	-159
തു	-160
തിയ	-161
▁1	-162
സ്ഥ	-163
ുകള	-164
ട്	-165
ംഗ	-166
▁തു	-167
▁അവ	-168
▁രാ	-169
ദ്യ	-170
ത്തെ	-171
രാ	-172
ുന്നത	-173
റിയ	-174
▁കൂ	-175
ിപ്പ	-176
നം	-177
ുമാ	-178
യ്	-179
ന്ത്ര	-180
ികള	-181
▁ഏ	-182
ദേശ	-183
ന്ദ	-184
▁ഓ	-185
▁കാ	-186
..	-187
▁2	-188
▁സാ	-189
▁ട	-190
ത്തിയ	-191
പി	-192
▁നേ	-193
ന്നു	-194
ിനെ	-195
കൾ	-196
▁ഈ	-197
ിച്ച്	-198
്യാ	-199
ണ്‍	-200
രം	-201
ഴ്	-202
▁കേ	-203
തിര	-204
ട്ട്	-205
▁തുട	-206
ദ്ധ	-207
വര്‍	-208
ക്ര	-209
ങ്ങൾ	-210
▁സി	-211
ാൻ	-212
ശ്	-213
റി	-214
▁വാ	-215
ത്തില	-216
ന്ധ	-217
മാണ്	-218
▁വീ	-219
മു	-220
യില്‍	-221
▁തിര	-222
ടിയ	-223
▁കഴ	-224
▁ചെയ്	-225
▁സ്വ	-226
നി	-227
പ്ര	-228
▁പരി	-229
▁സമ	-230
▁വെ	-231
ാമ	-232
ാല്‍	-233
▁സ്ഥ	-234
ാക	-235
ത്തി	-236
രെ	-237
പ്പെട്ട	-238
പ്പോ	-239
▁ഇത	-240
▁പറഞ്ഞ	-241
സ്റ്റ	-242
ര്‍ക്ക	-243
ാത	-244
ീകര	-245
ാര്യ	-246
ിനി	-247
▁അത	-248
യം	-249
▁ചെയ്യ	-250
ിരിക്ക	-251
▁അന	-252
▁സു	-253
ാഗ	-254
ട്ടി	-255
കള	-256
ുണ്ട്	-257
ീസ്	-258
▁ഇന്	-259
ന്ദ്ര	-260
െങ്ക	-261
സം	-262
ക്ത	-263
ക്കു	-264
▁പൊ	-265
ല്‍ക	-266
സ്ഥാന	-267
ഞ്ച	-268
ിലേ	-269
ാർ	-270
ുകള്‍	-271
▁രാജ	-272
െടു	-273
▁സെ	-274
േണ്ട	-275
പ്പ്	-276
ുപ	-277
ഫ്	-278
▁നല്‍ക	-279
ണി	-280
ഷ്ട	-281
ോടെ	-282
ഷ്	-283
▁ഇന്ത്യ	-284
്യമ	-285
വര	-286
ന്റെ	-287
▁വ്യ	-288
▁ശ്ര	-289
ണമ	-290
ന്നെ	-291
മാന	-292
ികള്‍	-293
ിച്ചത്	-294
മി	-295
▁തീ	-296
▁പോല	-297
ിന്‍	-298
00	-299
ിയത്	-300
▁കെ	-301
കു	-302
▁ക്	-303
ുണ്ട	-304
▁ബി	-305
▁(	-306
ന്ത്രി	-307
ജി	-308
ജ്	-309
നാ	-310
▁നില	-311
ദേഹ	-312
ിഞ്ഞ	-313
ക്കി	-314
ലി	-315
താ	-316
വ്	-317
ൂര്‍	-318
▁ഷ	-319
ോധ	-320
▁ഉപ	-321
യാണ്	-322
▁മൂ	-323
ശ്യ	-324
▁പറഞ്ഞു	-325
ാട	-326
▁നിയ	-327
ിന്ന്	-328
ോള	-329
ൂപ	-330
പ്പെടുത്ത	-331
ഗ്ര	-332
റ്റി	-333
ോട്ട	-334
ഡി	-335
▁തെ	-336
▁ബാ	-337
വർ	-338
ീയ	-339
യില	-340
ണ്ണ	-341
ത്സ	-342
ധാന	-343
ത്തു	-344
ിത്ര	-345
ോര്‍	-346
ഭവ	-347
▁ആര	-348
▁പുറ	-349
▁കുറ	-350
ീസ	-351
▁പെ	-352
▁മര	-353
ിനു	-354
▁.	-355
▁നിര	-356
ാത്ത	-357
▁കണ്ട	-358
▁നിന്ന	-359
ദ്ദേഹ	-360
▁ജന	-361
▁രൂപ	-362
ാണ	-363
ബ്	-364
▁ലോ	-365
▁എന്നിവ	-366
▁പറയ	-367
േഖ	-368
േരള	-369
ാൽ	-370
നെ	-371
ോട്	-372
▁നിര്‍	-373
▁പേ	-374
എസ്	-375
▁നേത	-376
വേ	-377
▁പ്രതി	-378
▁അറിയ	-379
▁സംഘ	-380
▁ലഭ	-381
▁വൈ	-382
▁പര	-383
▁സഹ	-384
ധി	-385
▁മോ	-386
▁കേരള	-387
യിലെ	-388
▁എം	-389
▁വര	-390
ളി	-391
▁ജോ	-392
ങ്ങിയ	-393
ാരം	-394
▁ചിത്ര	-395
▁അദ്ദേഹ	-396
്യാപ	-397
▁കഴിഞ്ഞ	-398
▁തന്നെ	-399
▁അധ	-400
▁ജീ	-401
▁ഉണ്ട	-402
▁മാത്ര	-403
ലിയ	-404
▁സംസ്ഥാന	-405
പ്പെട	-406
▁വേ	-407
ിലേക്ക്	-408
ഴ്ച	-409
▁നടത്ത	-410
▁അഭ	-411
ന്യ	-412
ാതെ	-413
▁മുഖ	-414
ത്തിന	-415
ന്റ	-416
▁ആവ	-417
പു	-418
▁ഞ	-419
▁ട്ര	-420
യെ	-421
▁നാ	-422
ോട	-423
...	-424
▁രണ്ട	-425
▁20	-426
▁ജില്ല	-427
▁നിന്ന്	-428
ക്കെ	-429
▁മെ	-430
▁ആശ	-431
ക്കാ	-432
ൊരു	-433
▁നീ	-434
▁ഇട	-435
ന്റ്	-436
ത്വ	-437
ത്തിലെ	-438
വര്‍ത്ത	-439
▁ദിവ	-440
്യം	-441
ട്ടിയ	-442
ഹി	-443
ിട്ടുണ്ട്	-444
േയ	-445
▁കാണ	-446
▁മല	-447
▁കേന്ദ്ര	-448
▁പ്രത	-449
ാപ	-450
ൂടെ	-451
ക്കാര	-452
െങ്കില	-453
ര്‍ഷ	-454
▁3	-455
ുകയാണ്	-456
ൽക	-457
സ്റ്റ്	-458
▁ചെ	-459
െന്നാണ്	-460
ക്ട	-461
▁ഐ	-462
▁പാ	-463
▁മന	-464
രിക്ക	-465
കള്‍	-466
ിയില്‍	-467
▁സാധ	-468
യോഗ	-469
വിഡ്	-470
▁പേര	-471
▁യു	-472
▁ആവശ്യ	-473
ടക്ക	-474
െയാണ്	-475
▁നൽക	-476
▁പിന്ന	-477
▁നിയമ	-478
ീക്ഷ	-479
▁ബന്ധ	-480
▁ആദ്യ	-481
സ്ത	-482
ബി	-483
യ്ക്ക്	-484
ക്രമ	-485
രണ	-486
▁സര്‍ക്ക	-487
ഡിയ	-488
▁എല്ല	-489
മ്പോ	-490
▁ഡി	-491
മാക്ക	-492
▁ചെയ്ത	-493
▁ഏറ്റ	-494
▁സംഭവ	-495
▁ശേഷ	-496
വേഷ	-497
തിരെ	-498
▁കാര	-499
ഷ്യ	-500
ൂർ	-501
ഗ്	-502
ിക്കുന്നത	-503
േറ്റ	-504
▁മുന്ന	-505
ജെ	-506
ത്ഥ	-507
യ്ക്ക	-508
റു	-509
▁വിജ	-510
▁രാജ്യ	-511
▁ലക്ഷ	-512
ലാ	-513
ോപ	-514
▁ധ	-515
▁പരാ	-516
▁കേസ	-517
▁കൈ	-518
ിക്കാന	-519
▁മറ്റ	-520
ങ്ങളില്‍	-521
▁വ്യക്ത	-522
ലം	-523
തല്‍	-524
▁കാര്യ	-525
െടുത്ത	-526
▁രോഗ	-527
▁ഇത്	-528
ിക്കുകയ	-529
▁കാല	-530
▁അപ	-531
▁സൂ	-532
▁പരിശ	-533
ുംബ	-534
▁പൊല	-535
▁കോട	-536
ണിയ	-537
▁യാ	-538
▁അദ്ദേഹം	-539
ഞ്ഞെടു	-540
▁അന്	-541
ിച്ചിര	-542
ദി	-543
ിക്കാന്‍	-544
▁പ്രവര്‍ത്ത	-545
പ്പു	-546
ക്ഷേ	-547
▁റിപ്പ	-548
എം	-549
പാ	-550
▁പങ്ക	-551
▁ചോ	-552
മേ	-553
▁പുതിയ	-554
▁കൂടു	-555
▁വില	-556
▁പ്രധാന	-557
സ്സ	-558
ിലാണ്	-559
▁യുവ	-560
▁ചേ	-561
▁കട	-562
മാണ	-563
▁സ്റ്റ	-564
ാവ്	-565
▁ഗ്ര	-566
പ്പോള്‍	-567
ഷ്ട്ര	-568
ൊഴ	-569
▁തോ	-570
െയ്	-571
▁സർ	-572
▁പല	-573
ബന്ധ	-574
▁നിർ	-575
▁ഉപയോഗ	-576
▁എന്നാല്‍	-577
▁വിദ്യ	-578
▁വള	-579
നത്ത	-580
▁ഭാഗ	-581
ത്തര	-582
ുമായ	-583
▁തീരു	-584
ൈന	-585
ിച്ചത	-586
▁പ്രസി	-587
യാള	-588
ര്യ	-589
▁ഒന്ന	-590
▁സിനി	-591
▁ചെയ്തു	-592
പ്പം	-593
▁അറ	-594
▁'	-595
നിയ	-596
▁നടത്തിയ	-597
ൃത	-598
▁തിരുവ	-599
▁5	-600
▁സൗ	-601
റാ	-602
കാ	-603
ോർ	-604
തയ	-605
▁എസ്	-606
▁മത്സ	-607
▁കുട	-608
വിധ	-609
▁അന്വേഷ	-610
രിയ	-611
രുടെ	-612
ീപ	-613
▁4	-614
ര്‍ത്ത	-615
ാള	-616
▁അത്	-617
▁നടപ	-618
▁മുഖ്യമ	-619
▁അനു	-620
▁എന്ന്	-621
▁ദു	-622
ൊണ്ട	-623
മാനം	-624
മുള്ള	-625
ിത	-626
ങ്ങളെ	-627
വിടെ	-628
ങ്ങി	-629
▁കണ്ടെ	-630
ിട	-631
രക്ഷ	-632
▁വീട്ട	-633
▁എത്ത	-634
ര്‍ന്ന	-635
ർഷ	-636
▁ഉയ	-637
ൂര	-638
മെ	-639
▁റോ	-640
▁ചില	-641
ാസ	-642
ര്‍ശ	-643
▁അവസ	-644
ണമെന്ന	-645
ലെ	-646
▁കഴിയ	-647
ിലൂടെ	-648
▁ഡോ	-649
ടുക്ക	-650
▁വഴ	-651
▁ശേഷം	-652
▁ലോക	-653
▁വിവാ	-654
ിയെ	-655
ാറ	-656
▁ജീവ	-657
▁ന്യ	-658
്യൂ	-659
ന്തപു	-660
▁വേണ്ട	-661
മാര	-662
▁ആയ	-663
▁വന്ന	-664
വാസ	-665
▁കോണ്‍	-666
▁അധിക	-667
ഭാഗ	-668
ംഗ്	-669
▁സ്ഥാന	-670
▁ശ്രമ	-671
പ്പോഴ	-672
▁ഗു	-673
ാക്കി	-674
ര്‍ച്ച	-675
നന്തപു	-676
▁പാര്‍	-677
▁മേ	-678
▁വലിയ	-679
▁കമ്മ	-680
ംബ	-681
▁ഏറ്റവ	-682
െടുക്ക	-683
▁നടന്ന	-684
വർത്ത	-685
▁തിരുവനന്തപു	-686
▁ക്ര	-687
▁അംഗ	-688
കെ	-689
ാസ്	-690
ോണ	-691
ഴു	-692
▁നേര	-693
▁201	-694
▁19	-695
ൂഹ	-696
തിന	-697
ുപത്ര	-698
▁പ്രസിഡ	-699
കട	-700
▁മറ	-701
▁പരിശോധ	-702
ീഷ	-703
▁നടക്ക	-704
ര്‍ന്ന്	-705
വിത	-706
▁മന്ത്രി	-707
േക്ക്	-708
ുമാണ്	-709
▁കൂട്ട	-710
ക്രട്ട	-711
താണ്	-712
▁സിനിമ	-713
▁ആശുപത്ര	-714
ോഗ്യ	-715
▁പോലീസ്	-716
▁നാല	-717
▁വര്‍ഷ	-718
ഭാ	-719
▁കൊണ്ട	-720
ുമെന്ന	-721
▁മാറ്റ	-722
▁സഹായ	-723
▁വിശ	-724
ർത്ത	-725
▁മുന്‍	-726
▁കള	-727
നയ	-728
ാരണ	-729
ാക്കിയ	-730
▁തുടങ്ങിയ	-731
ോഷ	-732
ീറ്റ	-733
ുന്നില്ല	-734
ണിക്ക	-735
▁വിജയ	-736
▁നല്‍കിയ	-737
ീര	-738
▁വയ	-739
ുമെന്ന്	-740
▁സെക്രട്ട	-741
ദ്യോഗ	-742
▁വെള്ള	-743
മുണ്ട	-744
▁തല	-745
▁പാല	-746
ുകയായിര	-747
▁രണ്ട്	-748
സമ	-749
▁പൊലീസ്	-750
▁ന്യൂ	-751
▁നേതൃ	-752
കൊ	-753
▁കോവിഡ്	-754
▁യൂ	-755
തര	-756
തല	-757
▁കോണ്‍ഗ്ര	-758
ുകാര	-759
▁ഇന്ന്	-760
മ്പ്	-761
നായ	-762
▁കി	-763
▁പദ്ധ	-764
▁അഭി	-765
▁അമ	-766
▁സര്‍ക്കാര്‍	-767
ൊപ്പം	-768
▁ബിജെ	-769
ികളെ	-770
▁ദിവസ	-771
▁ഖ	-772
കൂ	-773
▁കുടുംബ	-774
ീന	-775
ിരു	-776
കം	-777
ാനുള്ള	-778
▁വരെ	-779
▁നേതൃത്വ	-780
▁തട	-781
രംഭ	-782
ഞ്ച്	-783
ിക്കാൻ	-784
ത്തിലാണ്	-785
ര്‍ക്ക്	-786
▁കൃ	-787
▁അട	-788
മാക്കി	-789
▁ടെ	-790
ബു	-791
ിലുള്ള	-792
ട്ടു	-793
▁യാത്ര	-794
പോ	-795
▁ബ്ര	-796
േക്ക	-797
▁പറയു	-798
ന്തര	-799
ക്കുറ	-800
▁ഓഫ	-801
▁‘	-802
േക്ഷ	-803
ഷേ	-804
ിന്‍റെ	-805
▁തിരുവനന്തപുരം	-806
▁പ്രത്യ	-807
▁ഉറ	-808
ളം	-809
▁ഹൈ	-810
▁ഇരു	-811
സാ	-812
▁നോ	-813
▁എന്ത	-814
പ്പോൾ	-815
ിക്കു	-816
▁എല്ലാ	-817
▁സോ	-818
പക്ഷ	-819
▁രാഷ്ട്ര	-820
▁കണ്ണ	-821
ർക്ക	-822
ായ്	-823
▁തെര	-824
▁വിള	-825
▁റിപ്പോര്‍	-826
േഖല	-827
▁തീരുമാന	-828
ച്ചു	-829
▁സ്വദേശ	-830
▁ആരോപ	-831
▁ഒഴ	-832
ണക്ക	-833
ിക്കുക	-834
ീം	-835
ീല	-836
കാർ	-837
▁കോള	-838
▁6	-839
ധ്യമ	-840
മായിര	-841
ല്ലാം	-842
▁കല	-843
ദ്ദ	-844
▁ടി	-845
▁പിട	-846
ുന്നുണ്ട്	-847
ിട്ടില്ല	-848
),	-849
ഹ്	-850
▁-	-851
▁ആണ്	-852
▁തിരിച്ച	-853
▁ഇന്ന	-854
മാക	-855
▁അതി	-856
▁ലി	-857
ണത്ത	-858
ിന്റ	-859
▁പ്രവർത്ത	-860
▁താ	-861
ഷ്ണ	-862
ഖ്യാപ	-863
▁വിഷ	-864
വുമാ	-865
▁ജി	-866
ുകളില്‍	-867
ഷേധ	-868
ബാ	-869
▁ഇവ	-870
▁മി	-871
രിപ്പ	-872
▁വരു	-873
▁പഠ	-874
▁മുഖ്യമന്ത്രി	-875
പ്പെട്ടു	-876
ങ്ങള്‍ക്ക്	-877
ങ്ങനെ	-878
േന്ദ്ര	-879
ണമെന്ന്	-880
ാഴ്ച	-881
▁കുട്ട	-882
▁രംഗ	-883
▁താര	-884
▁കയ	-885
ണ്ഡ	-886
▁അവസാന	-887
▁പോക	-888
▁സ്ഥാപ	-889
കാര്യ	-890
ോയ	-891
▁ബാധ	-892
▁സ്ത്ര	-893
ായക	-894
▁പ്രഖ്യാപ	-895
▁മാന	-896
ുടെയ	-897
▁സാഹ	-898
വധി	-899
ജീ	-900
▁സ്വീകര	-901
▁കമ്പ	-902
▁ദിവസം	-903
ട്ര	-904
ങ്ങളില	-905
▁പഞ്ച	-906
ദു	-907
▁അടുത്ത	-908
▁മഹ	-909
▁ആരംഭ	-910
▁വാഹ	-911
െങ്കില്‍	-912
▁പ്രശ്	-913
▁,	-914
▁ആരോഗ്യ	-915
ോദ	-916
▁അതേ	-917
പെ	-918
ഞ്ഞ്	-919
മാര്‍	-920
കാര	-921
കാശ	-922
▁സ്ഥിര	-923
ിനാ	-924
▁ശത	-925
സാര	-926
▁ക്യാ	-927
▁സര്‍	-928
യാണ	-929
▁പ്രത്യേ	-930
മന്ത്രി	-931
ിനിടെ	-932
ീമ	-933
ൊന്ന	-934
▁സേ	-935
ശേഷ	-936
▁തന്റെ	-937
▁സ്വാ	-938
വേശ	-939
മല്ല	-940
ായത്	-941
തോടെ	-942
▁കരു	-943
▁ഭൂ	-944
▁7	-945
കൊണ്ട്	-946
▁നിലവ	-947
ിപ്പിക്ക	-948
ധിക	-949
▁മിക	-950
ശ്ച	-951
▁ശ്രദ്ധ	-952
മ്പോള്‍	-953
മുഖ	-954
ിയാണ്	-955
▁നേരി	-956
എഫ്	-957
▁സൈ	-958
▁വകു	-959
▁അടി	-960
▁ഉത്തര	-961
▁ജീവിത	-962
ാക്കള	-963
▁കോടതി	-964
വണ	-965
▁തെരഞ്ഞെടു	-966
▁സാഹച	-967
▁വാര്‍	-968
ുന്നുവ	-969
▁ഇല്ല	-970
▁മേഖല	-971
▁സെക്രട്ടറി	-972
▁ബു	-973
▁ജില്ലാ	-974
മാർ	-975
ദേശം	-976
▁വീണ്ട	-977
▁യോഗ	-978
നു	-979
▁ഉദ്യോഗ	-980
▁ഉട	-981
േഷ്	-982
ക്കള	-983
20	-984
▁തൊഴ	-985
▁ദേശ	-986
▁10	-987
ോമ	-988
സിയ	-989
ാര്‍ത്ഥ	-990
ക്കം	-991
▁അയ	-992
ക്കിയ	-993
▁ചോദ്യ	-994
▁ആക്രമ	-995
ൂല	-996
▁സമീപ	-997
യു	-998
▁പുറത്ത	-999
▁കൊല്ല	-1000
േഷന്‍	-1001
ിച്ചിരിക്ക	-1002
▁തുറ	-1003
▁എന്‍	-1004
▁ഉള്‍	-1005
ൂട്ട	-1006
▁മലയാള	-1007
000	-1008
നങ്ങള	-1009
ന്ത്രിയ	-1010
▁കൊച്ച	-1011
കര്‍	-1012
▁ലൈ	-1013
▁വര്‍	-1014
▁പിന്	-1015
▁കൂട	-1016
ോളം	-1017
▁ചിക	-1018
▁തന്ന	-1019
▁മാധ്യമ	-1020
▁വ്യാപ	-1021
ിക്കാ	-1022
ുള്ളത്	-1023
പ്പെടുത്തിയ	-1024
▁സ്ത്രീ	-1025
▁വിവിധ	-1026
േരിക്ക	-1027
ുകൊണ്ട	-1028
▁വിവര	-1029
▁ആള	-1030
▁സ്വന്ത	-1031
▁ബോ	-1032
തിയില്‍	-1033
റില്‍	-1034
ായിരിക്ക	-1035
▁കൂടി	-1036
▁മുതല്‍	-1037
▁പ്രത്യേക	-1038
▁പ്രച	-1039
സഭ	-1040
▁ഭരണ	-1041
ർന്ന	-1042
▁നല്ല	-1043
▁വിഭാഗ	-1044
▁നഗ	-1045
േറ്റ്	-1046
േഴ്	-1047
▁അല്ല	-1048
ലോ	-1049
▁ശക്ത	-1050
ഞ്ഞു	-1051
ടങ്ങ	-1052
▁കൂടുതല്‍	-1053
▁പൂ	-1054
▁കര	-1055
▁രക്ഷ	-1056
േരി	-1057
ിയിലെ	-1058
▁നാട്ട	-1059
▁വിശ്	-1060
▁ഘ	-1061
തം	-1062
▁ഉദ്യോഗസ്ഥ	-1063
▁മത്സര	-1064
▁പ്ല	-1065
▁തുടര്‍ന്ന്	-1066
▁മൂന്ന	-1067
പ്പെട്ട്	-1068
▁രാഷ്ട്രീയ	-1069
▁ഇത്ത	-1070
▁ഉള്ള	-1071
പര	-1072
വിധാന	-1073
▁ജയ	-1074
സര	-1075
▁ലഭിക്ക	-1076
ിത്സ	-1077
▁പ്രതിഷേധ	-1078
▁സാധ്യ	-1079
▁ഇന്ത്യന്‍	-1080
▁നെ	-1081
▁ചൂ	-1082
▁നിരവധി	-1083
▁ആര്‍	-1084
▁പ്രതിക	-1085
▁8	-1086
ിനെതിരെ	-1087
സര്‍	-1088
▁മാത്രം	-1089
▁അമ്മ	-1090
▁നമ്മ	-1091
▁തൃ	-1092
സു	-1093
ൾക്ക്	-1094
ത്മ	-1095
ടന	-1096
ുവര	-1097
▁മികച്ച	-1098
▁ബിജെപി	-1099
▁റി	-1100
ചന	-1101
്യക്ഷ	-1102
▁ഭക്ഷ	-1103
▁കൊവിഡ്	-1104
▁സംസാര	-1105
ദം	-1106
ഹമ്മ	-1107
ൂറ	-1108
▁നഷ്ട	-1109
▁അമേരിക്ക	-1110
▁സമ്മ	-1111
▁പിന്നീ	-1112
ടിപ്പ	-1113
കാല	-1114
ഹു	-1115
ില്ലെന്ന	-1116
▁ഇറ	-1117
ിക്	-1118
രോ	-1119
▁ചികിത്സ	-1120
▁നിറ	-1121
സമയം	-1122
ർച്ച	-1123
▁ശ്രീ	-1124
▁മുൻ	-1125
▁9	-1126
▁ഫോ	-1127
▁വിവാഹ	-1128
▁പൂര്‍	-1129
▁പട്ട	-1130
▁കുറ്റ	-1131
ർശ	-1132
▁മൂന്ന്	-1133
▁കണ്ടെത്ത	-1134
ന്‍സ്	-1135
▁അനുവ	-1136
ദ്ര	-1137
▁സുരക്ഷ	-1138
▁വിക	-1139
▁ഗോ	-1140
േത	-1141
▁കഥ	-1142
▁സംവിധാന	-1143
▁പ്രസിഡന്റ്	-1144
▁തയ	-1145
▁സാഹചര്യ	-1146
പാട	-1147
▁പ്രക	-1148
▁കൊണ്ട്	-1149
േജ	-1150
▁വർഷ	-1151
▁കോണ്‍ഗ്രസ്	-1152
▁കോൺ	-1153
▁പ്രവേശ	-1154
▁സംബന്ധ	-1155
ക്തി	-1156
ൊക്കെ	-1157
ങ്ങൾക്ക്	-1158
ുന്നതിന	-1159
ിയായ	-1160
നങ്ങള്‍	-1161
▁ദേശീയ	-1162
▁തെള	-1163
▁വിമാന	-1164
▁മീ	-1165
സില്‍	-1166
▁രണ്ടു	-1167
▁കൊല	-1168
▁നിയന്ത്ര	-1169
ാഭ	-1170
▁സമയ	-1171
▁ഉദ്	-1172
ങ്ക്	-1173
▁ഇവിടെ	-1174
ിതി	-1175
▁കോടി	-1176
▁തയ്യാ	-1177
ിച്ചിട്ടുണ്ട്	-1178
▁രാവ	-1179
▁ഇക്ക	-1180
നില്‍	-1181
ള്ളി	-1182
▁പിന്തു	-1183
ത്തോടെ	-1184
▁അപകട	-1185
▁പോയ	-1186
▁വിമ	-1187
ബ്ര	-1188
▁വിധ	-1189
▁വൈക	-1190
യായ	-1191
ോട്ട്	-1192
▁15	-1193
▁പാർ	-1194
ാജ	-1195
ർന്ന്	-1196
▁നടപടി	-1197
▁സര്‍ക്കാര	-1198
▁സ്ഥിരീകര	-1199
▁സീ	-1200
▁സ്ഥല	-1201
▁കീ	-1202
ടുവ	-1203
▁പ്രാ	-1204
▁ജീവന	-1205
ത്രി	-1206
വിട	-1207
ത്തിലുള്ള	-1208
▁:	-1209
▁പിന്നീട്	-1210
തിയെ	-1211
▁ഇപ്പോള്‍	-1212
▁തിരഞ്ഞെടു	-1213
ാര്‍ഥ	-1214
▁തേ	-1215
▁വ്യക്തമാക്കി	-1216
ഷി	-1217
െയുള്ള	-1218
▁പരിശോധന	-1219
▁ഭാര്യ	-1220
▁വളരെ	-1221
▁കമ്മി	-1222
▁രേഖ	-1223
▁വൈറ	-1224
▁കിട്ട	-1225
▁എത്തിയ	-1226
▁പ്രദേശ	-1227
▁മൊ	-1228
▁അതേസമയം	-1229
▁12	-1230
▁നേടിയ	-1231
▁ചെന്ന	-1232
▁പഞ്ചായ	-1233
▁കാരണം	-1234
▁അനുവദ	-1235
▁വാക്	-1236
ീഷ്	-1237
ിയാ	-1238
▁വഴി	-1239
ര്‍പ്പ	-1240
▁ലക്ഷം	-1241
പ്പെടെ	-1242
▁അഞ്ച	-1243
▁ഇന്ത്യയ	-1244
▁ലീ	-1245
യുള്ള	-1246
▁രീ	-1247
▁അഭിന	-1248
ാനം	-1249
▁എന്നാണ്	-1250
▁നഗര	-1251
ത്രം	-1252
▁ചിത്രം	-1253
ാരി	-1254
▁റെ	-1255
▁ബെ	-1256
▁കൂടുത	-1257
▁സാമ	-1258
▁പരീക്ഷ	-1259
പ്പി	-1260
▁മെഡ	-1261
▁ഒരാ	-1262
▁ചര്‍ച്ച	-1263
▁പരാതി	-1264
▁ചു	-1265
നിക്ക്	-1266
യിലാണ്	-1267
പ്പുറ	-1268
▁നിങ്ങള	-1269
എല്‍	-1270
▁സിപി	-1271
മ്പത്ത	-1272
റ്റിയ	-1273
▁മനു	-1274
▁വിദേശ	-1275
ക്ടര്‍	-1276
ിട്ട്	-1277
ശ്ര	-1278
▁റിപ്പോര്‍ട്ട്	-1279
വീ	-1280
▁സന്ദ	-1281
ിക്കറ്റ്	-1282
സില	-1283
മില്ല	-1284
ഗ്രഹ	-1285
▁എക്	-1286
ുവരെ	-1287
▁വീട	-1288
▁ഒഴിവ	-1289
▁മുത	-1290
▁പൊതു	-1291
വല	-1292
▁എഴു	-1293
ട്ടം	-1294
രേന്ദ്ര	-1295
ജു	-1296
പരി	-1297
ിറ	-1298
മ്പോൾ	-1299
▁നായ	-1300
▁അല	-1301
ിക്കല്‍	-1302
▁തുടര	-1303
▁വേണ്ടി	-1304
▁ജോലി	-1305
▁കാര്‍	-1306
ക്യ	-1307
മല	-1308
ളള	-1309
▁തര	-1310
നാണ്	-1311
ിന്റെയ	-1312
▁പുര	-1313
▁വ്യാ	-1314
▁ഓഫീസ	-1315
▁പീ	-1316
▁മണിക്ക	-1317
▁ആരാ	-1318
കർ	-1319
▁ചാ	-1320
▁മരണ	-1321
ഹമ്മദ്	-1322
▁ശര	-1323
▁ഫ്ര	-1324
▁ദേ	-1325
പ്പെടുത്തി	-1326
വസ	-1327
വം	-1328
സിന	-1329
▁താമ	-1330
ഴി	-1331
▁വിശദ	-1332
തെന്ന	-1333
▁സർക്	-1334
▁അധ്യക്ഷ	-1335
▁നൽകിയ	-1336
േള	-1337
▁അടിസ്ഥാന	-1338
ണയ	-1339
▁ബാല	-1340
▁രാവിലെ	-1341
▁എന്നിവര	-1342
▁നല്‍കി	-1343
ജന	-1344
▁നടപ്പ	-1345
▁11	-1346
ിലേക്ക	-1347
ാന്ധ	-1348
▁പരിഹ	-1349
ുമു	-1350
വരെ	-1351
വെ	-1352
ികള്‍ക്ക്	-1353
▁ഓരോ	-1354
ഭാവ	-1355
▁അവരുടെ	-1356
▁സംഭവം	-1357
ഹൃ	-1358
▁മാസ	-1359
യോ	-1360
▁ആല	-1361
▁ആയിര	-1362
▁തൊഴില	-1363
▁തയ്യാറ	-1364
▁രണ്ടാം	-1365
▁ഏറെ	-1366
▁മനുഷ്യ	-1367
മോ	-1368
ക്ഷേപ	-1369
▁കോൺഗ്ര	-1370
ങ്ങളാണ്	-1371
▁വ്യക്തമാക്ക	-1372
ിക്കുന്ന	-1373
ഖ്	-1374
▁സമൂഹ	-1375
മാന്‍	-1376
▁കേസ്	-1377
ധ്യ	-1378
▁വോട്ട	-1379
ുകളില	-1380
▁മത	-1381
▁ചൈന	-1382
▁ജനറ	-1383
▁കോട്ട	-1384
▁നടത്തി	-1385
▁ഓഫ്	-1386
▁ചോദ	-1387
ാലി	-1388
്ട്ര	-1389
▁മുസ്	-1390
▁പരിഗ	-1391
ാനി	-1392
▁തി	-1393
ഷന്‍	-1394
▁പ്രതീക്ഷ	-1395
▁മറ്റ്	-1396
▁വീഡിയ	-1397
▁മണ്ഡ	-1398
ന്ത്	-1399
▁മക	-1400
▁ഡയ	-1401
▁നേരത്തെ	-1402
േജ്	-1403
▁അതു	-1404
▁അര	-1405
▁ഞാന്‍	-1406
േഷൻ	-1407
▁ജെ	-1408
▁നയ	-1409
കുമാ	-1410
▁കൂടിയ	-1411
ില്ലെന്ന്	-1412
▁ശതമാനം	-1413
▁ഉൾ	-1414
▁ഉന്ന	-1415
▁വിഷയ	-1416
െടുത്തു	-1417
▁അവത	-1418
▁താരം	-1419
▁ചുമ	-1420
ാരാ	-1421
ുണ്ടായിര	-1422
▁പിന്നാല	-1423
ല്‍ഹി	-1424
▁വർ	-1425
▁തമി	-1426
▁പറയുന്നത്	-1427
ിക്കേണ്ട	-1428
ച്ഛ	-1429
▁മുഴ	-1430
▁വല	-1431
▁ഉണ്ടാക	-1432
ണ്ണം	-1433
നിന്ന	-1434
▁പോലീസ	-1435
സ്യ	-1436
തിനെ	-1437
ക്കെതിരെ	-1438
ഷണ	-1439
തിട്ട	-1440
തെന്ന്	-1441
▁വാര്‍ത്ത	-1442
▁റ്റ	-1443
▁ഗുരു	-1444
ക്കാര്‍	-1445
സോ	-1446
ിവെ	-1447
ിക്കുകയായിര	-1448
▁രാഹു	-1449
ധാ	-1450
വരം	-1451
േസ്	-1452
ാലയ	-1453
ശ്ശ	-1454
ഴയ	-1455
▁ഇന്‍	-1456
▁കൗ	-1457
▁സുപ്ര	-1458
▁പ്രധാനമന്ത്രി	-1459
പിയ	-1460
▁ഇനി	-1461
ത്തിറ	-1462
കൃ	-1463
▁നവ	-1464
▁പേര്‍	-1465
ഘാട	-1466
ന്നി	-1467
തിരോധ	-1468
▁ചെയ്തത്	-1469
▁പതി	-1470
▁മറ്റൊരു	-1471
ുതി	-1472
ഘോഷ	-1473
▁കാരണ	-1474
▁റിപ്പോർ	-1475
▁കുഞ്ഞ	-1476
▁ഏക	-1477
▁എന്റെ	-1478
▁കണക്ക	-1479
▁പൊലീസ	-1480
മയ	-1481
▁കൊച്ചി	-1482
▁എന്നീ	-1483
▁ശി	-1484
▁മാര്‍	-1485
ാക്കള്‍	-1486
ീര്‍	-1487
▁ചെയ്തിര	-1488
ലൈ	-1489
▁ചോദ്യം	-1490
്ക്ക	-1491
▁ഡ്ര	-1492
ലവ	-1493
▁ട്	-1494
ണു	-1495
മ്പത്തിക	-1496
▁വസ്	-1497
ദ്ദേശ	-1498
▁തമ്മ	-1499
ളു	-1500
▁രൂപയ	-1501
പ്രായ	-1502
▁ഹൈക്ക	-1503
നവ	-1504
▁അന്വേഷണം	-1505
▁ഇക്കാര്യ	-1506
ണ്‍കു	-1507
ദിയ	-1508
ൻസ്	-1509
ത്തിലേക്ക്	-1510
▁പുന	-1511
ിച്ചാണ്	-1512
▁അവര്‍	-1513
▁അധികൃത	-1514
ആര്‍	-1515
രണം	-1516
ങ്ങന	-1517
▁അദ്ദേഹത്ത	-1518
▁ആരാധ	-1519
▁അതിന	-1520
ീത	-1521
▁സാമ്പത്തിക	-1522
െല്ലാം	-1523
ജ്ഞ	-1524
▁അബ്	-1525
ാർത്ഥ	-1526
▁അപേക്ഷ	-1527
പ്പില്‍	-1528
ദാ	-1529
ിച്ചിട്ട	-1530
ോടതി	-1531
▁ക്ഷേ	-1532
▁അന്വേഷണ	-1533
▁പത്ത	-1534
▁ടീമ	-1535
ക്കാല	-1536
സർ	-1537
▁എൻ	-1538
▁200	-1539
ബര്‍	-1540
▁പണം	-1541
▁മോഹ	-1542
▁ഉറപ്പ	-1543
▁"	-1544
നില	-1545
▁പിണ	-1546
▁തൊ	-1547
ുപോ	-1548
ാനാണ്	-1549
▁ബ്ല	-1550
▁ഗ്രാമ	-1551
▁ഫെ	-1552
▁ഗാന്ധ	-1553
ട്ടിക്ക	-1554
▁സമ്പ	-1555
ജീവ	-1556
യര്‍	-1557
ീവ്	-1558
ുമതി	-1559
▁ആത്മ	-1560
തന്ത്ര	-1561
▁ഇവര്‍	-1562
ംഗ്ല	-1563
മസ്	-1564
ജയ	-1565
▁ഉദ്ഘാട	-1566
▁വര്‍ഷം	-1567
▁ഹെ	-1568
▁മനസ്സ	-1569
▁പ്രസ	-1570
പാട്	-1571
വ്വ	-1572
▁സ്പ	-1573
▁സന്ത	-1574
▁പ്രതിരോധ	-1575
▁ഭാര	-1576
▁അനുഭവ	-1577
▁മറുപ	-1578
▁ഇര	-1579
▁അവർ	-1580
▁സ്വദേശി	-1581
തന്നെ	-1582
ാണെന്ന	-1583
▁സമയം	-1584
സൈ	-1585
▁18	-1586
ാഫ	-1587
മാറ	-1588
സ്റ്റി	-1589
▁സ്വന്തം	-1590
▁െ	-1591
കളില്‍	-1592
▁പദ്ധതി	-1593
ദിന	-1594
▁ഫാ	-1595
പാത	-1596
ാണെന്ന്	-1597
▁മാത്രമാണ്	-1598
മെന്ന	-1599
ൈവ	-1600
ാടക	-1601
▁പുറത്തിറ	-1602
ക്ഷി	-1603
യുടെ	-1604
▁ദിന	-1605
▁പോലെ	-1606
ടക്കം	-1607
▁സാമൂഹ	-1608
▁മുംബ	-1609
▁ഇത്തരം	-1610
▁സ്വകാര്യ	-1611
▁തക	-1612
▁അറസ്റ്റ്	-1613
ിക്കെ	-1614
▁മുഹമ്മദ്	-1615
▁ചൂണ്ട	-1616
▁ആയി	-1617
▁അറസ്റ്റ	-1618
▁ഔ	-1619
▁മറ്റു	-1620
ില്‍ക്ക	-1621
▁പ്രായ	-1622
ബൈ	-1623
▁പീഡ	-1624
▁നാല്	-1625
▁ക്ലാ	-1626
ധികം	-1627
▁എല്ലാവ	-1628
ൗര	-1629
▁ബൈ	-1630
▁തമിഴ്	-1631
▁14	-1632
▁നിരീക്ഷ	-1633
രാജ	-1634
ൻറ	-1635
▁സേവ	-1636
▁വിര	-1637
▁ഇപ്പോഴ	-1638
▁സംരക്ഷ	-1639
ോസ്	-1640
▁25	-1641
▁മുംബൈ	-1642
▁അഭിപ്രായ	-1643
േദ	-1644
ശേഷം	-1645
▁ക്ക	-1646
▁തീരുമാനം	-1647
മുണ്ട്	-1648
▁ക്ല	-1649
▁ബന്ധപ്പെട്ട	-1650
▁ചരി	-1651
▁ക്രി	-1652
▁നേതാവ്	-1653
▁അവതരിപ്പ	-1654
ശയ	-1655
▁ഏത	-1656
,000	-1657
▁ശിവ	-1658
▁ഇതുവരെ	-1659
▁അക	-1660
▁വനി	-1661
▁സത്യ	-1662
▁മുമ്പ്	-1663
▁സമാ	-1664
▁സോഷ്യ	-1665
▁പൂർ	-1666
ാകു	-1667
▁പെണ്‍കു	-1668
▁റോഡ	-1669
▁വിന	-1670
▁രോഗം	-1671
ൾക്ക	-1672
ക്കാട്	-1673
▁വരുന്ന	-1674
▁സംഘം	-1675
▁തുടങ്ങി	-1676
ുകളാണ്	-1677
▁ന്യൂഡ	-1678
▁തുടങ്ങ	-1679
▁ഇപ്പോൾ	-1680
തൃ	-1681
ുന്നതാണ്	-1682
▁ഇതു	-1683
▁വിവാദ	-1684
ലില്‍	-1685
ുവന്ന	-1686
▁വാങ്ങ	-1687
▁സംഘടന	-1688
ൗണ്ട	-1689
ഴിക്ക	-1690
കോ	-1691
▁തന്നെയാണ്	-1692
ത്തിനാ	-1693
▁അവിടെ	-1694
റോ	-1695
പ്റ്റ	-1696
ംസ	-1697
▁സഹോദ	-1698
▁പ്രിയ	-1699
ളെ	-1700
ാഭ്യാ	-1701
▁മാസം	-1702
▁പ്രതിപക്ഷ	-1703
▁പാര്‍ട്ടി	-1704
▁വായ	-1705
▁ഡെ	-1706
▁പശ്ച	-1707
പ്പുറം	-1708
ിനുള്ള	-1709
മെന്ന്	-1710
ത്തേക്ക്	-1711
▁കേരളത്ത	-1712
▁നടപട	-1713
ാവശ്യ	-1714
▁മൂന്നു	-1715
േഷന	-1716
▁ലഭ്യ	-1717
റിഞ്ഞ	-1718
▁മുഴുവ	-1719
ളവ	-1720
ുവെ	-1721
▁മഴ	-1722
ുണ്ടായ	-1723
▁ക്ഷ	-1724
▁പേർ	-1725
ത്തിലൂടെ	-1726
▁ആദ്യം	-1727
മറ	-1728
▁ഇന്നലെ	-1729
റോണ	-1730
▁നിന്നുള്ള	-1731
▁വിവരം	-1732
▁ഉണ്ടായിര	-1733
ാണു	-1734
സിപ്പ	-1735
▁സുപ്രീം	-1736
▁ഊ	-1737
ക്കേ	-1738
▁ലഭിച്ച	-1739
സേ	-1740
▁രജി	-1741
ിക്കാനുള്ള	-1742
േണ്ടി	-1743
▁13	-1744
▁വിപ	-1745
നത്തില്‍	-1746
▁ആഭ	-1747
▁വകുപ്പ്	-1748
ശി	-1749
▁ജൂ	-1750
ാവസ്ഥ	-1751
▁പിണറാ	-1752
▁ഇന്ത്യൻ	-1753
▁അഞ്ച്	-1754
▁കില	-1755
▁സംഗ	-1756
വാദ	-1757
ലു	-1758
ളയ	-1759
▁കീഴ	-1760
▁എണ്ണം	-1761
▁താമസ	-1762
▁മൃത	-1763
ിക്കണം	-1764
ികളില്‍	-1765
▁മീഡിയ	-1766
▁എടുത്ത	-1767
▁വിലയ	-1768
ില്ലാത്ത	-1769
▁ഇതോടെ	-1770
▁ഒര	-1771
ിൽക്ക	-1772
ങ്ങളിലെ	-1773
ത്തേ	-1774
▁സമര	-1775
ണവ	-1776
▁24	-1777
ുകളെ	-1778
ിക്കറ്റ	-1779
ത്യാ	-1780
സ്ട്ര	-1781
ൃഷ്ട	-1782
▁അന്ത	-1783
ോള്‍	-1784
▁പ്രൊ	-1785
ികയ	-1786
പ്രദേശ	-1787
▁നേരിട	-1788
ാദ	-1789
▁ലെ	-1790
▁ആർ	-1791
▁ചെറിയ	-1792
രുവ	-1793
▁ആദ	-1794
▁സുഹൃ	-1795
സഭാ	-1796
▁സാധാരണ	-1797
ാരാഷ്ട്ര	-1798
▁സംവിധാനം	-1799
ഭാഷ	-1800
െറ	-1801
ുകയാണ	-1802
▁ഭാഗമാ	-1803
ലക്ഷ	-1804
▁മന്ത്ര	-1805
ണിത്	-1806
▁പകര	-1807
ടം	-1808
▁ഉപയോഗിക്ക	-1809
ുമെന്നാണ്	-1810
▁എന്നി	-1811
▁ഭീകര	-1812
ധു	-1813
ഗത	-1814
ത്രയ	-1815
സന്ധ	-1816
ശാല	-1817
▁30	-1818
▁കൊറോണ	-1819
▁കേസില്‍	-1820
മ്പോഴ	-1821
യ്യ	-1822
യാള്‍	-1823
▁ഉത്ത	-1824
ട്ടെ	-1825
സ്റ്റര്‍	-1826
▁ജല	-1827
▁അര്‍	-1828
▁ഉദ്ഘാടനം	-1829
ീന്‍	-1830
േര്‍	-1831
▁മൃതദേഹ	-1832
ുട	-1833
▁തുടർന്ന്	-1834
ര്‍മ	-1835
▁മാത്രമല്ല	-1836
ോറ	-1837
▁പക്ഷേ	-1838
▁ഒറ്റ	-1839
ിനെതിര	-1840
▁വൃ	-1841
ിരുദ്ധ	-1842
▁തോന്ന	-1843
▁സഭ	-1844
▁ന്	-1845
സ്വ	-1846
ുറ	-1847
▁താഴ	-1848
ുത	-1849
▁വിട്ട	-1850
ുമുള്ള	-1851
▁രാത്രി	-1852
▁ഡയറ	-1853
പ്പെട്ടത്	-1854
▁വഹ	-1855
▁ജോസ	-1856
ന്‍സ	-1857
▁കമ്മീഷ	-1858
▁ആഗ്രഹ	-1859
ല്‍ക്ക	-1860
▁പ്രകട	-1861
▁ലോക്	-1862
ീഫ്	-1863
▁സീറ്റ	-1864
▁ആന	-1865
ക്കള്‍	-1866
▁വിദ്യാഭ്യാ	-1867
▁ദൃ	-1868
ങ്ങള്‍ക്ക	-1869
ഖ്യ	-1870
▁സംസ്ഥാനത്ത്	-1871
ൻ്	-1872
▁ഭീഷ	-1873
▁മാറ	-1874
▁ഭാ	-1875
ാറ്റ	-1876
▁പാക	-1877
▁പ്രശ	-1878
പ്പുഴ	-1879
▁കൂള	-1880
കളെ	-1881
▁അഭിനയ	-1882
▁റിപ്പോര്‍ട്ട	-1883
കാരം	-1884
▁തവണ	-1885
▁റണ്‍	-1886
▁മണ്ഡല	-1887
30	-1888
ാംഗ	-1889
▁മരിച്ച	-1890
▁16	-1891
▁ദേവ	-1892
▁ഹിന്	-1893
ാട്	-1894
▁കസ്റ്റ	-1895
നോ	-1896
ുന്നുണ്ട	-1897
▁ഇടപെ	-1898
▁ഇൻ	-1899
▁ശക്തമായ	-1900
▁ആക	-1901
ാസ്ത്ര	-1902
▁ഫല	-1903
▁സാധിക്ക	-1904
▁അവകാശ	-1905
▁പക്ഷ	-1906
▁ഗ്രൂ	-1907
▁ദുര	-1908
ണ്ടി	-1909
ുമായിര	-1910
▁നമ്പ	-1911
▁മൈ	-1912
▁കണ്ടെത്തിയ	-1913
▁ടോ	-1914
▁17	-1915
ിപ്പ്	-1916
▁വിമര്‍ശ	-1917
ുണ്ടെന്ന	-1918
▁അമി	-1919
മാണെന്ന്	-1920
മാണെന്ന	-1921
നേ	-1922
▁ആഘോഷ	-1923
ല്‍പ്പ	-1924
▁പരിക്ക	-1925
▁സര്‍വ	-1926
▁അക്ക	-1927
പോലെ	-1928
▁തോമസ്	-1929
▁ശരീര	-1930
ിലെത്ത	-1931
ഥ്	-1932
▁ഞാൻ	-1933
ൂട	-1934
▁വാഹന	-1935
▁എല്‍	-1936
▁പിന്തുണ	-1937
▁ശബ	-1938
▁കമ	-1939
▁പരിശീല	-1940
▁ഇത്തര	-1941
റണ	-1942
▁വെളി	-1943
▁പിന്നാലെ	-1944
ോടൊപ്പം	-1945
▁ചിത്രത്ത	-1946
ബ്ല	-1947
▁മദ്യ	-1948
▁സൗകര	-1949
▁മാത്രമേ	-1950
▁മനോ	-1951
▁വര്‍ധ	-1952
▁സംഘടിപ്പ	-1953
▁വകുപ്പ	-1954
▁ഫോണ	-1955
▁സൃഷ്ട	-1956
ത്തിനുള്ള	-1957
▁പുല	-1958
▁ഉണ്ടായ	-1959
▁കോൺഗ്രസ്	-1960
▁ചെയ്ത്	-1961
▁മുഖ്യമന്ത്രിയ	-1962
ോടു	-1963
നാട്	-1964
ാഹ	-1965
ജിയ	-1966
▁അബ്ദു	-1967
▁പോസ്റ്റ	-1968
ിച്ചുള്ള	-1969
▁പുറത്തു	-1970
ല്യ	-1971
ൊക്ക	-1972
ിത്ത	-1973
സെ	-1974
▁പുതു	-1975
മിയ	-1976
▁അവസ്ഥ	-1977
▁ബാങ്ക	-1978
▁ചൊ	-1979
▁ചടങ്ങ	-1980
▁കേരളത്തിലെ	-1981
▁ഫേസ്	-1982
വര്‍ക്ക്	-1983
▁ഷോ	-1984
റണാകു	-1985
▁മാർ	-1986
▁ഹാജ	-1987
▁സൂചന	-1988
കരണ	-1989
▁വികസ	-1990
▁പ്രോ	-1991
നിര	-1992
▁നൽകി	-1993
▁കുറഞ്ഞ	-1994
ടുത്ത്	-1995
ുന്നുവെന്ന	-1996
▁ജീവനക്കാര	-1997
▁ബന്ധപ്പെട്ട്	-1998
ുകൂല	-1999
ഫോ	-2000
മാവ	-2001
നിന്ന്	-2002
▁പരിപാ	-2003
പ്രവര്‍ത്ത	-2004
▁ചരിത്ര	-2005
▁ഇതിന്	-2006
ww	-2007
ീർ	-2008
▁സമ്മേള	-2009
▁അധികാര	-2010
▁തങ്ങള	-2011
▁തൃശ	-2012
വിട്ട	-2013
▁ആശുപത്രിയ	-2014
ുണ്ടാക	-2015
▁സാധ്യത	-2016
സൂ	-2017
ഷൻ	-2018
▁വേദ	-2019
െയ്യ	-2020
▁രാജ്യത്തെ	-2021
കൂടി	-2022
ar	-2023
ഴിഞ്ഞ	-2024
ുകാര്‍	-2025
▁നേതാക്കള	-2026
രന്‍	-2027
▁വീട്ടില്‍	-2028
▁ശു	-2029
▁രാജ്യത്ത്	-2030
19	-2031
▁ഉച്ച	-2032
▁പഞ്ചായത്ത്	-2033
▁നേതൃത്വം	-2034
▁പ്രതിസന്ധ	-2035
▁എറണാകു	-2036
▁പദ്ധതിയ	-2037
▁കോഴിക്ക	-2038
തായ	-2039
▁സർക്കാര	-2040
▁ഒഴിവാക്ക	-2041
▁കര്‍	-2042
ിക്കാം	-2043
▁സ്വര്‍	-2044
ടക	-2045
▁അടിയ	-2046
▁മെഡിക്കല്‍	-2047
▁പേരില്‍	-2048
▁നരേന്ദ്ര	-2049
▁ശബരി	-2050
▁നേട	-2051
തിനാല്‍	-2052
▁ക്ഷേത്ര	-2053
ിന്ത	-2054
ൂട്ടി	-2055
▁കോടിയ	-2056
െയി	-2057
തികള	-2058
▁മുറ	-2059
▁തീവ	-2060
ജ്ജ	-2061
▁മോദി	-2062
▁അഡ്	-2063
യിട്ട	-2064
▁തെളിവ	-2065
▁മരിച്ചു	-2066
▁പങ്കെടുക്ക	-2067
▁സമ്	-2068
ക്ടറ	-2069
▁ചെറു	-2070
തെ	-2071
▁മുമ്പ	-2072
ട്ടിയെ	-2073
ുമില്ല	-2074
ികൾക്ക്	-2075
▁ഇസ്	-2076
▁ബോധ	-2077
മെന്റ്	-2078
▁കുട്ടികള	-2079
എന്‍	-2080
▁ബംഗ	-2081
▁പൗര	-2082
▁നിന്നു	-2083
▁എന്നിവര്‍	-2084
▁എടുക്ക	-2085
▁ചൂണ്ടിക്കാ	-2086
ശ്വാസ	-2087
ിലാക്ക	-2088
▁സംവിധ	-2089
ുവരി	-2090
▁സൈന	-2091
▁ഇന്റ	-2092
ിലാ	-2093
വിള	-2094
റുകള	-2095
▁ശതമാന	-2096
വിയ	-2097
ികമാ	-2098
▁ആശുപത്രിയില്‍	-2099
▁ശബരിമല	-2100
▁വിശദീകര	-2101
െയില്‍	-2102
▁വിമാനത്ത	-2103
റ്റില്‍	-2104
▁ആറ	-2105
ന്മാര	-2106
▁ദൃശ്യ	-2107
▁രംഗത്തെ	-2108
കന്‍	-2109
▁ജില്ലയിലെ	-2110
▁ഹോ	-2111
▁അല്‍	-2112
▁കരുത	-2113
▁പട	-2114
▁സൂക്ഷ	-2115
▁നില്‍ക്ക	-2116
▁നിങ്ങൾ	-2117
ാനാ	-2118
രുമാ	-2119
രുത്	-2120
ികളായ	-2121
▁കെട്ടി	-2122
▁റിപ്പോർട്ട്	-2123
മാക്കിയ	-2124
▁വിശ്വാസ	-2125
▁അനുമതി	-2126
▁ഇതിന	-2127
ാനെ	-2128
▁ഇംഗ്ല	-2129
▁പിടിയ	-2130
ത്തോളം	-2131
▁ബാങ്ക്	-2132
ാപാ	-2133
▁സഞ്ച	-2134
▁നീക്ക	-2135
▁പട്ടിക	-2136
ണാ	-2137
ഹിത	-2138
തരണം	-2139
ഷന	-2140
ക്ടർ	-2141
▁പതിന	-2142
▁ആവശ്യപ്പെട്ടു	-2143
മം	-2144
ിനിട	-2145
▁സംസ്	-2146
▁50	-2147
▁റാ	-2148
ിപ്പിച്ച	-2149
▁സമര്‍പ്പ	-2150
▁അച്ഛ	-2151
▁കത്ത	-2152
▁തെരഞ്ഞെടുപ്പ്	-2153
▁സന്തോഷ	-2154
ർപ്പ	-2155
▁പോരാ	-2156
ദ്ധി	-2157
▁നായക	-2158
▁പ്രമുഖ	-2159
▁മിനി	-2160
▁ജനറല്‍	-2161
▁പറഞ്ഞത്	-2162
▁മണിക്കൂറ	-2163
ര്‍ന്നു	-2164
▁കോട്ടയം	-2165
▁സന്ദര്‍ശ	-2166
▁വിലയിരു	-2167
▁കൃത്യ	-2168
▁ചന്ദ്ര	-2169
യിലേക്ക്	-2170
▁ഹൃ	-2171
▁ജാമ	-2172
▁പുറത്ത്	-2173
▁സുര	-2174
്പ	-2175
ീപ്	-2176
▁പത്ര	-2177
▁മറുപടി	-2178
▁കാര്യം	-2179
ധിപ	-2180
▁പൈ	-2181
ത്വം	-2182
▁താന്‍	-2183
▁പൂര്‍ത്തിയ	-2184
▁പാകി	-2185
▁കുറിച്ച്	-2186
▁ആവശ്യപ്പെട്ട	-2187
മ്പര	-2188
▁രക്ത	-2189
▁മലപ്പുറം	-2190
യാളി	-2191
▁ചെന്നൈ	-2192
▁തൊഴിലാള	-2193
▁കര്‍ഷ	-2194
▁കമ്മിറ്റി	-2195
▁വിദ്യാര്‍ത്ഥ	-2196
ഡ്ര	-2197
സംഘ	-2198
കൃഷ്ണ	-2199
▁കൊലപാത	-2200
▁പശ്ചാത്ത	-2201
▁ധന	-2202
▁നിരോധ	-2203
▁നിക്ഷേപ	-2204
▁വധ	-2205
....	-2206
▁നടപടിയ	-2207
▁ഗുരുതര	-2208
▁സന്	-2209
താവ	-2210
▁ആശങ്ക	-2211
മാൻ	-2212
ടത്ത	-2213
▁തിരു	-2214
▁മാറ്റി	-2215
▁അധ്യാപ	-2216
▁നിയന്ത്രണ	-2217
താണ	-2218
▁നേതാവ	-2219
ങ്ങ്	-2220
▁സിപിഎം	-2221
രുടെയ	-2222
യ്ക്കു	-2223
▁കമ്പനി	-2224
എഫ	-2225
ാർഥ	-2226
▁ചർച്ച	-2227
ുകള്‍ക്ക്	-2228
▁നിക	-2229
▁െൻറ	-2230
ഗം	-2231
▁വന്‍	-2232
▁ഉള്‍പ്പെടെ	-2233
▁ഗാന്ധി	-2234
▁എണ്ണ	-2235
▁വ്യാജ	-2236
▁മോഡ	-2237
ശം	-2238
▁ഷാ	-2239
▁വൈദ്യ	-2240
വാഹ	-2241
ികെ	-2242
▁കാത്ത	-2243
▁കൊല്ലം	-2244
▁പോസ്റ്റ്	-2245
▁എനിക്ക്	-2246
▁മണി	-2247
ിലി	-2248
▁ഉമ്മ	-2249
▁നീക്കം	-2250
യർ	-2251
▁അതിന്റെ	-2252
▁നേടി	-2253
▁വിദ്യാര്‍ഥ	-2254
▁ഒന്നാം	-2255
പിട	-2256
▁സെന്റ	-2257
മ്മാ	-2258
▁സാധ്യതയ	-2259
▁വിദ	-2260
▁അക്രമ	-2261
▁രീതിയ	-2262
മായിരിക്ക	-2263
രിച്ച	-2264
▁ഇഷ്ട	-2265
▁നാട	-2266
▁എന്നു	-2267
ാന്ത	-2268
▁തെറ്റ	-2269
▁വിതരണം	-2270
വഹ	-2271
▁പരിഗണ	-2272
▁പിന്‍	-2273
▁സഹായിക്ക	-2274
ാക്	-2275
മായാണ്	-2276
▁വൈറസ്	-2277
▁മൊഴ	-2278
▁കാർ	-2279
▁പരിച	-2280
ാഗ്ര	-2281
▁കടുത്ത	-2282
▁ചല	-2283
▁മരണം	-2284
▁ഇതിന്റെ	-2285
ീവ	-2286
പ്യ	-2287
▁പ്രദ	-2288
▁കാഴ്ച	-2289
ക്കെതിര	-2290
▁സംവിധായക	-2291
▁നോട്ട	-2292
ബർ	-2293
പ്പന	-2294
▁എതി	-2295
ത്തുട	-2296
▁കേരളത്തില്‍	-2297
എസ	-2298
രായ	-2299
്യന്തര	-2300
▁മലയാളി	-2301
▁നൂ	-2302
തില്‍	-2303
▁സൂപ്പ	-2304
▁കഥാപാ	-2305
▁വെള്ളം	-2306
നിക്ക	-2307
രിത	-2308
▁രാമ	-2309
▁നോക്ക	-2310
▁ചെയ്യാ	-2311
▁ഉടമ	-2312
▁സാം	-2313
▁പന്ത	-2314
▁വിദ്യാഭ്യാസ	-2315
▁ക്വാ	-2316
ശു	-2317
ക്കൊ	-2318
▁കണ	-2319
▁എഫ്	-2320
▁സ്കൂ	-2321
▁ഇല	-2322
▁ഇതേ	-2323
▁മുന്നറിയ	-2324
വരാണ്	-2325
▁കോടതിയ	-2326
▁ഭാഷ	-2327
▁വ്യക്തി	-2328
▁ഘട്ട	-2329
▁പിടിച്ച	-2330
ിക്കണമെന്ന	-2331
തിക്ക	-2332
▁ആരോപണ	-2333
ത്തം	-2334
സ്താവ	-2335
▁കോണ്‍ഗ്രസ	-2336
ിനോട്	-2337
21	-2338
പറ	-2339
▁21	-2340
▁വാർത്ത	-2341
▁പശ്ചാത്തല	-2342
▁യോഗം	-2343
ാമത്തെ	-2344
ിനെയ	-2345
▁അംഗീകര	-2346
▁ഫു	-2347
ൻസ	-2348
▁പേര്	-2349
▁ഇക്കാര്യം	-2350
▁മുഖ്യ	-2351
ൂക്ഷ	-2352
▁നമു	-2353
▁തീവ്ര	-2354
▁ബന്ധു	-2355
▁നിലവില്‍	-2356
െത്ത	-2357
▁ഇനിയ	-2358
▁ചെയ്തിട്ട	-2359
ങ്കില	-2360
▁പാട	-2361
▁സ്വപ്	-2362
ടക്കമുള്ള	-2363
പ്പാ	-2364
ക്കിട	-2365
▁രാഹുല്‍	-2366
▁ഏജ	-2367
ന്നാ	-2368
ിലായ	-2369
ഡിഎഫ്	-2370
▁സൂച	-2371
റ്റാ	-2372
▁ജോര്‍	-2373
▁പെൺ	-2374
▁കാസര്‍	-2375
▁ഫേസ്ബു	-2376
▁ആഭ്യന്തര	-2377
▁സ്വയം	-2378
ിക്കപ്പെട്ട	-2379
▁മൊബൈ	-2380
▁ചുമതല	-2381
▁വ്യത്യ	-2382
▁ഹൈക്കോടതി	-2383
ഞ്ജ	-2384
▁കണ്‍	-2385
▁ഇടപെട	-2386
▁ശിക്ഷ	-2387
▁വിമാനത്താവ	-2388
ൻ്റെ	-2389
ഘട്ട	-2390
▁എന്നത്	-2391
▁പ്രകാരം	-2392
▁വാക്ക	-2393
▁എല്ലാവര	-2394
▁പെട്ട	-2395
▁ഫോട്ട	-2396
കരമായ	-2397
▁മാതൃ	-2398
ക്തിയ	-2399
▁വിവാഹം	-2400
കോട്	-2401
സ്പ	-2402
വന്‍	-2403
ംസ്	-2404
ശ്മ	-2405
▁വന്നു	-2406
▁നിലപാട്	-2407
▁ക്രമ	-2408
▁സംശയ	-2409
▁പ്രസ്താവ	-2410
▁റില	-2411
▁എന്നിവയ	-2412
▁പരാമ	-2413
ുന്നതു	-2414
▁പുരു	-2415
▁കൊടുക്ക	-2416
▁ആറ്	-2417
െടുത്ത്	-2418
▁ഇതില്‍	-2419
▁കണ്ണൂര്‍	-2420
▁പറയാ	-2421
▁ട്രെയ	-2422
കലാ	-2423
▁അസോ	-2424
ച്ചത്	-2425
▁പരാജയ	-2426
▁ഇങ്ങനെ	-2427
▁സ്ഥിതി	-2428
▁സൈനിക	-2429
▁കോഴിക്കോട്	-2430
ോടെയാണ്	-2431
▁അല്ലെങ്ക	-2432
▁ഇരുവര	-2433
▁കാറ	-2434
▁അന്ന്	-2435
▁നന്ദ	-2436
▁എത്ര	-2437
▁ഹര്‍	-2438
▁കോളേജ	-2439
ൽഹി	-2440
വാസം	-2441
ദയ	-2442
▁ഹാ	-2443
പ്ല	-2444
▁പിടിക	-2445
▁ഉണ്ട്	-2446
ന്മ	-2447
▁പള്ള	-2448
▁മാല	-2449
▁ന്യൂഡല്‍ഹി	-2450
ംപ	-2451
▁വർഷം	-2452
▁ചിന്ത	-2453
▁നിര്‍ദേശ	-2454
ിയ്ക്ക	-2455
▁ലാ	-2456
ാനാവ	-2457
▁വരും	-2458
ീൻ	-2459
ആർ	-2460
▁ശരിയ	-2461
▁രൂക്ഷ	-2462
▁കണ്ടെത്തി	-2463
ഹര	-2464
▁ആലപ്പുഴ	-2465
സ്സ്	-2466
ാനാക	-2467
റ്റം	-2468
ല്ലു	-2469
▁നടി	-2470
▁നിശ്ച	-2471
▁നടപ്പാക്ക	-2472
▁ഹി	-2473
ിനാണ്	-2474
▁തള്ള	-2475
▁അസോസിയ	-2476
ുന്നുവെന്ന്	-2477
▁ചീഫ്	-2478
▁സിനിമയ	-2479
▁ബ്രിട്ട	-2480
▁മൂന്നാം	-2481
in	-2482
▁സജീവ	-2483
▁പേര്‍ക്ക്	-2484
▁22	-2485
▁ഇത്തവണ	-2486
▁ഉയര്‍ന്ന	-2487
co	-2488
ംഗം	-2489
▁പുരസ്	-2490
▁വയസ്സ	-2491
▁ബഹ	-2492
▁പച്ച	-2493
▁വനിതാ	-2494
▁അങ്ങനെ	-2495
▁മുന്നില്‍	-2496
എമ്മ	-2497
▁ജയില	-2498
▁നീണ്ട	-2499
ിരി	-2500
▁മൃതദേഹം	-2501
▁ഒരിക്ക	-2502
ുണ്ടെന്ന്	-2503
ളൂ	-2504
▁ഇതി	-2505
ര്‍മ്മ	-2506
സിസി	-2507
▁ദില	-2508
▁ഒരുക്ക	-2509
ാരായ	-2510
വസ്ഥ	-2511
ീകരണ	-2512
▁ഹോട്ട	-2513
ിള്‍	-2514
മിന	-2515
▁കള്ള	-2516
▁റിയ	-2517
▁രഹ	-2518
▁ആത്മഹ	-2519
▁പഴയ	-2520
യായിര	-2521
▁എറണാകുളം	-2522
വറ	-2523
▁ചി	-2524
ാതിര	-2525
50	-2526
▁ജോസഫ്	-2527
▁സാമൂഹിക	-2528
േണ്ടത്	-2529
ോമീറ്റ	-2530
▁മുതി	-2531
ുമെ	-2532
ര്‍ത്തിയ	-2533
ചെയ്യ	-2534
▁തീയ	-2535
▁ലീഗ്	-2536
ക്സ്	-2537
▁വിട	-2538
ോൾ	-2539
▁യഥ	-2540
▁വസ്തു	-2541
െടുത്തത്	-2542
▁നിലയില്‍	-2543
▁പാലക്കാട്	-2544
േറെ	-2545
ധിപത്യ	-2546
▁യുവതി	-2547
▁ആവശ്യം	-2548
).	-2549
ുളള	-2550
ഭൂ	-2551
▁വിദഗ്	-2552
▁ആന്‍	-2553
എൽ	-2554
ാലയം	-2555
േക്കാ	-2556
▁പിടി	-2557
ങ്ങനെയ	-2558
▁ആരോപണം	-2559
▁വ്യത്യസ്ത	-2560
▁ഷെ	-2561
▁കിട	-2562
ന്റി	-2563
▁സംബന്ധിച്ച	-2564
▁എല്ലാം	-2565
▁ചെയ്യാന്‍	-2566
താവ്	-2567
ത്താ	-2568
▁പോയി	-2569
▁മാറി	-2570
▁തീര	-2571
▁മരിച്ചത്	-2572
▁കൂട്ടിച്ച	-2573
കുമാര്‍	-2574
▁കഥാപാത്ര	-2575
▁ശൈ	-2576
▁പകരം	-2577
ത്തെക്കുറ	-2578
▁ബീ	-2579
റ്ററ	-2580
▁മധ്യ	-2581
പരമായ	-2582
യിലൂടെ	-2583
▁ഭൂരി	-2584
വർക്ക്	-2585
▁ലം	-2586
▁ൽ	-2587
▁മട	-2588
▁സമയത്ത്	-2589
▁നിലപാട	-2590
▁കമ്പനിയ	-2591
മൂ	-2592
▁ശേഖ	-2593
▁ആകെ	-2594
ുമുണ്ട്	-2595
ഴക്ക	-2596
▁രംഗത്ത്	-2597
ണാടക	-2598
▁കൃഷ്ണ	-2599
▁ബുദ്ധി	-2600
നീ	-2601
ദിവ	-2602
▁പക	-2603
▁ചെലവ	-2604
േറിയ	-2605
ട്ടില്‍	-2606
ര്‍ന്നാണ്	-2607
▁അധികൃതര്‍	-2608
▁പരിഗണിക്ക	-2609
പാദ	-2610
ിയിര	-2611
ത്താണ്	-2612
▁ഔദ്യോഗ	-2613
മിക	-2614
▁തൂ	-2615
▁...	-2616
▁ഉന്നയ	-2617
▁ഭര്‍ത്ത	-2618
മന	-2619
േർ	-2620
ുകു	-2621
മെന്റ	-2622
▁പ്ലാ	-2623
▁പെൺകു	-2624
ാളി	-2625
▁ഭീഷണി	-2626
ഗ്ഗ	-2627
▁ആഗ	-2628
▁എന്നെ	-2629
▁ബോര്‍	-2630
▁ജില്ലയില്‍	-2631
മിക്ക	-2632
▁കല്ല	-2633
▁കൂടെ	-2634
▁പരിക്കേറ്റ	-2635
▁സമരം	-2636
ികളാണ്	-2637
▁തുക	-2638
ങ്ങൾക്ക	-2639
ുന്നതാ	-2640
ിവു	-2641
പ്പറ	-2642
▁ഭക്ഷണം	-2643
▁ഉണ്ടാക്ക	-2644
ികള്‍ക്ക	-2645
ങ്കള	-2646
ംബര്‍	-2647
ണ്ണി	-2648
▁തിരക്ക	-2649
ോറി	-2650
▁പദ	-2651
▁ഉയര	-2652
▁കേരളം	-2653
▁അവരെ	-2654
▁കമ്പന	-2655
ിക്കപ്പെട	-2656
th	-2657
ചാര	-2658
ീല്‍	-2659
ത്തെയ	-2660
കന	-2661
ശ്വര	-2662
ായാണ്	-2663
▁പ്രസിദ്ധ	-2664
▁അർ	-2665
▁പലര	-2666
▁പൊത	-2667
▁കുത്ത	-2668
▁നല്‍കിയത്	-2669
ായം	-2670
▁ആണ	-2671
▁23	-2672
▁ഹിന്ദു	-2673
▁സിറ്റി	-2674
▁നടന്നത്	-2675
ിക്കുമെന്ന	-2676
▁ആയു	-2677
▁സംഘട	-2678
▁സമിതി	-2679
▁ശാസ്ത്ര	-2680
▁ചാന	-2681
ിച്ചുവ	-2682
▁വിലയിരുത്ത	-2683
വയ	-2684
ഷിക	-2685
▁ഇവരെ	-2686
മാരെ	-2687
▁തെളിയ	-2688
▁സോഷ്യല്‍	-2689
ായിക	-2690
▁പിറ	-2691
▁ലംഘ	-2692
െത്തിയ	-2693
കളില	-2694
▁ചെയര്‍	-2695
▁ള	-2696
ടുക്കി	-2697
▁സിനിമാ	-2698
▁ഭേദ	-2699
▁ഏപ്ര	-2700
▁തെരഞ്ഞെടുപ്പ	-2701
ഫി	-2702
ന്യം	-2703
ിക്കുമെന്ന്	-2704
ങ്ങളാ	-2705
▁സുരേഷ്	-2706
വുമായ	-2707
ിച്ചാല്‍	-2708
ഹാ	-2709
▁സൗദി	-2710
▁മാറിയ	-2711
▁ഇവരുടെ	-2712
▁പ്രതിനി	-2713
ുല	-2714
കരെ	-2715
▁ഞെ	-2716
ുമ്പോള്‍	-2717
▁നാലു	-2718
▁ഡിസം	-2719
▁ഡ്രൈ	-2720
▁ഫോണ്‍	-2721
ല്‍ഹ	-2722
▁നിയമം	-2723
▁അന്ന	-2724
ിവര	-2725
▁ഗൂ	-2726
▁പാര്‍ട്ടിയ	-2727
▁അനുകൂല	-2728
▁കുഴ	-2729
ിൽന	-2730
ങ്കേത	-2731
▁വിഭാഗം	-2732
▁എന്നതാണ്	-2733
പ്പള്ളി	-2734
▁എന്നിവർ	-2735
േല	-2736
ുകൊ	-2737
▁തയാ	-2738
▁ത്ര	-2739
ൂരില്‍	-2740
ിത്തല	-2741
▁വൈസ്	-2742
േറ	-2743
▁പേരാണ്	-2744
വാദി	-2745
ക്കില്‍	-2746
▁വിജയം	-2747
ക്സ	-2748
▁ദി	-2749
ർമ്മ	-2750
▁സംഭവത്തില്‍	-2751
▁ദുബ	-2752
▁റോഡ്	-2753
ിലായിര	-2754
▁യുവാവ	-2755
▁ജീവിതം	-2756
▁ഇന്ത്യയിലെ	-2757
▁കാര്യങ്ങള്‍	-2758
ഴിമ	-2759
▁28	-2760
▁സഹോദര	-2761
▁ഒട്ട	-2762
ചന്ദ്ര	-2763
▁തടയ	-2764
്യത്ത	-2765
▁തുടക്ക	-2766
▁കാലത്ത്	-2767
▁ലൈംഗ	-2768
▁എൽ	-2769
ക്കാന്‍	-2770
▁1.	-2771
▁മഹാ	-2772
▁പെട്ര	-2773
▁കിലോമീറ്റ	-2774
▁ചെന്നിത്തല	-2775
യിലുള്ള	-2776
പ്ത	-2777
ുവൈ	-2778
▁നേതൃത്വത്തില്‍	-2779
▁ബിജെപിയ	-2780
▁ഫി	-2781
▁മരു	-2782
വൈ	-2783
▁സാക്ഷ	-2784
▁ട്വി	-2785
▁നിയമസഭ	-2786
▁പ്രവ	-2787
ധിയ	-2788
ശ്വ	-2789
▁എംഎല്‍	-2790
▁എങ്ങനെ	-2791
ിക്കൊണ്ട	-2792
▁ക്രിക്കറ്റ്	-2793
ലുകള	-2794
▁താല	-2795
▁ബോള	-2796
▁അതിന്	-2797
▁പുസ്ത	-2798
ിക്കെതിരെ	-2799
▁കുറയ്ക്ക	-2800
ണര്‍	-2801
▁ജൂല	-2802
▁ഞായ	-2803
▁സെക്രട്ടറിയ	-2804
▁തിയ	-2805
▁കുട്ടി	-2806
▁വഴിയ	-2807
ുന്നതെന്ന	-2808
ുപോക	-2809
▁ഓട്ട	-2810
▁വിധി	-2811
▁പരാതിയ	-2812
▁നേരെ	-2813
▁മോഹന്‍	-2814
▁കൊലപാതക	-2815
▁ഓണ്‍	-2816
ട്ടിപ്പ	-2817
▁കരാ	-2818
▁മൂല	-2819
▁ആക്രമണ	-2820
ോഭ	-2821
▁മീറ്റ	-2822
▁കിടക്ക	-2823
റായ	-2824
▁കൊടുത്ത	-2825
▁പ്രേ	-2826
▁മമ്മ	-2827
ിരുന്ന	-2828
▁ജാ	-2829
▁അഴിമ	-2830
▁അഞ്ചു	-2831
▁ബിസിന	-2832
▁ദുരന്ത	-2833
ളിയ	-2834
▁സർവ	-2835
▁പാർട്ടി	-2836
▁ഏഴ	-2837
പൂര്‍	-2838
▁പറഞ്ഞ്	-2839
്രാ	-2840
വാസി	-2841
▁വേഷ	-2842
ാവകാശ	-2843
ന്‍റെ	-2844
▁പ്രവാസ	-2845
▁വിമാനത്താവള	-2846
ഭി	-2847
▁കയ്യ	-2848
▁തനിക്ക്	-2849
▁കടന്നു	-2850
▁എതിര	-2851
▁അമ്മയ	-2852
▁ഭക്ഷണ	-2853
നംതിട്ട	-2854
▁മുഴുവന്‍	-2855
ിക്ക്	-2856
▁ഇയാള്‍	-2857
ഡില്‍	-2858
▁ജനങ്ങള	-2859
ക്കോ	-2860
ളിച്ച	-2861
▁സ്ഥാപന	-2862
▁എംഎല്‍എ	-2863
▁സുരക്ഷാ	-2864
▁ഇയാള	-2865
▁കണ്ടു	-2866
സിക	-2867
▁പിന്നെ	-2868
േലിയ	-2869
ഡോ	-2870
▁26	-2871
▁ഉത്	-2872
▁വരുത്ത	-2873
▁സമ്മാന	-2874
▁നാളെ	-2875
മന്ത്രിയ	-2876
▁ഒടുവ	-2877
ിലേക്കു	-2878
▁സിബി	-2879
ാമെന്ന	-2880
▁ആത്മഹത്യ	-2881
▁രാജ്യത്ത	-2882
▁ഏര്‍	-2883
മ്പ്യ	-2884
▁സാഹചര്യത്തില്‍	-2885
▁സമു	-2886
ുകളിലെ	-2887
ര്‍ത്തി	-2888
▁രമേ	-2889
ുകൾക്ക്	-2890
▁വച്ച	-2891
്യമുള്ള	-2892
▁സുപ്രീംക	-2893
▁കുറവ	-2894
▁കനത്ത	-2895
▁യുദ്ധ	-2896
നുസര	-2897
പോല	-2898
ീക്ക	-2899
പിത	-2900
ക്രിയ	-2901
▁പത്തനംതിട്ട	-2902
സ്ത്ര	-2903
▁പൊലി	-2904
▁ലോക്ക്	-2905
▁കിട്ടിയ	-2906
▁കുമാര്‍	-2907
▁സുരേന്ദ്ര	-2908
▁ഓട	-2909
▁ഭയ	-2910
▁റൂ	-2911
്ക്ക്	-2912
▁ഉന്നത	-2913
▁വെച്ച	-2914
▁നശ	-2915
▁നേതാക്കള്‍	-2916
▁27	-2917
▁എത്തി	-2918
▁പ്രണയ	-2919
▁ജസ്റ്റി	-2920
തീ	-2921
▁കൂള്‍	-2922
▁വികസന	-2923
റ്റു	-2924
▁ചേര	-2925
മുറ	-2926
ുണ്ടാ	-2927
▁മൂലം	-2928
▁വ്യവസ	-2929
▁ഇദ്ദേഹ	-2930
▁പൂര്‍ണ	-2931
ോളി	-2932
ക്ടോ	-2933
ാനിയ	-2934
▁മുതല	-2935
▁വേണം	-2936
ിലെത്തിയ	-2937
▁വ്യാപക	-2938
▁സംസ്ഥാനത്തെ	-2939
ക്ഷിണ	-2940
▁നിരീക്ഷണ	-2941
▁വെളിപ്പെടുത്ത	-2942
▁ടീം	-2943
▁വാഗ്	-2944
▁മത്സരിക്ക	-2945
▁കോടതിയില്‍	-2946
▁ഗത	-2947
ത്തുള്ള	-2948
ൽപ്പ	-2949
ബ്ദ	-2950
▁പരമ്പര	-2951
▁വെച്ച്	-2952
വേദ	-2953
▁ഇടതു	-2954
ൽക്ക	-2955
▁സൗകര്യ	-2956
സ്ര	-2957
ട്ടികള	-2958
▁ജോസ്	-2959
▁ഫലം	-2960
▁ഉപേക്ഷ	-2961
▁നല്‍കുന്ന	-2962
▁റദ്ദ	-2963
▁ലോകക	-2964
▁സ്വർ	-2965
മ്പി	-2966
▁199	-2967
▁പരസ്യ	-2968
▁പലപ്പോഴ	-2969
▁ഗുണ	-2970
▁മുര	-2971
കള്‍ക്ക്	-2972
▁സീസ	-2973
▁വിവരങ്ങള്‍	-2974
നിക	-2975
▁സംഗീത	-2976
▁ടൈ	-2977
ശ്ശേരി	-2978
▁പറഞ്ഞിര	-2979
▁ഇന്ത്യയില്‍	-2980
▁അന്താരാഷ്ട്ര	-2981
ജ്യ	-2982
രുത്ത	-2983
▁സ്ഥാനാര്‍ത്ഥ	-2984
ബിയ	-2985
▁ഗവ	-2986
▁മണ	-2987
▁എന്നിവിട	-2988
▁ഗോപ	-2989
ിട്ടുള്ള	-2990
▁നിയമസഭാ	-2991
▁തന്നെയ	-2992
▁പ്രതിഷേധം	-2993
▁റീ	-2994
▁സഹകര	-2995
ിലേക്കുള്ള	-2996
ര്യം	-2997
▁പണി	-2998
ിച്ചില്ല	-2999
▁ഗ്ല	-3000
▁അഭിമുഖ	-3001
▁നടപടികള്‍	-3002
ഭോ	-3003
ലാണ്	-3004
▁ബസ്	-3005
പ്രദ	-3006
▁തുറന്ന	-3007
▁ഏഴ്	-3008
▁സ്വാതന്ത്ര	-3009
▁വിരുദ്ധ	-3010
▁നേതൃത്വത്ത	-3011
▁പ്രവര്‍ത്തിക്ക	-3012
ഡൗ	-3013
ര്‍ദ്ദ	-3014
ായില്ല	-3015
▁തിങ്കള	-3016
▁അവസര	-3017
▁ഉടന്‍	-3018
▁മുന്നോട്ട	-3019
▁മെഡിക്ക	-3020
▁എയര്‍	-3021
▁തിരുവനന്തപുര	-3022
ലിം	-3023
▁ഞായറാ	-3024
▁പറ്റ	-3025
▁ശ്	-3026
▁യുഎ	-3027
സ്റ്റർ	-3028
▁രാജ്യങ്ങള	-3029
▁വോട്ട്	-3030
ഷം	-3031
▁ഡോള	-3032
▁ഓഫി	-3033
▁വച്ച്	-3034
ൈസ	-3035
▁അന്തര	-3036
▁സഹായം	-3037
▁0	-3038
▁ക്രൈ	-3039
▁അനുവദിക്ക	-3040
▁ചേര്‍ന്ന്	-3041
▁എന്നിവരാണ്	-3042
▁മാത്യ	-3043
▁പങ്കുവ	-3044
ദ്വ	-3045
ുന്നതെന്ന്	-3046
ോഗ്ര	-3047
▁മണ്ണ	-3048
▁ആദ്യമാ	-3049
▁ലക്ഷ്യം	-3050
▁പ്രവര്‍ത്തന	-3051
▁തിരഞ്ഞെടുപ്പ്	-3052
ങ്കേതിക	-3053
ാശ	-3054
▁കഴിഞ്ഞു	-3055
ീറ	-3056
▁ആഴ്ച	-3057
ിച്ചിട്ടില്ല	-3058
ഹരി	-3059
▁വയസ	-3060
▁ശേഷമാണ്	-3061
▁വായ്	-3062
▁സ്ഥാനം	-3063
ണ്യ	-3064
ോക്ക്	-3065
▁കുവൈ	-3066
▁ദക്ഷിണ	-3067
പ്പോഴാണ്	-3068
.30	-3069
വകു	-3070
എച്ച്	-3071
രുക്ക	-3072
▁100	-3073
▁നമുക്ക്	-3074
▁ബുദ്ധിമു	-3075
മൊരു	-3076
▁ഇല്ലാത	-3077
വന	-3078
ിവ്	-3079
ിച്ചതാ	-3080
▁വെള്ളിയ	-3081
കൻ	-3082
▁രാജ്	-3083
▁ബന്ധം	-3084
▁മെന്റ്	-3085
▁നിന്നാണ്	-3086
▁31	-3087
ഫ്ര	-3088
ബോധ	-3089
▁എട്ട	-3090
▁തിരിച്ചു	-3091
▁സുഹൃത്തു	-3092
▁ലീഗ	-3093
ങ്ങളായ	-3094
▁ഇതിനു	-3095
ങ്ങാ	-3096
ിതിയ	-3097
▁യൂണി	-3098
ണമെന്നാണ്	-3099
▁കേന്ദ്രം	-3100
▁സ്ഥലം	-3101
ത്തിനിടെ	-3102
▁നേഹ	-3103
▁ശനിയ	-3104
▁വിശ്വസ	-3105
▁നിൽക്ക	-3106
ാക്കാന്‍	-3107
▁ഇടുക്കി	-3108
▁40	-3109
സമ്മ	-3110
▁അസ	-3111
▁ദൈവ	-3112
▁രാത്ര	-3113
ൻഡ്	-3114
▁പുരുഷ	-3115
▁നിങ്ങൾക്ക്	-3116
േല്‍	-3117
▁വാദ	-3118
▁വെട	-3119
▁ഒപ്പം	-3120
▁പ്രേക്ഷ	-3121
▁പുരോഗ	-3122
▁ഭൂമി	-3123
▁കോര്‍	-3124
▁നികുതി	-3125
▁സ്ത്രീകള	-3126
▁തുറക്ക	-3127
▁കൃഷി	-3128
▁പരിചയ	-3129
▁ആശുപത്രി	-3130
▁ഔദ്യോഗിക	-3131
al	-3132
▁ആശയ	-3133
▁പ്രതിയ	-3134
▁ഗവേഷ	-3135
▁മണിയ	-3136
▁പ്രസ്താവന	-3137
▁കൈമാ	-3138
ുന്നവര	-3139
▁സിന്‍	-3140
▁ആരംഭിക്ക	-3141
ധര	-3142
▁ല്‍	-3143
▁ബുധ	-3144
▁വെബ്	-3145
റ്റര്‍	-3146
▁സംഭവത്ത	-3147
▁മനസില	-3148
▁ഉയർന്ന	-3149
▁എന്നത	-3150
▁ജോര്‍ജ്	-3151
.1	-3152
▁സങ്ക	-3153
▁പ്രതികര	-3154
▁മന്ത്രിയ	-3155
ൺസ	-3156
▁പ്രസംഗ	-3157
ജന്യ	-3158
▁പക്ഷെ	-3159
▁ലക്ഷ്യമ	-3160
ിക്കുന്നുണ്ട്	-3161
മായത്	-3162
▁പേരെ	-3163
▁അൽ	-3164
▁പെരു	-3165
ിക്കാര	-3166
നട	-3167
ദ്ദേശം	-3168
▁ശ്രമം	-3169
▁വെല്ലു	-3170
▁അശ	-3171
ല്	-3172
▁വട	-3173
▁ലിം	-3174
▁പേര്‍ക്ക	-3175
▁അവസരം	-3176
▁ആക്രമണം	-3177
▁ഡോക്ടര്‍	-3178
▁വിധേയ	-3179
▁നിര്‍ത്ത	-3180
▁മൃ	-3181
▁പൂർത്തിയ	-3182
▁m	-3183
ീകരണം	-3184
▁മെയ്	-3185
ൊപ്പ	-3186
▁പാര	-3187
▁സാന്നി	-3188
▁മുന്നറിയിപ്പ്	-3189
▁ഗതാഗ	-3190
ടിയില്‍	-3191
▁സൂപ്പര്‍	-3192
▁ഇവർ	-3193
▁ആരും	-3194
▁മാതാ	-3195
▁നേട്ട	-3196
▁വിശേഷ	-3197
പ്രവർത്ത	-3198
▁വ്യവസായ	-3199
▁മറ്റുള്ള	-3200
▁കടന്ന	-3201
▁മടങ്ങ	-3202
▁ഉത്തരവ്	-3203
▁ചെയ്യുന്നത	-3204
▁മാര	-3205
▁പ്രചാരണ	-3206
▁ഥ	-3207
▁ജൂലൈ	-3208
▁നേരിട്ട്	-3209
ഡറ	-3210
▁സാങ്കേതിക	-3211
ിക്കണമെന്ന്	-3212
▁കറ	-3213
▁യാത	-3214
ഭോക്ത	-3215
▁ഇരുപ	-3216
▁ആവശ	-3217
▁പഠന	-3218
▁ഭാവ	-3219
▁ടൂ	-3220
▁അതിനു	-3221
▁ആരോഗ	-3222
▁നിലനി	-3223
▁റെയില്‍	-3224
താര	-3225
ച്ചി	-3226
▁അഡ്വ	-3227
▁ഹാജര	-3228
▁കൗണ്‍	-3229
▁വാഗ്ദ	-3230
▁(2	-3231
▁വളര	-3232
▁സിങ്	-3233
മായിട്ട	-3234
▁പങ്കുവെ	-3235
▁തമ്മിലുള്ള	-3236
▁ബേ	-3237
യോടെ	-3238
▁ശക്തി	-3239
ോഹ	-3240
ന്ത്യ	-3241
പ്രതി	-3242
▁കശ്മ	-3243
▁കാസര്‍കോട്	-3244
മത	-3245
▁വിത	-3246
▁അഭിഭാഷ	-3247
▁ദീപ	-3248
▁അനുസര	-3249
▁മക്കള	-3250
നാധിപത്യ	-3251
▁പിര	-3252
▁അഫ്	-3253
▁നിഷേധ	-3254
▁സാമൂഹ്യ	-3255
▁ഡിജി	-3256
▁കർഷ	-3257
കളാണ്	-3258
ുള്ളൂ	-3259
▁വീട്	-3260
▁നിര്‍മ്മ	-3261
▁മൊഴി	-3262
പ്രകാരം	-3263
▁കര്‍ഷക	-3264
▁പരിഹരിക്ക	-3265
ടുപ്പ	-3266
▁വ്യാഴ	-3267
▁വസ്ത്ര	-3268
▁രൂപയാണ്	-3269
ിക്കാനാണ്	-3270
▁രമേശ്	-3271
ഫല	-3272
▁അമ്പ	-3273
മീ	-3274
ശാ	-3275
ഹിത്യ	-3276
▁ലൈംഗിക	-3277
▁പ്രവേശിപ്പ	-3278
▁അദ്ധ	-3279
▁വിദ്യാർത്ഥ	-3280
കല	-3281
ച്ചിത്ര	-3282
▁വ്യവസ്ഥ	-3283
ുകൊണ്ടാണ്	-3284
▁തിങ്കളാഴ്ച	-3285
ഹാര	-3286
▁അണ	-3287
ക്ട്ര	-3288
▁അപ്പ	-3289
▁കിര	-3290
മാരായ	-3291
നില്‍ക്ക	-3292
▁ബജ	-3293
ട്ടിഫ	-3294
▁ഗാന	-3295
▁കാട്ട	-3296
▁വെള്ളിയാഴ്ച	-3297
്യയ	-3298
ബാദ്	-3299
ടിഞ്ഞ	-3300
ംപ്	-3301
വ്വാ	-3302
▁നിലയ	-3303
▁ചൂണ്ടിക്കാട്ടി	-3304
▁വർധ	-3305
▁ഒക്ടോ	-3306
▁ടെസ്റ്റ്	-3307
യാൾ	-3308
ൃഷ്ണ	-3309
▁2020	-3310
തികള്‍	-3311
▁ക്യാമറ	-3312
ോജ	-3313
ന്തി	-3314
▁ആലോ	-3315
▁ഒപ്പ	-3316
സര്‍ക്ക	-3317
▁അക്കൗണ്ട	-3318
▁പ്രവർത്തന	-3319
▁പങ്കെടുത്തു	-3320
.5	-3321
ബാധ	-3322
▁ഫെബ്ര	-3323
▁പ്രസിഡന്റ	-3324
▁മഹാരാഷ്ട്ര	-3325
കി	-3326
▁ലഭിച്ചത്	-3327
പുര	-3328
▁റണ്‍സ	-3329
▁മാധ്യമങ്ങള	-3330
▁നു	-3331
ായുള്ള	-3332
ഗണ	-3333
▁മാവ	-3334
▁എച്ച്	-3335
▁അടിയന്തര	-3336
▁പരാമര്‍ശ	-3337
▁അടക്കമുള്ള	-3338
▁സമാന	-3339
യിലായിര	-3340
▁നിര്‍ദേശം	-3341
▁തിരിച്ചറിയ	-3342
ഗോ	-3343
ഡു	-3344
ശേഖ	-3345
▁2019	-3346
▁തൃശൂര്‍	-3347
റെയ	-3348
▁1,	-3349
▁പിഴ	-3350
▁അമിത്	-3351
▁കേട്ട	-3352
▁വിട്ടു	-3353
▁സൗജന്യ	-3354
▁ചെയ്യാൻ	-3355
ഷ്ഠ	-3356
▁ഒള	-3357
സിനെ	-3358
▁അരു	-3359
▁ടെക്	-3360
▁നിരക്ക്	-3361
▁കാലാവസ്ഥ	-3362
ജിന	-3363
ർശന	-3364
▁ക്യാമ്പ	-3365
ിവാ	-3366
ര്‍ശന	-3367
ുവാന്‍	-3368
▁പിടികൂട	-3369
▁ബുധനാ	-3370
▁നടന്നു	-3371
▁കുട്ടിയ	-3372
സ്വാ	-3373
▁ക്രിസ്	-3374
▁കൊല്ലപ്പെട്ട	-3375
ചെയ്	-3376
▁അവര	-3377
വാര്‍	-3378
ത്തിന്റെയ	-3379
▁റേ	-3380
▁കാവ	-3381
ളുപ്പ	-3382
കയ	-3383
▁ഫ്	-3384
സിലെ	-3385
▁ആന്റ	-3386
▁നേരിട്ട	-3387
▁ചേര്‍ന്ന	-3388
▁ജനാധിപത്യ	-3389
▁താല്‍	-3390
▁ഭരണകൂ	-3391
▁പരിപാട	-3392
ഡിഎഫ	-3393
▁ധാര	-3394
ൗണ്ട്	-3395
▁രൂപീകര	-3396
▁ശ്രമിച്ച	-3397
▁ലേഖ	-3398
▁കൂടുതല	-3399
▁അരങ്ങ	-3400
ാമെന്ന്	-3401
▁മാനസിക	-3402
ൻറ്	-3403
▁ശമ്പ	-3404
േന	-3405
▁ഹര	-3406
ിനൊപ്പം	-3407
▁നാം	-3408
ൊരാ	-3409
ോണി	-3410
▁വടക്ക	-3411
▁യെ	-3412
▁ദില്ല	-3413
ുമെല്ലാം	-3414
▁29	-3415
വില്‍	-3416
.0	-3417
▁പ്രൊഫ	-3418
റ്റാണ്ട	-3419
▁മുന്‍പ്	-3420
സഹ	-3421
റാണ്	-3422
▁ജനുവരി	-3423
▁ഉൾപ്പെടെ	-3424
▁വേഗ	-3425
▁മിക്ക	-3426
▁വന്നത്	-3427
▁ഞായറാഴ്ച	-3428
ക്കാരെ	-3429
▁കൈമാറ	-3430
▁വില്‍	-3431
▁സമാധാന	-3432
▁അടച്ച	-3433
▁തദ്ദേശ	-3434
വിഡ	-3435
▁പഴ	-3436
യുമാ	-3437
▁ജാഗ്ര	-3438
▁മോട്ട	-3439
▁വില്ല	-3440
▁ശ്രമിക്ക	-3441
ന്‍റ്	-3442
പ്രത	-3443
▁ചുറ്റ	-3444
ിയില	-3445
നിര്‍	-3446
▁അഭ്യ	-3447
ുകി	-3448
▁ഗോള	-3449
▁പോര്‍	-3450
-1	-3451
ഗാ	-3452
▁പിൻ	-3453
▁സ്റ്റേഷന	-3454
▁കർ	-3455
ായ്മ	-3456
മ്മാണ	-3457
▁കേസിലെ	-3458
▁മത്സരം	-3459
▁അമേരിക്കന്‍	-3460
ിയുള്ള	-3461
▁എവിടെ	-3462
▁ഒരേ	-3463
▁അംഗീ	-3464
▁പോളി	-3465
▁സൂര്യ	-3466
▁പങ്കെടുത്ത	-3467
▁ചെറ	-3468
▁ഒമ്പ	-3469
▁കൊണ്ടു	-3470
ിടെ	-3471
ുടേയ	-3472
▁ഗ്രൂപ്പ	-3473
േട്ട	-3474
▁യാതൊരു	-3475
രാജ്	-3476
▁അവി	-3477
▁അസി	-3478
▁വിച	-3479
▁ആശ്ര	-3480
▁കോളേജ്	-3481
ൃതി	-3482
▁മതിയ	-3483
▁മുട്ട	-3484
▁യുവതിയ	-3485
▁സുരക്ഷിത	-3486
▁വാദം	-3487
വര്‍ക്ക	-3488
www	-3489
വരില്‍	-3490
▁അനി	-3491
▁ഞാന	-3492
റുകള്‍	-3493
ുമായുള്ള	-3494
ക്കട	-3495
ാരായണ	-3496
▁നിമി	-3497
▁തിരികെ	-3498
▁നിങ്ങള്‍	-3499
▁ജസ്റ്റിസ്	-3500
മുണ്ടായിര	-3501
ംബർ	-3502
▁തള	-3503
ിവേഴ്	-3504
ബൂ	-3505
▁താഴെ	-3506
ലുകള്‍	-3507
▁വിപണിയ	-3508
▁ഡിവ	-3509
ൂരിലെ	-3510
▁ഒന്ന്	-3511
▁പ്രളയ	-3512
▁പ്രശ്ന	-3513
ലീ	-3514
▁ടീ	-3515
▁തുടക്കം	-3516
ിട്ടുള്ളത്	-3517
▁ക്യാപ്റ്റ	-3518
തോടെയാണ്	-3519
▁പിന്‍വല	-3520
ശങ്ക	-3521
▁ഗുജ	-3522
▁ഡല്‍ഹി	-3523
▁നിര്‍ബന്ധ	-3524
▁ക്രൂര	-3525
com	-3526
ാന്‍സ്	-3527
ിന്‍െറ	-3528
▁യുവാവ്	-3529
▁സീറ്റ്	-3530
▁രാജ്യം	-3531
ങ്ങളുമാ	-3532
▁കാമ	-3533
ര്‍ത്ഥ	-3534
ള്‍ക്ക	-3535
▁പറയുന്ന	-3536
▁പ്രശസ്ത	-3537
an	-3538
▁ഛ	-3539
▁നിർമ്മ	-3540
▁മന്ത്രാലയം	-3541
▁പത	-3542
റിലെ	-3543
ൂടിയ	-3544
▁മുകള	-3545
▁നഗരസഭ	-3546
▁കാര്യത്തില്‍	-3547
er	-3548
▁റഷ്യ	-3549
▁മുതിര്‍ന്ന	-3550
പന	-3551
▁ഹൈദ	-3552
▁സ്വാധ	-3553
▁ചൊവ്വാ	-3554
▁മാര്‍ച്ച്	-3555
▁മയ	-3556
▁ദിവസവ	-3557
▁പ്രാഥ	-3558
ുന്നതിനിടെ	-3559
ുവിനെ	-3560
ംഗളൂ	-3561
▁ഫുട്	-3562
ങ്ങനെയാണ്	-3563
▁ഇല്ലാത്ത	-3564
▁ശനിയാഴ്ച	-3565
▁വര്‍ദ്ധ	-3566
▁വരുന്നത്	-3567
▁നല്‍കാന്‍	-3568
▁ഭൂരിപക്ഷ	-3569
▁ഒരുമ	-3570
▁വനിത	-3571
▁ഖത്ത	-3572
▁കണ്ട്	-3573
▁സേവന	-3574
നായിര	-3575
▁പത്ത്	-3576
▁നിശ്ചയ	-3577
▁പോലുള്ള	-3578
ിക്കുന്നതിന	-3579
ളവ്	-3580
▁ഘടക	-3581
▁ക്ക്	-3582
▁ഇറങ്ങ	-3583
ഗതി	-3584
▁മാറ്റം	-3585
ിമ	-3586
▁കാത്തിരിക്ക	-3587
▁ശാ	-3588
▁എഡി	-3589
യാത്ര	-3590
ക്കിടെ	-3591
▁എട്ട്	-3592
▁ഹൈക്കോട	-3593
▁ഞങ്ങള	-3594
പതി	-3595
ത്തരം	-3596
▁കലാപ	-3597
▁ബാബു	-3598
▁അതില്‍	-3599
▁ഉണ്ടാവ	-3600
ത്തിലായിര	-3601
രാക	-3602
ൻറെ	-3603
▁ഹൗ	-3604
ാനു	-3605
▁നാള	-3606
▁ബിരു	-3607
നേഹ	-3608
▁കോളജ	-3609
▁മകന്‍	-3610
എൻ	-3611
ാളം	-3612
▁നഴ്	-3613
▁വാഹനം	-3614
▁പ്രാദേശ	-3615
▁വ്യാപാര	-3616
ഡിന	-3617
▁ഡല്‍ഹ	-3618
▁ആവശ്യപ്പെട്ട്	-3619
ധാവി	-3620
വിശേഷ	-3621
ിലായത്	-3622
▁രഹസ്യ	-3623
▁വിജില	-3624
▁കലാ	-3625
▁ഫൈന	-3626
െയര്‍	-3627
▁2018	-3628
വശ	-3629
▁പാത	-3630
▁ഒരാള	-3631
സ്ഥാന്‍	-3632
ോല	-3633
േരിയ	-3634
ടുത്തു	-3635
യ്ക്കാ	-3636
ഘാത	-3637
യാക	-3638
▁അലി	-3639
▁തയാറ	-3640
▁ഹൃദയ	-3641
▁ഡൗ	-3642
ിഞ്ഞ്	-3643
്യൂണി	-3644
▁മുസ്ലിം	-3645
▁പ്രാഥമിക	-3646
ണമെ	-3647
ിന്യ	-3648
▁വീണ	-3649
▁സിബിഐ	-3650
▁അടങ്ങിയ	-3651
▁കുടുംബത്ത	-3652
▁നല്‍കിയിര	-3653
റയ	-3654
▁35	-3655
▁സബ്	-3656
▁കുടു	-3657
▁മാസ്	-3658
മാധ്യമ	-3659
▁ഇത്രയ	-3660
▁തിരഞ്ഞെടുപ്പ	-3661
ഴ്ച്ച	-3662
▁നിലവിലെ	-3663
സ്തു	-3664
▁യൂറോ	-3665
▁വയ്ക്ക	-3666
▁ആവശ്യപ്പെട	-3667
▁പ്രസിദ്ധീകര	-3668
▁കരി	-3669
▁സമീപം	-3670
▁യൂത്ത്	-3671
▁ചലച്ചിത്ര	-3672
▁പ്രവര്‍ത്തകര്‍	-3673
▁ഷി	-3674
ാനന്ദ	-3675
▁പുറമെ	-3676
▁മൊബൈല്‍	-3677
സേന	-3678
▁കുള	-3679
▁ഏഷ്യ	-3680
▁ക്ലബ്	-3681
▁ഉപഭോക്ത	-3682
re	-3683
▁പുസ്തക	-3684
▁ചെയ്യുക	-3685
▁പരിപാടി	-3686
ൻഡ	-3687
▁യോഗത്തില്‍	-3688
ുകെ	-3689
പുരം	-3690
▁ഐപി	-3691
▁ഭാര്യയ	-3692
▁വൈദ്യുതി	-3693
ഭരണ	-3694
▁കാണാം	-3695
▁അയ്യ	-3696
▁നിറഞ്ഞ	-3697
▁ശ്രദ്ധേയ	-3698
▁നിര്‍ദ്ദേശ	-3699
ർമ	-3700
▁പ്രതികരണം	-3701
ാലോ	-3702
▁ക്ലാസ്	-3703
വിന്	-3704
▁കപ്പ	-3705
▁നാഷണ	-3706
▁വര്‍ഗ	-3707
.20	-3708
▁കുറച്ചു	-3709
▁ഉത്തരവാദി	-3710
ിക്കുമ്പോള്‍	-3711
▁പുത	-3712
▁നന്നാ	-3713
ുമൊക്കെ	-3714
▁ബുധനാഴ്ച	-3715
ിലെത്തി	-3716
▁യുഡിഎഫ്	-3717
▁വിഷയത്തില്‍	-3718
▁പുത്ത	-3719
▁അടക്കം	-3720
▁ഏതെങ്കില	-3721
ളീ	-3722
ത്തോട്	-3723
▁ഒരാള്‍	-3724
▁കര്‍ണാടക	-3725
ുവാ	-3726
▁മൗ	-3727
▁കാണാത	-3728
▁ആറു	-3729
▁കയറി	-3730
▁അക്കാ	-3731
▁പഞ്ചാ	-3732
▁ഓണ്‍ലൈ	-3733
ന്‍ഡ	-3734
▁മറിക	-3735
റിനെ	-3736
ിച്ചതോടെ	-3737
▁ബോളിവു	-3738
▁അധ്യക്ഷത	-3739
്വ	-3740
▁(1	-3741
താക്	-3742
▁ഗര്‍	-3743
▁;	-3744
പാല	-3745
▁തിള	-3746
ിക്കാത്ത	-3747
▁ഉമ്മന്‍	-3748
▁പ്രകടിപ്പ	-3749
▁രീതിയില്‍	-3750
▁2017	-3751
▁വിറ്റ	-3752
▁മധു	-3753
▁ചൈനീസ്	-3754
▁ലക്ഷ്യ	-3755
▁കസ്റ്റഡിയ	-3756
േശ	-3757
ണ്ടിയ	-3758
ിട്ടു	-3759
ാര്‍ഡ്	-3760
▁പരമാ	-3761
▁മുന്നോട്ട്	-3762
യൂ	-3763
▁തട്ടി	-3764
സ്മ	-3765
ധാകര	-3766
▁തിക	-3767
▁വിനോദ	-3768
▁വീഡിയോ	-3769
▁60	-3770
ന്മാ	-3771
▁സേന	-3772
▁വെട്ട	-3773
▁ഭരണഘ	-3774
മുണ്ടാക	-3775
▁മേധാവി	-3776
▁ഇലക്ട്ര	-3777
▁പഞ്ചായത്ത	-3778
▁പൂജ	-3779
▁യുഎഇ	-3780
ികൾക്ക	-3781
▁ഒരിക്കല	-3782
▁ചോദിച്ചു	-3783
▁തമ്മില്‍	-3784
ണല്‍	-3785
▁ജോല	-3786
ധിത	-3787
േണ്ടത	-3788
▁വിജയ്	-3789
വു	-3790
വൻ	-3791
tha	-3792
വാർ	-3793
ോക്ക	-3794
▁സിംഗ്	-3795
▁ഓൺ	-3796
▁ക്വാറ	-3797
▁ഗവര്‍	-3798
▁കെട്ടിട	-3799
▁പ്രാദേശിക	-3800
▁സിന	-3801
▁അക്ഷ	-3802
ുകള്‍ക്ക	-3803
▁കാണാന്‍	-3804
▁ഒരുക്കിയ	-3805
▁നം	-3806
▁യോഗ്യ	-3807
▁വരെയുള്ള	-3808
രീ	-3809
ായാല	-3810
▁വയനാട്	-3811
▁യൂണിയ	-3812
▁സംഘര്‍ഷ	-3813
ുവേണ്ടി	-3814
▁പ്രകടനം	-3815
▁സ്ഥാനാര്‍ഥ	-3816
▁ലേ	-3817
ച്ചവ	-3818
വിദ്യ	-3819
▁കാലം	-3820
▁അപകടം	-3821
▁സന്ദേശ	-3822
രാമ	-3823
▁സല	-3824
ാറുണ്ട്	-3825
▁ഞങ്ങള്‍	-3826
ുന്നതിനുള്ള	-3827
▁പഠനം	-3828
ുമുട്ട	-3829
സാധ	-3830
ണായക	-3831
▁സാംസ്	-3832
▁ആദ്യത്തെ	-3833
▁ഗ്രൂപ്പ്	-3834
▁സ്ഥിരീകരിച്ചത്	-3835
കാര്യം	-3836
▁പ്രധാനമന്ത്രിയ	-3837
▁രോ	-3838
ാരിയ	-3839
▁സിന്	-3840
വിരുദ്ധ	-3841
▁പൊലിസ്	-3842
▁സന്ദർശ	-3843
▁പ്രവര്‍ത്തക	-3844
▁കയറ	-3845
▁അദ്ദേഹത്തെ	-3846
▁2016	-3847
ുമ്പോൾ	-3848
▁സിപിഐ	-3849
▁അറിഞ്ഞ	-3850
▁പിന്തുണയ	-3851
▁യുഎസ്	-3852
ുകൊണ്ടിരിക്ക	-3853
▁തിരഞ്ഞെടുക്ക	-3854
ഞ്ചേരി	-3855
▁ഐക്യ	-3856
▁വായ്പ	-3857
▁ടെസ്റ്റ	-3858
▁ബിന	-3859
ികളില	-3860
▁വിജയന്‍	-3861
ല്ലി	-3862
▁അമിത	-3863
▁ഫോര്‍	-3864
▁അഭിനന്ദ	-3865
▁ഫോറ	-3866
്യത	-3867
▁പാക്കി	-3868
▁ജില്ലകള	-3869
▁അംബ	-3870
▁ടൂറി	-3871
▁കാലാവ	-3872
▁വിക്കറ്റ്	-3873
▁വൻ	-3874
നാഥ്	-3875
സിറ്റ	-3876
▁അച്ച	-3877
▁മുറിയ	-3878
▁മസ്	-3879
ാലാണ്	-3880
▁താലൂ	-3881
▁ബസ	-3882
ുന്നതില്‍	-3883
▁കൊണ്ടുവര	-3884
തമ	-3885
ജന്‍	-3886
▁ഏത്	-3887
▁വെറ	-3888
▁സീസണ	-3889
▁റെക്ക	-3890
ിക്കുകയാണ	-3891
▁ന്യൂഡൽഹി	-3892
▁ഫേസ്ബുക്ക്	-3893
▁വിപണ	-3894
▁വേദന	-3895
▁ജോലിയ	-3896
ുന്നതിനാ	-3897
▁ഫ്ല	-3898
▁റെഡ്	-3899
▁വാങ്ങിയ	-3900
▁വ്യാഴാഴ്ച	-3901
▁നൈ	-3902
ക്കര	-3903
▁താൻ	-3904
▁മകള	-3905
ത്തിയിര	-3906
▁മുഴുവൻ	-3907
▁തുടങ്ങിയവ	-3908
ളിത	-3909
▁സെക്ക	-3910
▁മാതാപിത	-3911
▁അഫ്ഗ	-3912
ർത്ഥ	-3913
▁മഞ്ഞ	-3914
▁ഇതിനെ	-3915
ുകൊണ്ടു	-3916
▁തൊഴില്‍	-3917
▁വിളിച്ചു	-3918
യിട	-3919
ുദ്ധ	-3920
▁ആലോച	-3921
▁ധാരണ	-3922
▁നടന്‍	-3923
▁സംഘടനയ	-3924
▁തൊട്ട	-3925
▁പാര്‍ല	-3926
▁കൂടിയാണ്	-3927
▁പ്രാധാ	-3928
ഭാഗം	-3929
ുപോയ	-3930
▁സെപ്റ്റ	-3931
ഗമ	-3932
▁എംപി	-3933
▁ക്ലാസ	-3934
ചി	-3935
ശ്രീ	-3936
▁198	-3937
▁ചുവ	-3938
▁എഴുത്ത	-3939
▁മോഹന്‍ല	-3940
▁സ്വതന്ത്ര	-3941
▁ഉദ്യോഗസ്ഥര	-3942
സമി	-3943
▁സ്നേഹ	-3944
ചിത	-3945
artha	-3946
▁അറിയിച്ചത്	-3947
▁തുടര്‍ന്നാണ്	-3948
വായ	-3949
▁മോദിയ	-3950
▁സ്കൂള	-3951
▁പ്രവാസി	-3952
ിലൂടെയാണ്	-3953
''	-3954
▁റിയാ	-3955
▁സെന്‍	-3956
▁സാഹിത്യ	-3957
▁ചൊവ്വാഴ്ച	-3958
മ്പു	-3959
യല്‍	-3960
▁നൂറ	-3961
നാട്ട	-3962
▁ഡിസ്	-3963
ിച്ചെങ്കില	-3964
▁എന്തു	-3965
▁വിദഗ്ധ	-3966
ിങ്	-3967
ുവീ	-3968
▁അവള	-3969
▁മെച്ച	-3970
ുന്നില്ലെന്ന	-3971
.4	-3972
99	-3973
▁പോരാട്ട	-3974
ടിയാ	-3975
ർത്തി	-3976
▁മേഖലയില്‍	-3977
ിഞ്ഞു	-3978
ിന്റ്	-3979
▁സമർപ്പ	-3980
▁ആവശ്യമായ	-3981
▁എഴുതിയ	-3982
േര്‍ത്തു	-3983
▁മാണി	-3984
▁കണ്ണൂർ	-3985
▁പോകുന്ന	-3986
വരു	-3987
ോയി	-3988
▁പലത	-3989
▁അത്യ	-3990
▁പണ	-3991
ക്കുമ	-3992
▁സ്വീകരിക്ക	-3993
ാഗ്	-3994
സിസ്	-3995
▁ജോണ്‍	-3996
▁നടപ്പിലാക്ക	-3997
ദാസ്	-3998
▁ശ്രീന	-3999
▁മാത്യു	-4000
▁രോഗികള	-4001
▁കുറച്ച്	-4002
▁ജനങ്ങള്‍	-4003
ബറ	-4004
വ്യ	-4005
പഞ്ച	-4006
ജിത്ത്	-4007
▁കുമാറ	-4008
▁ചെയര്‍മാന്‍	-4009
▁എന്നായിര	-4010
▁വിയ	-4011
▁സഭാ	-4012
ദിവസം	-4013
▁റെയ്	-4014
▁തങ്ങള്‍	-4015
▁വഹിച്ചു	-4016
▁പിന്നാലെയാണ്	-4017
ഷാ	-4018
▁അധികം	-4019
▁കേന്ദ്രസര്‍ക്ക	-4020
ുവെന്ന	-4021
▁എളുപ്പ	-4022
▁ട്രംപ്	-4023
▁ഡയറക്ടര്‍	-4024
ക്യൂ	-4025
ിനിയ	-4026
▁പോവ	-4027
▁സസ്	-4028
▁ഇന്റര്‍	-4029
▁പ്രവർത്തിക്ക	-4030
▁അജ	-4031
▁ഇരിക്ക	-4032
▁റവ	-4033
ൃത്ത	-4034
▁വീതം	-4035
▁ഗോള്‍	-4036
വത്	-4037
ക്ഷന്‍	-4038
▁ഹൈദരാ	-4039
▁അതിനാല്‍	-4040
▁അബു	-4041
രണത്ത	-4042
▁എഴുത	-4043
▁വിക്കറ്റ	-4044
ഗോപ	-4045
▁തന	-4046
▁മണ്ഡലം	-4047
▁സാഹചര്യത്ത	-4048
▁ബുദ്ധിമുട്ട	-4049
പൊ	-4050
ീക	-4051
▁ബൗ	-4052
വില	-4053
▁കുറയ	-4054
▁മാതൃക	-4055
ലയ	-4056
ഹ്മ	-4057
▁സിംഗ	-4058
▁എങ്കില	-4059
▁ജില്ലയ	-4060
▁ആയിരിക്ക	-4061
ോഷ്	-4062
്രമ	-4063
▁കൺ	-4064
വുമാണ്	-4065
▁അയച്ച	-4066
▁എന്ത്	-4067
▁നിര്‍മ	-4068
▁സ്ഥാപനങ്ങള	-4069
ഞ്ജു	-4070
▁സഖ്യ	-4071
▁സുപ്രീംകോടതി	-4072
▁ഫെയ്	-4073
▁നാട്ടുകാര	-4074
▁മന്ത്രിസഭ	-4075
ചാ	-4076
എല്ല	-4077
▁സിവ	-4078
ധുനിക	-4079
യുക്ത	-4080
റ്റിക്	-4081
▁ഇതിനാ	-4082
ിക്കുന്നതാണ്	-4083
മ്പാ	-4084
▁പുറത്തുവന്ന	-4085
▁രജിസ്റ്റര്‍	-4086
ക്ഷോഭ	-4087
▁അംഗം	-4088
സ്ഥിതി	-4089
▁പ്രതിനിധ	-4090
▁ഏറ്റെടുക്ക	-4091
ംശ	-4092
▁ഏതാന	-4093
▁അക്കാദ	-4094
▁വാഗ്ദാനം	-4095
ിവാസ	-4096
▁ചുരു	-4097
▁കൂടിക്ക	-4098
▁നാട്	-4099
▁പ്രിയങ്ക	-4100
േറ്റം	-4101
▁ഇടം	-4102
മാണിത്	-4103
▁പച്ചക്ക	-4104
▁സ്വദേശിയായ	-4105
▁ഞങ്ങൾ	-4106
ലിക	-4107
▁''	-4108
▁പാവ	-4109
▁ഗതാഗത	-4110
▁പിടിച്ചു	-4111
▁ഉദ്യോഗസ്ഥര്‍	-4112
▁പ്രവര്‍ത്തകര	-4113
രാണ	-4114
േരം	-4115
▁റൈ	-4116
▁ആഗോള	-4117
കേന്ദ്ര	-4118
▁ഇതിനിടെ	-4119
▁പിന്നില്‍	-4120
ത്സവ	-4121
ക്കാർ	-4122
▁പ്രകാശ	-4123
▁മത്സരത്തില്‍	-4124
▁?	-4125
▁സെന്റ്	-4126
യാന്‍	-4127
▁മുൻപ്	-4128
▁പിതാവ്	-4129
▁നടത്താന്‍	-4130
േത്	-4131
▁നടത്തിയിര	-4132
▁ഫെബ്രുവരി	-4133
▁അത്ര	-4134
▁നന്ദി	-4135
▁വിദ്യാർഥ	-4136
60	-4137
▁ലു	-4138
▁യൂണ	-4139
▁ദമ്പ	-4140
▁റണ്‍സ്	-4141
ിട്ടുണ്ട	-4142
നമ	-4143
▁ആധ	-4144
▁എയർ	-4145
▁മരുന്ന	-4146
▁പേർക്ക്	-4147
▁ചിത്രങ്ങള	-4148
ടേയ	-4149
ിനെതിരായ	-4150
▁അഴ	-4151
▁ഓസ്	-4152
സ്ഥാപ	-4153
ിപ്പോ	-4154
▁ലണ്ട	-4155
തെന്നാണ്	-4156
▁ഓണ്‍ലൈന്‍	-4157
▁കറു	-4158
▁സുധ	-4159
▁പാക്	-4160
▁ആവശ്യമ	-4161
▁സംയുക്ത	-4162
റാം	-4163
▁ദൈ	-4164
ധികൃത	-4165
ടങ്ങിയ	-4166
▁ഓഫീസര്‍	-4167
▁നങ്ങള്‍	-4168
▁ലഭ്യമാക്ക	-4169
▁ചെയ്തിരിക്ക	-4170
!!	-4171
▁(3	-4172
▁താന	-4173
തുണ്ട്	-4174
ിനുശേഷം	-4175
▁സുധാകര	-4176
പൂ	-4177
പര്യ	-4178
യാക്ക	-4179
▁ജന്മ	-4180
▁പേരു	-4181
ോടുള്ള	-4182
▁കോളജ്	-4183
▁തള്ളി	-4184
▁പരിസര	-4185
▁ശ്രീല	-4186
▁നൽകിയത്	-4187
▁ബോര്‍ഡ്	-4188
▁ആക്	-4189
▁സംശ	-4190
▁ഉറപ്പാക്ക	-4191
▁വക	-4192
▁പകു	-4193
▁ദിലീപ	-4194
ുകയാണെന്ന	-4195
▁ഉയര്‍ത്ത	-4196
▁വൈകിട്ട്	-4197
▁നാമ	-4198
▁2021	-4199
▁സമ്മത	-4200
▁ആയുധ	-4201
▁എഞ്ച	-4202
▁എന്താണ്	-4203
▁തിരക്കഥ	-4204
ക്കുറിച്ച	-4205
▁കൂടിക്കാഴ്ച	-4206
▁ഫോൺ	-4207
ഷറ	-4208
▁പാട്ട	-4209
▁തുടർന്ന	-4210
പൂർ	-4211
ായി	-4212
▁ബോർ	-4213
▁കുടിയ	-4214
▁ബില്ല	-4215
▁വർദ്ധ	-4216
▁ആസ്ഥാന	-4217
▁ബാധിച്ച്	-4218
നാഥ	-4219
▁ഏർ	-4220
▁ബ്രാ	-4221
▁ശാര	-4222
▁സഹകരണ	-4223
▁നിയന്ത്രണം	-4224
▁കയറിയ	-4225
▁മുന്‍പ	-4226
ദായ	-4227
▁കൃഷ	-4228
▁പാസ	-4229
▁ലോകം	-4230
▁മന്ത്രാലയ	-4231
സിൻ	-4232
ീറ്റ്	-4233
▁ഡിവൈ	-4234
ങ്ങാട്	-4235
▁കായിക	-4236
▁ഭർത്ത	-4237
▁ഫൈ	-4238
ാള്‍	-4239
▁മതി	-4240
▁ഭക്ഷ്യ	-4241
ിലേയ്ക്ക്	-4242
▁ഭര്‍ത്താവ	-4243
െയർ	-4244
ുവാൻ	-4245
▁ഭാരവാഹ	-4246
▁ആളുകള്‍	-4247
▁ഉള്‍പ്പെടെയുള്ള	-4248
2,	-4249
▁സയ	-4250
▁പെര	-4251
▁നായിക	-4252
▁ബംഗ്ല	-4253
▁ഡേ	-4254
ക്കല്‍	-4255
▁അതിനെ	-4256
▁തുടര്‍ച്ച	-4257
ോയ്	-4258
ദണ്ഡ	-4259
ജീവിത	-4260
▁2014	-4261
▁വിഷയം	-4262
▁സുന്ദ	-4263
▁ഒരുപാട്	-4264
▁മാറ്റിയ	-4265
▁സഖ	-4266
▁ഓക്	-4267
▁ചെല	-4268
▁മോഹൻ	-4269
▁സജ്ജ	-4270
▁പ്രമേ	-4271
▁റെയില്‍വേ	-4272
▁അഖ	-4273
▁നാടക	-4274
▁രണ്ടാമത്തെ	-4275
▁ചിത്രങ്ങള്‍	-4276
റ്റർ	-4277
ന്‍പ	-4278
▁ചെയർ	-4279
▁പൗരത്വ	-4280
നമാണ്	-4281
▁കാരം	-4282
▁തേടിയ	-4283
▁കണ്ടത്	-4284
▁പാകിസ്ത	-4285
▁കുറിച്ചു	-4286
ാന്‍ഡ്	-4287
രുതെന്ന	-4288
ിച്ചതിനെ	-4289
ാലിയ	-4290
▁ദുരി	-4291
ഫിയ	-4292
മാറ്റ	-4293
▁ഇസ്ല	-4294
▁സേവനം	-4295
▁ഓഗ	-4296
പ്പടെ	-4297
▁ജാമ്യം	-4298
▁മാനേജ്	-4299
▁പ്രവര്‍ത്തനം	-4300
നിർ	-4301
▁പിതാവ	-4302
കാശ്	-4303
▁കഴിഞ്ഞ്	-4304
▁തീവ്രവാദ	-4305
▁സിപിഎമ്മ	-4306
▁കുട്ടികളെ	-4307
▁യാത്രക്കാര	-4308
ധരന്‍	-4309
▁മുത്ത	-4310
ക്കെട്ട	-4311
പരിശ	-4312
ാരംഭ	-4313
കൾക്ക്	-4314
ുന്നവര്‍	-4315
.2	-4316
▁ബാന	-4317
▁ബിഷ	-4318
വ്യാപ	-4319
▁ചെയ്തിട്ടുണ്ട്	-4320
ില്യ	-4321
▁വിശദീകരണം	-4322
▁ടെലി	-4323
ത്താന്‍	-4324
▁ധാരാളം	-4325
▁റിലീസ്	-4326
▁സുഹൃത്തുക്കള	-4327
ഹം	-4328
▁വസ	-4329
▁അയാള	-4330
▁പരമാവധി	-4331
▁പ്രചരിപ്പ	-4332
തന	-4333
ചനം	-4334
▁ഭി	-4335
▁രു	-4336
പന്ന	-4337
▁കെട്ട	-4338
▁ചാമ്പ്യ	-4339
▁പ്രതിസന്ധി	-4340
ിൻ	-4341
▁കാമുക	-4342
▁ഏകദേശം	-4343
▁ഒരുങ്ങ	-4344
▁പ്രചാര	-4345
▁സുഖ	-4346
▁തേടി	-4347
▁വെറു	-4348
▁നിയോഗ	-4349
▁ആര്‍ക്ക	-4350
▁ലഭിച്ചു	-4351
▁താഴ്	-4352
ൊക്കെയ	-4353
▁യൂണിവേഴ്	-4354
േഡ്	-4355
▁അസു	-4356
േഴ്സ്	-4357
▁താത്	-4358
▁മേഖലയ	-4359
േക്കാള്‍	-4360
▁പിന്തുട	-4361
ാവുന്നതാണ്	-4362
▁വര്‍ഷത്തെ	-4363
ക്കാര്‍ക്ക്	-4364
ിക്കൊ	-4365
▁മുഖം	-4366
▁വിചാരണ	-4367
ിച്ചപ്പോള്‍	-4368
ജിത്	-4369
▁നിര്‍വഹ	-4370
▁പരിപാടിയ	-4371
▁എന്തെങ്കില	-4372
40	-4373
▁ശബ്ദ	-4374
▁ചേർന്ന	-4375
▁ഈട	-4376
▁ലൈസ	-4377
▁കിരീ	-4378
വീറ്റ്	-4379
▁കോൺഗ്രസ	-4380
▁വൈകുന്ന	-4381
▁താമസിക്ക	-4382
മിത	-4383
▁രമ	-4384
ർദ്ദ	-4385
▁വാർ	-4386
▁മാനേജ	-4387
പ്പെട്ടിര	-4388
▁ഹർ	-4389
▁യാഥ	-4390
▁ആഗ്രഹിക്ക	-4391
5,	-4392
▁സന്ന	-4393
മില്ലാത്ത	-4394
▁ആശുപത്രിയിലെ	-4395
7,	-4396
▁നല്	-4397
ത്സാഹ	-4398
ദ്വീപ	-4399
ന്‍സി	-4400
ർക്ക്	-4401
▁ആവേശ	-4402
േഷനില്‍	-4403
▁ഏറ്റുമുട്ട	-4404
ഗു	-4405
▁എഴ	-4406
ഭാവന	-4407
ന്റെയ	-4408
▁മാനദണ്ഡ	-4409
▁സ്ഥലത്ത്	-4410
70	-4411
ുമല്ല	-4412
▁ഓപ്പ	-4413
▁ബിഗ്	-4414
▁ഓഫീസ്	-4415
▁ബന്ധുക്കള	-4416
▁സാഹചര്യത്തിലാണ്	-4417
▁ഉദ്ദേശ	-4418
▁കേസുകള	-4419
▁സൊ	-4420
ർഷിക	-4421
▁കൈകാര്യം	-4422
▁രാധ	-4423
▁ഭാരത	-4424
ത്തിനെതിരെ	-4425
▁നൗ	-4426
ന്വേഷ	-4427
ിറങ്ങ	-4428
▁ട്രേലിയ	-4429
ര്	-4430
ദാഹ	-4431
▁ഉടൻ	-4432
▁ജഡ്	-4433
സംഖ്യ	-4434
▁മേല്‍	-4435
▁വരാ	-4436
▁വാത	-4437
▁2015	-4438
▁ഇടപാട	-4439
▁ഞെട്ട	-4440
▁മത്സ്യ	-4441
ബല	-4442
ഫ്റ്റ്	-4443
▁ആന്‍ഡ്	-4444
▁സമൂഹത്ത	-4445
▁വെല്ലുവിള	-4446
▁ശശ	-4447
▁വൈറല	-4448
റിഞ്ഞ്	-4449
▁ബ്ലോക്ക്	-4450
▁വ്യക്തമാക്കിയ	-4451
▁ജിയ	-4452
ന്ദിര	-4453
▁പ്രയാ	-4454
▁നല്‍കും	-4455
▁നേടിയത്	-4456
▁പ്രതികളെ	-4457
▁ജോർ	-4458
ചിത്ര	-4459
▁ഇരട്ട	-4460
ക്കണക്ക	-4461
▁എനിക്ക	-4462
കരു	-4463
തിമ	-4464
▁പാറ	-4465
ാനിരിക്ക	-4466
ിപ്പിച്ചത്	-4467
▁ലൂ	-4468
▁വിസ	-4469
▁ഇറ്റ	-4470
▁രക്ഷാ	-4471
▁സ്പീക്ക	-4472
ഹാരം	-4473
▁വൈകീ	-4474
▁ഇറക്ക	-4475
▁പെന്‍	-4476
▁സവിശേഷ	-4477
ൽഹ	-4478
▁കര്‍ശന	-4479
▁അടുത്തിടെ	-4480
ചക	-4481
▁s	-4482
▁ചേർ	-4483
▁കുറിച്ച	-4484
▁വിമർശ	-4485
▁ഏപ്രില്‍	-4486
▁നിര്‍മാണ	-4487
▁പരിശീലനം	-4488
ാകെ	-4489
ൊന്ന്	-4490
▁അനധികൃത	-4491
▁കുടുംബം	-4492
▁ബൂ	-4493
▁ആശംസ	-4494
▁രൂപം	-4495
▁മെട്ര	-4496
▁കമ്മീഷന്‍	-4497
4,	-4498
ഡുകള	-4499
▁നീല	-4500
▁മൃഗ	-4501
ലക്ഷം	-4502
ത്തിലേ	-4503
▁ഉപകരണ	-4504
▁കൊള്ള	-4505
▁ട്വീറ്റ്	-4506
▁ചടങ്ങില്‍	-4507
,,	-4508
6,	-4509
▁മോശ	-4510
▁ഓര്‍	-4511
▁കുന്ന	-4512
▁കെഎസ്	-4513
▁ദുരിത	-4514
സ്റ്റിക്	-4515
▁തര്‍ക്ക	-4516
▁രേഖപ്പെടുത്ത	-4517
ങ്ങളെയ	-4518
▁തകര്‍	-4519
▁കേന്ദ്രീകര	-4520
ര്‍ഥ	-4521
▁ഡീസ	-4522
▁അറ്റ	-4523
▁ബ്ലാ	-4524
ക്യൂട്ട	-4525
▁വ്യത്യാ	-4526
ാക്രമ	-4527
▁മനോഹര	-4528
▁ബാധിക്ക	-4529
▁ചെയ്യുകയ	-4530
▁ചിത്രത്തില്‍	-4531
▁)	-4532
▁ബല	-4533
▁തേട	-4534
▁മല്‍	-4535
▁സ്വഭാവ	-4536
▁കാലാവധി	-4537
ജാ	-4538
▁ട്വ	-4539
പെട്ട	-4540
▁സ്ട്ര	-4541
▁ട്രെയിന	-4542
▁നാട്ടില്‍	-4543
▁ഗൗ	-4544
▁മണിക്ക്	-4545
▁ലോകത്തെ	-4546
▁നോട്ടീസ്	-4547
ലോക	-4548
േശ്	-4549
്മി	-4550
നിൽക്ക	-4551
▁ഏകദിന	-4552
▁സ്റ്റേ	-4553
▁കൊള	-4554
ത്തിനെ	-4555
▁കഴിക്ക	-4556
▁”	-4557
ഞ്ചു	-4558
▁കല്യാ	-4559
▁ഇന്നത്തെ	-4560
ിപ്പിക്കാന്‍	-4561
3,	-4562
▁നീതി	-4563
കാലത്ത്	-4564
പ്രദേശ്	-4565
▁നോക്കിയ	-4566
ബാദ	-4567
വിഷ	-4568
ികര	-4569
ന്യാ	-4570
▁ചൈനയ	-4571
▁പുനര	-4572
വിട്ടു	-4573
ിനെതിരേ	-4574
▁അത്തരം	-4575
സ്ഥല	-4576
ാണിത്	-4577
▁പാർട്ടിയ	-4578
▁ബാലകൃഷ്ണ	-4579
മര	-4580
▁നാലാം	-4581
▁വ്യാപനം	-4582
▁കൃത്യമായ	-4583
ല്ലേ	-4584
▁ബാറ്റി	-4585
▁ആരംഭിച്ച	-4586
▁നല്‍കുന്നത്	-4587
ാരോഗ്യ	-4588
▁പരിഹാരം	-4589
▁കൊണ്ടാണ്	-4590
പം	-4591
ഴിഞ്ഞു	-4592
ഗി	-4593
രൂപ	-4594
സാദ്	-4595
▁ബെംഗളൂ	-4596
▁അവതരിപ്പിക്ക	-4597
▁ടാ	-4598
▁ലിയ	-4599
▁കാഞ്ഞ	-4600
▁ബിരുദ	-4601
▁മുദ്ര	-4602
▁ദില്ലി	-4603
▁പെരുമാ	-4604
▁സ്ഥാനാർത്ഥ	-4605
▁p	-4606
ീത്	-4607
എന്ന	-4608
ീരിയ	-4609
▁തെരുവ	-4610
ക്കുള്ള	-4611
▁യുവതിയെ	-4612
▁പ്രക്ഷോഭ	-4613
ോക്	-4614
▁നെടു	-4615
▁പീഡന	-4616
ർത്തിയ	-4617
െടുപ്പ്	-4618
▁ധരിക്ക	-4619
▁നിർദേശ	-4620
▁നോക്കി	-4621
സൂത്ര	-4622
ുകൾക്ക	-4623
▁കച്ചവ	-4624
▁സംശയം	-4625
▁സംഭാവന	-4626
▁സാഹചര്യം	-4627
▁സംസാരിക്ക	-4628
്യു	-4629
▁താലി	-4630
ഷ്യല്‍	-4631
▁അതോറി	-4632
▁പ്രവേശനം	-4633
ിച്ചതെന്ന്	-4634
വകുപ്പ്	-4635
പ്പെടുകയ	-4636
▁ദിവസത്തെ	-4637
▁തയ്യാറാക്ക	-4638
േബ	-4639
ാണ്ഡ	-4640
റ്റുകള	-4641
▁അട്ടി	-4642
▁മുരളീ	-4643
മുണ്ടായ	-4644
ുണ്ടാക്ക	-4645
▁അവര്‍ക്ക്	-4646
ഷണം	-4647
ായു	-4648
േഷ്യ	-4649
ോറിയ	-4650
▁വംശ	-4651
▁ഇസ്ര	-4652
▁സൗഹൃ	-4653
പരിശോധ	-4654
▁സില്‍	-4655
▁വാങ്ങി	-4656
▁ഒടുവില്‍	-4657
തീഷ്	-4658
▁കഞ്ച	-4659
▁കാറ്റ	-4660
▁എന്നിവയാണ്	-4661
▁മ്യൂ	-4662
▁ജൂണ്‍	-4663
▁നാട്ടുകാര്‍	-4664
▁പ്രതികരിക്ക	-4665
8,	-4666
ന്നത്	-4667
▁അസുഖ	-4668
ിക്കെതിര	-4669
▁കോടതിയെ	-4670
▁ചേർന്ന്	-4671
ക്കൂ	-4672
▁ബിജു	-4673
▁സിദ്ധ	-4674
▁ഇടതുപക്ഷ	-4675
▁സിനിമയില്‍	-4676
▁അനുമ	-4677
▁ക്ഷണ	-4678
▁നിർത്ത	-4679
▁ഉത്തര്‍	-4680
▁നേരത്തേ	-4681
▁വിഭാഗത്ത	-4682
▁മനസ്സിലാക്ക	-4683
ത്യം	-4684
▁ദിനം	-4685
▁ജേക്ക	-4686
▁സംരംഭ	-4687
▁റിപ്പോർട്ട	-4688
ണർ	-4689
ൻെറ	-4690
▁ഐസ	-4691
▁അസം	-4692
ിലധികം	-4693
▁ഇതാണ്	-4694
▁എത്രയ	-4695
▁കൊട്ട	-4696
▁സംഘടനകള	-4697
ക്കുമ്പോള്‍	-4698
▁ക്രിക്കറ്റ	-4699
▁45	-4700
▁ജമ്മ	-4701
▁ശങ്ക	-4702
▁കശ്മീര	-4703
▁ജാഗ്രത	-4704
▁വിമാനം	-4705
▁ഒന്നാണ്	-4706
▁നമ്പര്‍	-4707
▁ജീവിതത്ത	-4708
ോം	-4709
▁താക്ക	-4710
ങ്ങളിലൂടെ	-4711
▁ഡിസംബര്‍	-4712
ഡര്‍	-4713
പരമാ	-4714
ര്‍ക്കു	-4715
▁അന്തിമ	-4716
▁ലോകത്ത	-4717
▁സംരക്ഷണ	-4718
▁അറിയപ്പെട	-4719
▁അല്ലെങ്കില്‍	-4720
ഗര്‍	-4721
ാമത്	-4722
ികളുമാ	-4723
ിക്കാനാവ	-4724
▁നിര്‍മാ	-4725
ട്ടിക്കിള്‍	-4726
▁രസ	-4727
ന്യൂ	-4728
േറ്റു	-4729
▁ഇയാളെ	-4730
▁നാരായണ	-4731
▁സമിതിയ	-4732
▁കാണിക്ക	-4733
▁ഗാന്ധിയ	-4734
▁a	-4735
വിക	-4736
ൻസി	-4737
▁ലാഭ	-4738
ക്കൊള്ള	-4739
▁ബുക്ക്	-4740
രംഗ	-4741
ന്ദ്	-4742
കുമാറ	-4743
▁ആളുകള	-4744
▁ഭൂമിയ	-4745
▁ഉള്ളത്	-4746
▁അടിസ്ഥാനത്തില്‍	-4747
ക്കാറ	-4748
▁രോഗമു	-4749
▁തന്ത്ര	-4750
▁പ്രയോഗ	-4751
▁വരുമാന	-4752
രുതെന്ന്	-4753
▁സ്വാധീന	-4754
▁സമ്മേളനം	-4755
ങ്ങളിലേക്ക്	-4756
▁കൈയ	-4757
െടുപ്പ	-4758
താണെന്ന	-4759
രാഷ്ട്ര	-4760
ിക്കാനാ	-4761
ങ്ങളുടെയ	-4762
▁80	-4763
ഫോഴ്	-4764
ശ്വാസം	-4765
▁അപമാന	-4766
▁കുമാർ	-4767
▁ബിജെപ	-4768
പ്പെടുവ	-4769
▁ഭീഷണിയ	-4770
▁നിർബന്ധ	-4771
മുണ്ടാക്ക	-4772
▁കുട്ടികള്‍	-4773
▁നഷ്ടപ്പെട്ട	-4774
ലിനെ	-4775
▁ഹരി	-4776
▁ദുബായ്	-4777
▁കാരണമാക	-4778
▁അമേരിക്കയ	-4779
▁ആര്‍ട്ടിക്കിള്‍	-4780
▁അങ്ക	-4781
ങ്ങളിലാ	-4782
▁രംഗത്ത	-4783
ര്‍ദ	-4784
▁ഗുജറാ	-4785
▁എപ്പോഴ	-4786
▁ആത്	-4787
▁പേരുടെ	-4788
▁ജയ്	-4789
▁മലബ	-4790
▁സ്ക	-4791
▁വാടക	-4792
▁സ്മാർ	-4793
▁തട്ടിപ്പ	-4794
▁സ്വാതന്ത്ര്യ	-4795
▁ചിര	-4796
▁ആധുനിക	-4797
▁പൊള	-4798
ന്തരം	-4799
▁വല്ല	-4800
യ്ക്കുള്ള	-4801
▁ഉരു	-4802
▁വാട്	-4803
▁കുഞ്ഞു	-4804
▁ദിലീപ്	-4805
▁പങ്കാള	-4806
▁തലസ്ഥാന	-4807
▁കണക്കിലെ	-4808
▁വനം	-4809
▁കഴിവ	-4810
▁പരിഷ്	-4811
ിൽനിന്ന	-4812
▁നൽകുന്ന	-4813
▁പ്രതിയെ	-4814
മേയ	-4815
ുണ്ടാവ	-4816
▁ലക്ഷണ	-4817
▁നമ്മള്‍	-4818
▁വ്യക്തിയ	-4819
▁സര്‍വകലാ	-4820
▁പ്രത്യക്ഷ	-4821
ാദേശ	-4822
▁ഇന്ധ	-4823
▁പ്രണ	-4824
▁സച്ച	-4825
▁കടക്ക	-4826
▁ദേവസ്	-4827
▁മുള	-4828
ികളെയ	-4829
▁കോഴ്	-4830
▁ബംഗാള	-4831
▁പെട്ടെന്ന്	-4832
▁സംവിധായകന്‍	-4833
▁500	-4834
▁വിതരണ	-4835
▁കോടിയേരി	-4836
▁മാര്‍ക്ക	-4837
ണറ	-4838
▁തടവ	-4839
▁യാദ	-4840
▁പുറമേ	-4841
▁ക്വാറന്റ	-4842
▁പുലര്‍ച്ച	-4843
▁പെണ്‍കുട്ടിയ	-4844
ഭുത	-4845
▁ജു	-4846
▁രവി	-4847
▁ഡിജിറ്റ	-4848
▁പ്രകൃതി	-4849
▁മറുപടിയ	-4850
▁കമ്മിറ്റിയ	-4851
▁നില്‍ക്കുന്ന	-4852
▁ബൈക്ക	-4853
ശാസ്ത്ര	-4854
▁സര്‍വീസ്	-4855
ദാസ	-4856
ബിള്‍	-4857
▁ആൻഡ്	-4858
▁ആക്ഷേപ	-4859
▁നിന്നെ	-4860
▁സമുദായ	-4861
ങ്ങളിലാണ്	-4862
▁കൊലപ്പെടുത്തിയ	-4863
▁മിശ്ര	-4864
▁ഡോക്ടർ	-4865
▁നിരക്ക	-4866
▁കുടുംബാംഗ	-4867
ജിത	-4868
ിസ്	-4869
ധിതര	-4870
▁ഒളി	-4871
▁വിവേ	-4872
▁കിഴക്ക	-4873
▁വെളിച്ച	-4874
▁ഇംഗ്ലണ്ട	-4875
▁പ്രിയപ്പെട്ട	-4876
ലാത്സ	-4877
▁രീതി	-4878
ിപ്പിക്കുന്നത	-4879
▁രോഹി	-4880
ാക്കളെ	-4881
▁പരിഹാര	-4882
▁കണക്കാക്ക	-4883
▁2,	-4884
▁32	-4885
▁ഏഴു	-4886
▁രണ്ടുപ	-4887
▁ആരോഗ്യമ	-4888
ത്തിലെത്ത	-4889
▁ചിത്രീകര	-4890
.3	-4891
▁ഉദാഹ	-4892
ക്കര്‍	-4893
▁ഒന്നര	-4894
▁അഴിമതി	-4895
▁നായര്‍	-4896
▁സംഘത്ത	-4897
▁ദേവസ്വം	-4898
▁വിദേശകാര്യ	-4899
▁തരത്തിലുള്ള	-4900
്മ	-4901
▁അറേബ	-4902
ിവെച്ച	-4903
▁ന്യായ	-4904
ര്‍ക്കെ	-4905
സല	-4906
നെയ	-4907
വിര	-4908
▁ഗണ	-4909
മര്‍	-4910
▁സഹായത്തോടെ	-4911
തയെ	-4912
തുട	-4913
ഴിയ	-4914
പ്പെടു	-4915
▁ചാര്‍	-4916
▁യോഗത്ത	-4917
▁അഭിപ്രായം	-4918
ത്തുടര്‍ന്ന്	-4919
▁ഇത്തരത്തില്‍	-4920
▁ശുപ	-4921
▁കട്ട	-4922
മ്പോഴാണ്	-4923
▁അന്വേഷണത്ത	-4924
രാജ്യ	-4925
റ്റഡ്	-4926
▁തടസ്സ	-4927
ികൾ	-4928
▁പൃ	-4929
▁പേജ	-4930
▁പൂർണ	-4931
▁കളിക്ക	-4932
▁താരത്ത	-4933
▁മനസ്സില	-4934
▁സന്ദേശം	-4935
വീന	-4936
നപക്ഷ	-4937
▁അങ്ങ	-4938
▁വക്ത	-4939
▁വൃത്ത	-4940
▁സര്‍വ്വ	-4941
▁കഴിയാത്ത	-4942
▁തീരുമാനമ	-4943
▁ശ്രീലങ്ക	-4944
▁പരാതിയില്‍	-4945
ന്ഥ	-4946
വേള	-4947
ാൻസ്	-4948
െത്തി	-4949
▁ഒന്നു	-4950
▁യുഡിഎഫ	-4951
▁70	-4952
ായിരം	-4953
▁അത്തര	-4954
▁സൈന്യം	-4955
▁പൂര്‍ണമായ	-4956
▁നിലനില്‍ക്ക	-4957
▁പുറത്തിറങ്ങ	-4958
▁പുറത്തുവിട്ട	-4959
▁ചട്ട	-4960
ിവെള്ള	-4961
▁കയറ്റ	-4962
▁പിള്ള	-4963
ിക്കുമ്പോൾ	-4964
ില്ലെന്നാണ്	-4965
▁പുറപ്പെടുവ	-4966
ാവശ്യപ്പെട്ട്	-4967
ണ്ടു	-4968
▁കാലയ	-4969
▁ട്രംപ	-4970
▁പ്രയോ	-4971
ുന്നതോടെ	-4972
▁അതിക്രമ	-4973
▁തെരഞ്ഞെടുക്ക	-4974
താം	-4975
നാണ	-4976
ാമം	-4977
▁ഭീ	-4978
▁ഊര്‍	-4979
▁ശാരീര	-4980
▁പശ്ചിമ	-4981
▁്	-4982
ലിലെ	-4983
▁വിൽ	-4984
തുമായ	-4985
▁പെണ്‍കുട്ടി	-4986
▁പുറത്തിറങ്ങിയ	-4987
5)	-4988
പോക	-4989
▁തകര	-4990
▁ആസൂത്ര	-4991
▁ശസ്ത്ര	-4992
▁അധികൃതർ	-4993
▁കൃത്യമാ	-4994
▁സ്ത്രീയ	-4995
േണ	-4996
രേഖ	-4997
▁ഗർ	-4998
▁ടൗ	-4999
▁ഹു	-5000
▁കഴു	-5001
ൊരുക്ക	-5002
ന്മാര്‍	-5003
▁മരണത്ത	-5004
▁മത്സരത്ത	-5005
▁അറിയിച്ചിര	-5006
തകള	-5007
ജ്ജ്	-5008
▁പാന	-5009
റിഞ്ഞു	-5010
▁മുല്ല	-5011
താശ്വാസ	-5012
▁സ്ത്രീകള്‍	-5013
കീയ	-5014
▁ഗൗര	-5015
ിച്ചതെന്ന	-5016
ഭാവിക	-5017
▁തൃശ്ശ	-5018
▁പ്രോട്ട	-5019
▁വിളിക്ക	-5020
▁മേഖലയിലെ	-5021
▁പ്രവർത്തകർ	-5022
ോസ	-5023
സിഡ	-5024
▁വെടിയ	-5025
യെല്ലാം	-5026
▁ഹര്‍ജി	-5027
▁ഇദ്ദേഹം	-5028
▁ഭാഗത്ത്	-5029
▁ഖു	-5030
കാലം	-5031
ദിനം	-5032
തായിര	-5033
▁അടുക്ക	-5034
▁ബാറ്റ്	-5035
▁പ്രതികരണ	-5036
സമാ	-5037
▁ടു	-5038
ൂട്ട്	-5039
▁മേനോ	-5040
▁ആശ്രയ	-5041
▁ഭേദഗതി	-5042
▁തട്ടിപ്പ്	-5043
▁നിര്‍ദ്ദേശം	-5044
on	-5045
പിന്ന	-5046
▁കുരു	-5047
പഞ്ചായ	-5048
▁മമ്മൂ	-5049
▁പുതുതാ	-5050
▁നിർദ്ദേശ	-5051
▁വിളിച്ച്	-5052
▁പ്രതീക്ഷിക്ക	-5053
1,	-5054
▁ഇന്നു	-5055
▁ഉത്തരവ	-5056
▁സന്തോഷ്	-5057
▁90	-5058
ാട്ട	-5059
▁അതിര	-5060
ുവര്‍ഷ	-5061
▁അയാള്‍	-5062
▁ചോദിക്ക	-5063
▁പോസിറ്റ	-5064
▁ഭര്‍ത്താവ്	-5065
▁അസോസിയേഷന്‍	-5066
ീന്ദ്ര	-5067
ിട്ടാണ്	-5068
▁അസിസ്റ്റ	-5069
ിട്ടുണ്ടെന്ന	-5070
എൽഎ	-5071
ാലം	-5072
േക്കാം	-5073
▁ആന്റണി	-5074
▁വൃത്തിയ	-5075
▁പാഠ	-5076
▁നവംബര്‍	-5077
▁അധ്യക്ഷന്‍	-5078
▁കഠ	-5079
▁റെയ	-5080
▁സല്‍	-5081
▁സൈന്യ	-5082
▁അവളുടെ	-5083
ിനിടയില്‍	-5084
▁ബോളിവുഡ്	-5085
▁ഇക്കാര്യത്തില്‍	-5086
രാശ	-5087
ാമി	-5088
▁ദൗ	-5089
ോണ്‍	-5090
യിപ്പ	-5091
▁ഓൺലൈ	-5092
ാകൃഷ്ണ	-5093
ത്തേക്ക	-5094
▁കുറിപ്പ	-5095
▁ജനങ്ങളെ	-5096
▁എഴുത്തുകാര	-5097
▁ഗെയി	-5098
▁പത്മ	-5099
▁പാസ്	-5100
▁ഇംഗ്ലീഷ്	-5101
▁പ്രോത്സാഹ	-5102
▁പ്രഖ്യാപിച്ച	-5103
▁വരെയ	-5104
▁എഴുതി	-5105
▁ഓപ്പറ	-5106
▁ബ്രിട്ടീഷ്	-5107
ാലോചന	-5108
▁ഭാഗം	-5109
ിന്റേയ	-5110
▁കത്ത്	-5111
▁കാരിക	-5112
▁പത്തു	-5113
▁ബോള്‍	-5114
▁വീഴ്ച	-5115
ിലുണ്ട്	-5116
ത്തിലേക്ക	-5117
ല്‍ക്കത്ത	-5118
▁കാര്‍ഷിക	-5119
നാട	-5120
▁തണു	-5121
ിയായിര	-5122
▁രേഖപ്പെടുത്തിയ	-5123
ഡീഷ	-5124
പ്തി	-5125
▁തുറന്ന്	-5126
▁മരുന്ന്	-5127
▁വൈകീട്ട്	-5128
▁കാര്യങ്ങള	-5129
ടിക്ക	-5130
▁അശ്വ	-5131
▁പ്രഭ	-5132
▁ജയരാജ	-5133
▁കേസുകള്‍	-5134
▁സമൂഹമാധ്യമ	-5135
ti	-5136
▁താൽ	-5137
യുടെയ	-5138
▁മുപ്പ	-5139
▁വ്യോമ	-5140
▁വീടുകള	-5141
▁വളര്‍ച്ച	-5142
▁അഗ്	-5143
▁കെപി	-5144
▁പൃഥ്	-5145
▁ഓഗസ്റ്റ്	-5146
ചേ	-5147
തിക	-5148
▁എക്സ്	-5149
▁നിമിഷ	-5150
പ്യൂട്ടി	-5151
▁നൂറ്റാണ്ട	-5152
80	-5153
സണ്‍	-5154
ദ്ധ്യ	-5155
വർക്ക	-5156
ോട്ടി	-5157
▁വെക്ക	-5158
▁ചെയ്യാന	-5159
▁നിര്‍മ്മാ	-5160
▁ദുരിതാശ്വാസ	-5161
ടിച്ച	-5162
▁വളരെയ	-5163
▁ലോക്ക്ഡൗ	-5164
▁കാണുന്നത്	-5165
▁പ്രത്യേകം	-5166
▁സ്വന്തമാക്ക	-5167
ഫറ	-5168
ാജ്	-5169
ിക്കി	-5170
ികയാണ്	-5171
▁ചിലര്‍	-5172
▁മാര്‍ഗ	-5173
▁പ്രവേശന	-5174
▁വീഴ്	-5175
▁ദുബായ	-5176
▁മകള്‍	-5177
▁പരിഗണന	-5178
ിട്ടില്ലെന്ന	-5179
▁ശസ്ത്രക്രിയ	-5180
വാള	-5181
▁ഫീ	-5182
▁എംഎൽഎ	-5183
െടുക്കാന്‍	-5184
മാസ	-5185
ക്കയ	-5186
പത്ര	-5187
▁മായ	-5188
ത്തിലധികം	-5189
▁അതുകൊണ്ടു	-5190
▁ആക്രമണത്ത	-5191
▁കവി	-5192
▁തട്ട	-5193
▁ഫിലി	-5194
പ്പന്‍	-5195
ോര്‍ട്ട്	-5196
▁കുട്ടിയെ	-5197
മറിയ	-5198
ിലെയ	-5199
▁പ്ലസ്	-5200
▁മേഖലകള	-5201
▁മയക്കുമ	-5202
▁പ്രദര്‍ശ	-5203
▁ബംഗ്ലാദേശ	-5204
▁നിലവിലുള്ള	-5205
▁സ്ഥിരീകരിച്ച	-5206
തല്ല	-5207
▁പൊട്ട	-5208
▁അഭിമാന	-5209
▁കുറച്ച	-5210
▁തിരഞ്ഞ	-5211
▁തൊഴിലാളി	-5212
▁രാമചന്ദ്ര	-5213
പ്രി	-5214
ര്‍ത്ത്	-5215
▁തെറ്റി	-5216
▁സ്ഥലത്തെ	-5217
▁ബോധ്യ	-5218
▁ഒട്ടേറെ	-5219
▁പുറത്തെ	-5220
ങ്ങളെല്ലാം	-5221
▁പരിസ്ഥിതി	-5222
ഫീ	-5223
ംബര	-5224
▁ഏതു	-5225
▁നെഗ	-5226
▁തലമുറ	-5227
സ്ഥത	-5228
▁അബുദാ	-5229
▁തോട്ട	-5230
▁വിശ്വ	-5231
▁മാലിന്യ	-5232
▁അബ്ദുല്‍	-5233
▁ജ്യ	-5234
ുന്നതായ	-5235
തുക	-5236
മോഹ	-5237
വാസ്	-5238
▁കളി	-5239
▁ദുരൂഹ	-5240
▁ജേക്കബ്	-5241
▁വികസിപ്പ	-5242
▁വ്യക്തമായ	-5243
▁n	-5244
▁കരിയ	-5245
▁പടിഞ്ഞ	-5246
▁അമേരിക്കൻ	-5247
▁തുടര്‍ന്ന	-5248
ള്‍ഡ്	-5249
ിക്കര	-5250
▁കവിത	-5251
▁തൃശൂർ	-5252
▁നീങ്ങ	-5253
▁നേട്ടം	-5254
▁സ്വീകരിച്ച	-5255
▁c	-5256
മ്ബ	-5257
▁കന	-5258
ധികാര	-5259
▁അണിയ	-5260
▁എത്തിച്ച	-5261
▁സംസ്ഥാനത്ത	-5262
▁അപ്	-5263
▁മംഗ	-5264
ശിക്ഷ	-5265
▁അംഗങ്ങള	-5266
▁ഓര്‍മ്മ	-5267
▁സമ്പര്‍ക്ക	-5268
47	-5269
ാനായ	-5270
▁ഫെഡറ	-5271
▁എന്നറിയ	-5272
▁സന്നദ്ധ	-5273
ിലുണ്ടായിര	-5274
▁സര്‍ട്ടിഫ	-5275
▁197	-5276
▁പുക	-5277
ഭാഷണം	-5278
▁കരാറ	-5279
▁മദ്യപ	-5280
▁സൗന്ദ	-5281
ച്ചില്‍	-5282
റ്റുകള്‍	-5283
ിക്കേണ്ടത്	-5284
▁അറസ്റ്റിലായ	-5285
as	-5286
▁തീയതി	-5287
▁ശരീരത്ത	-5288
▁സൗകര്യം	-5289
▁ഉണ്ടായത്	-5290
.6	-5291
▁ഡ്രൈവ	-5292
▁മോഷ്ട	-5293
▁ബിസിനസ്	-5294
▁ഇപ്പോഴത്തെ	-5295
ടനാ	-5296
റിങ്	-5297
▁തോല്‍	-5298
▁നിര്‍ണായക	-5299
▁സ്മാർട്ട്	-5300
▁കിലോമീറ്റര്‍	-5301
ോദ്	-5302
▁അഥ	-5303
▁ഫോർ	-5304
▁ഡൽഹി	-5305
▁ഭരണം	-5306
രുന്ന്	-5307
▁അടിച്ച	-5308
▁പരുക്ക	-5309
▁സഞ്ചാര	-5310
▁കാലഘട്ട	-5311
ിച്ചിട്ടുള്ള	-5312
▁അറസ്റ്റില്‍	-5313
▁കസ്റ്റഡിയിലെ	-5314
ധാര	-5315
നേത	-5316
▁ഓർ	-5317
▁കോർ	-5318
▁നാവ	-5319
▁ഹൃദ	-5320
ിക്കാണ	-5321
മായുള്ള	-5322
▁ആനുകൂല	-5323
▁ജീവന്‍	-5324
▁നെഗറ്റ	-5325
▁ബാക്കി	-5326
▁ശക്തമാ	-5327
▁എന്നിവരെ	-5328
ഹ്വ	-5329
ഗ്രി	-5330
ാൻഡ്	-5331
▁മകൻ	-5332
▁നല്ക	-5333
പ്പോലെ	-5334
സിറ്റി	-5335
▁കണക്ക്	-5336
▁ലോകത്ത്	-5337
▁കോര്‍പ്പ	-5338
▁മുന്നറിയിപ്പ	-5339
or	-5340
ധ്യം	-5341
ീമിയ	-5342
െണ്ണ	-5343
▁നാഗ	-5344
▁ശശി	-5345
ള്‍പ്പെടെ	-5346
▁ആവര്‍ത്ത	-5347
▁കഴിയില്ല	-5348
-19	-5349
▁ചൂട	-5350
▁പോകു	-5351
ണ്ണമായ	-5352
▁വാക്സ	-5353
▁കരാര്‍	-5354
▁തട്ടിയ	-5355
▁പ്രായം	-5356
▁ന്യൂനപക്ഷ	-5357
▁കൊല്‍ക്കത്ത	-5358
▁തയ്യാറാക്കിയ	-5359
നീയ	-5360
▁കൊട	-5361
▁അവധി	-5362
▁കൈവര	-5363
▁റദ്ദാക്ക	-5364
▁തരം	-5365
▁ഫോട	-5366
നുബന്ധ	-5367
▁ശുദ്ധ	-5368
▁ചിത്രമാണ്	-5369
വിളി	-5370
▁ബ്രസ	-5371
▁ടിക്കറ്റ്	-5372
▁ഗ്രാമപഞ്ചായ	-5373
▁ആസ്	-5374
▁പലി	-5375
▁റഹ്	-5376
മന്ത്ര	-5377
▁നടപടികള	-5378
▁ചേര്‍ത്ത	-5379
▁തട്ടിക്ക	-5380
ല്ല്	-5381
ഷ്ണു	-5382
ാദ്യ	-5383
▁വന്ന്	-5384
▁മീഡിയയില്‍	-5385
.7	-5386
പുല	-5387
▁തൈ	-5388
കമായ	-5389
ത്തുന	-5390
▁രാജി	-5391
്രിക്ക	-5392
▁ഇറങ്ങിയ	-5393
▁എടുത്തു	-5394
ങ്ങള്‍ക്കു	-5395
ധന	-5396
▁ഉണ	-5397
മ്മി	-5398
▁റിസ	-5399
▁ഇവിട	-5400
▁ഭക്ത	-5401
▁പ്രതികള്‍	-5402
▁ജില്ലകളില്‍	-5403
▁ദൃശ്യങ്ങള്‍	-5404
9,	-5405
ുമാര	-5406
▁പണിയ	-5407
▁അനില്‍	-5408
▁രാജീവ്	-5409
▁ഷൂട്ടി	-5410
▁ജയിലില്‍	-5411
▁മുകളില്‍	-5412
▁സംഘടിപ്പിച്ച	-5413
▁നടൻ	-5414
നുമായ	-5415
▁ഡ്യൂ	-5416
േറ്റര്‍	-5417
▁സ്റ്റാ	-5418
▁അതിനിടെ	-5419
▁വേണമെന്ന	-5420
▁മുൻപ	-5421
വീന്ദ്ര	-5422
▁ടൂറിസം	-5423
▁ക്രിമിന	-5424
▁സര്‍വീസ	-5425
ിക്കുന്നതെന്ന	-5426
▁നിങ്ങള്‍ക്ക്	-5427
▁സണ്‍	-5428
▁ഈടാക്ക	-5429
▁ശാരീരിക	-5430
▁കക്ഷ	-5431
▁സീനിയ	-5432
▁നയിക്ക	-5433
▁മര്‍ദ്ദ	-5434
▁കോയ	-5435
▁നീള	-5436
ടുള്ള	-5437
▁കന്ന	-5438
▁ശേഖര	-5439
ഡുകള്‍	-5440
ക്കുമ്പോൾ	-5441
▁സൂചിപ്പിക്ക	-5442
വല്‍	-5443
▁ആളു	-5444
മാരുടെ	-5445
ിക്കാതിര	-5446
▁ട്വിറ്ററ	-5447
▁സ്ഥാനത്ത്	-5448
▁കൊണ്ടുവന്ന	-5449
22	-5450
am	-5451
േതര	-5452
ൈന്‍	-5453
▁ചാല	-5454
റ്റ്യൂ	-5455
സംബന്ധ	-5456
ക്കൂട്ട	-5457
പ്പറ്റി	-5458
▁വന്നിര	-5459
▁വിളിച്ച	-5460
▁സിസ്റ്റ	-5461
▁പ്രഖ്യാപനം	-5462
▁ആദി	-5463
വിഭാഗ	-5464
▁ജനകീയ	-5465
വിശ്വാസ	-5466
▁പ്രോഗ്ര	-5467
▁കൊണ്ടുപോക	-5468
▁പ്രസിഡണ്ട്	-5469
വള	-5470
ാഫി	-5471
മേഖല	-5472
▁വൈദ	-5473
▁ആന്റി	-5474
▁പ്രസ്ഥാന	-5475
വാര	-5476
▁ജയം	-5477
▁ഡൽഹ	-5478
▁ശരീ	-5479
▁കേരളാ	-5480
പ്രതീക്ഷ	-5481
▁അവാര്‍ഡ്	-5482
▁കേള്‍ക്ക	-5483
▁അദ്ധ്യക്ഷ	-5484
▁കേന്ദ്രത്ത	-5485
പ്പൊ	-5486
▁അരി	-5487
▁അതീവ	-5488
▁കാസർ	-5489
എസ്എസ്	-5490
▁വിജയൻ	-5491
▁വിഡിയ	-5492
▁ബാധിച്ച	-5493
▁വിജിലന്‍സ്	-5494
വും	-5495
ക്ട്	-5496
വിസ്	-5497
▁വിഭവ	-5498
റിപ്പ്	-5499
▁മൂല്യ	-5500
▁സെല്‍	-5501
▁സൂപ്പർ	-5502
▁ചെയ്യാം	-5503
▁വാഹനത്ത	-5504
ക്കെതിരായ	-5505
ിനുള്ളില്‍	-5506
▁കോര്‍പ്പറ	-5507
കരമാ	-5508
ുവാന	-5509
▁ആഹ്വ	-5510
നിന്നു	-5511
▁എട്ടു	-5512
▁ജിദ്ദ	-5513
▁പിൻവല	-5514
▁ആളുകളെ	-5515
▁വോട്ടു	-5516
ോടനുബന്ധ	-5517
▁സര്‍ക്കാറ	-5518
10	-5519
ഴല	-5520
ണ്ഡി	-5521
▁അണു	-5522
▁ആംബ	-5523
▁2013	-5524
▁പൊതുമ	-5525
▁മാർച്ച്	-5526
▁വരുമാനം	-5527
ുന്നുണ്ടെന്ന	-5528
ാതെയ	-5529
▁ഷാജ	-5530
സ്പരം	-5531
ദ്ദീന്‍	-5532
ിരുന്ന്	-5533
ുവെന്ന്	-5534
▁ഇന്ത്യയെ	-5535
േണ്ടതുണ്ട്	-5536
പട	-5537
ഹാസ	-5538
▁ഉദ	-5539
ണ്ണ്	-5540
ന്‍റ	-5541
▁ബ്യൂ	-5542
▁ശാന്ത	-5543
ക്കാള്‍	-5544
▁റിയാദ്	-5545
മെന്നാണ്	-5546
▁നിരന്തരം	-5547
▁അപകടത്തില്‍	-5548
▁തുടങ്ങിയവര്‍	-5549
പ്പര്‍	-5550
▁സ്വാഗ	-5551
▁സിന്റെ	-5552
▁കൂട്ടിയ	-5553
▁കടല	-5554
▁ഫില	-5555
▁ഹോം	-5556
▁വാഷി	-5557
ന്നൂര്‍	-5558
▁ഫലപ്രദ	-5559
ോഗം	-5560
▁മോഡല	-5561
▁താലിബ	-5562
ാഫ്രിക്ക	-5563
▁തോന്നിയ	-5564
▁പരസ്പരം	-5565
▁പറയാന്‍	-5566
▁പദ്ധതികള	-5567
▁ഇള	-5568
▁മാധ	-5569
▁പരാമർശ	-5570
▁വിശുദ്ധ	-5571
▁ചിത്രത്തിലെ	-5572
▁കബ	-5573
മ്മയ	-5574
▁രാം	-5575
▁കവര്‍	-5576
▁പോയത്	-5577
▁പതിപ്പ	-5578
▁ബൈക്ക്	-5579
മാര്‍ക്ക്	-5580
▁റെക്കോര്‍	-5581
▁മണിക്കൂര്‍	-5582
▁വൈകുന്നേരം	-5583
ഗ്ന	-5584
യും	-5585
ുകൾ	-5586
ക്ഷൻ	-5587
ന്തിര	-5588
▁കലാക	-5589
▁നൽകാൻ	-5590
▁കാണാതായ	-5591
▁സിനിമയിലെ	-5592
ുന്നില്ലെന്ന്	-5593
ിച്ചിട്ടുള്ളത്	-5594
▁വ്യക്തമാക്കിയിര	-5595
ീതം	-5596
▁മജി	-5597
▁ഏരിയ	-5598
▁ജോസഫ	-5599
▁ലഹരി	-5600
▁ശരാശ	-5601
▁അവള്‍	-5602
സംസ്ഥാന	-5603
▁അവസാനം	-5604
▁താരങ്ങള	-5605
▁യുവാവിനെ	-5606
▁രാധാകൃഷ്ണ	-5607
▁വീഴ	-5608
▁അറിവ	-5609
▁അസ്വ	-5610
▁മോര്‍	-5611
▁മലയാളം	-5612
താണെന്ന്	-5613
ിക്കാനാക	-5614
▁കൂട്ടായ്മ	-5615
▁എന്നിങ്ങനെ	-5616
ജൻ	-5617
ോണിയ	-5618
▁ഫണ്ട്	-5619
ിവയ്ക്ക	-5620
▁സ്വപ്ന	-5621
പ്പെടുത്താന്‍	-5622
▁വിഭാഗത്തില്‍	-5623
ിവച്ച	-5624
▁മുടി	-5625
െയ്ക്ക	-5626
ട്ടികള്‍	-5627
▁പ്രദേശത്ത്	-5628
ബെ	-5629
▁എട	-5630
▁അവാർ	-5631
▁ലളിത	-5632
▁അര്‍ഹ	-5633
▁പൊന്ന	-5634
▁ഹര്‍ജ	-5635
▁അതായത്	-5636
സിപ്പല്‍	-5637
▁അധ്യാപക	-5638
മുണ്ടെന്ന	-5639
ാൻഡ	-5640
▁ഇതര	-5641
▁ടീച്ച	-5642
ക്കാലത്ത്	-5643
▁കുടിവെള്ള	-5644
▁വിപണിയില്‍	-5645
ക്കുറിച്ചുള്ള	-5646
സംഘം	-5647
ണില്‍	-5648
▁ആന്ധ	-5649
ിവെക്ക	-5650
േക്കാൾ	-5651
▁ചാക്ക	-5652
▁നേതാക്	-5653
▁അങ്ങനെയ	-5654
▁വാക്സിൻ	-5655
▁ആരംഭിച്ചത്	-5656
▁ചര	-5657
▁ബഹ്	-5658
▁ക്യൂ	-5659
▁ഡോസ്	-5660
നെറ്റ്	-5661
ുമുന്ന	-5662
▁പള്ളി	-5663
▁മറികട	-5664
▁തെരഞ്ഞ	-5665
▁ഡയറക്ടറ	-5666
▁സ്വാഗതം	-5667
▁വ്യാപകമാ	-5668
▁പ്രസിഡൻറ്	-5669
ിക്കൊണ്ടിരിക്ക	-5670
ംഗലം	-5671
▁യുടെ	-5672
▁ന്യൂയ	-5673
▁വ്യായ	-5674
▁സീരിയ	-5675
▁അത്ഭുത	-5676
▁ബലാത്സ	-5677
▁സ്വാമി	-5678
▁പ്രചാരണം	-5679
▁ആദര	-5680
പത്രം	-5681
സമിതി	-5682
▁വേണു	-5683
▁കൗണ്‍സില്‍	-5684
▁(4	-5685
▁ചൗ	-5686
▁നര	-5687
▁രച	-5688
നിലെ	-5689
▁കാലയളവ	-5690
▁അംഗീകാരം	-5691
▁മീറ്റര്‍	-5692
ില്ലെങ്കില്‍	-5693
േസ	-5694
സിക്	-5695
▁വാഴ	-5696
പ്പാട	-5697
▁ഇയാൾ	-5698
▁ടാക്	-5699
▁നമ്മൾ	-5700
▁ചെയ്തത	-5701
ത്തോടെയാണ്	-5702
ഡിഎ	-5703
▁33	-5704
▁48	-5705
▁വശ	-5706
കത്ത	-5707
▁കാന	-5708
കൊണ്ട	-5709
▁ഓഹരി	-5710
▁ആംബുല	-5711
▁ഒരാഴ്ച	-5712
▁മൊത്തം	-5713
▁സ്റ്റേറ്റ്	-5714
▁പീഡിപ്പിച്ച	-5715
▁തീരുമാനിച്ചത്	-5716
▁പുറത്തിറക്കിയ	-5717
വാദം	-5718
റ്റില	-5719
ാസമ്മ	-5720
▁ചാനല	-5721
▁ശമ്പളം	-5722
▁ചെയ്യുകയായിര	-5723
▁റാവ	-5724
ച്ചില	-5725
ടത്ത്	-5726
▁ഉപയോ	-5727
▁മോശം	-5728
▁ഒക്കെ	-5729
▁ഓൺലൈൻ	-5730
▁ആരാധകര	-5731
▁വരുത്തിയ	-5732
▁വാഹനങ്ങള്‍	-5733
കഥ	-5734
സമയ	-5735
▁36	-5736
ട്ടര്‍	-5737
▁സോണിയ	-5738
▁അധികാരം	-5739
▁പ്രീമിയ	-5740
▁നല്ലതാണ്	-5741
ീണ	-5742
പുഴ	-5743
ീയം	-5744
നത്തെ	-5745
▁കാണാൻ	-5746
▁ചെറുക	-5747
ല്ലെന്ന	-5748
▁ഉത്പാദ	-5749
▁രാജേഷ്	-5750
ിച്ചതാണ്	-5751
▁കാത്തിര	-5752
▁സമാനമായ	-5753
▁ആരാധകര്‍	-5754
▁തകര്‍ക്ക	-5755
▁രവീന്ദ്ര	-5756
ഫലം	-5757
ിംഗ്	-5758
▁ഇടവ	-5759
▁മേയ	-5760
സ്ഥാൻ	-5761
▁തുടർ	-5762
▁വെളു	-5763
▁തുല്യ	-5764
ാസമ്മേള	-5765
▁നാഷണല്‍	-5766
▁ലോകകപ്പ്	-5767
ഡീ	-5768
ടിവി	-5769
ബ്രാ	-5770
ഞ്ഞത്	-5771
പ്പോല	-5772
▁വായന	-5773
ണ്ടര്‍	-5774
▁നിത്യ	-5775
▁രോഗബാധ	-5776
▁മലയാളികള	-5777
▁പോകുന്നത്	-5778
▁ലോകത്തിലെ	-5779
▁സംസ്ഥാനങ്ങള	-5780
▁അഗ	-5781
കുളം	-5782
ൊടുവ	-5783
ംബ്രാ	-5784
▁കൊടു	-5785
▁പൊള്ള	-5786
▁ഉയർത്ത	-5787
▁വാര്‍ഷിക	-5788
▁കേന്ദ്രമന്ത്രി	-5789
കേരള	-5790
▁രഞ്	-5791
▁വേഗം	-5792
ുകൂട്ട	-5793
▁പൊതുവ	-5794
▁മോഹൻല	-5795
▁രാജ്യാ	-5796
▁ശതമാനവ	-5797
▁ഉറപ്പുവ	-5798
▁ഉൾപ്പെട	-5799
▁പ്രശ്നം	-5800
▁താലൂക്ക്	-5801
▁വില്‍പ്പന	-5802
▁പെണ്‍കുട്ടിയെ	-5803
മസ	-5804
മിനി	-5805
▁കൗണ്‍സില	-5806
▁ചോദ്യത്ത	-5807
▁പ്രാധാന്യം	-5808
▁ഉണ്ടായിരിക്ക	-5809
ശേഖര	-5810
▁വാണി	-5811
▁മെന്റ	-5812
▁സൗഹൃദ	-5813
▁ആശ്വാസ	-5814
▁ഉച്ചയ്ക്ക്	-5815
▁ജീവനക്കാര്‍	-5816
▁സംഘടിപ്പിക്ക	-5817
ad	-5818
ിമുഖ	-5819
ഹമ്മദ	-5820
▁ജാതി	-5821
▁ജയില്‍	-5822
▁സുഹൃത്ത	-5823
▁സാന്നിധ്യ	-5824
ുന്നുവെന്നാണ്	-5825
ണ്ഠ	-5826
ിഡ്	-5827
വരെയ	-5828
ർട്ട	-5829
▁സെൻ	-5830
▁ശരിയായ	-5831
▁കാണുന്ന	-5832
▁ഡെപ്യൂട്ടി	-5833
ത്തിനുള്ളില്‍	-5834
കമാ	-5835
വാറ	-5836
പാടു	-5837
വിഷ്	-5838
▁അളവ	-5839
▁ആലുവ	-5840
▁ടിവി	-5841
▁വള്ള	-5842
▁ഷാജി	-5843
▁കർണാടക	-5844
▁ഉപയോക്ത	-5845
മുണ്ടായത്	-5846
▁നടത്തുകയ	-5847
▁ദക്ഷിണാഫ്രിക്ക	-5848
തോ	-5849
ൻപ	-5850
ഒരു	-5851
ുക്ക	-5852
▁അധി	-5853
▁എതിരെ	-5854
▁മഹാമാ	-5855
▁ഇസ്ലാമ	-5856
▁കറുത്ത	-5857
▁തയ്യാറെ	-5858
▁കുഞ്ഞിനെ	-5859
▁ഡ്രൈവര്‍	-5860
▁പ്രായമുള്ള	-5861
▁മുന്നോട്ടു	-5862
.8	-5863
തുര	-5864
▁വന	-5865
ഭൂമി	-5866
ുകൂട	-5867
പിറ്റ	-5868
േഷന്റെ	-5869
▁രാഹുല	-5870
▁ചെറുപ്പ	-5871
ിച്ചുവെന്ന	-5872
തേ	-5873
▁ആം	-5874
▁അസാധ	-5875
▁കോവിഡ	-5876
▁തർക്ക	-5877
▁ഇതിനകം	-5878
▁സംഭവിക്ക	-5879
ുകയാണെന്ന്	-5880
8)	-5881
നാക	-5882
▁ബഷ	-5883
▁ഗള്‍	-5884
▁പാക്ക	-5885
▁നിങ്ങളെ	-5886
▁അക്കൗണ്ട്	-5887
▁ഏറ്റെടുത്ത	-5888
17	-5889
6)	-5890
ബിൾ	-5891
മുള	-5892
റിംഗ്	-5893
ിലേറെ	-5894
▁ടാറ്റ	-5895
▁മറക്ക	-5896
റിയില്‍	-5897
ക്കെതിരേ	-5898
▁കാര്‍ഡ്	-5899
പ്രദേശിലെ	-5900
▁സ്വാഭാവിക	-5901
ഭേദ	-5902
ഡന്‍	-5903
ഡിലെ	-5904
▁സുന	-5905
ണ്ടായ	-5906
▁2011	-5907
▁നീണ്ടു	-5908
▁തുടര്‍ന്നു	-5909
▁മനുഷ്യാവകാശ	-5910
▁ഏര്‍പ്പെടുത്തിയ	-5911
▁ഭഗ	-5912
സ്യം	-5913
▁ചാവ	-5914
▁നീര	-5915
▁വാര	-5916
▁തെലു	-5917
▁നടിയ	-5918
▁പമ്പ	-5919
▁ബോട്ട	-5920
യാണെന്ന	-5921
▁പങ്കാളി	-5922
▁മുതിർന്ന	-5923
▁പ്രധാനപ്പെട്ട	-5924
ദേവ	-5925
ഹാം	-5926
▁ഫോമ	-5927
▁ലാല	-5928
▁ഗൗരവ	-5929
▁കൈമാറി	-5930
▁സ്ഥാനാര്‍ത്ഥി	-5931
കത്ത്	-5932
▁ജ്യോ	-5933
▁റ്റ്	-5934
▁ലൈഫ്	-5935
ബ്ലിക്	-5936
▁ദുര്‍	-5937
▁സിറിയ	-5938
▁അതിജീവ	-5939
ാക്കിയിര	-5940
▁കാര്യത്ത	-5941
ക്കിടയില്‍	-5942
▁മുഖ്യമന്ത്ര	-5943
സവ	-5944
▁!	-5945
േരെ	-5946
▁ചീ	-5947
▁ദശ	-5948
▁വഹിക്ക	-5949
▁അക്കാദമി	-5950
▁ക്രൈംബ്രാ	-5951
▁ധനമന്ത്രി	-5952
▁വാര്‍ത്താ	-5953
ാധ	-5954
ഹാറ	-5955
ഗോഡ്	-5956
ങ്കര	-5957
▁അതിഥ	-5958
▁പര്യ	-5959
▁അനുയോ	-5960
▁ആപ്പി	-5961
▁കൊറിയ	-5962
▁മക്കള്‍	-5963
ണമെങ്കില്‍	-5964
▁രാജ്യാന്തര	-5965
ൊല	-5966
ൊണാ	-5967
▁75	-5968
കക്ഷ	-5969
▁ലാമ	-5970
റുക്ക	-5971
▁കടത്ത	-5972
▁പങ്ക്	-5973
▁നിർമ്മാ	-5974
▁ക്യാപ്റ്റന്‍	-5975
ഐഎ	-5976
ൂവ	-5977
▁വലു	-5978
▁ഹെല്‍	-5979
▁വരെയാണ്	-5980
▁കേസെടുത്ത	-5981
സ്റ്റിറ്റ്യൂ	-5982
▁ഒതു	-5983
ന്‍ഡ്	-5984
പിള്ള	-5985
▁പലിശ	-5986
▁അയക്ക	-5987
▁വെങ്ക	-5988
▁സത്യം	-5989
▁പ്രകാര	-5990
▁ചരിത്രം	-5991
▁ശിവശങ്ക	-5992
▁ഉപയോഗിച്ച	-5993
▁ഇല്ലാതാക്ക	-5994
▁ഒളിവ	-5995
ൊരുങ്ങ	-5996
▁കസ്റ്റംസ്	-5997
ിപ്പിക്കുകയ	-5998
ജിനീയ	-5999
▁ട്രോ	-6000
▁കുറവ്	-6001
▁തുടരു	-6002
▁മനോജ്	-6003
▁വാര്‍ത്തകള്‍	-6004
--	-6005
ംഭ	-6006
പോയ	-6007
ുകാല	-6008
▁ദൂര	-6009
▁തസ്ത	-6010
▁ന്യൂസ്	-6011
▁ഹാജരാക	-6012
▁അഹമ്മദ്	-6013
▁വാഹനങ്ങള	-6014
▁വിശ്വാസം	-6015
▁അത്യാവശ്യ	-6016
▁വീട്ടിലേക്ക്	-6017
▁തറ	-6018
▁ഇടത	-6019
കാരിക	-6020
▁ചാണ്ടി	-6021
ഹ്ല	-6022
നുമാ	-6023
ായുധ	-6024
▁ആസി	-6025
▁എംബ	-6026
▁ഡിസ	-6027
▁പണമ	-6028
ിപ്പറ	-6029
▁ഡോക്ടറ	-6030
▁പൊട്ടി	-6031
ുന്നതിനെ	-6032
▁ലോകകപ്പ	-6033
ത്തിയിരിക്ക	-6034
▁തട്ടിക്കൊണ്ട	-6035
▁രാജ്യങ്ങളില്‍	-6036
▁196	-6037
നല്‍ക	-6038
▁അനുപ	-6039
▁പദവി	-6040
▁പുഷ്	-6041
▁ടെലിവി	-6042
▁നോട്ട്	-6043
▁പ്രകാശ്	-6044
▁വിലക്ക്	-6045
▁ഒക്ടോബര്‍	-6046
▁പെട്രോള്‍	-6047
▁തൊഴിലാളികള	-6048
▁പ്രതിപക്ഷം	-6049
മാസം	-6050
സ്തവ	-6051
▁സുമ	-6052
▁ഹാള	-6053
▁കഴുക	-6054
▁പ്രേമ	-6055
▁നിയമനം	-6056
▁നെറ്റ്	-6057
▁പ്രോസി	-6058
▁വിരാട്	-6059
▁സ്മാര്‍	-6060
▁നിര്‍മ്മാണ	-6061
▁ദിവസങ്ങളില്‍	-6062
ാംശ	-6063
▁ബാഗ	-6064
നെതിരെ	-6065
▁പകര്‍	-6066
▁അഞ്ചാം	-6067
▁തിരുത്ത	-6068
▁വിവരങ്ങള	-6069
ുന്നതിനാല്‍	-6070
▁പുലര്‍ച്ചെ	-6071
▁നല്‍കിയിരിക്ക	-6072
▁നദ	-6073
യോഗം	-6074
കുട്ടി	-6075
▁ഒത്തു	-6076
ിറങ്ങിയ	-6077
▁അതുപോലെ	-6078
▁അന്നത്തെ	-6079
▁ഇവര്‍ക്ക്	-6080
▁സഞ്ചരിക്ക	-6081
ൊഴില	-6082
▁ചാർ	-6083
▁യോജ	-6084
▁അവഗണ	-6085
▁ഗവേഷണ	-6086
▁ഭിന്ന	-6087
▁ഉറപ്പ്	-6088
▁കുറ്റം	-6089
▁വിട്ട്	-6090
ായിരുന്ന	-6091
▁അറസ്റ്റു	-6092
▁സ്റ്റേഡിയ	-6093
▁പിടിയിലായത്	-6094
▁അബ	-6095
▁ആഴ	-6096
ശാലയ	-6097
▁ശബ്	-6098
▁സിം	-6099
▁ഖാന്‍	-6100
▁ചെലവഴ	-6101
▁ബംഗളൂ	-6102
▁ന്യൂസില	-6103
▁അതോറിറ്റി	-6104
ലൈന	-6105
വിന	-6106
▁34	-6107
ക്രോ	-6108
വ്വഹ	-6109
വര്‍ഷം	-6110
▁മഞ്ജു	-6111
▁മില്ല	-6112
▁ആഭിമുഖ	-6113
▁ഗ്രന്ഥ	-6114
▁പറ്റിയ	-6115
▁ബജറ്റ്	-6116
▁രണ്ടാമ	-6117
▁രൂക്ഷമായ	-6118
▁(5	-6119
▁ചെലവ്	-6120
▁ബില്‍	-6121
▁കരിക്ക	-6122
▁ഉള്‍പ്പെട	-6123
▁രക്ഷപ്പെട	-6124
▁സുരേന്ദ്രന്‍	-6125
▁പൂര്‍ത്തിയാക്ക	-6126
le	-6127
ല്ലാ	-6128
െയിൻ	-6129
▁ഇറാ	-6130
▁അഥവാ	-6131
▁ആള്‍	-6132
ിലൂടെയ	-6133
▁ആന്റ്	-6134
▁ഇടവേള	-6135
▁ഭാഗ്യ	-6136
ര്‍ത്തു	-6137
▁പ്രധാനമായ	-6138
▁തിരിച്ചടിയ	-6139
ോടി	-6140
▁3,	-6141
റങ്ങ	-6142
നോട്ട	-6143
ങ്ങാടി	-6144
▁ഉപദേശ	-6145
▁വിപുല	-6146
▁സർവകലാ	-6147
മാര്‍ക്ക	-6148
▁പരീക്ഷണ	-6149
▁വിഷയത്ത	-6150
▁മമ്മൂട്ടി	-6151
ടനയ	-6152
ലീം	-6153
ഴുത	-6154
▁ഇടി	-6155
▁ഡിവി	-6156
▁സിസി	-6157
▁സൈസ്	-6158
തിയാണ്	-6159
▁നിർവഹ	-6160
▁കൂട്ടി	-6161
ിച്ചെന്ന	-6162
▁വളരെയധികം	-6163
25	-6164
ൺസ്	-6165
▁കാല്‍	-6166
▁പ്രതിസന്ധിയ	-6167
▁ബന്ധുക്കള്‍	-6168
ുപു	-6169
▁മദ	-6170
▁ബാബ	-6171
▁ഡാറ്റ	-6172
▁പോള്‍	-6173
▁സ്കൂൾ	-6174
▁ആകര്‍ഷ	-6175
▁മീഡിയയ	-6176
▁ജീവിക്ക	-6177
ിപ്പിക്കാൻ	-6178
▁ഖാ	-6179
▁ഹെഡ്	-6180
സമ്മേള	-6181
ാണുള്ളത്	-6182
▁ഇന്ത്യാ	-6183
▁പോകാന്‍	-6184
ത്തുനിന്ന	-6185
te	-6186
ഹിം	-6187
ിതാ	-6188
വിശ്യ	-6189
ീര്‍ഘ	-6190
തയുള്ള	-6191
ിച്ചതായ	-6192
▁അറേബ്യ	-6193
▁തികച്ച	-6194
▁അന്തരീക്ഷ	-6195
▁ഇളവ	-6196
ാന്ത്	-6197
▁ജമ്മു	-6198
▁പ്രസവ	-6199
റ്റിംഗ്	-6200
▁മുന്നോ	-6201
▁ഹോട്ടല	-6202
▁രാത്രിയ	-6203
▁തകര്‍ന്ന	-6204
▁ഗവര്‍ണര്‍	-6205
ത്രു	-6206
▁പെയ	-6207
പ്രിയ	-6208
▁പ്രഥ	-6209
▁ഉറങ്ങ	-6210
ുണ്ടായത്	-6211
▁ഹൈദരാബാദ്	-6212
▁വിശ്വസിക്ക	-6213
▁..	-6214
▁പൈല	-6215
▁താരതമ	-6216
▁പ്രൊഡ	-6217
▁വര്‍ഷമാ	-6218
▁ബെംഗളൂരു	-6219
▁കമ്മ്യൂണി	-6220
▁പ്രചരിക്ക	-6221
▁പട്ടികയില്‍	-6222
ുപറ	-6223
ൂസ്	-6224
▁ചായ	-6225
▁സ്ല	-6226
▁ശരീരം	-6227
▁അപകടത്ത	-6228
▁പ്രയോജന	-6229
▁പെൺകുട്ടി	-6230
▁പ്രഖ്യാപിച്ചത്	-6231
▁ആരെ	-6232
▁ഇരി	-6233
▁ഉണ്ണ	-6234
▁നോര്‍	-6235
▁ലോക്ഡൗ	-6236
▁പെട്രോള	-6237
▁മടങ്ങിയ	-6238
▁പ്ലാറ്റ്	-6239
▁സാധ്യതയുണ്ട്	-6240
▁ബഹു	-6241
▁ഉല്‍	-6242
▁ഇന്‍ഡ	-6243
▁കാണാന	-6244
▁നവംബർ	-6245
▁ദിവസമാണ്	-6246
ശേരി	-6247
▁മേൽ	-6248
▁സോള	-6249
ബന്ധന	-6250
▁പയ്യ	-6251
▁രോഗബാ	-6252
▁തന്‍റെ	-6253
▁തുടർച്ച	-6254
ിക്കുന്നവര	-6255
ിരുന്നില്ല	-6256
▁ഉമ്മന്‍ചാ	-6257
സൗ	-6258
യുട	-6259
▁ഇമ	-6260
ത്തറ	-6261
കളിലെ	-6262
▁കർശന	-6263
▁നിഗമ	-6264
▁റെയിൽ	-6265
കര്‍ക്ക്	-6266
▁വക്താവ്	-6267
▁കൊലപാതകം	-6268
സറ	-6269
▁/	-6270
കൃത	-6271
ോപ്പ	-6272
▁കോഴ	-6273
▁ഗോവ	-6274
▁ജൂൺ	-6275
▁റൂമ	-6276
തയാണ്	-6277
ിവാസി	-6278
▁ശ്വാസ	-6279
▁സ്വര്‍ണം	-6280
▁പുറത്താക്ക	-6281
കുറ	-6282
ൾഡ്	-6283
▁ഉം	-6284
കനായ	-6285
▁അന്യ	-6286
ത്വത്ത	-6287
കള്‍ക്ക	-6288
▁ആദിവാസി	-6289
▁ഇന്ത്യക്ക്	-6290
ഷീ	-6291
ിതം	-6292
▁ആകാശ	-6293
രഞ്ഞെടു	-6294
▁ആഹ്വാനം	-6295
▁എറണാകുള	-6296
▁മുദ്രാവ	-6297
▁ഗുരുതരമായ	-6298
▁രജിസ്റ്റർ	-6299
▁സുപ്രീംകോട	-6300
▁കൊണ്ടിരിക്ക	-6301
വുമ	-6302
▁സാര	-6303
▁ബാംഗ	-6304
വറില്‍	-6305
▁കൈയ്യ	-6306
യാണെന്ന്	-6307
▁നടത്താൻ	-6308
ിലേക്കാണ്	-6309
▁ദേശീയപാത	-6310
▁സ്ഥാനാർഥ	-6311
▁ശ്രദ്ധയില്‍	-6312
▁പശ്ചാത്തലത്ത	-6313
▁അദ	-6314
ൊരാള	-6315
▁ഗവർ	-6316
▁2012	-6317
ീകരിക്ക	-6318
ുന്നവരെ	-6319
▁പഠിക്ക	-6320
▁പേർക്ക	-6321
▁സൗത്ത്	-6322
▁അട്ടിമറ	-6323
▁അവർക്ക്	-6324
▁രേഖകള്‍	-6325
▁മാധ്യമങ്ങള്‍	-6326
▁സമര്‍പ്പിച്ച	-6327
▁വിഭ	-6328
ാനത്ത	-6329
▁ഇടത്	-6330
▁ഒരാൾ	-6331
ാനില്‍	-6332
ുമാര്‍	-6333
▁പ്രതികള	-6334
▁പന്തില്‍	-6335
▁സമ്മേളനത്ത	-6336
4)	-6337
തക	-6338
ബിന	-6339
ര്‍ണ	-6340
▁ഏതാ	-6341
ര്‍ജി	-6342
▁കൊഴു	-6343
ൊഴിലാള	-6344
▁ക്ഷേമ	-6345
▁ചിക്ക	-6346
▁ടൂര്‍	-6347
▁നെല്ല	-6348
▁വിജ്ഞ	-6349
▁അടുപ്പ	-6350
▁കൂളില്‍	-6351
▁വര്‍ക്ക	-6352
▁ഫേസ്ബുക്ക	-6353
▁നരേന്ദ്രമോ	-6354
▁പഞ്ചായത്തിലെ	-6355
▁പൗ	-6356
ുവഴി	-6357
▁ജമാ	-6358
▁പുഴ	-6359
ത്തിര	-6360
▁അതും	-6361
▁ബോംബ	-6362
▁വഞ്ച	-6363
കർക്ക്	-6364
ക്കാർക്ക്	-6365
▁തയ്യാറാക	-6366
▁അപ്രതീക്ഷ	-6367
▁ബന്ധപ്പെട	-6368
▁ഉണ്ടാക്കിയ	-6369
യാൻ	-6370
▁ഒഴുക	-6371
▁വേട്ട	-6372
▁യോഗ്യത	-6373
▁ശേഖരിക്ക	-6374
▁ക്രിസ്ത്യ	-6375
ിക്കുന്നതിനാ	-6376
ുന്നവര്‍ക്ക്	-6377
▁തിരിച്ചറിഞ്ഞ	-6378
ക്ല	-6379
താക്കള	-6380
യുണ്ട്	-6381
▁ആപ്പ്	-6382
ാണെന്നാണ്	-6383
ിക്കുന്നതാ	-6384
▁കേന്ദ്രസർ	-6385
▁പ്രവർത്തനം	-6386
▁രംഗത്തെത്തി	-6387
▁ഉറപ്പുവരുത്ത	-6388
ന്തു	-6389
റപ്പ	-6390
▁കിഴ	-6391
▁സൗദ	-6392
ബുക്ക്	-6393
▁ദ്വീപ	-6394
▁കലാകാര	-6395
▁രോഹിത്	-6396
▁അധികൃതര	-6397
▁ഇങ്ങനെയ	-6398
▁ഗുരുവായ	-6399
▁ബിജെപിക്ക്	-6400
ിക്കുന്നതിനുള്ള	-6401
▁37	-6402
▁അബൂ	-6403
▁ഉപര	-6404
▁ഓഡി	-6405
ാന്‍ഡ	-6406
▁കേസു	-6407
▁പാലാ	-6408
ാത്തത്	-6409
▁തെക്ക	-6410
▁ഉറപ്പു	-6411
▁കൂടിയായ	-6412
▁സന്തോഷം	-6413
മുണ്ടെന്ന്	-6414
▁തെറ്റിദ്ധ	-6415
▁നിലനിര്‍ത്ത	-6416
▁ചൂണ്ടിക്കാട്ട	-6417
2)	-6418
▁ഭര	-6419
▁ഹസ	-6420
▁സുക	-6421
▁മധുര	-6422
▁ഹരിയ	-6423
▁സന്നി	-6424
ഫ്രിക്ക	-6425
ത്തിൻ്റെ	-6426
▁ചെയർമാൻ	-6427
▁നിയമത്ത	-6428
▁ഭരണകൂടം	-6429
▁പ്രാര്‍ത്ഥ	-6430
▁രേഖപ്പെടുത്തി	-6431
▁നസ	-6432
▁സിൻ	-6433
സാധ്യ	-6434
ഹാര്‍	-6435
▁പതിവ	-6436
▁സ്വീ	-6437
ക്കാലം	-6438
ുകാരന്‍	-6439
▁ദീര്‍ഘ	-6440
▁ബാക്കിയ	-6441
ുകളിലേക്ക്	-6442
നൈ	-6443
പിക്ക	-6444
▁നിഷ്	-6445
▁പല്ല	-6446
▁മദ്ര	-6447
▁കന്യാ	-6448
▁നെഞ്ച	-6449
▁ബിഎസ്	-6450
▁തുടര്‍	-6451
▁സംഗീതം	-6452
ിലുള്ളത്	-6453
▁അറിയിക്ക	-6454
di	-6455
▁പോര	-6456
▁മോദ	-6457
▁ജപ്പ	-6458
▁മലിന	-6459
▁മുനി	-6460
▁സൊസൈ	-6461
▁പതിവ്	-6462
▁പരിഹസ	-6463
▁പ്രസ്	-6464
മ്പില്‍	-6465
▁യന്ത്ര	-6466
▁എടുത്ത്	-6467
▁ചെയ്യണം	-6468
▁നിർദേശം	-6469
▁മുസ്ലീം	-6470
▁വെസ്റ്റ്	-6471
▁സമീപത്തെ	-6472
ഷുറ	-6473
െയില	-6474
▁ഇവര	-6475
ുന്നവർ	-6476
േർത്തു	-6477
▁ഉപരോധ	-6478
▁തെന്ന	-6479
▁ഉത്തരം	-6480
▁മാർക്ക	-6481
ുകൊടുക്ക	-6482
▁തെറ്റായ	-6483
▁പരിശീലന	-6484
▁യൂറോപ്യ	-6485
▁കെപിസിസി	-6486
▁തുടർന്നാണ്	-6487
▁പാര്‍ലമെന്റ	-6488
.'	-6489
പടി	-6490
▁നാശ	-6491
▁സതീ	-6492
ാത്തത	-6493
▁ഗോപി	-6494
▁പരിധ	-6495
▁വൈറസ	-6496
▁രേഖകള	-6497
▁സമരത്ത	-6498
▁മണിയോടെ	-6499
പകട	-6500
▁ഉൽ	-6501
ക്കല	-6502
▁അതെ	-6503
▁ദ്ര	-6504
പ്രകാര	-6505
▁ഇന്റർ	-6506
▁ബാറ്റ	-6507
▁എഞ്ചിന	-6508
ത്തിനാണ്	-6509
▁നഷ്ടപരി	-6510
തെരഞ്ഞെടു	-6511
▁ലക്ഷ്യമിട	-6512
▁ഉൾപ്പെടെയുള്ള	-6513
▁സമ്മേളനത്തില്‍	-6514
▁അവൾ	-6515
▁ഗുണം	-6516
ുകളുമാ	-6517
്യമല്ല	-6518
▁അടക്ക	-6519
▁ഒന്‍പ	-6520
▁പ്രവൃ	-6521
▁ജനങ്ങൾ	-6522
▁പട്ടികയ	-6523
ച്ചിരിക്ക	-6524
▁അപ്പോള്‍	-6525
▁അതിര്‍ത്തിയ	-6526
▁അപ്രതീക്ഷിത	-6527
▁മോഹന്‍ലാല്‍	-6528
പ്രിം	-6529
▁തൊടു	-6530
▁കൊന്ന	-6531
മാർക്ക്	-6532
▁കോട്ടയ	-6533
▁തനിക്ക	-6534
▁വീട്ടിലെ	-6535
▁കേരളത്തില	-6536
ിക്കുന്നതെന്ന്	-6537
.”	-6538
ധരൻ	-6539
▁ചങ്ങ	-6540
▁വിരമ	-6541
▁നിരാശ	-6542
▁പാമ്പ	-6543
ത്തിനകം	-6544
▁ഏജന്‍സ	-6545
▁രക്ഷിത	-6546
▁വലിയൊരു	-6547
▁കാര്യമായ	-6548
▁പരാതിക്ക	-6549
വതി	-6550
▁2000	-6551
▁ഉപ്പ	-6552
▁ധോണി	-6553
പ്ലിക്ക	-6554
മിയില്‍	-6555
▁പഞ്ചാബ്	-6556
▁സുനില്‍	-6557
▁ഗുരുതരമാ	-6558
▁കണക്കുകള്‍	-6559
ോബ	-6560
▁ദയ	-6561
▁അസ്	-6562
▁ആചാര	-6563
▁ബിന്	-6564
▁യുപി	-6565
▁ബാര്‍	-6566
യ്ക്കിടെ	-6567
▁ചെയ്യപ്പെട്ട	-6568
▁ആവശ്യപ്പെട്ടിര	-6569
.9	-6570
മാല	-6571
രാൻ	-6572
▁ആച	-6573
ിനിര	-6574
▁മമത	-6575
▁ശൈല	-6576
▁സ്ര	-6577
▁തരംഗ	-6578
▁നീട്ട	-6579
▁പന്ത്	-6580
▁സെന്ററ	-6581
▁സ്വാഗത	-6582
▁അനുബന്ധ	-6583
▁ഡയറക്ടർ	-6584
▁ലഭ്യമാക	-6585
▁കമ്പനികള	-6586
▁നൽകുന്നത്	-6587
▁പുറത്തുവര	-6588
▁വേണമെന്ന്	-6589
▁സ്വദേശിനി	-6590
ിക്കുന്നതില്‍	-6591
ടവ	-6592
ധാവ	-6593
ാരു	-6594
▁ദൂ	-6595
▁150	-6596
▁പ്രീ	-6597
▁ചോര്‍	-6598
▁നായകന്‍	-6599
▁ലഭിച്ചിര	-6600
ഡർ	-6601
ോൺ	-6602
▁ഓടി	-6603
▁ക്വ	-6604
▁സിയ	-6605
▁ആരെയ	-6606
▁ബിന്‍	-6607
ല്ലൂര്‍	-6608
▁സഹോദരി	-6609
▁പാടില്ല	-6610
▁വധശിക്ഷ	-6611
▁ഒഴിവാക്കി	-6612
▁ഗുജറാത്ത്	-6613
▁അസിസ്റ്റന്റ്	-6614
▁ചിറ	-6615
ത്തുക	-6616
▁ആപ്പ	-6617
▁മട്ട	-6618
▁ജഡ്ജി	-6619
▁പ്രയാസ	-6620
▁ഡല്‍ഹിയില്‍	-6621
ഫെ	-6622
പ്പർ	-6623
സഞ്ച	-6624
▁നിശ	-6625
▁ഷെയ്	-6626
▁ശമ്പള	-6627
▁വില്‍ക്ക	-6628
▁അമേരിക്കയിലെ	-6629
രോഗ	-6630
▁ഊർ	-6631
▁ദ്	-6632
▁ദോഷ	-6633
യെന്ന	-6634
ടുത്തെ	-6635
▁ഇബ്രാ	-6636
▁ആരോപിക്ക	-6637
▁കളക്ടര്‍	-6638
▁പ്രക്രിയ	-6639
ില്‍നിന്ന്	-6640
▁സൃഷ്ടിക്ക	-6641
▁എല്ലാവര്‍ക്ക	-6642
ഡെ	-6643
▁കം	-6644
ാരോപ	-6645
▁കോമ	-6646
ക്കാന	-6647
▁മിന്ന	-6648
▁വീട്ടില	-6649
▁ടിക്കറ്റ	-6650
▁മിനിറ്റ്	-6651
▁അവസാനിക്ക	-6652
▁ഇപ്പോഴിതാ	-6653
▁ഇന്ത്യക്കാര	-6654
▁300	-6655
▁നാണ	-6656
▁സന്ധ	-6657
▁സ്വി	-6658
▁കുര്യ	-6659
▁സംഘർഷ	-6660
▁നല്ലൊരു	-6661
▁ഭർത്താവ	-6662
▁യഥാർത്ഥ	-6663
▁കിലോമീറ്റർ	-6664
▁ഹൈക്കോടതിയ	-6665
▁സന	-6666
▁പൈസ	-6667
പ്രശ്	-6668
▁കോലി	-6669
▁നിർമ	-6670
▁തടഞ്ഞ	-6671
▁വരികയ	-6672
▁ഹാജരാക്ക	-6673
പെട	-6674
▁ബദ	-6675
ുകളാ	-6676
ാര്‍ശ	-6677
ിനെയാണ്	-6678
▁അറിയാം	-6679
▁ഭരണഘടന	-6680
യ്ക്കാണ്	-6681
▁വിശദമായ	-6682
ിയിലേക്ക്	-6683
▁സ്റ്റാര്‍	-6684
ഫു	-6685
-20	-6686
▁കഷ്ട	-6687
▁കാന്‍	-6688
▁പാണ്ഡ	-6689
▁നടത്താന	-6690
▁വേണ്ടിയാണ്	-6691
ൃഹ	-6692
▁ഫയ	-6693
▁നിറം	-6694
▁പുറം	-6695
▁സ്പെ	-6696
വിന്ദ്	-6697
▁ഗര്‍ഭ	-6698
▁നങ്ങള	-6699
▁റിസര്‍	-6700
▁വിനോദ്	-6701
ുള്ളില്‍	-6702
▁അഫ്ഗാനി	-6703
▁കഞ്ചാവ്	-6704
▁പ്രദേശങ്ങള	-6705
▁പ്രവര്‍ത്തനങ്ങള	-6706
മൊഴ	-6707
▁ശോഭ	-6708
▁ഗാനം	-6709
▁ഗോപാല	-6710
ാലിക്കു	-6711
▁ശക്തിയ	-6712
▁സ്വര്‍ണ	-6713
▁ദിവസങ്ങള	-6714
▁നാട്ടിലെ	-6715
ൽകു	-6716
▁38	-6717
▁re	-6718
നഷ്ട	-6719
▁തൃണമ	-6720
▁ആദിത്യ	-6721
▁കരുതിയ	-6722
▁അനുയോജ്യ	-6723
▁നിക്ഷേപം	-6724
▁ഇത്തരമൊരു	-6725
▁ഭീകരാക്രമ	-6726
ത്തിലൂടെയാണ്	-6727
▁ടേ	-6728
ദിവസ	-6729
പ്രാ	-6730
▁അവയ	-6731
▁വേറ	-6732
▁ദുബൈ	-6733
▁മക്ക	-6734
തായാണ്	-6735
േണ്ടിവ	-6736
▁ബഹുമാ	-6737
▁രജിസ്	-6738
ക്കിംഗ്	-6739
▁വലിച്ച	-6740
▁ഉയര്‍ന്നു	-6741
▁അതിര്‍ത്തി	-6742
▁കൂട്ടിച്ചേർത്തു	-6743
▁സെൽ	-6744
▁ഇത്ര	-6745
▁മെഗാ	-6746
▁ചില്ല	-6747
യാക്കിയ	-6748
▁പഞ്ചാബ	-6749
▁സംഘടനാ	-6750
▁അയ്യപ്പ	-6751
▁പ്രദേശത്തെ	-6752
▁കുട്ടികള്‍ക്ക്	-6753
-2	-6754
ക്വ	-6755
തിഥ	-6756
ൂപ്	-6757
ൂരി	-6758
രാണ്	-6759
▁തലയ	-6760
വത്കര	-6761
▁തുകയ	-6762
▁ഹാജി	-6763
ക്കിടയ	-6764
ടുത്തത്	-6765
▁ബാംഗ്ല	-6766
▁നാട്ടിലേക്ക്	-6767
ബ്ബ	-6768
▁പോഷ	-6769
▁മഴയ	-6770
▁സ്മ	-6771
നവുമാ	-6772
ിപ്പു	-6773
ുകാരെ	-6774
▁അന്‍	-6775
▁നന്ന	-6776
▁മരുമ	-6777
റ്റിലെ	-6778
▁അതാണ്	-6779
▁മര്‍ദ	-6780
▁ഒമ്പത്	-6781
▁റവന്യൂ	-6782
▁സൈബര്‍	-6783
▁നൽകിയിര	-6784
▁കാലാവസ്ഥാ	-6785
ർഥ	-6786
▁കൃത	-6787
▁മകന	-6788
▁തമിഴ	-6789
▁ഫീസ്	-6790
വകുപ്പ	-6791
▁ട്രഷറ	-6792
▁തൊട്ടു	-6793
ട്ടിയാണ്	-6794
▁ആഫ്രിക്ക	-6795
▁ക്കെതിരെ	-6796
▁തിരിച്ച്	-6797
▁പരിശോധനയ	-6798
ിക്കുന്നതു	-6799
▁മോഹന്‍ലാല	-6800
▁സമ്മര്‍ദ്ദ	-6801
രമ	-6802
റം	-6803
മൂല	-6804
▁എന	-6805
▁ലയ	-6806
▁വർഗ	-6807
▁പ്രൈ	-6808
▁പ്ലേ	-6809
▁വിഷമ	-6810
▁ഹാരി	-6811
▁ഏതാണ്ട്	-6812
▁താരമാണ്	-6813
▁പെരുമ്പ	-6814
പ്പുറത്ത്	-6815
▁എത്തിക്ക	-6816
▁രജിസ്ട്ര	-6817
▁മനസിലാക്ക	-6818
▁ജീവിതത്തില്‍	-6819
ടിസി	-6820
മാണി	-6821
▁കൈവ	-6822
▁ഐഎസ്	-6823
▁കഠിന	-6824
▁നേരം	-6825
▁മോഷണം	-6826
▁സമഗ്ര	-6827
▁കണക്കു	-6828
▁കമ്പ്യ	-6829
▁പത്താം	-6830
▁സിനിമകള	-6831
▁മണ്ഡലത്തില്‍	-6832
ാൾ	-6833
ദ്ദി	-6834
രുത്തി	-6835
▁ബാധിത	-6836
ാതെയാണ്	-6837
▁പ്രതിഭ	-6838
▁അടയ്ക്ക	-6839
▁ക്ഷേത്രം	-6840
▁നിലനിൽക്ക	-6841
▁കുറ്റപ്പെടുത്തി	-6842
പേര	-6843
▁ജൈവ	-6844
പര്യം	-6845
▁അപ്ര	-6846
▁ആര്യ	-6847
▁കളിയ	-6848
▁ജിബി	-6849
▁അയല്‍	-6850
▁ഓര്‍മ	-6851
▁വികാര	-6852
▁കൈമാറിയ	-6853
▁പ്രവിശ്യ	-6854
▁രാഷ്ട്രപതി	-6855
രയ	-6856
രിക	-6857
ാനയ	-6858
േഖലാ	-6859
▁അഷ്	-6860
മ്പരാ	-6861
ലേറ്റ	-6862
▁ആകർഷ	-6863
▁ഇളവ്	-6864
▁മിനു	-6865
▁സഞ്ജ	-6866
▁നില്‍	-6867
്യത്തില്‍	-6868
▁പരിശോധനാ	-6869
▁പിരിച്ചു	-6870
ക്യൂട്ടീവ്	-6871
▁അടിയന്തിര	-6872
▁അവസാനിപ്പ	-6873
11	-6874
ഖി	-6875
പേ	-6876
ഡിപി	-6877
▁പോള	-6878
▁ബോസ്	-6879
▁മിസൈ	-6880
▁പ്രഥമ	-6881
ോയെന്ന്	-6882
▁സർവീസ്	-6883
േണ്ടതാണ്	-6884
▁സംരക്ഷണം	-6885
▁ആവശ്യമാണ്	-6886
▁ഭൂരിപക്ഷം	-6887
▁ഉദ്യോഗസ്ഥർ	-6888
st	-6889
ലിന	-6890
ോഗ്	-6891
▁കാൽ	-6892
ചെയ്ത	-6893
▁നായർ	-6894
ുമ്പോഴ	-6895
▁ഡൗണ്‍	-6896
▁മദ്യം	-6897
▁വിസ്ത	-6898
▁ഓസ്ട്ര	-6899
▁പന്ത്ര	-6900
ത്തിയാണ്	-6901
റ്ററില്‍	-6902
▁പൃഥ്വിര	-6903
▁പ്രതിഫല	-6904
▁രാജ്യസഭ	-6905
▁സുപ്രിം	-6906
▁65	-6907
തന്ന	-6908
▁കിണ	-6909
▁1000	-6910
▁വേര്‍	-6911
▁ശത്രു	-6912
റ്റിങ്ങ	-6913
▁ഫ്രാന്‍	-6914
▁സെന്റര്‍	-6915
▁പുറത്തിറക്ക	-6916
▁വിദ്യാഭ്യാസം	-6917
od	-6918
ച്ചയ	-6919
▁രാഷ്	-6920
▁താമസം	-6921
▁ചേർക്ക	-6922
▁പോലിസ്	-6923
▁ഭരിക്ക	-6924
▁മല്‍സര	-6925
▁നിശ്ചിത	-6926
▁മുന്നണി	-6927
▁സൗന്ദര്യ	-6928
ാക്കള്‍ക്ക്	-6929
പ്പെടുത്തുകയ	-6930
▁സ്വദേശികളായ	-6931
ാടി	-6932
▁നന്ദിയ	-6933
▁അനുമതിയ	-6934
▁അബുദാബി	-6935
▁സിവില്‍	-6936
▁നിർദ്ദേശം	-6937
▁പരാമര്‍ശം	-6938
▁പ്രതിനിധി	-6939
▁യഥാര്‍ത്ഥ	-6940
ൂലം	-6941
മൂലം	-6942
ുന്നവ	-6943
▁ചക്ര	-6944
▁മറിയ	-6945
▁സംഘവ	-6946
ക്കാണ്	-6947
ക്കിങ്	-6948
▁കമന്റ	-6949
▁ഗ്രാം	-6950
▁പദ്ധത	-6951
ക്കാരായ	-6952
ക്കെത്ത	-6953
▁യാത്രയ	-6954
ുന്നുള്ള	-6955
▁വേണ്ടത്	-6956
▁നല്‍കുകയ	-6957
യേ	-6958
▁സദ	-6959
ന്തം	-6960
▁താപ	-6961
▁സ്ഫ	-6962
▁ബോർഡ്	-6963
▁വൈറ്റ്	-6964
▁സമുദ്ര	-6965
▁തിയേറ്റ	-6966
▁യൂണിറ്റ്	-6967
▁സത്യപ്രതി	-6968
▁റിപ്പോർട്ടു	-6969
en	-6970
▁ടൊ	-6971
യോട്	-6972
വിന്ദ	-6973
▁പാർല	-6974
▁മഞ്ച	-6975
▁സംവര	-6976
▁ഏറ്റുവാ	-6977
▁വോട്ടര്‍	-6978
പ്പെടുത്തിയിര	-6979
▁55	-6980
പട്ട	-6981
▁അക്	-6982
▁ജോയ	-6983
റിയാം	-6984
▁മോഡി	-6985
▁പാത്ര	-6986
ണത്തില്‍	-6987
▁കമ്യൂണി	-6988
▁വഴിയാണ്	-6989
▁വർഷത്തെ	-6990
ത്തിലെത്തിയ	-6991
ികു	-6992
സ്ഥാ	-6993
ഷണല്‍	-6994
▁ഉദ്ധ	-6995
മ്പരാഗത	-6996
▁അനുഗ്രഹ	-6997
▁പോരാട്ടം	-6998
▁വസ്തുക്കള	-6999
▁ചികിത്സയില	-7000
▁രംഗത്തെത്ത	-7001
ിക്കുന്നതിനിടെ	-7002
ൈൻ	-7003
ലത്ത	-7004
ൃതിയ	-7005
▁ആരു	-7006
▁അളവ്	-7007
ിവാര്യ	-7008
▁അപ്പോഴ	-7009
▁സ്ഥിരം	-7010
തിനാലാണ്	-7011
▁പരസ്യമാ	-7012
▁റോഡില്‍	-7013
▁വിവാഹത്ത	-7014
▁പ്രേരിപ്പ	-7015
▁മോട്ടോര്‍	-7016
▁കഴിഞ്ഞദിവസം	-7017
കീ	-7018
▁കസ	-7019
▁ഹൂ	-7020
ങ്കി	-7021
ദാര്‍	-7022
ികൃഷ്ണ	-7023
▁അലങ്ക	-7024
▁ട്രോള	-7025
▁മേധാവ	-7026
▁എഴുന്ന	-7027
▁കൂളിലെ	-7028
▁പ്രത്യേകത	-7029
▁രോഗമുക്തി	-7030
▁സ്ഥാപനങ്ങള്‍	-7031
മർ	-7032
ഴ്സ	-7033
ഡിങ്	-7034
ര്‍ബ	-7035
▁നാര	-7036
▁നാണ്	-7037
യാക്കി	-7038
െയായിര	-7039
▁കുമ്പ	-7040
▁പ്രമേയ	-7041
▁തടയാന്‍	-7042
▁അനിവാര്യ	-7043
▁പിന്തുണയ്ക്ക	-7044
▁സെപ്റ്റംബര്‍	-7045
▁ചൈ	-7046
▁സര	-7047
▁അനാ	-7048
ഗ്രാമ	-7049
▁ഹോസ്	-7050
ന്മാരെ	-7051
▁അതിവേ	-7052
▁മുണ്ട	-7053
▁ക്ലബ്ബ	-7054
▁മിനിറ്റ	-7055
▁വാക്സിന	-7056
▁നയതന്ത്ര	-7057
▁മറികടക്ക	-7058
▁പച്ചക്കറി	-7059
▁കമ്പ്യൂട്ട	-7060
▁കേസെടുത്തു	-7061
ുണ്യ	-7062
▁സുവ	-7063
ച്ചിര	-7064
▁ഭാരം	-7065
▁മാർഗ	-7066
▁അച്ഛന	-7067
▁നാവിക	-7068
▁ചോദിച്ച	-7069
▁ഫോണില്‍	-7070
▁ഇന്‍സ്റ്റ	-7071
▁ഭാഗമായാണ്	-7072
▁വെല്ലുവിളി	-7073
▁മയക്കുമരുന്ന്	-7074
ച്യു	-7075
സേനയ	-7076
▁ചാര	-7077
▁നിവ	-7078
▁മരം	-7079
▁വാള	-7080
▁കർഷക	-7081
സ്വാമി	-7082
▁പത്രിക	-7083
▁വ്യത്യാസ	-7084
▁അസോസിയേഷൻ	-7085
ിട്ടില്ലെന്ന്	-7086
ഗന്ധ	-7087
വ്വം	-7088
സ്വദ	-7089
▁ഓപ്	-7090
▁മിന	-7091
▁റാം	-7092
▁സോണ	-7093
ിയുമാ	-7094
▁ചുഴല	-7095
▁തല്ല	-7096
▁പെയ്	-7097
▁ഇതിനോട	-7098
▁പകുതിയ	-7099
▁യാത്രാ	-7100
▁നിരോധനം	-7101
▁റെയിൽവേ	-7102
▁കുറിപ്പ്	-7103
▁കൊല്ലപ്പെട്ടത്	-7104
▁ചികിത്സയിലായിര	-7105
';	-7106
ഫാ	-7107
റാത്ത	-7108
വാന്‍	-7109
▁ഭരണാ	-7110
ബ്രഹാം	-7111
▁ജോർജ്	-7112
▁പണ്ഡി	-7113
▁മില്യ	-7114
▁വിപണി	-7115
▁വിശാല	-7116
▁സമൂഹം	-7117
ത്തിനിര	-7118
ുമായാണ്	-7119
▁പൊതുജന	-7120
▁കണ്‍ട്ര	-7121
▁കൊട്ടാര	-7122
▁വാണിജ്യ	-7123
▁സവിശേഷത	-7124
▁സംഭവിച്ച	-7125
ത്തുടർന്ന്	-7126
▁എല്‍ഡിഎഫ്	-7127
▁അവസാനിപ്പിക്ക	-7128
കോട	-7129
മനു	-7130
ോമാ	-7131
▁co	-7132
▁റു	-7133
റുമാ	-7134
▁അകലം	-7135
▁ഓഫിസ	-7136
▁നൽകു	-7137
▁പാലം	-7138
▁പിഴയ	-7139
▁ഭദ്ര	-7140
സംരക്ഷ	-7141
സ്റ്റ്യ	-7142
ാലിറ്റി	-7143
▁ഇന്ദിര	-7144
▁നിഗമനം	-7145
▁നിലവാര	-7146
▁തെളിഞ്ഞ	-7147
▁സർട്ടിഫ	-7148
▁കാണപ്പെട	-7149
▁വിമര്‍ശനം	-7150
▁കുറിച്ചുള്ള	-7151
▁ചൂണ്ടിക്കാണ	-7152
90	-7153
▁4,	-7154
▁ഓണ	-7155
▁ഫണ്ട	-7156
▁ഐശ്വര	-7157
▁ആഗ്രഹം	-7158
▁വിശദാംശ	-7159
▁താരങ്ങള്‍	-7160
▁നിലയിലാണ്	-7161
▁പരമ്പരാഗത	-7162
▁പരിക്കേറ്റു	-7163
▁നടപടിയെടുക്ക	-7164
▁ദാ	-7165
ര്‍ല	-7166
▁പാപ്പ	-7167
ഡിയില്‍	-7168
ിച്ചുവര	-7169
▁കാർഷിക	-7170
▁അച്ഛന്‍	-7171
▁ആനുകൂല്യ	-7172
▁ചര്‍ച്ചകള്‍	-7173
▁സത്യപ്രതിജ്ഞ	-7174
▁ഇത്തരത്തിലുള്ള	-7175
കിയ	-7176
▁സൂര	-7177
ത്തായ	-7178
▁ലിമി	-7179
പ്പള്ള	-7180
▁കുമ്മ	-7181
▁ബുദ്ധ	-7182
▁ഡിഗ്രി	-7183
▁സാമ്പി	-7184
▁ഹിന്ദി	-7185
▁പീഡിപ്പ	-7186
▁എന്തായാല	-7187
▁ടൂര്‍ണമെ	-7188
▁ഉള്‍പ്പടെ	-7189
▁യേ	-7190
▁പാദ	-7191
മൊന്ന	-7192
▁എങ്ങ	-7193
▁സതീശ	-7194
ാനന്തര	-7195
ോയില്‍	-7196
▁നഷ്ടം	-7197
▁വിന്‍	-7198
പരിശോധന	-7199
പ്രതിനി	-7200
േണ്ടിവര	-7201
▁തൊടുപുഴ	-7202
▁ഇംഗ്ലണ്ട്	-7203
▁ഉയര്‍ത്തിയ	-7204
▁പുരോഗമിക്ക	-7205
▁ശാസ്ത്രജ്ഞ	-7206
.’	-7207
15	-7208
സംഘടന	-7209
▁വേഗത	-7210
▁ഗര്‍ഭി	-7211
▁നാട്ടു	-7212
ാണെങ്കില	-7213
▁ഫ്രഞ്ച്	-7214
▁ജനങ്ങള്‍ക്ക്	-7215
▁ഉള്‍പ്പെടുത്ത	-7216
പദ	-7217
▁h	-7218
▁(6	-7219
ുവർഷ	-7220
▁ഹെൽ	-7221
സഹായം	-7222
▁വീടു	-7223
▁അനുസ്മ	-7224
▁പ്രചോദ	-7225
▁രണ്ടാഴ്ച	-7226
▁പിടികൂടിയ	-7227
▁പ്രവർത്തകര	-7228
പ്പെട്ടിരിക്ക	-7229
▁എത്തിയിരിക്ക	-7230
▁42	-7231
▁195	-7232
▁സപ്	-7233
വര്‍ഷ	-7234
▁ആസ്വദ	-7235
▁ഉറക്ക	-7236
ങ്കില്‍	-7237
▁ഉപയോഗം	-7238
▁ഡിസംബർ	-7239
▁മാവോയി	-7240
▁എത്തിയിര	-7241
▁പരിശോധിക്ക	-7242
▁സംസ്ഥാനങ്ങളില്‍	-7243
▁ആമ	-7244
▁യോ	-7245
▁റിപ	-7246
ഫോണ്‍	-7247
ർട്ട്	-7248
▁ജുഡീ	-7249
▁കാമ്പ	-7250
▁മുറിവ	-7251
▁സർവ്വ	-7252
▁കമ്മീഷൻ	-7253
▁അദ്ധ്യാപ	-7254
▁തിരിച്ചട	-7255
▁സാന്നിധ്യം	-7256
▁സ്വീകരിച്ചത്	-7257
ചല	-7258
ാണെ	-7259
മണ്ണ	-7260
മുളള	-7261
വേദന	-7262
▁മുക	-7263
▁ഡോളറ	-7264
സ്റ്ററ	-7265
▁ഉത്തർ	-7266
▁എതിരാള	-7267
▁വളർച്ച	-7268
▁ശരാശരി	-7269
▁ജാമ്യാപ	-7270
▁സമ്മാനം	-7271
▁നരേന്ദ്രമോദി	-7272
ൂഷ	-7273
▁ണ	-7274
ശിയ	-7275
സിംഗ്	-7276
കരമാണ്	-7277
ങ്ങൾക്കു	-7278
ോര്‍ക്ക്	-7279
▁ആരോഗ്യം	-7280
▁നഗരത്തിലെ	-7281
്യാത	-7282
▁ഓളം	-7283
▁ജേത	-7284
▁ഭവന	-7285
▁ഡിസൈ	-7286
▁ത്രി	-7287
വരുടെയ	-7288
▁ആവിഷ്	-7289
▁റിട്ട	-7290
▁ബോര്‍ഡ	-7291
ിരുന്നാല	-7292
▁ബ്ലാക്ക്	-7293
▁തുടര്‍ച്ചയാ	-7294
▁കുഞ്ഞാലിക്കു	-7295
▁അഹ	-7296
ട്സ്	-7297
താരം	-7298
ാനിലെ	-7299
▁ന്റെ	-7300
▁ഹൗസ്	-7301
ബ്ല്യു	-7302
▁മുടിയ	-7303
▁അരുണ്‍	-7304
▁സംഘപരി	-7305
ാവശ്യമായ	-7306
▁ഫസ്റ്റ്	-7307
▁ഇതിനോടകം	-7308
▁നിർമ്മാണ	-7309
▁മമ്മൂട്ടിയ	-7310
വാടി	-7311
▁വേന	-7312
▁ഷായ	-7313
▁ഗ്യാ	-7314
▁അടയാള	-7315
▁ഇന്‍സ്	-7316
▁എതിര്‍	-7317
▁മുന്‍ക	-7318
▁വെള്ളാ	-7319
▁ഇന്നിങ്	-7320
▁ഇബ്രാഹിം	-7321
▁പുനരാരംഭ	-7322
▁ചേര്‍ത്ത്	-7323
▁നടത്തുന്നത	-7324
▁ജാമ്യാപേക്ഷ	-7325
ീർഘ	-7326
▁പ്	-7327
ദ്യം	-7328
പദ്ധ	-7329
രഹിത	-7330
ിനേയ	-7331
▁വമ്പ	-7332
ക്ഷത്ര	-7333
തുപോലെ	-7334
▁ഫിലിം	-7335
▁മൊഴിയ	-7336
▁വേദിയ	-7337
ക്കാലിക	-7338
ിച്ചതിന	-7339
കൃഷ്ണന്‍	-7340
▁എന്നിട്ട	-7341
▁കലക്ടര്‍	-7342
▁സെന്‍ട്ര	-7343
▁പെന്‍ഷന്‍	-7344
▁അവതരിപ്പിച്ച	-7345
▁ജയി	-7346
ാവുകയ	-7347
▁ക്രെ	-7348
ുകൂടിയ	-7349
▁ഉമ്മൻ	-7350
▁രക്തം	-7351
▁പിന്നില	-7352
▁വേണുഗോപ	-7353
▁കൊണ്ടുപോ	-7354
▁ബ്രാഞ്ച്	-7355
ുണ്ടെങ്കില	-7356
▁പ്രശാന്ത്	-7357
▁രാജേന്ദ്ര	-7358
▁സംവിധായകൻ	-7359
▁പേര്‍ക്കാണ്	-7360
പീ	-7361
ിനിടയ	-7362
▁ട്യൂ	-7363
▁മൊയ്	-7364
▁യേശു	-7365
▁വിസ്	-7366
▁ഉറവിട	-7367
▁ചെങ്ങ	-7368
▁ട്രാഫ	-7369
▁പറയാം	-7370
യിലെത്ത	-7371
▁അവന്റെ	-7372
▁കിടന്ന	-7373
▁കൂട്ടു	-7374
▁വയസുകാര	-7375
ിക്കേണ്ടി	-7376
▁സ്വന്തമാ	-7377
▁കീഴിലുള്ള	-7378
▁ചുഴലിക്കാ	-7379
▁തിരിച്ചടി	-7380
▁ഏര്‍പ്പെടുത്ത	-7381
▁വെളിപ്പെടുത്തി	-7382
ൻഷൻ	-7383
മാണു	-7384
▁ഐടി	-7385
▁മകൾ	-7386
ത്സവം	-7387
പ്പാറ	-7388
രുന്ന	-7389
▁ചിലവ	-7390
▁ജെയ്	-7391
▁നൂറു	-7392
▁മോഹന	-7393
ിറങ്ങി	-7394
▁കീഴില്‍	-7395
▁മലയാളത്ത	-7396
▁വാക്കുകള്‍	-7397
▁പ്ലാസ്റ്റിക്	-7398
േക	-7399
പ്പൂ	-7400
▁ഥാന	-7401
▁മുട	-7402
ുകളിലാ	-7403
▁ആനന്ദ	-7404
▁നിർമാ	-7405
▁ഇത്തരത്ത	-7406
▁തകര്‍ത്ത	-7407
▁രാജസ്ഥാന	-7408
▁r	-7409
മയം	-7410
മോദ	-7411
▁ഒഴു	-7412
▁കായ	-7413
ക്കാൾ	-7414
▁ട്രെ	-7415
▁ആർക്ക	-7416
▁ഫൗണ്ട	-7417
▁ആവർത്ത	-7418
▁ഡോളര്‍	-7419
▁വിവാദം	-7420
▁ജനസംഖ്യ	-7421
▁വര്‍ഗീയ	-7422
ങ്ങളുണ്ട്	-7423
▁ഇദ്ദേഹത്ത	-7424
▁ഉത്തരവിട്ട	-7425
▁ചെയ്യാനുള്ള	-7426
▁i	-7427
വീപ്	-7428
സിങ്	-7429
▁നോർ	-7430
▁ഫൈസ	-7431
ളില്‍	-7432
▁അഡീഷ	-7433
▁ജീവൻ	-7434
ോയെന്ന	-7435
▁മാണിയ	-7436
▁ശബ്ദം	-7437
▁പ്രശംസ	-7438
ക്കൊപ്പം	-7439
▁പടിഞ്ഞാറ	-7440
▁തുടങ്ങിയവർ	-7441
▁മാതാപിതാക്കള	-7442
ളാ	-7443
ർണ	-7444
▁പന	-7445
ക്രാ	-7446
ശ്ചിത	-7447
ാര്‍ജ	-7448
▁ഫ്രീ	-7449
▁കൃഷിയ	-7450
▁ഡിപ്പ	-7451
▁സൈറ്റ	-7452
▁തസ്തിക	-7453
▁പ്രദർശ	-7454
▁പ്രമേയം	-7455
▁സൗജന്യമാ	-7456
▁സംഘടനകള്‍	-7457
▁സ്ത്രീകളെ	-7458
▁തിരിച്ചുവര	-7459
▁മാസ്റ്റര്‍	-7460
▁രാഷ്ട്രീയം	-7461
▁സെക്രട്ടേറിയ	-7462
▁ഡോക്ടര്‍മാര്‍	-7463
ഹൈ	-7464
▁44	-7465
ഞ്ചി	-7466
തോളം	-7467
ികളാ	-7468
േഴ്സ	-7469
േന്ത്യ	-7470
▁അവശ്യ	-7471
▁ഓഫീസർ	-7472
▁കാക്ക	-7473
▁യുവജന	-7474
▁വിചാര	-7475
▁പ്രതിയായ	-7476
▁ഇതുസംബന്ധ	-7477
▁ട്രാന്‍സ്	-7478
▁പിടിയില്‍	-7479
ുണ്ടെന്നാണ്	-7480
▁അവകാശപ്പെട	-7481
▁കൊച്ചിയിലെ	-7482
▁തിരിച്ചെത്ത	-7483
▁പറയുന്നുണ്ട്	-7484
▁കൊല്ലപ്പെട്ടു	-7485
▁ധൈ	-7486
ഭാഷണ	-7487
സത്ത	-7488
പ്പിയ	-7489
ോത്സവ	-7490
▁നാഥ്	-7491
▁രാജു	-7492
ാറില്ല	-7493
▁ആരാധന	-7494
▁കച്ചവട	-7495
▁ഈസ്റ്റ്	-7496
▁ഐപിഎല്ല	-7497
▁ഒക്ടോബർ	-7498
▁ട്വന്റി	-7499
▁ഇഷ്ടപ്പെട	-7500
▁കണ്ടെത്താന്‍	-7501
▁മാധ്യമങ്ങളോട്	-7502
ൂം	-7503
▁d	-7504
ഭാര	-7505
സംഗ	-7506
ാഴ്	-7507
വിവര	-7508
സമൂഹ	-7509
▁ലീഡ്	-7510
▁വീണ്	-7511
▁വേറെ	-7512
▁വച്ചു	-7513
▁തോന്നി	-7514
▁വെട്ടി	-7515
▁പാലിക്ക	-7516
▁വരുത്തി	-7517
▁ഓഫീസില്‍	-7518
▁സമ്പർക്ക	-7519
▁സുപ്രധാന	-7520
ുന്നെങ്കില	-7521
▁മുന്നോടിയാ	-7522
▁ഉള്‍പ്പെട്ട	-7523
.,	-7524
ക്രി	-7525
ളിത്	-7526
▁നെഹ്	-7527
യാളാണ്	-7528
▁ശൈലിയ	-7529
▁കേൾക്ക	-7530
▁വര്‍ധന	-7531
▁എങ്ങനെയ	-7532
▁കണ്‍വീന	-7533
▁പ്രസംഗം	-7534
▁മുഹമ്മദ	-7535
▁ചേര്‍ക്ക	-7536
ിക്കുന്നവര്‍	-7537
▁ർ	-7538
ലംഘ	-7539
വാണ	-7540
ാവൂ	-7541
▁തടസ	-7542
▁വാല	-7543
യില്ല	-7544
▁ലോഡ്	-7545
മാത്രം	-7546
ളയില്‍	-7547
▁കിരീട	-7548
▁തടഞ്ഞു	-7549
ക്കേസില്‍	-7550
▁പേരിലാണ്	-7551
ത്തിനൊപ്പം	-7552
▁ശാസ്ത്രീയ	-7553
▁അന്വേഷിക്ക	-7554
▁ആയിരക്കണക്ക	-7555
▁േ	-7556
▁ബേബി	-7557
മ്പര്യ	-7558
▁അവന്‍	-7559
▁തള്ളിയ	-7560
▁ഏറ്റവുമ	-7561
▁കൊണ്ടുവ	-7562
▁പിറന്നാ	-7563
▁പ്രസാദ്	-7564
ാക്കൾക്ക്	-7565
പ്രവര്‍ത്തകര	-7566
▁എന്നിരുന്നാല	-7567
▁സ്വന്തമാക്കി	-7568
മറി	-7569
▁ആൻ	-7570
ണ്ടർ	-7571
റ്റേ	-7572
സിപി	-7573
▁റൺസ	-7574
▁ശിശു	-7575
▁തോറ്റ	-7576
വുമില്ല	-7577
▁വെറുതെ	-7578
▁ഉത്പന്ന	-7579
▁കാറില്‍	-7580
▁കുടുംബവ	-7581
▁ടീമില്‍	-7582
▁പിടിച്ച്	-7583
▁നഷ്ടപ്പെട	-7584
▁പതിറ്റാണ്ട	-7585
▁അടിസ്ഥാനത്ത	-7586
▁ക്രൈംബ്രാഞ്ച്	-7587
ഴം	-7588
ൊട്ട	-7589
▁ഗംഭ	-7590
▁തകർ	-7591
▁2010	-7592
▁ആറാം	-7593
▁വീണു	-7594
▁ഒരാളെ	-7595
▁കരുതി	-7596
▁ആണെന്ന്	-7597
▁അധിക്ഷേപ	-7598
▁അധ്യക്ഷനാ	-7599
▁പിടിയിലായ	-7600
ിട്ടുണ്ടെന്ന്	-7601
ഭ്	-7602
റേ	-7603
വാൻ	-7604
ിവയ്	-7605
േഷന്	-7606
▁ബൗള	-7607
▁ദീർഘ	-7608
▁മേയ്	-7609
മ്പിക്	-7610
ോർട്ട്	-7611
▁നമ്പർ	-7612
▁പ്രകോപ	-7613
▁അറിയില്ല	-7614
▁ചികിത്സാ	-7615
▁വന്നതോടെ	-7616
▁ശ്രീനിവാസ	-7617
▁ഘട്ടത്തില്‍	-7618
▁ആക്രമണത്തില്‍	-7619
▁43	-7620
റികള	-7621
▁ദേഹ	-7622
▁മക്	-7623
▁വാര്യ	-7624
▁കാത്തു	-7625
ത്തിലേറെ	-7626
▁പഞ്ചസാര	-7627
▁ബിഷപ്പ്	-7628
▁കമ്മിറ്റ	-7629
▁ചികിത്സയ	-7630
▁നെഗറ്റീവ്	-7631
▁അനുഭവപ്പെട	-7632
▁വീടുകളില്‍	-7633
▁പരിശോധനയില്‍	-7634
ബോ	-7635
▁ഫിന	-7636
▁സെമി	-7637
▁ഔട്ട്	-7638
▁പട്ടി	-7639
▁അമ്മയെ	-7640
▁ആരാധകർ	-7641
▁കുറ്റകൃ	-7642
ിക്കഴിഞ്ഞു	-7643
▁ആശുപത്രികള	-7644
▁പുറത്തേക്ക്	-7645
▁സാധ്യതയുള്ള	-7646
▁സെന്‍ട്രല്‍	-7647
▁ട്രൈ	-7648
▁മീറ്റർ	-7649
ുകളുണ്ട്	-7650
▁അംഗങ്ങള്‍	-7651
▁നിര്‍ത്തി	-7652
▁അന്വേഷണത്തില്‍	-7653
3)	-7654
ക്ഷമ	-7655
ത്മക	-7656
െന്ത	-7657
▁അകല	-7658
ുന്നയ	-7659
ോണിക്	-7660
റുണ്ട്	-7661
ാർക്ക്	-7662
ല്ലെന്ന്	-7663
▁കള്ളപ്പ	-7664
മാക്കാന്‍	-7665
▁ജനപ്രതിനി	-7666
▁പാകിസ്ഥാന	-7667
▁സ്മാര്‍ട്ട്	-7668
ഭയ	-7669
ശോ	-7670
രുപ	-7671
ങ്ങര	-7672
തിരേ	-7673
യ്യി	-7674
ിരിയ	-7675
കാര്‍	-7676
വെള്ള	-7677
േറ്റർ	-7678
▁തൃണമൂ	-7679
▁ബെഞ്ച	-7680
▁സൈക്കി	-7681
▁അനിശ്ചിത	-7682
▁തീര്‍ത്ത	-7683
▁കൊച്ചിയില്‍	-7684
സാമ	-7685
▁ഓറ	-7686
ോളജി	-7687
▁റഷീ	-7688
▁ശാഖ	-7689
കോട്ട	-7690
▁അയാൾ	-7691
▁ആരാധക	-7692
▁ഗാര്‍	-7693
▁മസ്ജി	-7694
▁സണ്ണി	-7695
▁അവാർഡ്	-7696
▁കരുത്ത	-7697
▁ബാധിതര	-7698
ാനെത്തിയ	-7699
▁സ്റ്റോറ	-7700
▁ആപ്ലിക്ക	-7701
▁വര്‍ഗീസ്	-7702
▁അനുവദിച്ച	-7703
▁പോര്‍ട്ട്	-7704
▁പ്രാധാന്യ	-7705
▁അഭ്യര്‍ത്ഥ	-7706
▁സ്ഥാനാര്‍ഥി	-7707
ജാത	-7708
ുമേ	-7709
▁ലഘ	-7710
മത്ത	-7711
▁കുത	-7712
വിട്ട്	-7713
▁പെണ്ണ	-7714
▁നഗരത്ത	-7715
▁സത്യവാ	-7716
▁ലിസ്റ്റ	-7717
▁വാര്‍ഡ്	-7718
▁സംഘമാണ്	-7719
▁വന്നിരിക്ക	-7720
▁ഉദ്യോഗസ്ഥരെ	-7721
▁മന്ത്രാലയത്ത	-7722
▁അമേരിക്കയില്‍	-7723
18	-7724
▁ജഗ	-7725
ദ്ദീ	-7726
▁ഫിറ	-7727
▁ഒത്ത	-7728
േശ്വരം	-7729
▁അണിയറ	-7730
▁ഉണ്ണി	-7731
▁ലോക്ക	-7732
ര്‍ട്ട്	-7733
▁വിശ്രമ	-7734
▁ഓവറില്‍	-7735
▁നിലനിർത്ത	-7736
ത്തുമ്പോള്‍	-7737
▁ഒഴിവാക്കിയ	-7738
▁കഴിഞ്ഞില്ല	-7739
▁നിര്‍ത്തിയ	-7740
▁പദ്ധതികള്‍	-7741
സന	-7742
ala	-7743
ജനം	-7744
ജന്റ	-7745
മാലി	-7746
▁ജയല	-7747
▁മതം	-7748
▁അതില	-7749
▁അവിട	-7750
▁ആദായ	-7751
▁ബോക്	-7752
▁ലോറി	-7753
▁സൗദിയ	-7754
യെക്കുറ	-7755
▁പ്രകടന	-7756
▁വിൽക്ക	-7757
ങ്ങളൊന്ന	-7758
▁ഹൈദരാബാദ	-7759
ങ്ങളെക്കുറ	-7760
▁ഇലക്ട്രിക്	-7761
▁t	-7762
താപ	-7763
യോര	-7764
പിടി	-7765
പ്പൻ	-7766
▁യുണ	-7767
▁വേർ	-7768
▁ഹർജി	-7769
റ്റിങ്	-7770
▁അക്ഷര	-7771
ിരിക്കെ	-7772
▁ആന്ധ്ര	-7773
▁കാലത്ത	-7774
▁തൂങ്ങി	-7775
▁ശുപാര്‍ശ	-7776
▁സഹോദരന്‍	-7777
ങ്ങളിലൊന്ന	-7778
▁കൂട്ടുകാര	-7779
▁പൊട്ടിത്തെ	-7780
ടെക്	-7781
ിലേയ	-7782
▁400	-7783
ഡിംഗ്	-7784
▁വടകര	-7785
▁ജര്‍മ	-7786
ോര്‍ട്ട	-7787
▁അപൂര്‍	-7788
▁നിലമ്പ	-7789
▁വിഷ്ണു	-7790
▁സുഹൃത്ത്	-7791
▁ആക്രമിച്ച	-7792
▁കോളേജില്‍	-7793
▁പ്രസിഡന്‍റ്	-7794
▁ഇന്ത്യയ്ക്ക്	-7795
▁വാര്‍ത്താസമ്മേള	-7796
ലേ	-7797
റില	-7798
ങ്കം	-7799
ട്യൂ	-7800
ുതിയ	-7801
▁ശരി	-7802
▁ഇടവക	-7803
▁ഇട്ട	-7804
▁സാംസ	-7805
ത്തീകര	-7806
▁ഉത്സവ	-7807
▁പണിമു	-7808
ുകയെന്ന	-7809
▁കോർപ്പ	-7810
▁കുറവാണ്	-7811
▁ചേർത്ത്	-7812
▁പിടിക്ക	-7813
ിനിടയിലാണ്	-7814
▁ഇടതുമുന്ന	-7815
▁പോസിറ്റീവ്	-7816
▁മണിക്കൂറിനിടെ	-7817
ഹിതര	-7818
ക്കാൻ	-7819
ജിത്ത	-7820
മുക്ത	-7821
പിയുടെ	-7822
▁ഭാരത്	-7823
▁മെമ്പ	-7824
▁സെമിന	-7825
▁അക്രമം	-7826
▁ചെക്ക്	-7827
ുന്നെന്ന	-7828
▁പ്രത്യാ	-7829
▁മനോഹരമായ	-7830
▁ലഭ്യമാണ്	-7831
▁ക്ഷേത്രത്ത	-7832
▁കണ്ടെത്തിയിര	-7833
▁പിടിച്ചെടുത്ത	-7834
ഗർ	-7835
▁ധാ	-7836
▁അലോ	-7837
▁ഗാല	-7838
▁പതാക	-7839
▁സിറ്റ	-7840
ക്ഷേത്ര	-7841
ാനായില്ല	-7842
▁സംഘത്തെ	-7843
▁തോല്‍പ്പ	-7844
▁വളര്‍ത്ത	-7845
▁വെള്ളത്ത	-7846
▁കുടിയേറ്റ	-7847
▁കുറ്റപത്രം	-7848
▁ചെയ്യപ്പെട	-7849
ുന്നുണ്ടെന്ന്	-7850
48	-7851
49	-7852
ർദ	-7853
ഭക്ഷ	-7854
മന്‍	-7855
കുറ്റ	-7856
സ്തുവ	-7857
▁ഉടനെ	-7858
▁സേനയ	-7859
ക്കേസ്	-7860
ുകെട്ട	-7861
▁അവതാര	-7862
▁നൂറുക	-7863
▁നൃത്ത	-7864
▁പറയാൻ	-7865
▁വൈദിക	-7866
▁ഹയര്‍	-7867
▁കുറഞ്ഞു	-7868
▁മറിച്ച്	-7869
▁ഹര്‍ത്ത	-7870
▁കമ്മറ്റി	-7871
▁പിന്തുടര	-7872
▁മുമ്പാണ്	-7873
▁സീറ്റുകള	-7874
ഫോണ	-7875
വിൻ	-7876
ോജക	-7877
▁51	-7878
ഷാദ്	-7879
ൺസില	-7880
▁പാചക	-7881
▁ഭാവി	-7882
▁ഡിസൈന	-7883
ട്ടികളെ	-7884
ികളുടെയ	-7885
▁ആണെന്ന	-7886
െടുക്കാൻ	-7887
്	-7888
▁	-7889
ി	-7890
ന	-7891
ക	-7892
_	-7893
ത	-7894
ു	-7895
ാ	-7896
ര	-7897
യ	-7898
ട	-7899
പ	-7900
e	-7901
s	-7902
p	-7903
ല	-7904
മ	-7905
െ	-7906
വ	-7907
ം	-7908
സ	-7909
‍	-7910
റ	-7911
ച	-7912
ണ	-7913
ള	-7914
.	-7915
ോ	-7916
േ	-7917
ങ	-7918
ദ	-7919
അ	-7920
ീ	-7921
ഷ	-7922
ശ	-7923
എ	-7924
ജ	-7925
ൂ	-7926
ഗ	-7927
ബ	-7928
ധ	-7929
ഞ	-7930
ൽ	-7931
ർ	-7932
ഇ	-7933
ഹ	-7934
ആ	-7935
ഡ	-7936
,	-7937
ഭ	-7938
ൊ	-7939
ഴ	-7940
ൻ	-7941
ഉ	-7942
ഥ	-7943
ഫ	-7944
ൾ	-7945
ൈ	-7946
ഒ	-7947
0	-7948
1	-7949
ഖ	-7950
2	-7951
ൃ	-7952
:	-7953
ഓ	-7954
ഏ	-7955
ഘ	-7956
ഈ	-7957
5	-7958
ൗ	-7959
3	-7960
-	-7961
4	-7962
9	-7963
)	-7964
(	-7965
6	-7966
ഐ	-7967
8	-7968
7	-7969
ൺ	-7970
'	-7971
;	-7972
a	-7973
ഠ	-7974
?	-7975
r	-7976
i	-7977
o	-7978
‘	-7979
’	-7980
t	-7981
"	-7982
n	-7983
!	-7984
m	-7985
ഛ	-7986
c	-7987
w	-7988
l	-7989
h	-7990
d	-7991
/	-7992
ഊ	-7993
ഔ	-7994
”	-7995
u	-7996
