<unk>	0
<s>	0
</s>	0
ന്	-0
ക്	-1
ത്	-2
്‍	-3
▁പ	-4
ക്ക	-5
ന്ന	-6
തി	-7
▁ക	-8
്ട	-9
▁സ	-10
ില	-11
▁വ	-12
ും	-13
▁മ	-14
▁ന	-15
ര്‍	-16
▁അ	-17
ച്	-18
ിയ	-19
പ്	-20
ായ	-21
ുന്ന	-22
്ര	-23
്യ	-24
ങ്	-25
ത്തി	-26
ട്ട	-27
റ്	-28
ാണ	-29
സ്	-30
ത്ത	-31
രി	-32
പ്പ	-33
ച്ച	-34
▁ത	-35
ങ്ങ	-36
▁എ	-37
ാണ്	-38
▁ഇ	-39
ണ്ട	-40
ന്‍	-41
ുക	-42
▁ച	-43
ടെ	-44
ായി	-45
ല്‍	-46
▁ആ	-47
ിക്ക	-48
റ്റ	-49
ില്‍	-50
രു	-51
▁പ്ര	-52
ാന	-53
്ല	-54
ള്‍	-55
▁വി	-56
ിച്ച	-57
▁ര	-58
െയ	-59
ുമ	-60
ാര	-61
ഞ്	-62
▁ബ	-63
്ള	-64
ള്ള	-65
ക്ക്	-66
റെ	-67
ിക	-68
▁സ്	-69
ുന്നു	-70
▁ജ	-71
ന്ന്	-72
▁ഉ	-73
▁നി	-74
വി	-75
ടു	-76
ുടെ	-77
ത്ര	-78
ക്ഷ	-79
മ്	-80
▁ഒ	-81
ിൽ	-82
ന്റെ	-83
ുള്ള	-84
ിന	-85
ങ്ങള	-86
▁ശ	-87
െന്ന	-88
▁ല	-89
ദ്	-90
ഞ്ഞ	-91
▁എന്ന	-92
ാല	-93
ാക്ക	-94
▁സം	-95
ല്ല	-96
രിക്ക	-97
പ്പെ	-98
ില്ല	-99
ാര്‍	-100
രുന്നു	-101
▁മു	-102
ടി	-103
ാവ	-104
റി	-105
▁കോ	-106
ിലെ	-107
ദേ	-108
▁നട	-109
▁കു	-110
ണ്ട്	-111
ങ്ക	-112
ാന്‍	-113
▁ചെയ	-114
▁മാ	-115
ുവ	-116
സി	-117
ിവ	-118
ുന്നത്	-119
▁ഗ	-120
യും	-121
▁ഭ	-122
▁യ	-123
▁പി	-124
മ്മ	-125
േഷ	-126
ോഗ	-127
ത്യ	-128
ണം	-129
െന്ന്	-130
▁ദ	-131
▁പോ	-132
▁പു	-133
ച്ച്	-134
ാം	-135
ത്തിയ	-136
▁കേ	-137
▁ഒരു	-138
▁ഫ	-139
▁പറ	-140
വാ	-141
ത്ത്	-142
ന്ത	-143
റ്റ്	-144
▁കൊ	-145
ഡ്	-146
ങ്ങള്‍	-147
▁ഡ	-148
നി	-149
രാ	-150
ത്തില്‍	-151
▁ഹ	-152
ത്തില	-153
തിയ	-154
മായി	-155
സ്ഥ	-156
▁1	-157
ുകള	-158
ുട	-159
റിയ	-160
▁നേ	-161
ംഗ	-162
ത്തെ	-163
രെ	-164
▁രാ	-165
ദ്യ	-166
ട്	-167
▁അവ	-168
ന്ദ	-169
ിട്ട	-170
പി	-171
മായ	-172
▁റ	-173
▁കൂ	-174
യ്	-175
പ്പോ	-176
ണ്	-177
വും	-178
രം	-179
ിച്ചു	-180
▁ഏ	-181
െന്നും	-182
ദേശ	-183
▁ഓ	-184
..	-185
മാ	-186
തിന	-187
▁2	-188
മ്പ	-189
രിച്ച	-190
ാമ	-191
▁തി	-192
ായിരുന്നു	-193
▁ട	-194
▁സി	-195
▁ഈ	-196
ാൻ	-197
െടു	-198
ണ്‍	-199
തു	-200
ുകയ	-201
കള	-202
ിലും	-203
ഴ്	-204
ട്ട്	-205
▁തുട	-206
വര്‍	-207
ദ്ധ	-208
ങ്ങൾ	-209
്യാ	-210
ീക	-211
▁സാ	-212
ന്ധ	-213
ട്ടി	-214
ശ്	-215
▁സമ	-216
ാർ	-217
▁വീ	-218
ടിയ	-219
്യമ	-220
യില്‍	-221
ാക	-222
യുടെ	-223
▁കഴ	-224
▁ചെയ്	-225
നം	-226
▁ക്	-227
▁സ്വ	-228
രുന്ന	-229
ികള	-230
▁പരി	-231
ത്രി	-232
പ്ര	-233
ാല്‍	-234
ുണ്ട	-235
▁പേ	-236
▁വെ	-237
▁പ്രതി	-238
ുണ്ട്	-239
▁വാ	-240
ത്തിൽ	-241
മാണ്	-242
ാത	-243
▁സ്ഥ	-244
▁പറഞ്ഞ	-245
ിക്കുന്ന	-246
സ്റ്റ	-247
മാന	-248
യാ	-249
▁ചെയ്യ	-250
ലി	-251
യം	-252
▁അന	-253
ാഗ	-254
ീസ്	-255
ന്ത്യ	-256
▁സു	-257
ര്‍ക്ക	-258
ന്ദ്ര	-259
ുപ	-260
പ്പെട്ട	-261
സം	-262
▁പൊ	-263
െങ്ക	-264
ത്തിന്റെ	-265
ാര്യ	-266
ല്‍ക	-267
ത്തിന്	-268
രണ	-269
സ്ഥാന	-270
മി	-271
ുമായി	-272
ഞ്ച	-273
ുകള്‍	-274
ിയുടെ	-275
▁രാജ	-276
ക്ത	-277
നെ	-278
ിലേ	-279
▁വേ	-280
പ്പ്	-281
▁നല്‍ക	-282
▁സെ	-283
▁ഇന്ത്യ	-284
ഫ്	-285
ക്ര	-286
▁ബി	-287
ഷ്ട	-288
ോടെ	-289
ഷ്	-290
രുടെ	-291
ജി	-292
ഡി	-293
ക്കും	-294
ടുത്ത	-295
ളി	-296
▁വ്യ	-297
യി	-298
രോ	-299
▁ശ്ര	-300
റ്റി	-301
ണമ	-302
▁ചി	-303
ന്നെ	-304
ന്ത്രി	-305
▁തീ	-306
00	-307
▁കാ	-308
ക്കു	-309
▁കെ	-310
െയും	-311
▁പോല	-312
ജ്	-313
▁നില	-314
ദേഹ	-315
വ്	-316
ിനെ	-317
ന്റ	-318
ാട	-319
▁ഷ	-320
ത്തിന	-321
ണി	-322
▁(	-323
ൂര്‍	-324
ധി	-325
ുമ്	-326
▁ഉപ	-327
യാണ്	-328
യിൽ	-329
▁നിന്ന	-330
▁മൂ	-331
▁പറഞ്ഞു	-332
▁നിയ	-333
ിരിക്ക	-334
പോ	-335
ഗ്ര	-336
ക്കുന്ന	-337
▁ബാ	-338
ൂപ	-339
▁തെ	-340
ധാന	-341
വർ	-342
ിരുന്നു	-343
ിഞ്ഞ	-344
ുകൾ	-345
ോട്ട	-346
ശ്യ	-347
ത്സ	-348
▁പുറ	-349
ങ്ങിയ	-350
ഭവ	-351
മേ	-352
ത്തു	-353
കു	-354
▁ജന	-355
▁ജോ	-356
രള	-357
▁പറയ	-358
▁പെ	-359
ിനി	-360
ണ്ണ	-361
ീയ	-362
വന	-363
മാക്ക	-364
മു	-365
ുകയും	-366
വര	-367
ന്നു	-368
ന്ത്ര	-369
▁കണ്ട	-370
▁.	-371
ദ്ദേഹ	-372
▁നേത	-373
▁മോ	-374
വേ	-375
▁ലോ	-376
▁രൂപ	-377
ികള്‍	-378
കള്‍	-379
രീ	-380
▁റി	-381
ബ്	-382
ാത്ത	-383
ാൽ	-384
▁എന്നിവ	-385
▁നിര്‍	-386
എസ്	-387
ന്യ	-388
▁അറിയ	-389
ോള	-390
▁സംഘ	-391
▁വൈ	-392
▁സഹ	-393
▁ലഭ	-394
ാരം	-395
ിച്ചത്	-396
ക്കി	-397
യിലെ	-398
▁കേരള	-399
▁ചിത്ര	-400
▁എം	-401
▁അത	-402
േഖ	-403
▁അദ്ദേഹ	-404
പ്പെട	-405
▁കഴിഞ്ഞ	-406
▁തന്നെ	-407
ങ്ങളുടെ	-408
ോട്	-409
▁അധ	-410
▁കുറ	-411
ിപ്പ	-412
▁ജീ	-413
േണ്ട	-414
▁ഉണ്ട	-415
്യാപ	-416
▁മാത്ര	-417
▁സംസ്ഥാന	-418
യില	-419
ഴ്ച	-420
▁അഭ	-421
ന്റ്	-422
ാപ	-423
▁ആവ	-424
▁മുഖ	-425
ിയും	-426
ക്കാ	-427
ിലേക്ക്	-428
▁ട്ര	-429
▁നാ	-430
ീസ	-431
ര്യ	-432
ക്കെ	-433
...	-434
ഹി	-435
▁ഞ	-436
ാതെ	-437
▁രണ്ട	-438
യെ	-439
▁നിന്ന്	-440
ിയില്‍	-441
▁മെ	-442
▁ആശ	-443
ധന	-444
പു	-445
▁20	-446
▁നീ	-447
▁ജില്ല	-448
ോട	-449
▁ദിവ	-450
ിച്ച്	-451
ത്തിലെ	-452
ൊരു	-453
▁ഇത	-454
ബി	-455
ൽക	-456
തിന്	-457
▁ഇട	-458
ത്വ	-459
▁കാണ	-460
▁കേന്ദ്ര	-461
▁മല	-462
െന്നാണ്	-463
ുകയാണ്	-464
▁വര്‍	-465
ുറ	-466
ൂടെ	-467
▁3	-468
▁പാ	-469
രും	-470
സ്റ്റ്	-471
ലിയ	-472
▁ഐ	-473
വിഡ്	-474
ക്ട	-475
▁ചെ	-476
▁നൽക	-477
യോഗ	-478
െങ്കിലും	-479
▁മന	-480
ങ്ങളും	-481
▁രാജ്യ	-482
െയാണ്	-483
യ്ക്ക്	-484
▁പിന്ന	-485
▁ബന്ധ	-486
▁യു	-487
▁നിയമ	-488
ിട്ടുണ്ട്	-489
▁ഡി	-490
▁ആദ്യ	-491
▁സര്‍ക്ക	-492
രഞ്ഞ	-493
▁എല്ല	-494
താണ്	-495
▁സംഭവ	-496
രിയ	-497
ഷ്യ	-498
വേഷ	-499
▁ഏറ്റ	-500
തിരെ	-501
▁ശേഷ	-502
▁നടത്ത	-503
▁സാധ	-504
▁കാര	-505
▁അതി	-506
ഗ്	-507
ജെ	-508
ഡിയ	-509
▁ആവശ്യ	-510
സ്ത	-511
▁ചെയ്ത	-512
▁മുന്ന	-513
ത്ഥ	-514
▁ചേ	-515
നാ	-516
രഞ്ഞെടു	-517
ൂർ	-518
▁തിരു	-519
▁വിജ	-520
▁പരാ	-521
ിയെ	-522
▁ലക്ഷ	-523
പ്പെടു	-524
ങ്ങളില്‍	-525
ാസ	-526
▁നടത്തിയ	-527
▁കൈ	-528
▁കേസ	-529
▁മറ്റ	-530
ദി	-531
ുമ്പോ	-532
ടക്ക	-533
▁രോഗ	-534
▁ചോ	-535
രുമാന	-536
ാരി	-537
ലം	-538
▁ഇത്	-539
രണം	-540
▁അപ	-541
▁സൂ	-542
തല്‍	-543
▁നിര	-544
▁കോട	-545
▁പൊല	-546
▁പരിശ	-547
കൾ	-548
ുംബ	-549
▁കാല	-550
▁പ്രവര്‍	-551
സാ	-552
▁അദ്ദേഹം	-553
ക്ഷേ	-554
േറ്റ	-555
▁വ്യക്ത	-556
▁യുവ	-557
എം	-558
▁പങ്ക	-559
രിച്ചു	-560
▁വില	-561
▁പ്രധാന	-562
▁പുതിയ	-563
ുകൊ	-564
ാവ്	-565
ക്രമ	-566
▁അന്	-567
▁കട	-568
പ്പോള്‍	-569
ാനും	-570
ിലാണ്	-571
▁കൂടു	-572
െയ്	-573
▁സ്റ്റ	-574
പാ	-575
ികൾ	-576
▁റിപ്പോ	-577
ിക്കുന്നത്	-578
ിന്റെ	-579
ാക്കിയ	-580
ിക്കും	-581
ിര	-582
▁നിന്നും	-583
▁തോ	-584
▁ഉപയോഗ	-585
▁എന്നാല്‍	-586
ബന്ധ	-587
▁ബോ	-588
രേ	-589
ുകയായിരുന്നു	-590
ൊഴ	-591
ഷ്ട്ര	-592
▁പല	-593
▁സർ	-594
മാണ	-595
▁ഗ്ര	-596
▁വിദ്യ	-597
▁കാര്യ	-598
ാസ്	-599
ൈന	-600
▁നിർ	-601
ിക്കുന്നു	-602
▁കി	-603
▁ഭാഗ	-604
ാനുള്ള	-605
യാള	-606
യ്ക്ക	-607
▁വള	-608
തായി	-609
പ്പം	-610
ങ്ങി	-611
▁ഒന്ന	-612
▁തീരുമാന	-613
ാശ	-614
▁സിനി	-615
ാറ	-616
്യം	-617
ാത്ര	-618
▁പ്രസി	-619
▁'	-620
രോഗ	-621
ത്തര	-622
▁ചെയ്തു	-623
ലെ	-624
▁സൗ	-625
▁ഫോ	-626
കെ	-627
▁5	-628
ക്കാര	-629
▁അന്വേഷ	-630
▁മത്സ	-631
▁മുഖ്യമ	-632
ൃത	-633
രക്ഷ	-634
▁ധ	-635
വിധ	-636
സ്സ	-637
▁നടപ	-638
▁നല്‍കിയ	-639
▁എസ്	-640
▁4	-641
ര്‍ന്ന	-642
ാക്കി	-643
▁ദു	-644
▁പ്രക	-645
▁അനു	-646
▁അറ	-647
▁മേ	-648
▁എന്ന്	-649
▁കണ്ടെ	-650
ന്‍റെ	-651
ങ്ങളെ	-652
താ	-653
ുമായ	-654
▁വീട്ട	-655
ര്‍ശ	-656
മുള്ള	-657
തും	-658
വിടെ	-659
▁ഉയ	-660
▁ലോക	-661
ഷം	-662
▁അവസ	-663
വാസ	-664
▁ഡോ	-665
▁ചില	-666
കര	-667
▁വിവാ	-668
▁റോ	-669
▁അത്	-670
▁പേര	-671
▁ശേഷം	-672
ച്ചു	-673
ാഴ്ച	-674
▁കുട	-675
▁ന്യ	-676
ഴി	-677
ന്തപു	-678
▁കോണ്‍	-679
ീപ	-680
ാള	-681
റു	-682
്യൂ	-683
▁വന്ന	-684
മെ	-685
ണിയ	-686
ുമാണ്	-687
ംഗ്	-688
▁വേണ്ട	-689
▁സ്ഥാന	-690
▁അധിക	-691
തിനെ	-692
▁കൂട്ട	-693
▁ശ്രമ	-694
വനന്തപു	-695
പ്പെടുത്ത	-696
▁പാര്‍	-697
ത്തേ	-698
▁വർ	-699
▁ഗു	-700
ഭാഗ	-701
ര്‍ച്ച	-702
നും	-703
▁തുടങ്ങിയ	-704
▁കുട്ട	-705
ിക്കാന്‍	-706
▁നടന്ന	-707
▁തിരുവനന്തപു	-708
▁കമ്മ	-709
രീക്ഷ	-710
▁വലിയ	-711
ംബ	-712
▁ഇതി	-713
മാര	-714
▁വ്യക്തമാക്ക	-715
ര്‍ത്ത	-716
ിന്	-717
ഴു	-718
▁അംഗ	-719
▁പരിശോ	-720
ൂഹ	-721
തൽ	-722
വിത	-723
ര്‍ന്ന്	-724
▁201	-725
ുമെന്ന്	-726
പ്പോഴ	-727
▁സിനിമ	-728
ുകളും	-729
▁വര	-730
▁മന്ത്രി	-731
▁19	-732
റോ	-733
പ്പിച്ച	-734
ീഷ	-735
▁ആശുപ	-736
ിത	-737
▁പ്രസിഡ	-738
തോടെ	-739
▁പോലീസ്	-740
തല	-741
ത്തക	-742
▁ഏറ്റവും	-743
ായിരുന്ന	-744
▁നാല	-745
ീകരിക്ക	-746
▁മുന്‍	-747
▁മറ	-748
ങ്ങളിൽ	-749
ക്രട്ട	-750
ീന	-751
ടന	-752
▁വിശ	-753
ിരുന്ന	-754
▁കൊണ്ട	-755
▁മാറ്റ	-756
തീ	-757
സഭ	-758
▁നോ	-759
▁കള	-760
ാരണ	-761
സമ	-762
▁വയ	-763
▁പര	-764
ദ്യോഗ	-765
▁ന്യൂ	-766
▁പൊലീസ്	-767
▁വിജയ	-768
▁തല	-769
▁കോവിഡ്	-770
ിലൂടെ	-771
▁വെള്ള	-772
ീറ്റ	-773
▁കല	-774
▁കോണ്‍ഗ്ര	-775
▁രണ്ട്	-776
▁സെക്രട്ട	-777
ീകരിച്ച	-778
▁പാല	-779
▁സോ	-780
▁അഭി	-781
▁നേതൃ	-782
▁ഇന്ന്	-783
▁ബിജെ	-784
▁കഴിയ	-785
▁യൂ	-786
ബു	-787
▁ആരോ	-788
▁സര്‍ക്കാര്‍	-789
▁പ്രത്യ	-790
▁ആരോഗ	-791
▁ആയി	-792
▁ദിവസ	-793
ൊപ്പം	-794
ത്തിയത്	-795
ടുക്ക	-796
്യത	-797
▁കുടുംബ	-798
ികളുടെ	-799
ിരിക്കുന്നത്	-800
▁പദ്ധ	-801
▁ഖ	-802
മോ	-803
ത്തിലാണ്	-804
ഞ്ച്	-805
ട്ടിയ	-806
▁പറയുന്നു	-807
കം	-808
▁വരെ	-809
▁തട	-810
▁പിട	-811
▁നേതൃത്വ	-812
യോ	-813
▁കൃ	-814
ച്ചി	-815
ഷേ	-816
▁ടെ	-817
ൂര	-818
നായ	-819
▁തിരുവനന്തപുരം	-820
തിര	-821
ധ്യമ	-822
▁ബ്ര	-823
▁ഹൈ	-824
▁ഉറ	-825
േക്ഷ	-826
▁‘	-827
ണിക്ക	-828
▁പോക	-829
▁എല്ലാ	-830
രംഭ	-831
പ്പോൾ	-832
▁അട	-833
▁യാത്ര	-834
▁ഓഫ	-835
▁റിപ്പോര്‍	-836
മാക	-837
▁ടി	-838
ളം	-839
പക്ഷ	-840
▁ഗോ	-841
▁ഇരു	-842
ിലുള്ള	-843
ായ്	-844
▁സമ്മ	-845
▁തിരിച്ച	-846
ന്നും	-847
▁രാഷ്ട്ര	-848
രുത	-849
▁കണ്ണ	-850
ിട	-851
▁ഇവ	-852
റിച്ച്	-853
ദ്ദ	-854
▁ഒഴ	-855
▁6	-856
▁യോഗ	-857
ായക	-858
ല്ലാം	-859
െടുക്ക	-860
▁മി	-861
▁കോള	-862
▁ജി	-863
▁ആണ്	-864
▁പ്രവർ	-865
ഹ്	-866
▁ലി	-867
സിന്റെ	-868
▁മുഖ്യമന്ത്രി	-869
▁ക്ല	-870
▁ആരോപ	-871
ബാ	-872
േഖല	-873
ാവി	-874
ുകളില്‍	-875
▁പ്രഖ	-876
പ്പു	-877
ങ്ങള്‍ക്ക്	-878
ീം	-879
ത്തന	-880
ീല	-881
ഹന	-882
ഷ്ണ	-883
ാണെന്ന്	-884
▁രംഗ	-885
ിയിൽ	-886
മുണ്ട	-887
▁പഠ	-888
പ്പെട്ടു	-889
പ്പിക്ക	-890
▁സ്വദേശ	-891
മാര്‍	-892
▁അറിയിച്ചു	-893
ക്കാർ	-894
▁താര	-895
▁തെരഞ്ഞെടു	-896
▁അവസാന	-897
▁സാഹ	-898
ാഷ	-899
ൂട്ട	-900
▁സ്ത്ര	-901
വുമായി	-902
ണ്ഡ	-903
▁കയ	-904
ങ്ങനെ	-905
ക്തി	-906
▁താ	-907
▁അതേ	-908
ര്‍ക്ക്	-909
▁മാന	-910
▁ദിവസം	-911
▁വിഷ	-912
പെ	-913
യുള്ള	-914
ത്തിക്ക	-915
▁കമ്പ	-916
ക്കിയ	-917
ട്ര	-918
ണമെന്ന്	-919
▁കോടതി	-920
▁ആരംഭ	-921
▁-	-922
േയും	-923
തമാന	-924
▁ആരോഗ്യ	-925
▁പ്രശ്	-926
ജീ	-927
ോഷ	-928
▁മഹ	-929
െങ്കില്‍	-930
ഞ്ഞ്	-931
യു	-932
▁സ്ഥാപ	-933
▁പഞ്ച	-934
▁ചെയ്യുന്ന	-935
േക	-936
ിനു	-937
രിക്കും	-938
▁പ്രഖ്യാപ	-939
▁,	-940
െടുത്ത	-941
ക്കം	-942
▁അടി	-943
▁സര്‍	-944
ഷേധ	-945
ധിക	-946
ണ്ടും	-947
വേശ	-948
റും	-949
ചന	-950
▁നേരി	-951
വെ	-952
▁എന്ത	-953
ുവി	-954
ായത്	-955
▁സേ	-956
▁തന്റെ	-957
മന്ത്രി	-958
ശ്ച	-959
ുകാര	-960
▁ശതമാന	-961
▁മേഖല	-962
ശേഷ	-963
വണ	-964
നിയ	-965
▁മിക	-966
ത്തിലേ	-967
▁ശ്രദ്ധ	-968
▁വിള	-969
▁നേര	-970
എഫ്	-971
▁7	-972
▁സാഹച	-973
▁ഇന്ന	-974
▁സൈ	-975
ാക്കള	-976
▁എന്നാൽ	-977
),	-978
ാര്‍ത്ഥ	-979
▁സ്വാ	-980
▁വാര്‍	-981
▁ജീവിത	-982
മല്ല	-983
▁ജില്ലാ	-984
ദേശം	-985
▁വകു	-986
▁മലയാള	-987
രോധ	-988
▁ഭൂ	-989
ിട്ടില്ല	-990
▁ഉദ്യോഗ	-991
മുഖ	-992
ലോ	-993
▁ചോദ്യ	-994
▁ഇല്ല	-995
ട്ടു	-996
▁നെ	-997
ക്കള	-998
▁കൂട	-999
രിച്ച്	-1000
േഷ്	-1001
ത്തിനു	-1002
▁ബു	-1003
20	-1004
ഞ്ഞു	-1005
ുപോ	-1006
▁തുറ	-1007
▁ചെയ്തി	-1008
▁സെക്രട്ടറി	-1009
കാര്യ	-1010
പ്പെടുത്തിയ	-1011
ണക്ക	-1012
▁10	-1013
തിനു	-1014
▁കൊല്ല	-1015
▁സ്ഥിര	-1016
▁തൊഴ	-1017
▁ദേശ	-1018
▁വിമാന	-1019
▁ഉത്തര	-1020
െങ്കിൽ	-1021
▁ആക്രമ	-1022
കട	-1023
നു	-1024
ോദ	-1025
▁ആശുപത്ര	-1026
ത്തും	-1027
ൂല	-1028
ന്ത്	-1029
ാലി	-1030
▁ഉള്‍	-1031
േരി	-1032
▁ഉട	-1033
▁ക്ര	-1034
▁സമീപ	-1035
േഷന്‍	-1036
തെന്ന്	-1037
000	-1038
ിയാണ്	-1039
▁ഇറ	-1040
ികളെ	-1041
▁മാധ്യമ	-1042
കളും	-1043
▁നാട്ട	-1044
▁ലൈ	-1045
ലും	-1046
വധി	-1047
വില്‍	-1048
▁ചിക	-1049
ന്തര	-1050
▁പരാതി	-1051
▁ബാധ	-1052
തിയില്‍	-1053
കാശ	-1054
▁തന്ന	-1055
ർന്ന	-1056
ുകളുടെ	-1057
ോളം	-1058
റില്‍	-1059
▁പരിശോധന	-1060
▁അമ്മ	-1061
▁സ്വന്ത	-1062
ഡിയോ	-1063
▁സാഹചര്യ	-1064
▁കൂടി	-1065
▁വിവിധ	-1066
▁പ്രത്യേക	-1067
▁ആള	-1068
▁എന്‍	-1069
▁പ്രച	-1070
▁മുമ്	-1071
▁വീണ്ടും	-1072
▁മൂന്ന	-1073
പാട	-1074
ുമെന്നും	-1075
▁മുതല്‍	-1076
ുമ്പോള്‍	-1077
▁ഭരണ	-1078
ുള്ളത്	-1079
▁നല്ല	-1080
ത്മ	-1081
ിതി	-1082
മേരിക്ക	-1083
▁കൂടുതല്‍	-1084
പ്പെട്ട്	-1085
▁പ്ല	-1086
▁രക്ഷ	-1087
കളുടെ	-1088
ന്‍സ്	-1089
▁വിഭാഗ	-1090
▁പൂ	-1091
ര്‍ഷ	-1092
▁തുടര്‍ന്ന്	-1093
നിടെ	-1094
▁മാര്‍	-1095
▁നിരവധി	-1096
▁വ്യാപ	-1097
▁ഉദ്യോഗസ്ഥ	-1098
മായിരുന്നു	-1099
യായി	-1100
ാണെന്നും	-1101
▁അയ	-1102
▁ബിജെപി	-1103
▁ആര്‍	-1104
▁വിശ്	-1105
തം	-1106
വിധാന	-1107
▁ഘ	-1108
േഴ്	-1109
▁അല്ല	-1110
രിക	-1111
▁അടുത്ത	-1112
▁നഗ	-1113
▁ചൂ	-1114
▁കൊവിഡ്	-1115
▁ഇന്ത്യന്‍	-1116
ിത്സ	-1117
േറ്റ്	-1118
ിയായ	-1119
ുകൊണ്ട	-1120
▁മരണ	-1121
▁ജയ	-1122
▁രാഷ്ട്രീയ	-1123
സമയം	-1124
റിന്റെ	-1125
ത്തോടെ	-1126
ീമ	-1127
കൂ	-1128
▁മികച്ച	-1129
▁മരിച്ച	-1130
▁ഭക്ഷ	-1131
▁തിരഞ്ഞെടു	-1132
▁ഉള്ള	-1133
▁8	-1134
▁മാത്രം	-1135
സര്‍	-1136
ർച്ച	-1137
ിയിലെ	-1138
ഹു	-1139
▁ഇത്ത	-1140
▁അമേരിക്ക	-1141
▁മീ	-1142
തിയുടെ	-1143
്യക്ഷ	-1144
▁പ്രതിക	-1145
▁തേ	-1146
▁വാഹന	-1147
▁തക	-1148
▁തൃ	-1149
ഹമ്മ	-1150
▁നമ്മ	-1151
കാല	-1152
ദം	-1153
▁നഷ്ട	-1154
▁നിറ	-1155
െന്നു	-1156
▁വിവാഹ	-1157
▁ചികിത്സ	-1158
▁വിവര	-1159
രിക്കുന്ന	-1160
▁പിന്നീ	-1161
പ്പി	-1162
▁കോണ്‍ഗ്രസ്	-1163
▁മൂന്ന്	-1164
ിച്ചിരുന്നു	-1165
ർശ	-1166
▁മുൻ	-1167
▁സുരക്ഷ	-1168
ിക്കാൻ	-1169
▁പട്ട	-1170
▁പൂര്‍	-1171
▁9	-1172
▁സംവിധാന	-1173
▁പ്രസിഡന്റ്	-1174
▁തയ	-1175
▁അനുവ	-1176
▁നൽകിയ	-1177
ർത്ത	-1178
ാഭ	-1179
തായ	-1180
▁കുറ്റ	-1181
ാനം	-1182
▁ശക്ത	-1183
സിന്	-1184
നിന്ന്	-1185
▁പദ്ധതി	-1186
▁പ്രവേശ	-1187
▁വര്‍ഷ	-1188
റായി	-1189
▁സംബന്ധ	-1190
ുണ	-1191
▁കഥ	-1192
▁കൊണ്ട്	-1193
തില്‍	-1194
ദ്ര	-1195
▁വൈക	-1196
▁പിന്ത	-1197
▁വിക	-1198
യായ	-1199
▁കോൺ	-1200
▁കൊല	-1201
ങ്ങൾക്ക്	-1202
▁പുറത്ത	-1203
▁പ്രതിഷേധ	-1204
ജന	-1205
ാണ്ട	-1206
തെന്നും	-1207
ർക്ക	-1208
രുത്ത	-1209
▁ദേശീയ	-1210
▁സംസാ	-1211
ങ്ക്	-1212
കോ	-1213
▁കോടി	-1214
സില്‍	-1215
ായം	-1216
ാലും	-1217
ാനാണ്	-1218
രിൽ	-1219
വീ	-1220
കളെ	-1221
ാര്‍ഥ	-1222
ൊക്കെ	-1223
▁തയ്യാ	-1224
▁പക	-1225
▁രണ്ടു	-1226
സോ	-1227
ടങ്ങ	-1228
ാണി	-1229
▁ഇക്ക	-1230
▁ജീവന	-1231
▁കീ	-1232
ികളും	-1233
പ്പോഴും	-1234
ാകും	-1235
ില്ലെന്ന്	-1236
▁സമയ	-1237
▁ഇവിടെ	-1238
ബ്ര	-1239
▁അപകട	-1240
▁വ്യക്തമാക്കി	-1241
▁15	-1242
▁നടത്തി	-1243
▁പ്രാ	-1244
ത്തിലും	-1245
ാദ	-1246
▁അതേസമയം	-1247
▁വിമ	-1248
▁ഉദ്	-1249
▁പാർ	-1250
തിയെ	-1251
▁മത്സര	-1252
പ്പെടുന്ന	-1253
ള്ളി	-1254
▁രാവ	-1255
▁:	-1256
ർന്ന്	-1257
നില്‍	-1258
▁വൈറ	-1259
▁ഇപ്പോള്‍	-1260
തീക്ഷ	-1261
വിട	-1262
▁വിധ	-1263
ണമെന്നും	-1264
ിക്കാ	-1265
▁സാധ്യത	-1266
ത്തിലുള്ള	-1267
▁വഴ	-1268
ുകളിൽ	-1269
പ്പുറ	-1270
മല	-1271
▁സ്ഥല	-1272
ൂറ	-1273
▁ലഭിച്ച	-1274
▁മൊ	-1275
സ്റ്റി	-1276
▁എത്തിയ	-1277
▁പിന്നീട്	-1278
▁സാമ	-1279
െയുള്ള	-1280
വസ	-1281
രിപ്പ	-1282
▁കമ്മി	-1283
▁വാക്	-1284
▁രേഖ	-1285
▁നേടിയ	-1286
▁12	-1287
▁ഹി	-1288
▁വളരെ	-1289
▁ഭാര്യ	-1290
ബ്ദ	-1291
▁അനുവദ	-1292
▁കിട്ട	-1293
▁വഴി	-1294
പ്പെടെ	-1295
ക്കുള്ള	-1296
▁പരീക്ഷ	-1297
▁പ്രദേശ	-1298
▁ചിത്രം	-1299
ണമെന്ന	-1300
▁നടക്ക	-1301
▁എന്നാണ്	-1302
▁അഞ്ച	-1303
▁അഭിന	-1304
▁കാരണം	-1305
▁ജീവ	-1306
▁ബെ	-1307
▁ചെന്ന	-1308
▁സിപി	-1309
▁ലക്ഷം	-1310
ുകൊണ്ട്	-1311
▁രീ	-1312
▁ചര്‍ച്ച	-1313
ങ്ങളാണ്	-1314
ോട്ട്	-1315
യിലാണ്	-1316
ത്തിക	-1317
ുന്നുണ്ട്	-1318
▁റെ	-1319
ഷി	-1320
ിക്കുകയും	-1321
▁വ്യാ	-1322
ാനി	-1323
▁ലീ	-1324
സു	-1325
▁മെഡ	-1326
▁റിപ്പോര്‍ട്ട്	-1327
പര	-1328
▁പഞ്ചായ	-1329
▁സ്ത്രീ	-1330
സിന	-1331
▁തു	-1332
▁സീ	-1333
എല്‍	-1334
▁പോലും	-1335
കളില്‍	-1336
▁നഗര	-1337
▁വിദേശ	-1338
ിക്കുക	-1339
നേ	-1340
ോമ	-1341
പരി	-1342
▁ഒരാ	-1343
▁എത്ത	-1344
▁സന്ദ	-1345
▁എക്	-1346
▁അല	-1347
നിക്ക്	-1348
ർട്ട്	-1349
രേന്ദ്ര	-1350
ുവരെ	-1351
ക്ടര്‍	-1352
▁ഒഴിവ	-1353
ർക്ക്	-1354
പ്പെടുത്തി	-1355
തിന്റെ	-1356
വിൽ	-1357
▁പീ	-1358
▁അന്വേഷണ	-1359
ില്ലെന്നും	-1360
േയ	-1361
ജു	-1362
തിനാല്‍	-1363
ക്യ	-1364
ട്ടം	-1365
▁തെള	-1366
▁കുമ	-1367
▁മനു	-1368
▁കാര്‍	-1369
േജ	-1370
കുമ	-1371
ളള	-1372
▁ഫ്ര	-1373
▁പൊതു	-1374
▁സംഘടന	-1375
ക്കോ	-1376
ഗ്രഹ	-1377
▁പതി	-1378
ശ്ര	-1379
▁വേണ്ടി	-1380
ത്രം	-1381
നോ	-1382
▁മണിക്ക	-1383
ിക്കല്‍	-1384
▁ഹാ	-1385
▁എഴു	-1386
ക്കെതിരെ	-1387
ര്‍മ	-1388
നാണ്	-1389
▁ചു	-1390
മ്പ്	-1391
▁വിശദ	-1392
▁അടിസ്ഥാന	-1393
▁സർക്കാർ	-1394
കുട്ട	-1395
ാവുന്ന	-1396
▁ദേ	-1397
ഹമ്മദ്	-1398
▁സംഭവം	-1399
കാര	-1400
ാന്ധ	-1401
വരെ	-1402
▁നല്‍കി	-1403
▁കൂടുതൽ	-1404
▁വരുന്ന	-1405
▁താമ	-1406
▁അന്ത	-1407
▁പരിഹ	-1408
▁അധ്യക്ഷ	-1409
ാരാ	-1410
▁എത്തി	-1411
▁ജോലി	-1412
വല	-1413
ിട്ട്	-1414
▁തിര	-1415
▁ക്യാ	-1416
▁മന്ത്ര	-1417
▁11	-1418
ാടക	-1419
▁ഏറെ	-1420
▁കേസ്	-1421
▁രണ്ടാം	-1422
ൊണ്ട	-1423
▁നടപടി	-1424
▁രാവിലെ	-1425
വരുടെ	-1426
ഹൃ	-1427
▁ആരാ	-1428
വം	-1429
▁ചൈന	-1430
▁മാസ	-1431
േള	-1432
മീ	-1433
▁ഓരോ	-1434
ധ്യ	-1435
ാണു	-1436
▁നടപ്പ	-1437
▁അവരുടെ	-1438
▁വീഡിയോ	-1439
▁പരിഗ	-1440
▁അവത	-1441
▁പോയ	-1442
ഭാവ	-1443
▁ആല	-1444
ക്ഷേപ	-1445
ഖ്	-1446
▁പ്രതീക്ഷ	-1447
തിനായി	-1448
▁ബാല	-1449
▁ചോദ	-1450
▁കോൺഗ്ര	-1451
ാക്കുന്ന	-1452
▁നേരത്തെ	-1453
▁സമൂഹ	-1454
▁ശ്രീ	-1455
▁സഹായി	-1456
▁മറ്റ്	-1457
▁തൊഴില	-1458
▁ജനറ	-1459
▁മക	-1460
▁മണ്ഡ	-1461
പ്പില്‍	-1462
▁ഓഫ്	-1463
സിയ	-1464
▁താരം	-1465
രിക്കുന്നത്	-1466
▁പിന്നാല	-1467
▁മുതൽ	-1468
▁ഡയ	-1469
മില്ല	-1470
ക്കുറിച്ച്	-1471
▁നിങ്ങളുടെ	-1472
▁മനുഷ്യ	-1473
മായും	-1474
ല്‍ഹി	-1475
്ട്ര	-1476
▁ജെ	-1477
േജ്	-1478
േക്ക	-1479
▁കര	-1480
ഷന്‍	-1481
യിലും	-1482
▁സഭ	-1483
സില	-1484
▁ഉന്ന	-1485
▁ഓഫീസ	-1486
ുമ്പോൾ	-1487
▁തമി	-1488
▁കൂടിയ	-1489
▁കോട്ട	-1490
▁രാഹു	-1491
▁വിഷയ	-1492
▁തയ്യാറ	-1493
▁ശതമാനം	-1494
▁ചുമ	-1495
▁ഉൾ	-1496
▁കണക്ക	-1497
▁കൊച്ചി	-1498
ിരിക്കുന്ന	-1499
▁പറയുന്നത്	-1500
ിനും	-1501
ഫോ	-1502
യര്‍	-1503
ന്നി	-1504
ങ്ങളിലും	-1505
▁ഞാന്‍	-1506
▁പ്രധാനമന്ത്രി	-1507
ച്ഛ	-1508
േസ്	-1509
▁വാര്‍ത്ത	-1510
▁വോട്ട	-1511
ക്കാര്‍	-1512
▁മുസ്	-1513
ണ്ണം	-1514
ുമതി	-1515
▁പിന്തുണ	-1516
▁നടപട	-1517
വരം	-1518
▁റ്റ	-1519
കല	-1520
▁പേര്‍	-1521
േഷൻ	-1522
▁സുപ്ര	-1523
ന്തി	-1524
▁നയ	-1525
▁മുഴ	-1526
ത്തിറ	-1527
▁ശി	-1528
ബോ	-1529
നായി	-1530
▁ഇനി	-1531
▁ഇന്‍	-1532
▁വസ്	-1533
ശ്ശ	-1534
▁പ്രവര്‍ത്തക	-1535
▁കരു	-1536
▁ചെയ്തത്	-1537
ോടതി	-1538
▁ട്	-1539
▁കൗ	-1540
▁ഡ്ര	-1541
▁കുഞ്ഞ	-1542
ദിന	-1543
ത്തിനും	-1544
ാക്കള്‍	-1545
▁ഹൈക്ക	-1546
▁ചോദ്യം	-1547
▁തര	-1548
ിരിക്കുകയാണ്	-1549
▁സാമ്പ	-1550
▁അന്വേഷണം	-1551
ത്തനം	-1552
▁മറ്റൊരു	-1553
▁തമ്മ	-1554
െയി	-1555
▁എന്നീ	-1556
▁സമ്പ	-1557
ാർത്ഥ	-1558
ുതി	-1559
ാതി	-1560
ദ്ദേശ	-1561
ുത	-1562
▁പുന	-1563
▁ആത്മ	-1564
▁അധികൃത	-1565
▁ഹോ	-1566
ിക്കാന	-1567
▁കാരണ	-1568
▁പെണ്‍	-1569
▁ഇക്കാര്യ	-1570
വരും	-1571
▁പിണ	-1572
ത്തിലേക്ക്	-1573
രാജ	-1574
ഷണ	-1575
▁ഏക	-1576
സ്യ	-1577
▁അവര്‍	-1578
▁സര്‍ക്കാരി	-1579
ുമു	-1580
ക്കായി	-1581
ഘാട	-1582
▁അപേക്ഷ	-1583
▁ഏത	-1584
▁ദിന	-1585
ിക്കു	-1586
▁എന്റെ	-1587
▁നവ	-1588
ആര്‍	-1589
ജ്ഞ	-1590
ത്തേക്ക്	-1591
ൻസ്	-1592
▁സ്ഥാപന	-1593
▁നിയന്ത്ര	-1594
▁മഴ	-1595
െടുത്തു	-1596
▁വിത	-1597
▁ഗാന്ധ	-1598
▁സാമ്പത്തിക	-1599
▁പണം	-1600
▁ക്ഷേ	-1601
▁ഫെ	-1602
▁എൻ	-1603
ബര്‍	-1604
സർ	-1605
▁ഇവര്‍	-1606
▁നടത്തുന്ന	-1607
▁വീട	-1608
ൃഷ്ണ	-1609
ീവ്	-1610
▁ബ്ല	-1611
റാ	-1612
ംഗ്ല	-1613
▁പഴ	-1614
▁തൊ	-1615
▁കണ്ടെത്ത	-1616
▁200	-1617
ഫി	-1618
▁മറുപ	-1619
▁ടോ	-1620
പാട്	-1621
▁വര്‍ഷം	-1622
▁ഷോ	-1623
ങ്ങന	-1624
ക്കാല	-1625
▁സ്വീകരിക്ക	-1626
▁നടക്കുന്ന	-1627
▁ഭാര	-1628
തന്ത്ര	-1629
▁ഹെ	-1630
▁സമയം	-1631
▁പ്രതിരോധ	-1632
▁സന്ത	-1633
സൈ	-1634
▁അര	-1635
ദന	-1636
മസ്	-1637
▁പ്രസ	-1638
▁സ്വന്തം	-1639
▁"	-1640
േണ്ടി	-1641
ുമെന്ന	-1642
സേ	-1643
െല്ലാം	-1644
▁ശരീ	-1645
▁മുംബ	-1646
പാത	-1647
▁പുറത്തിറ	-1648
ാവും	-1649
ഭാഷ	-1650
ട്ടിക്ക	-1651
▁അറസ്റ്റ	-1652
▁അനുഭവ	-1653
ാഹ	-1654
▁മാത്രമാണ്	-1655
ൗര	-1656
ൊന്നും	-1657
ത്തിനെ	-1658
▁അറസ്റ്റ്	-1659
▁ഗ്രാമ	-1660
ികള്‍ക്ക്	-1661
▁വല	-1662
▁18	-1663
▁ക്യ	-1664
ുണ്ടായ	-1665
▁ചൂണ്ട	-1666
ീകരണ	-1667
തൃ	-1668
പ്പറ	-1669
ക്ഷി	-1670
▁മുംബൈ	-1671
ക്കുറ	-1672
▁തമിഴ്	-1673
ടക്കം	-1674
▁പ്രവര്‍ത്തന	-1675
വൈ	-1676
ബൈ	-1677
▁മത	-1678
▁ഉദ്ഘാട	-1679
▁സാമൂഹ	-1680
▁ഔ	-1681
▁നാല്	-1682
▁ഇത്തരം	-1683
▁ബൈ	-1684
▁എന്നും	-1685
▁മുഹമ്മദ്	-1686
ിലി	-1687
ധികം	-1688
▁വാർ	-1689
▁തീരുമാനം	-1690
ാറ്റ	-1691
▁നേതാവ്	-1692
▁നിരീക്ഷ	-1693
▁സത്യ	-1694
വ്വ	-1695
▁സ്വകാര്യ	-1696
▁ന്യൂഡ	-1697
ലൈ	-1698
▁സോഷ്യ	-1699
തിയിൽ	-1700
രുമ	-1701
▁പോലെ	-1702
▁എല്ലാവ	-1703
▁സംരക്ഷ	-1704
▁14	-1705
▁അഭിപ്ര	-1706
ക്കേ	-1707
ശേഷം	-1708
ോട്ടോ	-1709
▁മറ്റു	-1710
ിച്ചിട്ടുണ്ട്	-1711
ലില്‍	-1712
ക്കാട്	-1713
ഘോഷ	-1714
▁വനി	-1715
▁ഇതുവരെ	-1716
,000	-1717
▁ക്രി	-1718
▁25	-1719
യ്യ	-1720
ാലയ	-1721
ന്റെയും	-1722
ുകളാണ്	-1723
▁രോഗം	-1724
▁വിവാദ	-1725
▁ശിവ	-1726
▁നിയമസഭ	-1727
▁ആക	-1728
ങ്ങളിലെ	-1729
ിരുന്നത്	-1730
▁ജല	-1731
▁സംഘം	-1732
▁പ്രിയ	-1733
നീ	-1734
ൈവ	-1735
▁െ	-1736
▁ഇപ്പോൾ	-1737
ിയോ	-1738
▁അര്‍	-1739
▁സമാ	-1740
▁മുമ്പ്	-1741
▁ഷാ	-1742
പ്പുറം	-1743
ര്‍ശന	-1744
ുവന്ന	-1745
▁പൂർ	-1746
ത്തിനായി	-1747
▁പാര്‍ട്ടി	-1748
▁മനസ്സ	-1749
നില	-1750
റിൽ	-1751
▁തുടങ്ങി	-1752
ിലായി	-1753
ിട്ടുണ്ട	-1754
▁പിണറായി	-1755
▁പ്രതിപക്ഷ	-1756
വാദ	-1757
▁സഹോദ	-1758
ളെ	-1759
▁ചരി	-1760
▁പശ്ച	-1761
▁ഉറപ്പ	-1762
റിഞ്ഞ	-1763
ിയത്	-1764
▁നേരിട	-1765
▁ബന്ധപ്പെട്ട	-1766
ൗണ്ട	-1767
▁സുപ്രീം	-1768
പ്റ്റ	-1769
▁തന്നെയാണ്	-1770
കരണ	-1771
ാഭ്യാ	-1772
▁മാസം	-1773
▁ചെല	-1774
▁ഇര	-1775
▁നിന്നുള്ള	-1776
▁വിപ	-1777
▁ആരാധ	-1778
▁ഇന്നലെ	-1779
▁വർഷ	-1780
▁വിവരം	-1781
രന്‍	-1782
▁കോഴ	-1783
ട്രോ	-1784
▁ഉണ്ടാക	-1785
േദ	-1786
യിലേക്ക്	-1787
വുമ	-1788
▁ഡെ	-1789
▁മോഹ	-1790
▁ആർ	-1791
്യമാണ്	-1792
ച്ചത്	-1793
▁ആദ്യം	-1794
ുമെന്നാണ്	-1795
▁മുഴുവ	-1796
ന്‍സ	-1797
▁ക്ഷ	-1798
▁ആഭ	-1799
ർഷ	-1800
▁അവിടെ	-1801
ളു	-1802
▁മീഡിയ	-1803
റോണ	-1804
▁ആന	-1805
ജയ	-1806
ൻറ	-1807
ങ്ങുന്ന	-1808
തെ	-1809
ത്തിലൂടെ	-1810
▁സ്വദേശി	-1811
തിക	-1812
ുവെ	-1813
▁ഇന്ത്യൻ	-1814
▁എണ്ണം	-1815
രുദ്ധ	-1816
▁മൃത	-1817
▁രാത്രി	-1818
▁രജി	-1819
▁സംശ	-1820
▁അഞ്ച്	-1821
ാവസ്ഥ	-1822
▁കില	-1823
▁കമ്പന	-1824
പ്രദേശ	-1825
▁13	-1826
▁ഊ	-1827
കളിൽ	-1828
▁ഇതോടെ	-1829
▁കീഴ	-1830
▁നിലവ	-1831
▁24	-1832
▁സമര	-1833
▁വകുപ്പ്	-1834
ജീവ	-1835
ൃഷ്ട	-1836
തിനാൽ	-1837
പ്പുഴ	-1838
▁ഉത്ത	-1839
ണു	-1840
റിന്	-1841
േഷന	-1842
▁ജൂ	-1843
ഡോ	-1844
ീഷ്	-1845
▁ചാ	-1846
▁പ്രൊ	-1847
▁കൂടാതെ	-1848
ാരാഷ്ട്ര	-1849
▁സ്ഥിരീകരിച്ച	-1850
ട്ടുണ്ട്	-1851
▁അബ്ദ	-1852
ുകളെ	-1853
▁വ്യത്യ	-1854
▁സൂചന	-1855
▁സംഗ	-1856
▁മുഖ്യമന്ത്ര	-1857
▁ടീമ	-1858
▁റിയ	-1859
▁പോയി	-1860
▁എതി	-1861
▁സംവിധാനം	-1862
ീത	-1863
ഗോ	-1864
▁ഭീക	-1865
▁കേസില്‍	-1866
▁സാധാരണ	-1867
▁ഭാഗമായി	-1868
ിയ്	-1869
▁ആദ	-1870
▁ലെ	-1871
ര്‍ക്കും	-1872
▁താമസ	-1873
▁ചെറിയ	-1874
▁വ്യക്തി	-1875
▁സുഹൃ	-1876
ശി	-1877
സ്ട്ര	-1878
ില്ലാത്ത	-1879
ക്കൊ	-1880
ലക്ഷ	-1881
പ്പെട്ടി	-1882
സിൽ	-1883
ായിക	-1884
യാള്‍	-1885
▁30	-1886
▁പട്ടിക	-1887
▁മൃതദേഹ	-1888
▁പുര	-1889
▁നില്‍	-1890
ക്കുന്നത്	-1891
ാകു	-1892
ിക്കേണ്ട	-1893
സന്ധ	-1894
സ്റ്റര്‍	-1895
▁കമ	-1896
▁കൊറോണ	-1897
▁പരിശോധ	-1898
ാവശ്യ	-1899
ടിപ്പ	-1900
പ്പെട്ടത്	-1901
ര്‍ത്തി	-1902
▁ഒറ്റ	-1903
മാരുടെ	-1904
▁തുടർന്ന്	-1905
▁എന്നി	-1906
▁റോഡ	-1907
ക്കാന്‍	-1908
ൊന്ന	-1909
▁കമ്മീഷ	-1910
▁വൃ	-1911
യോടെ	-1912
തായും	-1913
▁സഹായ	-1914
▁ലോക്	-1915
ുമുള്ള	-1916
ടം	-1917
▁ആരാധക	-1918
▁അക	-1919
▁പക്ഷേ	-1920
▁ഫല	-1921
▁പാക	-1922
▁മാത്രമല്ല	-1923
▁താഴ	-1924
രാണ്	-1925
▁സംസ്ഥാനത്ത്	-1926
ഹിത	-1927
ക്കള്‍	-1928
▁ആഗ്രഹ	-1929
▁മണ്ഡല	-1930
▁തവണ	-1931
▁ഭീഷ	-1932
ിട്ടും	-1933
സ്വ	-1934
▁അവർ	-1935
▁ഡയറ	-1936
റ്റില്‍	-1937
▁എത്ര	-1938
▁ദൃ	-1939
▁കസ്റ്റ	-1940
▁കാർ	-1941
ൻ്	-1942
▁ഇടപെ	-1943
▁സ്പ	-1944
ീകരിച്ചു	-1945
▁പരിക്ക	-1946
▁റണ്‍	-1947
▁വിദ്യാഭ്യാ	-1948
▁ചീ	-1949
▁പ്രശ	-1950
▁പ്രോ	-1951
പ്പെടുന്നു	-1952
ിക്കറ്റ്	-1953
▁16	-1954
ട്ടെ	-1955
ക്കാണ്	-1956
മാർ	-1957
ിച്ചാണ്	-1958
നിര	-1959
▁സീറ്റ	-1960
രുവ	-1961
ികൂ	-1962
▁ഇൻ	-1963
▁മൂന്നു	-1964
▁ഉദ്ഘാടനം	-1965
ാംഗ	-1966
▁കൈമാ	-1967
തിൽ	-1968
േര്‍	-1969
▁പോലീസ	-1970
▁ആശുപത്രി	-1971
▁അഭിനയ	-1972
ബരി	-1973
യുണ്ട	-1974
രുന്നത്	-1975
▁ഇതു	-1976
▁ആയ	-1977
▁അമി	-1978
▁ദുര	-1979
▁മാത്രമേ	-1980
സും	-1981
▁കണ്ടെത്തിയ	-1982
▁പരിഗണ	-1983
ചി	-1984
▁ന്	-1985
▁നായ	-1986
▁വഹ	-1987
▁നമ്മുടെ	-1988
▁17	-1989
▁ഗ്രൂ	-1990
▁പിന്നാലെ	-1991
ീകരണം	-1992
ഥ്	-1993
▁ധന	-1994
▁വെളി	-1995
മാക്കി	-1996
േത	-1997
ിക്കെ	-1998
▁അക്ക	-1999
▁അവകാശ	-2000
▁പക്ഷ	-2001
▁തോന്ന	-2002
▁ശരീര	-2003
▁ശക്തമായ	-2004
ഗത	-2005
▁മാറ	-2006
ിക്കൽ	-2007
▁നിര്‍മ്മ	-2008
30	-2009
▁ഇത്തര	-2010
▁ഹിന്ദ	-2011
ുമോ	-2012
▁നേട	-2013
▁ഫാ	-2014
▁എല്‍	-2015
പ്പാ	-2016
▁തോമസ്	-2017
▁മൈ	-2018
▁സര്‍വ	-2019
▁വിട്ട	-2020
മ്പി	-2021
▁കോൺഗ്രസ്	-2022
▁ജോസ	-2023
▁പുല	-2024
▁മദ്യ	-2025
▁കൂള	-2026
▁ഫേസ്	-2027
▁വകുപ്പ	-2028
റണ	-2029
ന്മ	-2030
ാസ്ത്ര	-2031
ബ്ല	-2032
▁പ്രായ	-2033
▁പോസ്റ്റ	-2034
ംസ	-2035
പോലെ	-2036
മാന്‍	-2037
▁പുറത്തു	-2038
▁നമ്പ	-2039
▁പൊലീസ	-2040
ുമ്പോഴ	-2041
▁കെട്ടി	-2042
▁ചെയ്ത്	-2043
ത്തിനുള്ള	-2044
തിനുള്ള	-2045
ww	-2046
ാന്	-2047
▁മനോ	-2048
കൊ	-2049
▁ക്രിക്ക	-2050
▁ഹാജ	-2051
▁കന	-2052
▁ബിജെപ	-2053
ഖ്യ	-2054
ിയായി	-2055
യുമായി	-2056
നാട്	-2057
▁യുവതി	-2058
▁കുറഞ്ഞ	-2059
വര്‍ക്ക്	-2060
യായിരുന്നു	-2061
ിച്ചും	-2062
▁സൃഷ്ട	-2063
▁ബന്ധപ്പെട്ട്	-2064
▁ശബരി	-2065
തിരായ	-2066
▁ചെയ്യും	-2067
േളന	-2068
▁കേരളത്തിലെ	-2069
തിരേ	-2070
▁ചൊ	-2071
ടുത്ത്	-2072
▁ബാങ്ക	-2073
▁നല്‍കുന്ന	-2074
െറ	-2075
ഷിക	-2076
▁അവസ്ഥ	-2077
▁പുതു	-2078
റണാകു	-2079
െയ്യ	-2080
സന	-2081
ീര്‍	-2082
▁വരു	-2083
▁രാജ്യത്ത്	-2084
▁റിപ്പോര്‍ട്ട	-2085
▁പിടികൂ	-2086
ധു	-2087
▁നൽകി	-2088
▁ഇതിന്	-2089
പ്രവര്‍	-2090
▁ചെയ്യുന്നത്	-2091
ിക്കണം	-2092
ത്തല	-2093
▁തടയ	-2094
റ്റിയ	-2095
▁കര്‍	-2096
സൂ	-2097
▁പ്രണ	-2098
ിരിക്കുന്നു	-2099
്യാപക	-2100
▁ദേവ	-2101
ിക്കുകയ	-2102
▁നേതാക്കള	-2103
▁ഞാൻ	-2104
▁പൗര	-2105
▁രാജ്യത്തെ	-2106
ൂട്ടി	-2107
സെ	-2108
▁മോദി	-2109
തിനും	-2110
ര്‍ന്നു	-2111
▁ഇല	-2112
▁അഭിപ്രായ	-2113
▁അനുമതി	-2114
ുകൂല	-2115
▁സ്വര്‍	-2116
▁നരേന്ദ്ര	-2117
ാനെ	-2118
ലിന്റെ	-2119
▁പ്രതിസന്ധ	-2120
ുകാര്‍	-2121
▁ചടങ്ങ	-2122
കര്യ	-2123
തില	-2124
▁വീട്ടില്‍	-2125
▁പേരില്‍	-2126
ല്‍ക്ക	-2127
▁കോടിയ	-2128
രായ	-2129
▁അടിയ	-2130
▁ആഘോഷ	-2131
▁മണി	-2132
ഴിഞ്ഞ	-2133
ാനായി	-2134
▁മെഡിക്കല്‍	-2135
▁ശബരിമല	-2136
▁നേതൃത്വം	-2137
ളയ	-2138
▁ബംഗ	-2139
▁ഉച്ച	-2140
▁എറണാകു	-2141
▁ശു	-2142
▁പരിശീല	-2143
ൊക്ക	-2144
▁സമര്‍	-2145
▁ക്ഷേത്ര	-2146
ിനെതിരെ	-2147
▁അതു	-2148
▁കോഴിക്ക	-2149
ത്തോളം	-2150
ോടൊപ്പം	-2151
▁ആവശ	-2152
ാക്കാന്‍	-2153
▁ചൂണ്ടിക്കാ	-2154
ണാ	-2155
ൽക്ക	-2156
ിക്	-2157
▁തീവ	-2158
▁തെളിവ	-2159
▁ചരിത്ര	-2160
▁ആശുപത്രിയില്‍	-2161
ത്തിന്‍റെ	-2162
▁വിശ്വാസ	-2163
▁മോഡ	-2164
▁അല്‍	-2165
▁തൊഴിലാള	-2166
▁തൃശ	-2167
▁കിട	-2168
▁ചെറു	-2169
▁സംവിധ	-2170
▁രംഗത്തെ	-2171
▁ചെയ്യുന്നു	-2172
റെയും	-2173
ക്കാരി	-2174
▁ഉടമ	-2175
▁മരിച്ചു	-2176
▁ക്ക	-2177
▁ഇന്റ	-2178
എന്‍	-2179
ുവരി	-2180
മെന്റ്	-2181
▁പിടിയ	-2182
ശ്വാസ	-2183
▁വാങ്ങ	-2184
▁റിപ്പോർട്ട്	-2185
ർട്ട	-2186
▁നിയന്ത്രണ	-2187
പ്പന	-2188
ത്തുട	-2189
▁നിങ്ങൾ	-2190
▁പഞ്ചായത്ത്	-2191
▁സൈന	-2192
ടിച്ച്	-2193
േന്ദ്ര	-2194
▁വിലയി	-2195
യർ	-2196
രിത	-2197
െയില്‍	-2198
ുകളിലും	-2199
19	-2200
▁നായക	-2201
ടക	-2202
ar	-2203
▁ഫോണ	-2204
ന്‍ഡ	-2205
▁ബാങ്ക്	-2206
▁സൂക്ഷ	-2207
ത്തുന്ന	-2208
▁ഗുരുത	-2209
രുത്	-2210
▁ജാമ	-2211
▁പാകി	-2212
്രാ	-2213
▁അഡ്	-2214
▁ഇന്ത്യയുടെ	-2215
▁തെരഞ്ഞെടുപ്പ്	-2216
ൃദ	-2217
▁പറഞ്ഞത്	-2218
▁ഉപയോഗിച്ച്	-2219
▁എടുത്ത	-2220
▁പോരാ	-2221
ടുത്തി	-2222
▁ഇംഗ്ല	-2223
▁മാറ്റി	-2224
▁അച്ഛ	-2225
▁മിനി	-2226
▁എന്നിവര്‍	-2227
ര്‍ഷക	-2228
▁സഞ്ച	-2229
▁പ്രവര്‍ത്തി	-2230
ാപാത്ര	-2231
▁പുറത്ത്	-2232
ീപ്	-2233
ുമായിരുന്നു	-2234
▁ഇസ്	-2235
▁മൂല	-2236
ീന്‍	-2237
▁പിടിച്ച	-2238
▁മറുപടി	-2239
▁താന്‍	-2240
ുകൂ	-2241
▁പ്രമുഖ	-2242
ജ്ജ	-2243
ാവന	-2244
▁ദൃശ്യ	-2245
▁ജനറല്‍	-2246
▁മാർ	-2247
▁സംസ്	-2248
ുപോക	-2249
▁നിർമ്മ	-2250
▁പേർ	-2251
പ്രതി	-2252
▁രക്ത	-2253
▁സിപിഎം	-2254
▁ആവശ്യപ്പെട്ടു	-2255
▁ജില്ലയിലെ	-2256
നിൽ	-2257
ിക്കാം	-2258
▁പൈ	-2259
▁ചെന്നൈ	-2260
ദാ	-2261
▁50	-2262
▁കൊലപാത	-2263
▁കൃത്യ	-2264
▁ആക്രമണ	-2265
▁വിദ്യാര്‍ത്ഥ	-2266
ുണ്ടായി	-2267
▁ഗുരുതര	-2268
▁പശ്ചാത്ത	-2269
▁പട	-2270
ഷൻ	-2271
േര	-2272
നിന്ന	-2273
▁ഭക്ഷണ	-2274
▁കുറിച്ച്	-2275
▁മലപ്പുറം	-2276
ദ്ധി	-2277
▁പരിപാ	-2278
▁കാര്യം	-2279
▁പൂര്‍ത്തിയ	-2280
▁ഭീകര	-2281
▁നിക്ഷേപ	-2282
▁ചന്ദ്ര	-2283
▁ഉണ്ടായി	-2284
▁നടപടിയ	-2285
▁അക്രമ	-2286
യ്ക്കും	-2287
ിച്ചുള്ള	-2288
ത്വം	-2289
▁വന്‍	-2290
ുകള്‍ക്ക്	-2291
ാഗ്ര	-2292
▁സുര	-2293
ത്താവ	-2294
പ്പിൽ	-2295
▁ഗാന്ധി	-2296
▁ആശങ്ക	-2297
▁വധ	-2298
▁പഠന	-2299
ധിപ	-2300
രുന്ന്	-2301
▁അബ്ദു	-2302
▁കഴിയുന്ന	-2303
ാക്കൾ	-2304
▁കോട്ടയം	-2305
സംഘ	-2306
ാർഥ	-2307
്പ	-2308
▁ചർച്ച	-2309
ക്ടർ	-2310
ങ്ങാ	-2311
▁ഉള്‍പ്പെടെ	-2312
▁ഇന	-2313
▁വിദ്യാര്‍ഥ	-2314
മാണെന്ന്	-2315
▁സംവിധായക	-2316
▁വ്യാജ	-2317
▁പോസ്റ്റ്	-2318
ലാ	-2319
▁എണ്ണ	-2320
തുമ	-2321
▁നീക്കം	-2322
▁ഇതിന	-2323
സരിച്ച്	-2324
ക്ടറ	-2325
▁വിദ	-2326
▁സന്	-2327
മ്പര	-2328
ങ്ങ്	-2329
ല്ലോ	-2330
ുവര	-2331
ുല	-2332
വെന്ന്	-2333
▁ഉമ്മ	-2334
രിക്കാന്‍	-2335
ിച്ചിരുന്ന	-2336
▁കമ്മിറ്റി	-2337
ശോ	-2338
▁മൊഴ	-2339
▁നടത്തിയത്	-2340
മാൻ	-2341
▁നിക	-2342
മുണ്ട്	-2343
▁വൈദ്യ	-2344
▁പാര്‍ട്ട	-2345
ക്കുന്നു	-2346
....	-2347
▁പെണ്‍കുട്ട	-2348
മം	-2349
▁ഇഷ്ട	-2350
▁വൈറസ്	-2351
ട്ടും	-2352
▁ആരോപണ	-2353
▁മണിക്കൂറ	-2354
വന്‍	-2355
▁കൊല്ലം	-2356
▁പിന്‍	-2357
ര്‍മ്മ	-2358
▁കടുത്ത	-2359
▁നേടി	-2360
▁സെന്റ	-2361
▁മരണം	-2362
▁അധികാര	-2363
▁ഒന്നാം	-2364
▁കരുത	-2365
ണ്ണി	-2366
ഹത്യ	-2367
▁ഇതിന്റെ	-2368
▁വിദ്യാഭ്യാസ	-2369
എൽ	-2370
ർണ	-2371
ാകുന്ന	-2372
ഫ്ര	-2373
്യന്തര	-2374
▁കേരളത്തില്‍	-2375
ിക്കുകയായിരുന്നു	-2376
മന്ത്ര	-2377
ത്തം	-2378
▁ഫി	-2379
ിപ്പ്	-2380
▁സൂപ്പ	-2381
▁വിതരണം	-2382
▁തങ്ങളുടെ	-2383
▁പശ്ചാത്തല	-2384
വിട്ട	-2385
▁പ്രദ	-2386
▁സൗകര്യ	-2387
▁പറയുന്ന	-2388
▁ഹൈക്കോടതി	-2389
ധിത	-2390
▁കഥാപാത്ര	-2391
▁അതിന്റെ	-2392
ശം	-2393
▁കാഴ്ച	-2394
▁അദ്ദേഹത്തിന്റെ	-2395
▁നൂ	-2396
▁ആയിരുന്നു	-2397
കരമായ	-2398
▁പരിച	-2399
▁മുന്നറിയ	-2400
▁ആണ	-2401
▁റാ	-2402
▁ഇക്കാര്യം	-2403
▁രാമ	-2404
ന്മാര	-2405
▁നോട്ട	-2406
▁രാഹുല്‍	-2407
ിലായ	-2408
ധിച്ച്	-2409
▁പെട്ട	-2410
▁എനിക്ക്	-2411
▁കോര്‍	-2412
▁മട	-2413
ക്സ്	-2414
▁സാം	-2415
സിപ്പ	-2416
ഗം	-2417
ാക്കിയത്	-2418
▁ബന്ധു	-2419
▁പെരു	-2420
വിന്റെ	-2421
▁ഫേസ്ബു	-2422
ാളി	-2423
ൂക്ഷ	-2424
മാവ	-2425
വരാണ്	-2426
▁തെറ്റ	-2427
▁ക്വാ	-2428
▁എഫ്	-2429
▁പെൺ	-2430
ാമത്തെ	-2431
ക്കിട	-2432
▁ഇടപെട	-2433
▁ബീ	-2434
ര്‍ജ	-2435
ാണെന്ന	-2436
▁സ്വപ്	-2437
▁ഘട്ട	-2438
എഫ	-2439
പ്യ	-2440
യാളി	-2441
▁മുമ്പ	-2442
ിട്ടുള്ള	-2443
മെന്ന്	-2444
▁കമ്പനി	-2445
▁റില	-2446
▁നിലവില്‍	-2447
▁െൻറ	-2448
▁നീക്ക	-2449
ഡിഎഫ്	-2450
വാഹ	-2451
കാരം	-2452
▁വെള്ളം	-2453
പ്ല	-2454
മായാണ്	-2455
▁വിമാനത്താവ	-2456
▁കാസര്‍	-2457
▁പേര്	-2458
ടക്കമുള്ള	-2459
▁ആഭ്യന്തര	-2460
▁കടന്ന	-2461
മാക്കിയ	-2462
▁കൊച്ച	-2463
▁21	-2464
▁ചുമതല	-2465
▁യോഗം	-2466
▁തീവ്ര	-2467
ിക്കാനുള്ള	-2468
തന്നെ	-2469
▁പ്രശ്ന	-2470
▁പ്രസ്ത	-2471
▁വാർത്ത	-2472
▁ആലപ്പുഴ	-2473
▁ഏജ	-2474
▁മൊബൈ	-2475
▁കര്‍ഷക	-2476
21	-2477
ിറ	-2478
▁പാട	-2479
▁സംസാരിക്ക	-2480
ൻ്റെ	-2481
▁നമു	-2482
▁കണ്‍	-2483
▁പരാമ	-2484
▁മുഖ്യ	-2485
▁ശിക്ഷ	-2486
▁ന്യൂഡല്‍ഹി	-2487
ബർ	-2488
യ്ക്കു	-2489
▁നിന്നു	-2490
ഞ്ജ	-2491
▁ആറ	-2492
ികൾക്ക്	-2493
▁നിലപാട്	-2494
▁സ്ഥിതി	-2495
▁സംബന്ധിച്ച്	-2496
▁ആറ്	-2497
▁സ്വയം	-2498
▁പ്രകാരം	-2499
ിനുള്ള	-2500
▁മാതൃ	-2501
▁വിവാഹം	-2502
▁തിരി	-2503
ഘട്ട	-2504
▁മര	-2505
▁ഭാഷ	-2506
▁കണ	-2507
▁ചല	-2508
കോട്	-2509
▁എന്നു	-2510
മിന	-2511
▁സൈനിക	-2512
▁കണ്ണൂര്‍	-2513
▁സ്വീകരിച്ച	-2514
▁വികസന	-2515
നിട	-2516
കള്‍ക്ക്	-2517
ൽഹി	-2518
▁പരാജയ	-2519
▁ഇതില്‍	-2520
▁എന്നത്	-2521
വഹ	-2522
▁വിട	-2523
▁സുധ	-2524
▁സംശയ	-2525
ാണോ	-2526
വാസം	-2527
▁സമിതി	-2528
െടുത്ത്	-2529
▁കാത്തി	-2530
▁മുന്നില്‍	-2531
ങ്കിലും	-2532
▁നിര്‍ദേശ	-2533
കൃഷ്ണ	-2534
▁ഇങ്ങനെ	-2535
▁ഇത്തവണ	-2536
മന	-2537
▁നടി	-2538
പിത	-2539
▁രൂക്ഷ	-2540
ദ്യോഗിക	-2541
ാനാവ	-2542
▁നന്ദ	-2543
▁കോഴിക്കോട്	-2544
എമ്മ	-2545
ംസ്	-2546
േറിയ	-2547
▁പ്രവർത്തക	-2548
▁ലാ	-2549
▁ചീഫ്	-2550
▁അല്ലെങ്കിൽ	-2551
ൂരി	-2552
▁മുതി	-2553
▁നിശ്ച	-2554
ിച്ചിരിക്കുന്നത്	-2555
സിസി	-2556
േണ്ടത്	-2557
▁അസോ	-2558
▁പേര്‍ക്ക്	-2559
▁വരും	-2560
ികളില്‍	-2561
▁കണ്ടെത്തി	-2562
▁ഉയര്‍ന്ന	-2563
▁പള്ള	-2564
ുകളിലെ	-2565
▁തുടര്‍ന്ന	-2566
പ്പെടുന്നത്	-2567
പാല	-2568
▁ജയില	-2569
▁ട്രം	-2570
▁പുരു	-2571
▁ഉണ്ട്	-2572
▁വാക്ക	-2573
▁സാമൂഹിക	-2574
▁മൂന്നാം	-2575
▁ചെയ്തിരുന്നു	-2576
ട്ടോ	-2577
▁വസ്തു	-2578
▁മൃതദേഹം	-2579
ളൂ	-2580
▁ബ്രിട്ട	-2581
▁ടീ	-2582
▁ദില	-2583
▁ശ്രമിച്ച	-2584
ചെയ്യ	-2585
▁ഇതേ	-2586
▁വർഷം	-2587
▁അന്ന്	-2588
തിനിടെ	-2589
▁പോകുന്ന	-2590
▁മലയാളി	-2591
▁തള്ള	-2592
▁കള്ള	-2593
▁പുരസ്	-2594
▁ശരിയ	-2595
ംഗം	-2596
ാരായ	-2597
▁ഷെ	-2598
മൂ	-2599
▁നീണ്ട	-2600
ആർ	-2601
ര്‍ത്തിയ	-2602
▁ഒഴിവാക്ക	-2603
ളിച്ച	-2604
▁ഹോട്ട	-2605
▁തുടര	-2606
▁വനിതാ	-2607
▁ആത്മഹത്യ	-2608
കളാണ്	-2609
▁ആവശ്യമ	-2610
പ്പിച്ചു	-2611
▁22	-2612
▁ഒരിക്ക	-2613
co	-2614
▁തീയ	-2615
ശ്മീ	-2616
▁ഹൃദ	-2617
▁എടുക്ക	-2618
▁നോക്ക	-2619
ശു	-2620
▁പച്ച	-2621
ക്കിന്	-2622
▁നിലപാട	-2623
▁പ്രവർത്തന	-2624
▁മാറി	-2625
▁അസോസിയ	-2626
▁സജീവ	-2627
▁സ്കൂ	-2628
▁ശക്തി	-2629
െടുത്തി	-2630
▁ആരോപണം	-2631
റ്റം	-2632
വെന്നും	-2633
▁തട്ടി	-2634
▁വന്നു	-2635
മിക	-2636
▁കല്ല	-2637
ാഥ	-2638
▁മരിച്ചത്	-2639
ഹരി	-2640
ാമറ	-2641
▁രഹ	-2642
ർമ്മ	-2643
▁അർ	-2644
ലിൽ	-2645
▁വിദഗ്	-2646
▁ആവശ്യം	-2647
ുളള	-2648
▁ലം	-2649
▁അവതരിപ്പ	-2650
▁വ്യത്യസ്ത	-2651
കലാശ	-2652
ില്ലാതെ	-2653
▁നിലയില്‍	-2654
▁സന്ദര്‍ശ	-2655
പിട	-2656
▁യഥ	-2657
ക്കൾ	-2658
ലിന്	-2659
▁പതിന	-2660
▁എറണാകുളം	-2661
ാണിത്	-2662
▁കൂട്ടിച്ച	-2663
▁സഹോദര	-2664
▁ലീഗ്	-2665
▁അങ്ങനെ	-2666
▁പഴയ	-2667
യിലൂടെ	-2668
▁തുടങ്ങ	-2669
▁സേവന	-2670
ങ്ങളായി	-2671
ാലയം	-2672
നിധ	-2673
▁സർക്കാരി	-2674
▁മധ്യ	-2675
▁അധികൃതര്‍	-2676
▁ചെയ്യാന്‍	-2677
ന്റി	-2678
വസ്ഥ	-2679
ിലെത്തി	-2680
▁പാലക്കാട്	-2681
50	-2682
സര	-2683
താവ്	-2684
▁ശേഖ	-2685
▁ഭര്‍ത്ത	-2686
സ്സ്	-2687
രുമായി	-2688
തിയാണ്	-2689
▁ഒന്നും	-2690
ത്തിനിടെ	-2691
▁രംഗത്ത്	-2692
ദിവ	-2693
ത്താണ്	-2694
▁കോളേജ	-2695
▁ബോര്‍	-2696
ായില്ല	-2697
ോമീറ്റ	-2698
▁പ്രവേശിപ്പ	-2699
▁കുഴ	-2700
▁ജോസഫ്	-2701
▁പകരം	-2702
ട്ടില്ല	-2703
സിക	-2704
▁സമയത്ത്	-2705
ജോ	-2706
▁അമ	-2707
▁എല്ലാം	-2708
▁പണ	-2709
ഷന	-2710
ീർ	-2711
▁...	-2712
വർക്ക്	-2713
ര്‍ജി	-2714
കുട്ടി	-2715
ധിപത്യ	-2716
▁ശൈ	-2717
സിനെ	-2718
▁തൂ	-2719
▁ആകെ	-2720
▁ഭൂരി	-2721
▁വില്‍	-2722
ുമുണ്ട്	-2723
വുമായ	-2724
കലാശാല	-2725
പറ	-2726
▁പദ	-2727
▁തുക	-2728
ട്ടില്‍	-2729
▁ഭീഷണി	-2730
▁ഔദ്യോഗിക	-2731
▁ശാ	-2732
▁സമരം	-2733
ക്കില്‍	-2734
ോടു	-2735
▁കൃഷ്ണ	-2736
).	-2737
ാദ്	-2738
▁ആര	-2739
▁പിഴ	-2740
ഡ്ര	-2741
▁നിരീക്ഷണ	-2742
▁വിന	-2743
ിച്ചുവ	-2744
▁ബുദ്ധി	-2745
▁സോഷ്യല്‍	-2746
▁നല്‍കിയത്	-2747
▁ഡ്രൈ	-2748
▁ഭക്ഷണം	-2749
▁വിമര്‍ശ	-2750
▁പ്രസ്താവന	-2751
രാജ്	-2752
ീല്‍	-2753
▁ലംഘ	-2754
▁വ്യവസ	-2755
▁ജില്ലയില്‍	-2756
ോടും	-2757
▁യുഎ	-2758
▁സിറ്റി	-2759
യുണ്ട്	-2760
ക്കുമ	-2761
▁ക്രമ	-2762
▁വയസ്സ	-2763
ങ്കള	-2764
വില	-2765
▁സന്തോഷ	-2766
ംബര്‍	-2767
▁ജീവനക്കാര	-2768
▁കാര്യങ്ങള്‍	-2769
▁പ്ലാ	-2770
▁ഇവരുടെ	-2771
ലിസ്	-2772
▁ആഗ	-2773
▁പീഡ	-2774
▁പരിക്കേറ്റ	-2775
ിവെ	-2776
▁ഇവരെ	-2777
▁കൂടെ	-2778
ായിരിക്കും	-2779
ർശന	-2780
േല്‍	-2781
ികളായ	-2782
▁കേരളം	-2783
▁നടന്നത്	-2784
രമ	-2785
ങ്ങനെയ	-2786
ശ്വര	-2787
▁ചാന	-2788
ന്‍ഡ്	-2789
▁പ്രസിദ്ധ	-2790
ടുക്കി	-2791
▁ഇള	-2792
▁അവരെ	-2793
▁ലഭിക്കുന്ന	-2794
▁ദുബ	-2795
ഗ്ഗ	-2796
▁ഭേദ	-2797
േക്ക്	-2798
ിട്ടുള്ളത്	-2799
▁സംബന്ധിച്ച	-2800
▁നാട	-2801
▁പിറ	-2802
▁പ്രവാസ	-2803
▁സംഭവത്തില്‍	-2804
▁ഉദ	-2805
▁എന്നെ	-2806
▁ഡിസം	-2807
പ്പള്ളി	-2808
ല്‍ഹ	-2809
▁ഫോണ്‍	-2810
ുന്നതിന്	-2811
ിയിലേക്ക്	-2812
ർഡ്	-2813
▁ദി	-2814
ങ്ങളില	-2815
▁ഞെ	-2816
െത്തിയ	-2817
ോഭ	-2818
ര്‍ട്ട്	-2819
▁ലഭിക്ക	-2820
▁ചേര്‍ന്ന	-2821
▁ള	-2822
ാക്	-2823
▁ആയു	-2824
▁ട്വി	-2825
▁മുതല	-2826
▁വിധി	-2827
▁സുരേഷ്	-2828
▁ൽ	-2829
ീര	-2830
ിത്തല	-2831
▁പേരാണ്	-2832
▁23	-2833
▁ലൈംഗ	-2834
▁തുറന്ന	-2835
ൂരില്‍	-2836
പന	-2837
മ്പ്യ	-2838
ര്‍ജ്	-2839
▁പത്ര	-2840
ീവ	-2841
▁ഗൂ	-2842
▁നാലു	-2843
▁തെളിയ	-2844
▁സൗദി	-2845
▁വിജയം	-2846
▁ഹിന്ദു	-2847
▁ശാസ്ത്ര	-2848
in	-2849
▁മാറിയ	-2850
ൻസ	-2851
ഴിമ	-2852
▁ഏര്‍	-2853
▁ക്രിക്കറ്റ്	-2854
▁ജോല	-2855
▁നിയമം	-2856
▁ചെന്നിത്തല	-2857
പിച്ച്	-2858
ങ്ങിയത്	-2859
െടുത്തത്	-2860
ചന്ദ്ര	-2861
▁1.	-2862
▁വിലയിരുത്ത	-2863
▁മുറ	-2864
മാണെന്നും	-2865
ീൻ	-2866
മാകും	-2867
ിള്‍	-2868
ില്ലെന്ന	-2869
യാറ	-2870
▁എംഎല്‍	-2871
▁വേദ	-2872
തിട്ട	-2873
▁അനുകൂല	-2874
തെന്നാണ്	-2875
▁ഇന്ത്യയിലെ	-2876
റുകള്‍	-2877
▁എന്നതാണ്	-2878
▁വിമാനത്താവള	-2879
യിലുള്ള	-2880
സേന	-2881
▁തിയ	-2882
▁ഇത്ര	-2883
▁തുടക്ക	-2884
ഗതി	-2885
▁കൊലപാതക	-2886
രാമ	-2887
▁28	-2888
▁സാക്ഷ	-2889
▁വിഭാഗം	-2890
▁ഓണ്‍	-2891
ിക്കുകയാണ്	-2892
▁കിലോമീറ്റ	-2893
▁ഞായ	-2894
▁നേതൃത്വത്തില്‍	-2895
േക്കാ	-2896
ക്കാരുടെ	-2897
▁മമ്മ	-2898
▁ജീവിതം	-2899
ജ്യ	-2900
▁റോഡ്	-2901
വിന്	-2902
പൂര്‍	-2903
▁നേരെ	-2904
▁മോഹന്‍	-2905
▁പ്രി	-2906
ിക്കറ്റ	-2907
▁എങ്ങനെ	-2908
ടിപ്പിച്ച	-2909
ഭൂ	-2910
▁അതിന്	-2911
▁ഇയാള്‍	-2912
▁കിട്ടിയ	-2913
▁സൂച	-2914
▁തനിക്ക്	-2915
▁എൽ	-2916
▁ജൂല	-2917
▁പീഡി	-2918
▁സ്ത്രീക	-2919
▁കണ്ടെത്തിയത്	-2920
▁നന്ന	-2921
▁മണ	-2922
സിലെ	-2923
▁വേഷ	-2924
▁പ്രവ	-2925
▁വൈസ്	-2926
നിന്നും	-2927
▁കാലത്ത്	-2928
ാലോ	-2929
▁ഉന്നത	-2930
ുണ്ടായിരുന്ന	-2931
th	-2932
ര്‍ഭ	-2933
▁കൂടുതല	-2934
▁സിബി	-2935
▁ബിസിന	-2936
▁മനസ്സില	-2937
▁സെക്രട്ടറിയ	-2938
പ്പിന്	-2939
▁രൂപയുടെ	-2940
റിലെ	-2941
▁ഒടു	-2942
▁മേധ	-2943
▁അന്ന	-2944
▁അഴിമ	-2945
േക്കും	-2946
▁ജസ്റ്റി	-2947
ുപേ	-2948
ികളാണ്	-2949
▁ഇയാള	-2950
▁അഞ്ചു	-2951
▁എംഎല്‍എ	-2952
ുഡ്	-2953
ിക്കപ്പെട്ട	-2954
▁പറഞ്ഞ്	-2955
കന്‍	-2956
▁ദുരന്ത	-2957
▁ഇരുവരും	-2958
▁വെല്ല	-2959
ിക്കാനും	-2960
ാവകാശ	-2961
ത്തെയും	-2962
ണര്‍	-2963
▁നാളെ	-2964
▁മാതാ	-2965
▁ഉത്	-2966
▁മോദ	-2967
നിക്ക	-2968
▁മീറ്റ	-2969
വാദി	-2970
▁സുപ്രീംക	-2971
സ്പ	-2972
▁സർവ	-2973
▁സുരക്ഷാ	-2974
ത്തനംതിട്ട	-2975
▁ലോക്ക്	-2976
▁കരാ	-2977
▁ഇതിനെ	-2978
▁സിനിമാ	-2979
▁മുഴുവന്‍	-2980
ൃതി	-2981
▁സാഹചര്യത്തില്‍	-2982
യിലേ	-2983
▁വെള്ളിയ	-2984
▁തീര	-2985
സ്ത്ര	-2986
▁അധ്യാപക	-2987
▁ലൈംഗിക	-2988
▁വീട്ടിൽ	-2989
▁തിരക്ക	-2990
▁കയ്യ	-2991
▁പുസ്ത	-2992
▁വ്യക്തമാക്കിയ	-2993
▁കുറവ	-2994
ുകൾക്ക്	-2995
വകു	-2996
▁കനത്ത	-2997
▁ഉന്നയ	-2998
ാനാക	-2999
പ്രവര്‍ത്തക	-3000
ർന്നു	-3001
▁രമേ	-3002
▁ഉണ്ടായ	-3003
▁ലക്ഷ്യമ	-3004
▁സമ്മാന	-3005
ക്ടോ	-3006
ക്രിയ	-3007
▁ബോള	-3008
ലാണ്	-3009
▁വായ	-3010
കുമാര്‍	-3011
▁കുമാര്‍	-3012
▁സുരേന്ദ്ര	-3013
▁നേതാക്കള്‍	-3014
▁വിവരങ്ങള്‍	-3015
▁ലോകക	-3016
▁പങ്കെടുക്ക	-3017
േലിയ	-3018
▁ഇപ്പോഴും	-3019
▁വച്ച	-3020
ത്തുള്ള	-3021
ങ്കേ	-3022
▁സംസ്ഥാനത്തെ	-3023
കളിലും	-3024
▁കോടതിയില്‍	-3025
▁വോ	-3026
▁ടീം	-3027
▁കഴിയും	-3028
▁സമ്മേളന	-3029
▁പത്തനംതിട്ട	-3030
▁ആവശ്യപ്പെട്ട	-3031
ളൂരു	-3032
▁റദ്ദ	-3033
ങ്ങളുമായി	-3034
▁26	-3035
റുടെ	-3036
ായ്മ	-3037
തോ	-3038
ഡിന്റെ	-3039
ിക്കുന്നുണ്ട്	-3040
▁ട്രെയ	-3041
സ്മ	-3042
▁വെച്ച	-3043
പ്പിക്കുന്ന	-3044
▁ഭയ	-3045
▁റൂ	-3046
പരമായ	-3047
▁കൂള്‍	-3048
▁എത്തിയത്	-3049
▁മൂലം	-3050
▁വ്യാപക	-3051
▁27	-3052
▁സേന	-3053
▁യുദ്ധ	-3054
▁സീസ	-3055
ുണ്ടായിരുന്നു	-3056
▁പ്രതിഷേധം	-3057
▁പേരെ	-3058
▁സമു	-3059
▁വേണം	-3060
▁ക്ലാസ്	-3061
▁പരമ്പര	-3062
▁കൊടുക്ക	-3063
▁നടപടികള്‍	-3064
▁താല	-3065
▁പൂര്‍ണ	-3066
രിക്കുന്നു	-3067
കാ	-3068
▁ഫലം	-3069
▁ട്വിറ്റ	-3070
▁ഗുണ	-3071
ിനോട്	-3072
▁സ്ഥാനാര്‍ത്ഥ	-3073
▁നശ	-3074
േറെ	-3075
▁വാഗ്	-3076
▁വെച്ച്	-3077
തോടെയാണ്	-3078
ല്യ	-3079
▁നിയമസഭാ	-3080
യാൾ	-3081
▁ഇദ്ദേഹ	-3082
ഡൗ	-3083
ത്തോട്	-3084
▁അന്താരാഷ്ട്ര	-3085
▁എയര്‍	-3086
▁എന്നിവർ	-3087
▁കണ്ടു	-3088
▁ഉപേക്ഷ	-3089
ിയുള്ള	-3090
▁പ്രകട	-3091
▁പിന്നെ	-3092
ുകാ	-3093
▁പാർട്ടി	-3094
▁പ്രണയ	-3095
▁പ്രഖ്യാപിച്ച	-3096
ഭോ	-3097
▁ടൈ	-3098
▁റീ	-3099
▁ഉടന്‍	-3100
▁അഭിമുഖ	-3101
േന	-3102
ര്‍ദ്ദ	-3103
പ്പോഴാണ്	-3104
സ്ര	-3105
▁ഓട	-3106
▁പണി	-3107
▁ഫോട്ടോ	-3108
▁ഇടതു	-3109
▁വോട്ട്	-3110
▁ഇന്ത്യയില്‍	-3111
▁ഏഴ്	-3112
▁ബസ്	-3113
ുവിന്റെ	-3114
▁പങ്കുവ	-3115
തുവ	-3116
ശ്ശേരി	-3117
▁നഗരസഭ	-3118
നട	-3119
▁ഗ്ല	-3120
▁സംഗീത	-3121
ിപ്പിക്കുന്ന	-3122
▁ശ്	-3123
▁എന്നിവിട	-3124
ശാ	-3125
▁ജോസ്	-3126
▁യുവാവി	-3127
ാസം	-3128
▁ഒരേ	-3129
▁ഹാജര	-3130
ുടേയും	-3131
ാള്‍	-3132
▁കുവൈ	-3133
▁ക്രൈ	-3134
ാക്കും	-3135
▁അണ	-3136
▁199	-3137
ഡില്‍	-3138
▁തിങ്കള	-3139
▁മുന്നോട്ട	-3140
▁തിരുവനന്തപുര	-3141
▁വച്ച്	-3142
ങ്കേതിക	-3143
▁കൈവ	-3144
▁പറ്റ	-3145
▁സഹായം	-3146
ര്‍ത്ത്	-3147
▁തിരഞ്ഞെടുപ്പ്	-3148
മത	-3149
▁സ്വാതന്ത്ര	-3150
▁ആഴ്ച	-3151
▁നികുതി	-3152
ത്തിന്റെയും	-3153
ർത്തി	-3154
ക്കട	-3155
▁ദക്ഷി	-3156
മുറ	-3157
പ്രദ	-3158
▁ഡോള	-3159
ീസിന്	-3160
▁ലഭിക്കും	-3161
ോറി	-3162
▁ഗവ	-3163
▁പുരുഷ	-3164
▁പരിപാട	-3165
▁വിരുദ്ധ	-3166
റ്റിൽ	-3167
പ്ത	-3168
▁ബഹ	-3169
ർഷക	-3170
▁ലഭ്യമ	-3171
▁എന്നിവരാണ്	-3172
ങ്ങളായ	-3173
▁വരുമാന	-3174
ാധിപത്യ	-3175
▁കെട്ടിട	-3176
▁100	-3177
ാസി	-3178
▁പ്രമേ	-3179
▁ലക്ഷ്യം	-3180
▁ശേഷമാണ്	-3181
▁രാജ്	-3182
ങ്ങള്‍ക്കും	-3183
▁ജോര്‍ജ്	-3184
രൻ	-3185
ുകു	-3186
സ്റ്റർ	-3187
ുമില്ല	-3188
▁ചെലവ	-3189
▁മെന്റ്	-3190
ദ്വ	-3191
ലിം	-3192
ീസിന്റെ	-3193
▁ആദ്യമായി	-3194
▁31	-3195
▁വായി	-3196
▁ബന്ധം	-3197
വിനെ	-3198
▁സങ്ക	-3199
▁ഇതിനു	-3200
▁സാധിക്ക	-3201
▁പലപ്പോഴും	-3202
▁കേന്ദ്രം	-3203
▁നിന്നാണ്	-3204
രുടെയും	-3205
▁റെക്കോ	-3206
▁ചേര്‍ന്ന്	-3207
ണ്യ	-3208
സമ്മ	-3209
ബാധ	-3210
▁നേഹ	-3211
▁വാദ	-3212
▁ബുദ്ധിമു	-3213
▁40	-3214
റ്റാണ്ട	-3215
▁ഇല്ലാത	-3216
▁കഴിഞ്ഞു	-3217
▁നിങ്ങൾക്ക്	-3218
എച്ച്	-3219
▁പലരും	-3220
▁ഇടുക്കി	-3221
▁പരസ്യ	-3222
▁യൂണി	-3223
പ്പിന്റെ	-3224
▁പ്രേക്ഷ	-3225
▁സ്ഥാനം	-3226
▁ഒപ്പം	-3227
ജന്യ	-3228
▁ലീഗ	-3229
പ്പും	-3230
▁വായ്	-3231
▁ഏഴ	-3232
▁നമുക്ക്	-3233
▁വെബ്	-3234
▁പുരോഗ	-3235
രാശ	-3236
▁ലേ	-3237
▁മാത്യ	-3238
▁ഉയർന്ന	-3239
താര	-3240
ോക്ക്	-3241
▁വിച	-3242
▁ശനിയ	-3243
▁കേസിൽ	-3244
▁ശ്രമം	-3245
▁ആക്രമണം	-3246
▁മാനസിക	-3247
.1	-3248
▁പരിചയ	-3249
െടുക്കുന്ന	-3250
▁പ്രവർത്തി	-3251
ക്കാൻ	-3252
▁ഗവേഷ	-3253
ട്ടാണ്	-3254
▁ക്ലാസ	-3255
▁പ്രസംഗ	-3256
ൈസ	-3257
ോറ	-3258
മെന്റ	-3259
▁നിരോധ	-3260
▁മെഡിക്കൽ	-3261
ാനോ	-3262
▁ഓഫി	-3263
▁ല്‍	-3264
മായത്	-3265
ല്	-3266
ല്‍പ്പ	-3267
ുമായുള്ള	-3268
നിക	-3269
ന്‍റ്	-3270
ാക്കോ	-3271
ദ്ദേശം	-3272
യുടെയും	-3273
ോഷം	-3274
▁ബോധ	-3275
▁സൂപ്പര്‍	-3276
▁അവസാനിപ്പ	-3277
പതി	-3278
▁ത്ര	-3279
▁ഭൂമി	-3280
▁ഡോക്ടര്‍	-3281
▁സുഹൃത്തു	-3282
രാക	-3283
െയിൽ	-3284
▁പേരിൽ	-3285
ിലായിരുന്നു	-3286
.30	-3287
▁സേവ	-3288
▁അവസരം	-3289
▁സാങ്കേതിക	-3290
▁ഗത	-3291
പ്രവർ	-3292
▁കൃഷി	-3293
▁സ്ഥലം	-3294
▁അൽ	-3295
▁വട	-3296
▁മനസില	-3297
▁ക്യാമറ	-3298
▁മുന്നറിയിപ്പ്	-3299
▁ഒളി	-3300
ഭോക്ത	-3301
▁സര്‍ക്കാരിന്റെ	-3302
ുപോയ	-3303
▁ഉത്തരവ്	-3304
▁വെല്ലുവി	-3305
▁വിധേയ	-3306
▁ഇനിയും	-3307
▁അസ	-3308
▁നേട്ട	-3309
▁പങ്കുവെ	-3310
ാക്കുന്നത്	-3311
▁0	-3312
ണ്ടി	-3313
▁അത്യ	-3314
ാമെന്ന്	-3315
▁വിശ്വസ	-3316
▁അതുകൊണ്ട്	-3317
▁അഫ്	-3318
▁ഇവർ	-3319
▁സാന്നി	-3320
▁നിയന്ത്	-3321
ൻഡ്	-3322
▁ഭൂമ	-3323
▁പത്ത	-3324
തല്ല	-3325
▁അവതരി	-3326
ണമെന്നാണ്	-3327
▁മറ്റുള്ള	-3328
▁എല്ലാവരും	-3329
ാക്കാൻ	-3330
▁തമ്മിലുള്ള	-3331
▁ബാബു	-3332
ര്യം	-3333
വരില്‍	-3334
▁വാഗ്ദ	-3335
▁നേരിട്ട്	-3336
▁സംസാരിച്ചു	-3337
ഹാര	-3338
റാണ്	-3339
▁ആശയ	-3340
▁ആരും	-3341
▁തയാറ	-3342
▁കുറയ്ക്ക	-3343
കി	-3344
സ്തു	-3345
പ്പെടുത്തിയത്	-3346
▁പൂർത്തിയ	-3347
▁സംഘടിപ്പ	-3348
▁സിങ്	-3349
▁വ്യാഴ	-3350
▁അഭിഭാഷ	-3351
▁ആരംഭിച്ച	-3352
▁കാസര്‍കോട്	-3353
▁ജൂലൈ	-3354
▁വിശേഷ	-3355
▁റെയില്‍	-3356
▁ടൂ	-3357
ുമ്പ	-3358
▁ദീപ	-3359
▁യാത	-3360
▁ഗതാഗ	-3361
▁പ്രചാരണ	-3362
▁ടെക്	-3363
▁രമേശ്	-3364
ക്കൂ	-3365
ന്‍െറ	-3366
▁ഇരുപ	-3367
▁ഡിജി	-3368
▁മെയ്	-3369
▁സഹകരണ	-3370
▁വസ്ത്ര	-3371
▁ഥ	-3372
▁പക്ഷെ	-3373
▁തന്നെയ	-3374
▁മക്കള	-3375
ിച്ചാല്‍	-3376
▁രൂപയാണ്	-3377
്രമ	-3378
▁അള	-3379
▁ബജ	-3380
▁അമ്പ	-3381
▁കൗണ്‍	-3382
▁കുറി	-3383
▁മൊഴി	-3384
▁നടപ്പില	-3385
▁കേരളത്തിൽ	-3386
വ്വാ	-3387
ക്കുക	-3388
▁നിലനി	-3389
ടുക്കുന്ന	-3390
▁ടെസ്റ്റ്	-3391
യിട	-3392
▁പോളി	-3393
▁അതിനു	-3394
ങ്ങളിലൂടെ	-3395
▁വിദ്യാർത്ഥ	-3396
ിലെത്തിയ	-3397
▁പ്രേക്ഷക	-3398
▁തുടങ്ങിയവ	-3399
▁വെള്ളിയാഴ്ച	-3400
▁കശ്മീ	-3401
▁വരുത്ത	-3402
▁സാമൂഹ്യ	-3403
ത്തിനെതിരെ	-3404
▁ചൂണ്ടിക്കാട്ടി	-3405
▁ദൈവ	-3406
▁വനിത	-3407
▁വീട്	-3408
ടുത്തു	-3409
ക്ട്ര	-3410
ാണ്ടി	-3411
പ്രകാരം	-3412
ുട്	-3413
വാര്‍	-3414
▁പേരും	-3415
▁ഫെബ്ര	-3416
ർമ	-3417
▁മഹാരാഷ്ട്ര	-3418
▁ഒര	-3419
▁മണ്ണ	-3420
▁ഒക്ടോ	-3421
യ്ക്കുന്ന	-3422
▁തിങ്കളാഴ്ച	-3423
സഹ	-3424
ട്ടിഫ	-3425
▁നിങ്ങള്‍	-3426
ാബ്	-3427
സ്വാ	-3428
ന്‍സി	-3429
▁പരിപാടിയ	-3430
ബാദ്	-3431
▁പെട്രോ	-3432
▁നിര്‍ദേശം	-3433
രിക്കുകയാണ്	-3434
പ്പെടുത്തുന്ന	-3435
ശാല	-3436
ളുടെ	-3437
▁സൗജന്യ	-3438
▁അടിയന്തര	-3439
▁അക്കൗണ്ട	-3440
സാധ	-3441
മ്പോ	-3442
▁2020	-3443
ുകൊണ്ടാണ്	-3444
▁പീഡന	-3445
▁സോഷ്യൽ	-3446
▁ചെയ്യാൻ	-3447
▁പരാമര്‍ശ	-3448
▁ലഭിച്ചത്	-3449
▁2019	-3450
ക്കര്‍	-3451
മാരായ	-3452
▁പ്രേ	-3453
▁അടക്കമുള്ള	-3454
ഹര	-3455
▁കിഴ	-3456
▁നിരക്ക്	-3457
▁ആലോ	-3458
▁യൂറോ	-3459
ജിന	-3460
▁അവസര	-3461
▁അമിത്	-3462
ശ്വ	-3463
▁അംഗീക	-3464
സര്‍ക്ക	-3465
▁ബേ	-3466
▁ഫ്	-3467
റിനെ	-3468
ടും	-3469
▁ഗാന	-3470
▁അത്ര	-3471
▁ബുധന	-3472
▁തിരിച്ചറിയ	-3473
രുക്ക	-3474
ചെയ്	-3475
▁അദ്ധ	-3476
.5	-3477
മൊരു	-3478
▁അവി	-3479
ഹിത്യ	-3480
▁സ്റ്റേഷന	-3481
▁ലിം	-3482
▁ഒരുക്കിയ	-3483
ഫല	-3484
▁കാമ	-3485
ടിഞ്ഞ	-3486
റാഴ്ച	-3487
ൗണ്ട്	-3488
▁സമാന	-3489
▁എച്ച്	-3490
▁വിട്ടു	-3491
▁വ്യവസ്ഥ	-3492
.0	-3493
ടിവെ	-3494
ങ്ങളോട്	-3495
▁1,	-3496
പ്പെട്ടിരുന്നു	-3497
മെന്ന	-3498
ില്ലി	-3499
▁ജനറൽ	-3500
▁ശമ്പ	-3501
▁മുന്‍പ്	-3502
▁നിര്‍മാണ	-3503
തായിരുന്നു	-3504
▁ലേഖ	-3505
▁പ്രധാനമന്ത്ര	-3506
▁കാലാവസ്ഥ	-3507
ളിത	-3508
▁അഡ്വ	-3509
▁അഭ്യ	-3510
▁കര്‍ണ	-3511
ലു	-3512
www	-3513
▁യെ	-3514
▁അരങ്ങ	-3515
▁താല്‍	-3516
▁തിരിച്ചു	-3517
സ്ഥിതി	-3518
▁പ്രൊഫ	-3519
▁ഭരണകൂ	-3520
തിയായ	-3521
▁ഒട്ട	-3522
▁ജനാധിപത്യ	-3523
ിലേക്കു	-3524
▁ഉണ്ടായിരുന്നു	-3525
ുകാർ	-3526
▁സിന്‍	-3527
▁(2	-3528
▁അപ്പ	-3529
▁കാട്ട	-3530
▁സ്പീ	-3531
ക്കാരെ	-3532
ാന്‍സ്	-3533
▁സമാധാന	-3534
▁പ്രവാ	-3535
▁വന്നത്	-3536
▁ഞായറാഴ്ച	-3537
▁മന്ത്രിസഭ	-3538
▁സൂര്യ	-3539
▁പങ്കെടുത്തു	-3540
ശേഖ	-3541
ിനായി	-3542
▁തൃശൂര്‍	-3543
▁ഉൾപ്പെടെ	-3544
▁പിൻ	-3545
▁താഴെ	-3546
▁മറ്റും	-3547
▁വെളിപ്പെടുത്ത	-3548
▁റേ	-3549
▁കർഷക	-3550
ഷ്ഠ	-3551
▁വാദം	-3552
മാധ്യമ	-3553
▁ഒപ്പ	-3554
ിനെയും	-3555
▁ജാഗ്ര	-3556
▁ധാര	-3557
▁എവിടെ	-3558
▁കേസിലെ	-3559
▁ജനുവരി	-3560
ിക്കുമെന്ന്	-3561
ൊരാ	-3562
▁മാവ	-3563
ികളിൽ	-3564
▁ഷി	-3565
▁മിക്ക	-3566
▁മാതാപിത	-3567
▁ജസ്റ്റിസ്	-3568
▁കയറി	-3569
▁അഴിമതി	-3570
▁ഡല്‍ഹി	-3571
▁യുവാവ്	-3572
▁ഡിവ	-3573
ളിച്ച്	-3574
▁പെരുമാ	-3575
ിക്കെതിരെ	-3576
ൊപ്പ	-3577
▁അസി	-3578
▁പ്രളയ	-3579
▁സുരക്ഷിത	-3580
▁29	-3581
▁യോ	-3582
▁വാഹ	-3583
▁മത്സരം	-3584
▁മത്സ്യ	-3585
▁വിദഗ്ധ	-3586
ൂരിലെ	-3587
ച്ചിത്ര	-3588
▁കുട്ടി	-3589
വറ	-3590
com	-3591
ശങ്ക	-3592
ടിന്റെ	-3593
▁തദ്ദേശ	-3594
▁വേദന	-3595
▁ഓട്ടോ	-3596
▁നൽകുന്ന	-3597
▁നാം	-3598
രിച്ചത്	-3599
▁ഒമ്പ	-3600
ത്താന്‍	-3601
ുന്നുണ്ട	-3602
▁നിഷേധ	-3603
ിയുമായി	-3604
▁സീറ്റ്	-3605
▁ആരോപിച്ചു	-3606
▁അമേരിക്കന്‍	-3607
▁യാതൊരു	-3608
ാമി	-3609
കൾക്ക്	-3610
ുവാന്‍	-3611
▁കോളേജ്	-3612
▁പറഞ്ഞിരുന്നു	-3613
ലീ	-3614
▁ആന്റ	-3615
▁രാജ്യം	-3616
ിക്കണമെന്ന്	-3617
▁മുതിര്‍ന്ന	-3618
ണില്‍	-3619
▁തിരികെ	-3620
▁ക്യാമ്പ	-3621
▁ക്യാപ്റ്റ	-3622
റായ	-3623
ുകയോ	-3624
▁നിര്‍ബന്ധ	-3625
▁ഇതിൽ	-3626
▁നിമി	-3627
▁വിറ്റ	-3628
രൂപ	-3629
▁ഗുജ	-3630
▁തിക	-3631
ണക്കിന്	-3632
▁വ്യവസായ	-3633
ബൂ	-3634
പാദ	-3635
▁റഷ്യ	-3636
▁ക്രൂര	-3637
▁പ്രകടന	-3638
ോണി	-3639
ന്മാ	-3640
മാണി	-3641
▁നിര്‍മ	-3642
റ്റിന്റെ	-3643
▁വയസ	-3644
▁ചൊവ്വാ	-3645
▁തുടക്കം	-3646
ാണെന്നാണ്	-3647
▁കാര്യത്തില്‍	-3648
ീകരിച്ച്	-3649
നുസരിച്ച്	-3650
▁മയ	-3651
മാരെ	-3652
▁വിപണ	-3653
▁ശ്രീക	-3654
▁നടക്കുന്നത്	-3655
▁ഛ	-3656
▁അരു	-3657
മാരും	-3658
ിയര്‍	-3659
ക്കൊപ്പം	-3660
തെന്ന	-3661
▁വില്ല	-3662
▁മന്ത്രാലയം	-3663
▁പെൺകുട്ട	-3664
▁ആശുപത്രിയിൽ	-3665
ഥമിക	-3666
▁ഹൈദ	-3667
▁രാത്ര	-3668
▁നല്‍കാന്‍	-3669
ംബർ	-3670
ാഴ്	-3671
ദേശിക	-3672
▁അതിന	-3673
▁ഖത്ത	-3674
▁മാതൃക	-3675
ഗി	-3676
ടുവ	-3677
ഡിഎഫ	-3678
ഫ്രിക്ക	-3679
▁മാര്‍ച്ച്	-3680
▁നാള	-3681
സിറ്റ	-3682
വിള	-3683
▁ഫുട്	-3684
▁പത്ത്	-3685
ന്മാര്‍	-3686
▁നിലവിൽ	-3687
▁പ്രശസ്ത	-3688
▁ഉത്തരവാദി	-3689
▁നന്നായി	-3690
▁വൈദ്യുതി	-3691
▁ശനിയാഴ്ച	-3692
▁എഡി	-3693
ക്കിടെ	-3694
യെന്ന്	-3695
▁ക്ക്	-3696
▁രീതി	-3697
ലുകള്‍	-3698
▁കൊല്ലപ്പെട്ട	-3699
▁കരി	-3700
▁കണ്ട്	-3701
രിക്കാൻ	-3702
ാറുണ്ട്	-3703
▁ഒരാള്‍	-3704
-1	-3705
▁ദിവസവും	-3706
ർഡ	-3707
യല്‍	-3708
▁അലി	-3709
▁കാവ	-3710
▁ഫൈന	-3711
▁മാറ്റം	-3712
▁ഭൂരിപക്ഷ	-3713
ത്തരം	-3714
ാരായണ	-3715
െതിരെ	-3716
▁സിബിഐ	-3717
▁ആവശ്യപ്പെട്ട്	-3718
ഭരണ	-3719
ിലോ	-3720
▁ഡല്‍ഹ	-3721
▁പ്രതിനിധ	-3722
▁വരുന്നത്	-3723
▁ചിത്രത്തിന്റെ	-3724
▁അടങ്ങിയ	-3725
▁വര്‍ദ്ധ	-3726
ഹം	-3727
രോട്	-3728
▁മഹാ	-3729
കളിലെ	-3730
▁ഒന്ന്	-3731
ക്കൂട്ട	-3732
▁പ്രാഥമിക	-3733
▁ക്രീ	-3734
▁എട്ട്	-3735
▁സ്വാധ	-3736
▁പാര	-3737
ുഡ	-3738
▁കലാപ	-3739
▁വരിക	-3740
▁ഗുജറാ	-3741
▁നടന്നു	-3742
▁എത്തിച്ച	-3743
▁റിപ്പോർട്ട	-3744
▁ഉണ്ടായിരുന്ന	-3745
ിലേക്കും	-3746
▁ഉപഭോക്ത	-3747
ങ്ങനെയാണ്	-3748
ാധ	-3749
വിയ	-3750
▁ഡൗ	-3751
ഘാത	-3752
▁ഹൗ	-3753
▁ചെറ	-3754
നിന്നു	-3755
▁മകന്‍	-3756
▁പിടികൂടിയ	-3757
ോഗ്ര	-3758
▁സിന	-3759
ങ്ങും	-3760
വിരുദ്ധ	-3761
റുകൾ	-3762
▁ഐപി	-3763
▁വൈറല	-3764
▁പോലുള്ള	-3765
▁എത്തിക്ക	-3766
ബ്ബ	-3767
▁ബിരു	-3768
▁നിലവിലെ	-3769
▁നടത്തുന്നത്	-3770
▁പ്രവര്‍ത്തിക്ക	-3771
▁കാണുന്ന	-3772
▁പിന്‍വല	-3773
ഗണ	-3774
്യമുള്ള	-3775
ഖല	-3776
.20	-3777
▁ഘടക	-3778
▁കുടു	-3779
▁വിജില	-3780
സ്ഥാന്‍	-3781
ാണം	-3782
യാത്ര	-3783
▁ഏഷ്യ	-3784
ുണ്ടാക	-3785
▁മരുന്ന	-3786
▁കൺ	-3787
▁എളു	-3788
▁നഴ്	-3789
▁വീണ	-3790
ിലേക്കുള്ള	-3791
കേ	-3792
ാരംഭ	-3793
ിട്ടു	-3794
▁രീതിയ	-3795
▁മുന്നിൽ	-3796
ാളം	-3797
ായുള്ള	-3798
പേ	-3799
ോളജി	-3800
▁ജന്മ	-3801
▁മണിയ	-3802
▁വടക്ക	-3803
▁നിശ്ചയ	-3804
▁കര്‍ണാടക	-3805
▁ഹൃദയ	-3806
▁മുട്ട	-3807
▁ക്രിസ്	-3808
▁പ്രതികരണം	-3809
▁പ്രവര്‍ത്തകര്‍	-3810
തയും	-3811
▁ആക്	-3812
▁2018	-3813
▁എട്ട	-3814
▁ഹൈക്കോട	-3815
▁ഇല്ലാത്ത	-3816
▁പ്രാദേശിക	-3817
▁m	-3818
▁സഹക	-3819
▁വിഷയത്തില്‍	-3820
ന്‍റ	-3821
▁ബോളിവ	-3822
▁വാഹനം	-3823
▁പ്രസിഡന്റ	-3824
▁ചോദിച്ചു	-3825
▁ശ്രദ്ധേയ	-3826
തന	-3827
tha	-3828
ൻറെ	-3829
ല്ലി	-3830
▁യൂത്ത്	-3831
▁അതില്‍	-3832
▁രോ	-3833
▁പൂജ	-3834
▁അയ്യ	-3835
▁നീതി	-3836
പ്പിച്ച്	-3837
▁മൊബൈല്‍	-3838
ൃഗ	-3839
▁കൊണ്ടു	-3840
▁ഉപയോഗിക്കുന്ന	-3841
▁പാത	-3842
▁ചൈനീസ്	-3843
▁ആരംഭിച്ചു	-3844
▁പുറമെ	-3845
▁രഹസ്യ	-3846
▁യുഡിഎഫ്	-3847
▁35	-3848
െയര്‍	-3849
▁വ്യക്	-3850
▁പാകിസ്ത	-3851
ദു	-3852
▁ഭാവ	-3853
ിവേഴ്	-3854
▁മാസ്	-3855
▁യുഎഇ	-3856
▁നിര്‍ദ്ദേശ	-3857
▁;	-3858
▁വക	-3859
▁ചിന്ത	-3860
▁പരിഗണിക്ക	-3861
രുത്തി	-3862
▁വിപണിയ	-3863
ുകെ	-3864
ൻറ്	-3865
്യൂണി	-3866
വുമാണ്	-3867
▁ഉമ്മന്‍	-3868
▁ചെയ്യുക	-3869
▁മുസ്ലിം	-3870
▁കസ്റ്റഡിയ	-3871
െയോ	-3872
▁മസ്	-3873
ാനന്ദ	-3874
എൻ	-3875
റ്റും	-3876
വിശേഷ	-3877
▁സമീപം	-3878
▁നിറഞ്ഞ	-3879
ത്തെക്കുറിച്ച്	-3880
തയ	-3881
▁ബുധനാഴ്ച	-3882
ത്തോ	-3883
▁ഏപ്ര	-3884
▁മറിക	-3885
ാര്‍ഡ്	-3886
▁വര്‍ഗ	-3887
▁അടക്കം	-3888
▁യോഗത്തില്‍	-3889
ണല്‍	-3890
▁ആറു	-3891
ിലായത്	-3892
ചാര	-3893
ഷണല്‍	-3894
▁ഗവര്‍	-3895
▁രീതിയില്‍	-3896
വൻ	-3897
▁മോട്ടോ	-3898
▁കൊണ്ടുവ	-3899
▁മുന്നോട്ട്	-3900
ചിത	-3901
പൂ	-3902
ൻഡ	-3903
ർജ	-3904
▁ക്വാറ	-3905
▁പുസ്തക	-3906
▁പ്രകടനം	-3907
▁തമ്മില്‍	-3908
▁ഓൺ	-3909
▁സബ്	-3910
▁കാണാം	-3911
▁ഇലക്ട്ര	-3912
▁അംഗീകരിക്ക	-3913
ടനാ	-3914
മിച്ച്	-3915
▁സിംഗ്	-3916
ിയുടെയും	-3917
▁ഞങ്ങള്‍	-3918
ോപ	-3919
്വ	-3920
▁മൗ	-3921
▁പൊലിസ്	-3922
ര്‍മാന്‍	-3923
▁കാണാത	-3924
▁എഴുതിയ	-3925
▁അധ്യക്ഷത	-3926
ച്ചവ	-3927
റ്റോ	-3928
മ്പതി	-3929
▁നായിക	-3930
▁തിള	-3931
▁സമർ	-3932
▁മടങ്ങ	-3933
▁സ്ഥാനാര്‍ഥ	-3934
സാര	-3935
▁നം	-3936
▁അഫ്ഗ	-3937
ര്	-3938
▁യുഎസ്	-3939
▁വയനാട്	-3940
ക്കിൽ	-3941
▁സിപിഐ	-3942
▁അറിഞ്ഞ	-3943
▁ഭരണഘ	-3944
▁ഫേസ്ബുക്ക്	-3945
▁60	-3946
ണായക	-3947
ിനാണ്	-3948
▁നിലയിൽ	-3949
▁സൂചിപ്പ	-3950
▁ഗോള	-3951
▁വിജയ്	-3952
▁സ്ഥിരീകരിച്ചു	-3953
ാനു	-3954
▁അക്ഷ	-3955
▁കോളജ	-3956
▁സ്ഥിരീകരിച്ചത്	-3957
▁തന	-3958
▁സ്വർ	-3959
ർക്കും	-3960
▁ഭാരവാഹ	-3961
▁കാണാന്‍	-3962
ഭി	-3963
ലൈന്‍	-3964
▁അപ്ര	-3965
▁സന്ദേശ	-3966
▁ന്യൂഡൽഹി	-3967
ഞ്ചി	-3968
▁മധു	-3969
▁മാല	-3970
ുവേണ്ടി	-3971
▁തുറന്നു	-3972
▁അറിയിച്ച	-3973
▁ജനങ്ങള്‍	-3974
ശ്രീ	-3975
നെതിരെ	-3976
റ്റര്‍	-3977
▁ഗ്രൂപ്പ്	-3978
പൊ	-3979
ളും	-3980
▁പഠനം	-3981
▁ചലച്ചിത്ര	-3982
▁കറ	-3983
▁തീയതി	-3984
▁വിനോദ	-3985
▁വരെയുള്ള	-3986
artha	-3987
▁യൂണിയ	-3988
വിദ്യ	-3989
▁അമിത	-3990
▁ഇപ്പോഴ	-3991
ാണെങ്കില്‍	-3992
▁2017	-3993
▁അദ്ദേഹത്തെ	-3994
▁കുട്ടികള്‍	-3995
മനം	-3996
▁2016	-3997
▁അപകടം	-3998
▁മേധാവി	-3999
▁തിരുവ	-4000
▁വ്യാഴാഴ്ച	-4001
ോയി	-4002
▁സഖ	-4003
▁ബിന	-4004
▁നടന്‍	-4005
▁നേതാവ	-4006
ര്‍ത്ഥ	-4007
▁അക്കാ	-4008
▁വിക്കറ്റ്	-4009
▁അഭിനന്ദ	-4010
▁നേരിട്ട	-4011
▁എംപി	-4012
▁ഐക്യ	-4013
▁കാലം	-4014
▁ടൂറി	-4015
▁കാലാവ	-4016
▁ഏറ്റുമു	-4017
▁മോഹന്‍ല	-4018
▁അറിയിച്ചത്	-4019
വ്യ	-4020
▁വാങ്ങിയ	-4021
▁കുട്ടികളുടെ	-4022
▁ഫ്ല	-4023
നിര്‍	-4024
▁സ്നേ	-4025
▁ടെസ്റ്റ	-4026
▁താൻ	-4027
▁അബു	-4028
▁വിജയന്‍	-4029
പ്തി	-4030
ക്കല്‍	-4031
റ്റിന്	-4032
▁പാര്‍ല	-4033
ങ്ങളിലേക്ക്	-4034
ുകി	-4035
▁നൈ	-4036
▁കഴിവ	-4037
▁സാംസ്	-4038
▁പദ്ധതിയ	-4039
▁ഏതെങ്കിലും	-4040
ിക്കുന്നതിന്	-4041
▁തുടര്‍ന്നാണ്	-4042
▁കേള്‍	-4043
▁മുറിയ	-4044
രിക്കണം	-4045
ുണ്ടെന്ന്	-4046
▁വൻ	-4047
▁റെഡ്	-4048
▁ഡിസ്	-4049
▁പാക്കി	-4050
ിച്ചില്ല	-4051
▁തൊഴില്‍	-4052
▁പ്രാധ	-4053
കേന്ദ്ര	-4054
▁സ്വപ്ന	-4055
▁കൂടിയാണ്	-4056
ലേ	-4057
വു	-4058
കര്‍	-4059
▁ലഭ്യ	-4060
▁ആദ്യത്തെ	-4061
▁ചുവ	-4062
▁പുത്ത	-4063
പ്പെടും	-4064
▁സംരക്ഷണ	-4065
er	-4066
▁ഏത്	-4067
▁തങ്ങള്‍	-4068
▁മാറ്റിയ	-4069
▁ചൊവ്വാഴ്ച	-4070
▁അംബ	-4071
ാലാണ്	-4072
▁കമ്മിറ്റ	-4073
തയുടെ	-4074
▁ട്രോ	-4075
▁ശ്രീന	-4076
സീ	-4077
േളനം	-4078
▁മെച്ച	-4079
ചേ	-4080
േര്‍ത്തു	-4081
▁മഞ്ഞ	-4082
ഞ്ചേരി	-4083
▁വാക്സി	-4084
ുമ്പോഴും	-4085
▁പോരാട്ട	-4086
▁പിന്നാലെയാണ്	-4087
തമ	-4088
ഭാഗം	-4089
▁കഴി	-4090
▁സെക്ക	-4091
മറ	-4092
സമി	-4093
കാര്യം	-4094
▁അന്തി	-4095
മാകുന്ന	-4096
▁ധാരണ	-4097
ംഗളൂരു	-4098
▁സമ്മതി	-4099
▁ഇന്ത്യയിൽ	-4100
▁വേഗ	-4101
▁മുഴുവൻ	-4102
▁നിലനില്‍	-4103
ളിയ	-4104
ുദ്ധ	-4105
▁അച്ച	-4106
തായാണ്	-4107
▁അതിനെ	-4108
▁വായ്പ	-4109
▁കണ്ണൂർ	-4110
ുഴ	-4111
ർത്ത്	-4112
▁കേട്ട	-4113
▁അടുത്തി	-4114
▁സുപ്രീംകോടതി	-4115
▁പ്രഖ്യാപിച്ചു	-4116
ർത്തു	-4117
▁സെപ്റ്റ	-4118
ർത്തിയ	-4119
▁ട്രംപ്	-4120
99	-4121
േറ	-4122
ാനിയ	-4123
▁അറി	-4124
ാക്ക്	-4125
▁വരുന്നു	-4126
മായിരിക്കും	-4127
▁എന്	-4128
വെന്ന	-4129
െത്തി	-4130
ക്സ	-4131
നാഥ്	-4132
▁സസ്	-4133
ാന്റെ	-4134
▁ഗര്‍ഭ	-4135
കൻ	-4136
തിനാണ്	-4137
▁ഗോള്‍	-4138
▁രൂപയും	-4139
ട്ടിന്റെ	-4140
▁കൂടിക്ക	-4141
▁നടക്കും	-4142
▁നടത്തും	-4143
▁വിളിച്ചു	-4144
ാറിന്റെ	-4145
▁മേഖലയില്‍	-4146
.4	-4147
ുവീ	-4148
▁(1	-4149
യോട്	-4150
ിക്കൊ	-4151
ിക്ക്	-4152
▁കപ്പ	-4153
▁മാണി	-4154
▁സ്ത്രീകള്‍	-4155
ദിവസം	-4156
നാട്ട	-4157
രില്‍	-4158
ക്ഷന്‍	-4159
▁ചുരു	-4160
▁എത്തുന്ന	-4161
▁198	-4162
▁അധികം	-4163
▁ഹൈദരാ	-4164
▁അതിനാല്‍	-4165
▁എന്നായിരുന്നു	-4166
▁ബൗ	-4167
▁ഡിവൈ	-4168
▁റെയ്	-4169
ോടെയാണ്	-4170
▁കടന്നു	-4171
▁ഒരിക്കലും	-4172
ത്തിലായിരുന്നു	-4173
▁അഴ	-4174
▁തൊട്ട	-4175
▁താലൂ	-4176
▁വീതം	-4177
▁സുധാക	-4178
▁കുറച്ച്	-4179
▁ആവശ്യമായ	-4180
▁പ്രിയങ്ക	-4181
▁ചെയര്‍മാന്‍	-4182
▁മറുപടിയ	-4183
▁സ്വതന്ത്ര	-4184
▁ഇന്റര്‍	-4185
▁നങ്ങള്‍	-4186
▁ഫെയ്	-4187
▁മാലി	-4188
▁സാധന	-4189
ലിക	-4190
▁ഏർ	-4191
രായി	-4192
▁അനി	-4193
▁പന്ത	-4194
യ്ക്കായി	-4195
▁സര്‍ക്കാര	-4196
''	-4197
വത്	-4198
▁മതി	-4199
▁ജോണ്‍	-4200
▁പുറത്തുവന്ന	-4201
▁കേന്ദ്രസര്‍ക്ക	-4202
ിച്ചിട്ടില്ല	-4203
▁നില്‍ക്കുന്ന	-4204
▁അടച്ച	-4205
▁ഇതിനായി	-4206
▁റവ	-4207
നോട്	-4208
▁ആശ്ര	-4209
എല്ല	-4210
▁ഫോറ	-4211
▁ഇടപാട	-4212
▁എളുപ്പ	-4213
▁ചിന്തി	-4214
▁ആളുകള്‍	-4215
▁ഫിലി	-4216
▁സിംഗ	-4217
നത്തിന്	-4218
▁സാഹിത്യ	-4219
▁സഭാ	-4220
ിനിടെ	-4221
▁നാട്	-4222
▁ഞങ്ങൾ	-4223
▁വാഗ്ദാനം	-4224
▁രജിസ്റ്റര്‍	-4225
ാൾ	-4226
ഞ്ജു	-4227
▁സ്വദേശിയായ	-4228
▁പാക്	-4229
▁റൈ	-4230
▁പോവ	-4231
ജിത്ത്	-4232
▁കിടക്ക	-4233
ിക്കാത്ത	-4234
▁പിന്നില്‍	-4235
ഡറ	-4236
▁ഇടം	-4237
യുക്ത	-4238
റ്റിക്	-4239
▁എന്ത്	-4240
▁തള്ളി	-4241
▁ഡയറക്ടര്‍	-4242
കൃ	-4243
ക്ഷോഭ	-4244
▁സ്കൂള	-4245
▁കുറച്ചു	-4246
ാഗ്	-4247
ുവിനെ	-4248
▁കുറയ	-4249
▁പിതാവ്	-4250
മായിരുന്ന	-4251
▁നടത്താന്‍	-4252
േകം	-4253
▁ഓസ്	-4254
▁അയച്ച	-4255
ത്തുന്നത്	-4256
▁ഫെബ്രുവരി	-4257
▁മത്സരത്തില്‍	-4258
ാബ	-4259
▁ഡേ	-4260
േണ്ടിവ	-4261
▁ശ്രീല	-4262
▁ഇതിനിടെ	-4263
▁പച്ചക്ക	-4264
▁ബോര്‍ഡ്	-4265
▁വൈകുന്ന	-4266
▁ഉദ്യോഗസ്ഥര്‍	-4267
re	-4268
ീധ	-4269
▁കുള	-4270
▁ഓഹരി	-4271
▁ഓണ്‍ലൈന്‍	-4272
ലോക	-4273
▁പകു	-4274
ങ്ങളുടെയും	-4275
തക	-4276
▁ആലോച	-4277
▁ഏതാനും	-4278
▁തീവ്രവാദ	-4279
്മ	-4280
സിസ്	-4281
▁യൂണ	-4282
al	-4283
▁എയർ	-4284
▁എങ്കിലും	-4285
ുപറ	-4286
▁ആധ	-4287
ടുന്ന	-4288
ത്രിക	-4289
ൂട്ട്	-4290
േറ്റം	-4291
▁ലണ്ട	-4292
▁ചിത്രങ്ങള്‍	-4293
രക്ക	-4294
▁മുൻപ്	-4295
ുമെല്ലാം	-4296
ജന്‍	-4297
ാരോഗ	-4298
ിവാസ	-4299
▁കയറ	-4300
▁ഗോപ	-4301
▁ആഗോള	-4302
▁വര്‍ധ	-4303
▁എഴുത്ത	-4304
▁റണ്‍സ്	-4305
▁നേരിടുന്ന	-4306
ദാസ്	-4307
▁നന്ദി	-4308
▁മാത്യു	-4309
▁സന്ദർശ	-4310
പുര	-4311
▁ഫോൺ	-4312
ധുനിക	-4313
നെയും	-4314
ിക്കാര	-4315
▁ഗതാഗത	-4316
േഷ്യ	-4317
▁വളര	-4318
ാന്‍ഡ്	-4319
▁ന്യൂന	-4320
▁മണ്ഡലം	-4321
▁സെന്റ്	-4322
!!	-4323
▁അജ	-4324
ങ്ങളെയും	-4325
▁തിരക്കഥ	-4326
▁സാഹചര്യത്തിൽ	-4327
▁കറു	-4328
▁സമി	-4329
ിമ	-4330
▁നൂറ	-4331
ധികൃത	-4332
▁അംഗം	-4333
േണ്ടതു	-4334
▁പോര്‍	-4335
▁സംയുക്ത	-4336
▁സിപിഎമ്മ	-4337
▁രംഗത്തെത്തിയ	-4338
ഹ്മ	-4339
ർത്ഥ	-4340
▁കാറ	-4341
സ്ഥാപ	-4342
▁ബാധിത	-4343
മെന്നും	-4344
▁നൽകിയത്	-4345
ലുകൾ	-4346
▁ശാര	-4347
ര്‍പ്പ	-4348
▁അക്കാദ	-4349
▁ദമ്പതി	-4350
▁പ്രവാസി	-4351
▁കാര്യങ്ങൾ	-4352
▁കൂടിക്കാഴ്ച	-4353
▁?	-4354
രളീധ	-4355
▁സൗദ	-4356
▁''	-4357
ാരിക	-4358
▁ആയുധ	-4359
▁സിനിമയുടെ	-4360
an	-4361
ർദ്ദ	-4362
▁പാവ	-4363
▁കുടിയ	-4364
▁ഭർത്ത	-4365
▁വർദ്ധ	-4366
ിക്കാതെ	-4367
▁പേർക്ക്	-4368
▁മന്ത്രാലയ	-4369
പൂർ	-4370
▁ബസ	-4371
▁മേല്‍	-4372
▁ആസ്ഥാന	-4373
▁പ്രകാശ	-4374
▁ബാധിച്ച്	-4375
▁നിയന്ത്രണം	-4376
▁പങ്കെടുത്ത	-4377
60	-4378
ിയിലും	-4379
▁വിതരണ	-4380
▁എന്താണ്	-4381
▁ഓക്	-4382
▁തോല്‍	-4383
▁രാഹുൽ	-4384
▁ഉണ്ടാവ	-4385
▁ഓഫീസര്‍	-4386
▁ചികിത്സയില	-4387
ബല	-4388
▁വന	-4389
▁വിൽ	-4390
▁സ്ഥി	-4391
വയ	-4392
ദണ്ഡ	-4393
ന്യം	-4394
▁കിലോ	-4395
▁നില്‍ക്ക	-4396
▁ദൈ	-4397
ത്സവ	-4398
▁നാമ	-4399
ക്കളും	-4400
മാണിത്	-4401
▁വിഷയം	-4402
▁ജാമ്യം	-4403
▁വിദ്യാർഥ	-4404
ഗാ	-4405
▁തുടർന്ന	-4406
▁പ്രവർത്തിക്ക	-4407
▁ഉള്‍പ്പെടെയുള്ള	-4408
ോഷ്	-4409
ലിനെ	-4410
ുമാര	-4411
▁ദുരി	-4412
▁സജ്ജ	-4413
▁തേടിയ	-4414
▁ബംഗ്ല	-4415
▁തുടര്‍ച്ച	-4416
▁ഫൈ	-4417
▁റൺ	-4418
▁2021	-4419
▁കോളജ്	-4420
▁ജാഗ്രത	-4421
▁മാനേജ്	-4422
▁വിളിച്ച	-4423
▁പിടിച്ചു	-4424
▁ബുദ്ധിമുട്ട	-4425
ചക	-4426
ഭാവന	-4427
പ്പടെ	-4428
▁പരിസര	-4429
▁വിശദീകരണം	-4430
▁സയ	-4431
രംഗ	-4432
രുട	-4433
▁സീന	-4434
▁കാരം	-4435
▁ഞെട്ട	-4436
▁റിലീസ്	-4437
▁വഹിച്ചു	-4438
വശ	-4439
മാവധി	-4440
▁വിമര്‍ശന	-4441
▁എന്നിവരുടെ	-4442
▁ചെയ്തിട്ടുണ്ട്	-4443
ുപോയി	-4444
▁ട്വീ	-4445
▁ലോകം	-4446
▁സുന്ദ	-4447
ക്കളുടെ	-4448
▁വൈകിട്ട്	-4449
▁റെയില്‍വേ	-4450
▁പാസ	-4451
▁കയറിയ	-4452
▁വിവരങ്ങൾ	-4453
ടിവ	-4454
പഞ്ച	-4455
▁കാമുക	-4456
ിക്കൊണ്ട	-4457
▁രണ്ടാമത്തെ	-4458
▁ഭി	-4459
▁രമ	-4460
ായും	-4461
ായാണ്	-4462
▁പ്രചാര	-4463
െയർ	-4464
▁പരിധ	-4465
വകുപ്പ്	-4466
▁അനുസരിച്ച്	-4467
ോഹ	-4468
ുടേ	-4469
▁അഖ	-4470
▁ഉൽ	-4471
▁മോഹൻ	-4472
▁കുറിച്ചു	-4473
ാവുന്നതാണ്	-4474
▁ഭേദഗതി	-4475
▁വിചാരണ	-4476
ക്കാര്‍ക്ക്	-4477
ബോധ	-4478
▁ബിഷ	-4479
▁കണ്ടത്	-4480
▁ഒരുപാട്	-4481
▁പ്രവര്‍ത്തനം	-4482
േശ	-4483
ിയം	-4484
ടിച്ച	-4485
ിയുമായ	-4486
ാക്കളുടെ	-4487
▁പരമാവധി	-4488
പന്ന	-4489
▁ബാന	-4490
രാജ്യ	-4491
ിനൊപ്പം	-4492
പ്പിച്ചത്	-4493
ുണ്ടെന്നും	-4494
▁വസ	-4495
ബാധിത	-4496
▁താത്	-4497
▁താഴ്	-4498
▁മുറി	-4499
▁സേവനം	-4500
▁ഭക്ഷ്യ	-4501
ില്യ	-4502
▁ചാമ്പ്യ	-4503
▁ബാധിച്ച	-4504
▁സ്വാതന്ത്ര്യ	-4505
2,	-4506
▁കൊള	-4507
നുമായ	-4508
▁നിയോഗ	-4509
▁ലക്ഷ്യ	-4510
▁വര്‍ഷത്തെ	-4511
ിക്കണമെന്നും	-4512
▁ഓഗ	-4513
ുവാൻ	-4514
▁അസു	-4515
ജീവിത	-4516
▁2014	-4517
▁തേടി	-4518
▁കുന്ന	-4519
▁വെറും	-4520
▁ഇന്നും	-4521
▁കാര്യമ	-4522
▁കുത്തി	-4523
▁പിറന്ന	-4524
മില്ലാത്ത	-4525
▁യൂണിവേഴ്	-4526
▁ബിഗ്	-4527
ുമൊക്കെ	-4528
▁രാധ	-4529
▁മുകള	-4530
▁ഉപകരണ	-4531
▁കെട്ട	-4532
▁റണ്‍സ	-4533
▁വയ്ക്ക	-4534
വേദ	-4535
ിങ്	-4536
▁(3	-4537
▁കോവി	-4538
▁മതിയ	-4539
▁കുട്ടികളെ	-4540
▁പൗരത്വ	-4541
▁ട്രേലിയ	-4542
▁പിന്തുട	-4543
ംശ	-4544
▁തള	-4545
ാദ്യ	-4546
▁ബ്രാ	-4547
▁പരിപാടി	-4548
മയ	-4549
ങ്ങാട്	-4550
ാക്കുക	-4551
െടുപ്പ്	-4552
▁ഏകദേശം	-4553
▁ധാരാളം	-4554
▁എത്തുന്നത്	-4555
▁നല്‍കിയിരുന്നു	-4556
േട്ട	-4557
▁മാനദണ്ഡ	-4558
ീറ്റ്	-4559
▁ഇറ്റ	-4560
▁നാടക	-4561
നായിരുന്നു	-4562
▁നൗ	-4563
ന്‍പ	-4564
▁ഉയര	-4565
▁സുഖ	-4566
മിന്റെ	-4567
രാഷ്ട്ര	-4568
വിക	-4569
▁വഴിയ	-4570
▁ഓഫീസ്	-4571
േഷനില്‍	-4572
▁കൈകാര്യം	-4573
▁സാഹചര്യത്തിലാണ്	-4574
.2	-4575
ഷറ	-4576
▁കിരീ	-4577
▁ഫോര്‍	-4578
▁കഴിഞ്ഞ്	-4579
▁ഇസ്ല	-4580
▁ശബ്ദ	-4581
▁കായിക	-4582
▁നിര്‍ത്തി	-4583
▁സന്ന	-4584
▁സ്റ്റേ	-4585
▁ആശുപത്രിയിലെ	-4586
,,	-4587
ക്കുകയും	-4588
▁എന്നിവര	-4589
രാൻ	-4590
▁മുഖം	-4591
▁ബില്ല	-4592
▁മാനേജ	-4593
▁ട്വീറ്റ്	-4594
▁നരേന്ദ്രമോ	-4595
▁നേതൃത്വത്തിൽ	-4596
▁ഈട	-4597
▁ശശ	-4598
▁വെറു	-4599
▁കൈമാറ	-4600
▁കര്‍ശന	-4601
▁ചേർന്ന	-4602
▁ജഡ്	-4603
▁ചെയർ	-4604
ഫ്റ്റ്	-4605
▁ആന്‍ഡ്	-4606
ദായ	-4607
▁വിസ	-4608
▁അയാള	-4609
▁ആവേശ	-4610
▁ടെലി	-4611
ാവിന്റെ	-4612
▁രു	-4613
▁പാറ	-4614
▁മോശ	-4615
ന്തരം	-4616
▁പാസ്	-4617
▁ലഭിച്ചു	-4618
▁എഴ	-4619
ഹാരം	-4620
▁ഉടൻ	-4621
ാലോചന	-4622
▁കൊടുത്ത	-4623
▁തീരുമാനിച്ചു	-4624
▁s	-4625
ചിത്ര	-4626
ടുപ്പ	-4627
സംഖ്യ	-4628
▁ആശംസ	-4629
▁പരാതിയ	-4630
▁ലൂ	-4631
▁സൊ	-4632
ിലൂടെയാണ്	-4633
▁പ്രതികളെ	-4634
ാകെ	-4635
േഴ്സ്	-4636
▁സഖ്യ	-4637
▁അപമാന	-4638
▁നേടിയത്	-4639
▁ചിത്രത്തില്‍	-4640
▁സമര്‍പ്പിച്ച	-4641
▁ഏകദിന	-4642
▁നല്‍കും	-4643
▁സ്ഥലത്ത്	-4644
ുകയാണെന്നും	-4645
40	-4646
ചനം	-4647
▁ലൈസ	-4648
▁ഓര്‍	-4649
്മി	-4650
ൂരിൽ	-4651
▁ഡീസ	-4652
▁ഇരട്ട	-4653
▁അടുത്തിടെ	-4654
▁കൃഷ	-4655
സിക്യ	-4656
ൽഹ	-4657
▁നിൽ	-4658
▁തര്‍ക്ക	-4659
▁നേരത്തേ	-4660
▁കമ്മീഷന്‍	-4661
ക്കുറിച്ചുള്ള	-4662
ാഫ	-4663
▁യാഥ	-4664
▁വിര	-4665
ദ്വീപ	-4666
▁മല്‍	-4667
▁ഉദ്ദേശ	-4668
▁പ്രതിസന്ധി	-4669
▁സംഘടിപ്പിച്ച	-4670
ുമാ	-4671
▁2015	-4672
▁അതോറി	-4673
പ്രദേശ്	-4674
▁പ്രതികരണ	-4675
▁ചടങ്ങില്‍	-4676
▁നശിപ്പ	-4677
▁സവിശേഷ	-4678
▁ഏപ്രില്‍	-4679
തീഷ്	-4680
സ്ഥല	-4681
ാന്ത്	-4682
ാമെന്ന	-4683
▁ഒരുക്ക	-4684
▁ബാറ്റി	-4685
▁വര്‍ധി	-4686
▁അനധികൃത	-4687
▁നല്	-4688
ലക്ഷം	-4689
▁കെഎസ്	-4690
▁കാലാവധി	-4691
ബന്ധിച്ച്	-4692
ടിന്	-4693
ക്കൊള്ള	-4694
▁ട്രെയിന	-4695
▁നോക്കിയ	-4696
ണമെന്നാവശ്യ	-4697
70	-4698
▁നിര്‍വഹ	-4699
▁വ്യാപനം	-4700
ക്കര	-4701
നവും	-4702
▁വൈകീ	-4703
ുമാര്‍	-4704
▁നാട്ടില്‍	-4705
ിട്ടുണ്ടെന്നും	-4706
േബ	-4707
▁കത്തി	-4708
▁ദില്ലി	-4709
െടുക്കാന്‍	-4710
ില്ലെന്നാണ്	-4711
▁വെട്ട	-4712
ച്ചില്‍	-4713
▁സംഭാവന	-4714
ഷണം	-4715
ന്ദ്	-4716
▁കോർ	-4717
ൊന്ന്	-4718
▁ദുരിത	-4719
▁രക്ഷാ	-4720
▁സില്‍	-4721
▁ബ്ലോക്ക്	-4722
▁മുള	-4723
തുമായ	-4724
▁അതിനാൽ	-4725
▁ഉത്തര്‍	-4726
▁കമ്പനിയ	-4727
ങ്ങളിലാണ്	-4728
േൽ	-4729
▁താലി	-4730
▁പ്രഭ	-4731
▁നാലാം	-4732
കാലത്ത്	-4733
▁ലോകത്തെ	-4734
പ്പെടുകയും	-4735
7,	-4736
തേ	-4737
ുവാ	-4738
▁യുവതിയെ	-4739
▁സാഹചര്യം	-4740
ഷണൽ	-4741
▁45	-4742
▁നദ	-4743
കളായ	-4744
ജിത്	-4745
▁മൃഗ	-4746
തില്ല	-4747
▁രൂപം	-4748
▁സ്ട്ര	-4749
▁കുടുംബം	-4750
▁ഗ്രൂപ്പ	-4751
▁നോട്ടീസ്	-4752
▁പരിശീലനം	-4753
▁ഗൗ	-4754
▁ഓപ്പ	-4755
ത്തോടെയാണ്	-4756
▁സംഭവത്തിൽ	-4757
▁സല	-4758
▁കവിത	-4759
▁നിരോ	-4760
ാരോഗ്യ	-4761
െയിന്‍	-4762
▁പരിഹാരം	-4763
▁ഇന്നത്തെ	-4764
▁കേരളത്തിന്റെ	-4765
▁രോഹി	-4766
▁വെളു	-4767
ിലെയും	-4768
▁കോടതിയെ	-4769
▁താമസിക്കുന്ന	-4770
ണമെ	-4771
ടുള്ള	-4772
ികളുമായി	-4773
▁പ്രവേശനം	-4774
ിക്കുമെന്നും	-4775
പരിശോ	-4776
▁ഭാരത	-4777
▁ബിരുദ	-4778
▁നിർദേശ	-4779
▁ഒന്നാണ്	-4780
▁പേര്‍ക്ക	-4781
ട്ടിക്കിള്‍	-4782
▁”	-4783
മിത	-4784
▁പതിവ	-4785
ങ്ങുന്നത്	-4786
ങ്ങൾക്കും	-4787
▁നിഗ	-4788
ളിന്റെ	-4789
▁സ്നേഹ	-4790
▁സ്വഭാവ	-4791
▁സ്ഥാനാർത്ഥ	-4792
ാന്യ	-4793
പ്പാട	-4794
▁മനോഹര	-4795
▁സിനിമയില്‍	-4796
▁ബല	-4797
ലിലെ	-4798
ുള്ളൂ	-4799
ികമായി	-4800
▁വിമാനം	-4801
▁മണിക്ക്	-4802
▁ദിവസത്തെ	-4803
ലൈന	-4804
ുവും	-4805
▁അസുഖ	-4806
▁പുനര	-4807
യുമാണ്	-4808
▁ബാലകൃഷ്ണ	-4809
▁നല്‍കുന്നത്	-4810
▁അവതരിപ്പിച്ച	-4811
ത്താ	-4812
▁ഹര്‍ജ	-4813
▁കൊണ്ടാണ്	-4814
▁ആര്‍ട്ടിക്കിള്‍	-4815
3,	-4816
6,	-4817
നാഥ	-4818
▁ജമ്മ	-4819
▁എഴുതി	-4820
രുതെന്ന്	-4821
▁ഞങ്ങളുടെ	-4822
▁പ്രക്ഷോഭ	-4823
▁സംഭവിച്ച	-4824
ഡും	-4825
ുകൂടി	-4826
ഷ്യല്‍	-4827
▁അഭിമാന	-4828
▁എന്തെങ്കിലും	-4829
▁എഴുത	-4830
▁സൗഹൃ	-4831
ണിന്റെ	-4832
വിട്ടു	-4833
▁പാർട്ട	-4834
▁അഗ	-4835
▁ലാഭ	-4836
▁മുദ്ര	-4837
▁സംശയം	-4838
▁അത്തരം	-4839
▁ദുബായ്	-4840
ഡിന്	-4841
▁അട്ടി	-4842
▁കൊള്ള	-4843
ശാസ്ത്ര	-4844
▁ഉണ	-4845
▁മ്യൂ	-4846
▁ഇയാളെ	-4847
▁തന്ത്ര	-4848
▁പ്രവേശന	-4849
▁സ്വാധീന	-4850
▁ജനങ്ങളുടെ	-4851
ക്കുറിച്ചും	-4852
▁എന്നിവയാണ്	-4853
▁കഞ്ച	-4854
▁പിടി	-4855
▁സംരംഭ	-4856
പ്രവർത്തക	-4857
്യമന്ത്രി	-4858
▁ഡിസംബര്‍	-4859
പ്രി	-4860
▁സ്വര്‍ണ	-4861
ങ്ങളിലായി	-4862
▁അതുകൊണ്ട	-4863
4,	-4864
ഴിഞ്ഞു	-4865
▁പുറമേ	-4866
▁നേതാക്കൾ	-4867
ീൽ	-4868
വേള	-4869
ഴ്സ്	-4870
▁അതിൽ	-4871
▁ഇതാണ്	-4872
▁നോക്കി	-4873
രുമെന്ന്	-4874
▁കൃത്യമായ	-4875
▁)	-4876
▁ഉള്ളത്	-4877
▁പരിഗണന	-4878
▁ബുക്ക്	-4879
▁ഒടുവില്‍	-4880
▁ഉപയോഗിക്ക	-4881
▁നാട്ടുകാര്‍	-4882
റാം	-4883
ന്യൂ	-4884
റ്റു	-4885
▁പാട്ട	-4886
▁സെന്‍	-4887
▁നമ്പര്‍	-4888
▁അവര്‍ക്ക്	-4889
മേഖല	-4890
▁ആള്‍	-4891
▁കുതി	-4892
▁ദിനം	-4893
▁ഇത്രയും	-4894
സ്ഥത	-4895
ാൻസ്	-4896
▁ഇസ്ര	-4897
ടങ്ങിയ	-4898
▁കൊട്ട	-4899
▁സിദ്ധ	-4900
േക്കാള്‍	-4901
▁ചേർന്ന്	-4902
▁തുടരുന്ന	-4903
പ്പൊ	-4904
സാദ്	-4905
▁ഉരു	-4906
▁കച്ചവ	-4907
▁ജേക്ക	-4908
ുകാരുടെ	-4909
ാണെങ്കിൽ	-4910
▁ലു	-4911
പര്യ	-4912
▁ട്വ	-4913
▁പങ്കാള	-4914
▁ഉപയോഗിച്ച	-4915
പോല	-4916
ീതി	-4917
ർജി	-4918
ഞ്ചു	-4919
▁ജയ്	-4920
ടിയായി	-4921
▁കുറച്ച	-4922
▁ഏറ്റുമുട്ട	-4923
▁അടിസ്ഥാനത്തില്‍	-4924
▁അസം	-4925
▁യാദ	-4926
▁രോഗമു	-4927
ത്തന്നെ	-4928
▁മുന്‍പ	-4929
▁മുരളീധ	-4930
യള	-4931
താക	-4932
▁80	-4933
എന്ന	-4934
ഡര്‍	-4935
▁ഹരി	-4936
യെയും	-4937
▁സ്മാ	-4938
കരമായി	-4939
▁ദിലീപ്	-4940
▁പ്രയോഗ	-4941
സ്റ്റിക്	-4942
ൃത്തി	-4943
▁ഇന്ധ	-4944
▁കോടിയേരി	-4945
വോ	-4946
തുക	-4947
യാക	-4948
▁ഗണ	-4949
ക്രോ	-4950
▁പുഴ	-4951
▁പേരു	-4952
▁വാട്	-4953
ടിയില്‍	-4954
▁ദക്ഷിണ	-4955
▁വാങ്ങി	-4956
▁പ്രകൃതി	-4957
▁ഇടതുപക്ഷ	-4958
എസ	-4959
▁ഓവ	-4960
▁ഗി	-4961
ാമത്	-4962
യെന്ന	-4963
ായാലും	-4964
▁കുമാർ	-4965
▁നമ്മള്‍	-4966
▁ക്വാറന്റ	-4967
▁രാജ്യത്തിന്റെ	-4968
പം	-4969
▁്	-4970
പെട്ട	-4971
▁കാഞ്ഞ	-4972
▁അന്തിമ	-4973
▁ഐസ	-4974
ാണ്ഡ	-4975
ക്കിയത്	-4976
▁അനുവദിക്ക	-4977
▁സംവിധായകന്‍	-4978
ാടി	-4979
▁അറ്റ	-4980
ിയിലാണ്	-4981
▁പേരുടെ	-4982
▁കണക്കിലെ	-4983
ഡിന	-4984
▁രവി	-4985
▁ഗുരു	-4986
ാക്കുന്നു	-4987
ായു	-4988
▁ക്ഷണ	-4989
▁വാടക	-4990
▁ശങ്ക	-4991
ശ്വാസം	-4992
ാമെന്നും	-4993
5,	-4994
യിച്ച്	-4995
▁ജൂണ്‍	-4996
▁കൊലപ്പെടുത്തിയ	-4997
ാഹി	-4998
്യു	-4999
ച്ചും	-5000
▁ന്യൂയോ	-5001
▁അദ്ദേഹത്തിന്	-5002
▁വംശ	-5003
ലാത്സ	-5004
▁അങ്ക	-5005
പ്പെടുവ	-5006
▁മാര	-5007
▁അനുമ	-5008
▁ലക്ഷണ	-5009
യ്ക്കുള്ള	-5010
▁സര്‍വീസ്	-5011
▁സര്‍വകലാശാല	-5012
▁അല്ലെങ്കില്‍	-5013
8,	-5014
▁പൃ	-5015
ാദേശ	-5016
▁ബിജു	-5017
പരമായി	-5018
▁യോഗ്യത	-5019
ാണുള്ളത്	-5020
▁പദ്ധതിയുടെ	-5021
തുട	-5022
▁പുലര്‍ച്ച	-5023
▁സാധിക്കും	-5024
ുകയായിരുന്ന	-5025
ത്തുടര്‍ന്ന്	-5026
▁പീഡിപ്പിച്ച	-5027
▁ശ്രമിക്കുന്ന	-5028
ഫിയ	-5029
▁ഉദാഹ	-5030
പിന്റെ	-5031
▁ശ്രീലങ്ക	-5032
▁പ്രത്യക്ഷ	-5033
▁പെട്ടെന്ന്	-5034
▁പ്രിയപ്പെട്ട	-5035
േഡ്	-5036
▁കൂട്ടിച്ചേ	-5037
േരിയ	-5038
▁വീഴ്	-5039
ക്കെതിര	-5040
രിക്കുക	-5041
▁കുടുംബാംഗ	-5042
▁തെരഞ്ഞെടുപ്പ	-5043
▁ടാ	-5044
▁ചട്ട	-5045
▁ദേവസ്	-5046
▁കുഞ്ഞു	-5047
▁നൂറ്റാണ്ട	-5048
ര്‍ദ	-5049
▁500	-5050
▁കൗൺ	-5051
▁പ്രയാ	-5052
▁സമ്മേളനം	-5053
ുമെ	-5054
ളിന്	-5055
ബിള്‍	-5056
ക്കെതിരേ	-5057
▁ഡിജിറ്റ	-5058
▁തീരുമാനമ	-5059
▁കട്ട	-5060
ാക്കളെ	-5061
▁ചാര്‍	-5062
▁മിശ്ര	-5063
▁വിമർശ	-5064
▁പ്രതിയെ	-5065
▁തരത്തിലുള്ള	-5066
ക്ല	-5067
ഭുത	-5068
▁ശുപ	-5069
▁കല്യ	-5070
സിയുടെ	-5071
▁ഹര്‍ജി	-5072
▁തലസ്ഥാന	-5073
▁പരാതിയില്‍	-5074
ീരിക	-5075
ഞ്ഞത്	-5076
ിയോട്	-5077
▁പശ്ചിമ	-5078
മുട	-5079
രേഖ	-5080
▁മലബ	-5081
▁അറേബ	-5082
▁വക്ത	-5083
▁തടസ്സ	-5084
▁ആക്ഷേപ	-5085
▁എനിക്ക	-5086
▁ശസ്ത്ര	-5087
ന്മാരുടെ	-5088
▁അഭിപ്രായം	-5089
▁കൂട്ടായ്മ	-5090
▁നഷ്ടപ്പെട്ട	-5091
.3	-5092
ബാദ	-5093
ിയില	-5094
▁വനം	-5095
▁പരിഹാര	-5096
ഡിഎ	-5097
ത്സാഹ	-5098
▁വല്ല	-5099
▁ആധുനിക	-5100
▁ഡോക്ടർ	-5101
▁ഇത്തരത്തില്‍	-5102
ിയർ	-5103
▁32	-5104
റിഞ്ഞ്	-5105
▁ദേവസ്വം	-5106
▁തുടങ്ങിയത്	-5107
▁ബൂ	-5108
▁ആൻഡ്	-5109
▁പൂർണ	-5110
▁നാരായണ	-5111
▁വ്യാപാര	-5112
താണെന്നും	-5113
▁നൃ	-5114
▁ഏഴു	-5115
റ്റഡ്	-5116
▁അത്തര	-5117
▁കുട്ടിയുടെ	-5118
▁തുടരുകയാണ്	-5119
▁പെണ്‍കുട്ടി	-5120
▁70	-5121
ിക്കി	-5122
▁പത്മ	-5123
▁പരിഷ്	-5124
▁പിള്ള	-5125
▁അറേബ്യ	-5126
▁സൈന്യം	-5127
▁ചോദിച്ച	-5128
താം	-5129
▁വിവേ	-5130
ക്കെട്ട	-5131
▁തെറ്റി	-5132
▁നിർബന്ധ	-5133
▁കോടതിയിൽ	-5134
▁തട്ടിക്ക	-5135
ണോ	-5136
്ക്ക്	-5137
▁എക്സ്	-5138
താശ്വാസ	-5139
എൽഎ	-5140
ത്തിനിട	-5141
▁വെളിച്ച	-5142
ാണെങ്കിലും	-5143
ൻസി	-5144
ൊഴില	-5145
▁പേജ	-5146
വരെയും	-5147
▁വെടിയ	-5148
▁സമുദായ	-5149
ീരിയ	-5150
▁നീള	-5151
▁മേനോ	-5152
ോടുള്ള	-5153
▁ബാറ്റ്	-5154
▁സ്റ്റോ	-5155
▁വിളിച്ച്	-5156
ാലം	-5157
▁കഴു	-5158
▁അടിച്ച	-5159
ുന്നില്ല	-5160
▁കൃത്യമായി	-5161
ല്ലേ	-5162
കുമാർ	-5163
ട്ടിന്	-5164
▁പ്രയോ	-5165
▁സംഘര്‍ഷ	-5166
▁ജില്ലയിൽ	-5167
ിരുന്നില്ല	-5168
▁ആസൂ	-5169
ള്‍ഡ്	-5170
▁ബംഗാള	-5171
▁ശാരീരിക	-5172
▁സന്ദേശം	-5173
▁കഴിയാത്ത	-5174
▁ബെംഗളൂരു	-5175
▁അധ്യക്ഷന്‍	-5176
വീന	-5177
പിന്ന	-5178
▁ഒരാള	-5179
▁തൃശ്ശ	-5180
▁ന്യായ	-5181
▁മുല്ല	-5182
▁ബോളിവുഡ്	-5183
▁തട്ടിപ്പ്	-5184
▁പുറപ്പെടുവ	-5185
ൻെറ	-5186
▁പൊട്ടി	-5187
▁വിക്കറ്റ	-5188
▁രസ	-5189
▁കളി	-5190
▁ഗൗര	-5191
▁മംഗ	-5192
െന്നി	-5193
▁മുത്ത	-5194
റ്റുകള്‍	-5195
▁പരിശീലന	-5196
▁നാട്ടിലെ	-5197
▁ശക്തമായി	-5198
▁ഭര്‍ത്താവ്	-5199
▁പുറത്തിറങ്ങിയ	-5200
▁ചെലവഴ	-5201
▁നിമിഷ	-5202
▁മരുന്ന്	-5203
▁സമൂഹമാധ്യമ	-5204
5)	-5205
ലൈൻ	-5206
മര്‍	-5207
ല്‍ക്കത്ത	-5208
▁നിര്‍ദ്ദേശം	-5209
ണർ	-5210
▁പൃഥ്	-5211
▁സല്‍	-5212
▁ഇദ്ദേഹം	-5213
▁ശസ്ത്രക്രിയ	-5214
ളിവ	-5215
വാള	-5216
▁ടു	-5217
ജ്ജ്	-5218
▁ബഹി	-5219
▁കുരു	-5220
▁പൊതുജന	-5221
▁ഭരണഘടന	-5222
ുകളുമായി	-5223
▁അധികൃതർ	-5224
▁മേഖലയിലെ	-5225
പട	-5226
▁കഠ	-5227
▁ഓപ്പറ	-5228
▁വ്യോമ	-5229
ക്കെതിരായ	-5230
▁കേസുകള്‍	-5231
▁നിർദ്ദേശ	-5232
ിക്കോ	-5233
▁അങ്ങ	-5234
▁കാലയള	-5235
▁ചെയ്യാ	-5236
▁നവംബര്‍	-5237
▁ലോക്ക്ഡൗ	-5238
▁തീരുമാനിച്ച	-5239
ഹാ	-5240
▁2,	-5241
▁90	-5242
▁ടൗ	-5243
കാലം	-5244
ക്കാം	-5245
ക്രമണ	-5246
ടുത്തെ	-5247
െടുക്കും	-5248
▁പുതുതായി	-5249
▁ആഗ്രഹിക്കുന്ന	-5250
as	-5251
പിയുടെ	-5252
▁എംഎൽഎ	-5253
▁ഒന്നര	-5254
ുവെന്ന്	-5255
▁ജാതി	-5256
കൊണ്ട്	-5257
▁കയറ്റ	-5258
▁പോസിറ്റ	-5259
പ്പിക്കാൻ	-5260
▁അസിസ്റ്റ	-5261
▁ഇക്കാര്യത്തില്‍	-5262
▁പന്	-5263
▁ഇതില	-5264
▁നായര്‍	-5265
▁നിന്നെ	-5266
▁മാര്‍ഗ	-5267
ലിശ	-5268
ദിനം	-5269
▁അഗ്	-5270
▁ചാല	-5271
▁ഗെയി	-5272
▁വീഴ്ച	-5273
▁മുന്‍ക	-5274
െയായിരുന്നു	-5275
▁സ്വന്തമാക്ക	-5276
ോസ്	-5277
▁ശര	-5278
റ്റർ	-5279
▁കെപി	-5280
▁യുവതിയുടെ	-5281
ഷീ	-5282
സമിതി	-5283
▁കത്ത്	-5284
▁ചുറ്റ	-5285
പ്പിക്കാന്‍	-5286
ാന്യം	-5287
▁ഭാഗം	-5288
ക്കുറി	-5289
തിലൂടെ	-5290
▁സൈന്യ	-5291
▁പുരോഗമ	-5292
▁തുറന്ന്	-5293
▁ബിസിനസ്	-5294
ിലേയ്ക്ക്	-5295
▁ഇംഗ്ലണ്ട	-5296
▁അസോസിയേഷന്‍	-5297
▁ദുരിതാശ്വാസ	-5298
വാര	-5299
ലിക്കാ	-5300
▁ബോള്‍	-5301
ക്കാള്‍	-5302
യെല്ലാം	-5303
▁ഭാഗത്ത്	-5304
ുകളിലേക്ക്	-5305
▁പരിസ്ഥിതി	-5306
ിക്കുമ്പോള്‍	-5307
▁പൊതുമ	-5308
താണെന്ന്	-5309
▁നടപടികൾ	-5310
ാക്കുകയും	-5311
ികെ	-5312
റ്ററ	-5313
ന്വേഷ	-5314
▁കാരിക	-5315
▁ജയരാജ	-5316
ക്കിന്റെ	-5317
▁ഉണ്ടാകും	-5318
▁പ്രതികള്‍	-5319
▁ബ്രിട്ടീഷ്	-5320
▁രേഖപ്പെടുത്തിയ	-5321
കീയ	-5322
രിയ്	-5323
▁ഒരാൾ	-5324
ുതന്നെ	-5325
▁ക്ലബ്	-5326
▁ജനങ്ങളെ	-5327
▁മയക്കുമ	-5328
വക	-5329
▁താൽ	-5330
സഭാ	-5331
▁ത്രി	-5332
▁അബുദാ	-5333
മില്ലാതെ	-5334
▁സര്‍വ്വ	-5335
▁ഇംഗ്ലീഷ്	-5336
ങ്ങള്‍ക്കു	-5337
ുര	-5338
ജിയ	-5339
▁പാഠ	-5340
ന്നത്	-5341
▁വളരെയ	-5342
ാശ്	-5343
▁ദൗ	-5344
ന്റേ	-5345
▁പാന	-5346
▁കടക്ക	-5347
▁പത്തു	-5348
▁പ്ലസ്	-5349
▁ആന്റണി	-5350
▁ചിലര്‍	-5351
▁വളര്‍ച്ച	-5352
ുകിട	-5353
▁അശോ	-5354
ഭാവിക	-5355
ുകാരും	-5356
േക്കാം	-5357
▁തോന്നിയ	-5358
▁വൃത്തിയ	-5359
▁ഗർ	-5360
▁നിൽക്ക	-5361
▁ഭരണകൂട	-5362
▁സ്മാർട്ട്	-5363
▁സർക്കാരിന്റെ	-5364
1,	-5365
▁എട	-5366
▁മുപ്പ	-5367
▁അവളുടെ	-5368
▁യുഡിഎഫ	-5369
▁കൈമാറിയ	-5370
▁സന്തോഷ്	-5371
ത്തിലധികം	-5372
വര്‍ക്കും	-5373
ിക്കാനാണ്	-5374
▁വൈകീട്ട്	-5375
ാൻഡ്	-5376
▁തേട	-5377
▁ദുരൂഹ	-5378
▁ഓഗസ്റ്റ്	-5379
ച്ചിരുന്നു	-5380
ഡീഷ	-5381
▁റഫ	-5382
ക്കൽ	-5383
വാസ്	-5384
േരം	-5385
▁തണു	-5386
▁തസ്	-5387
▁നെഗ	-5388
മാറ്റ	-5389
▁അയാള്‍	-5390
▁കിഴക്ക	-5391
▁അനുസ	-5392
▁പെന്‍	-5393
▁മകള്‍	-5394
ന്ഥ	-5395
▁അണിയ	-5396
ാകൃഷ്ണ	-5397
ീന്ദ്ര	-5398
▁കുട്ടിയെ	-5399
▁പ്രത്യേകം	-5400
▁ബംഗ്ലാദേശ	-5401
▁സമ്പര്‍ക്ക	-5402
80	-5403
▁ജ്യ	-5404
മാകുന്നു	-5405
▁ഒട്ടേറെ	-5406
▁പുറത്തെ	-5407
▁പ്രോഗ്ര	-5408
▁കാര്‍ഷിക	-5409
▁ഓണ	-5410
▁ഹു	-5411
തുപോലെ	-5412
ദിന്റെ	-5413
▁ഇന്നു	-5414
▁അടുക്ക	-5415
▁തട്ടിയ	-5416
ിപ്പിച്ച	-5417
▁അമേരിക്കൻ	-5418
▁ബിജെപിയുടെ	-5419
▁അറസ്റ്റില്‍	-5420
തയെ	-5421
▁ദാ	-5422
വേദന	-5423
രെയും	-5424
▁ഇയാൾ	-5425
▁നേട്ടം	-5426
▁പ്രതികരിച്ചു	-5427
▁വാഴ	-5428
▁ഏജന്‍സ	-5429
ാതിരുന്ന	-5430
▁അനുവദിച്ച	-5431
▁കാണുന്നത്	-5432
▁നിലവിലുള്ള	-5433
ിലുണ്ട്	-5434
ങ്ങളെല്ലാം	-5435
ില്ലെങ്കില്‍	-5436
ാമം	-5437
ര്‍ഥ	-5438
റിങ്	-5439
▁ആസ്	-5440
▁പുക	-5441
▁മോഷ്ട	-5442
▁ഓര്‍മ്മ	-5443
ള്‍പ്പെടെ	-5444
ുമ്പോഴാണ്	-5445
▁സ്ഥലത്തെ	-5446
▁രാമചന്ദ്ര	-5447
▁കൊല്‍ക്കത്ത	-5448
▁പൂര്‍ണമായും	-5449
ര്‍ണ	-5450
▁ആളുകൾ	-5451
▁പരീക്ഷണ	-5452
▁അബ്ദുല്‍	-5453
ക്കാറ	-5454
▁എഞ്ച	-5455
▁ഡിവി	-5456
ഡുകള്‍	-5457
ിലധികം	-5458
▁തലമുറ	-5459
ിയ്ക്ക്	-5460
▁എന്നറിയ	-5461
ന്യാ	-5462
▁വീഴ	-5463
ത്താൻ	-5464
▁ഫെഡറ	-5465
▁വിരാ	-5466
▁മാലിന്യ	-5467
▁രീതിയിൽ	-5468
▁ചിത്രമാണ്	-5469
▁നിര്‍ണായക	-5470
▁മീഡിയയില്‍	-5471
▁പിടികൂടിയത്	-5472
▁കസ്റ്റഡിയിലെ	-5473
ാഫി	-5474
▁ഫോട	-5475
ക്തിയ	-5476
▁അവധി	-5477
▁ജേക്കബ്	-5478
▁വീട്ടിലെ	-5479
▁സര്‍ട്ടിഫ	-5480
െയായി	-5481
▁കരിയ	-5482
▁ആവര്‍	-5483
ികളെയും	-5484
▁ഉണ്ടായത്	-5485
▁പഞ്ചായത്ത	-5486
▁സഹായിക്കുന്ന	-5487
യേ	-5488
▁ഏതു	-5489
കുന്ന	-5490
▁കക്ഷ	-5491
▁കഠിന	-5492
▁മെട്രോ	-5493
▁ഷൂട്ടി	-5494
▁അഭിഭാഷക	-5495
▁പിടികൂടി	-5496
▁ചെയ്തിട്ട	-5497
ജൻ	-5498
മാസ	-5499
ര്‍ഡ്	-5500
ശിക്ഷ	-5501
പ്പറ്റി	-5502
▁സന്നദ്ധ	-5503
▁എന്നിവരെ	-5504
ോണ	-5505
▁അവാ	-5506
▁പല്ല	-5507
▁സ്പോ	-5508
▁നെഗറ്റ	-5509
ുകയാണെന്ന്	-5510
▁കിലോമീറ്റര്‍	-5511
.6	-5512
▁മറികട	-5513
▁ജീവന്‍	-5514
ര്‍ത്തുന്ന	-5515
▁വ്യക്തമായ	-5516
ഹ്വ	-5517
▁ജോർ	-5518
▁കണക്ക്	-5519
ര്‍മാര്‍	-5520
▁ലോകത്ത്	-5521
▁ഇപ്പോഴത്തെ	-5522
▁തയ്യാറാക്കിയ	-5523
പുല	-5524
▁അഥ	-5525
▁അപ്	-5526
▁ആന്റി	-5527
▁സൗന്ദ	-5528
▁പ്രായം	-5529
▁അതിനിടെ	-5530
▁ജയിലില്‍	-5531
ഡിൽ	-5532
നിറ	-5533
▁തരം	-5534
▁നാഗ	-5535
▁രാജി	-5536
▁കരാര്‍	-5537
▁സൗകര്യം	-5538
▁പുറത്തുവ	-5539
▁രവീ	-5540
▁ഡൽഹി	-5541
▁ഭരണം	-5542
▁ഇറങ്ങിയ	-5543
▁സര്‍ക്കാരിന്	-5544
ുടമ	-5545
സണ്‍	-5546
▁കത്ത	-5547
▁തട്ട	-5548
▁വായന	-5549
▁ടിക്കറ്റ്	-5550
▁ന്യൂനപക്ഷ	-5551
▁നടത്തിയിരുന്നു	-5552
ഗോപ	-5553
ാട്	-5554
▁തറ	-5555
▁ഉപയോ	-5556
പ്പോലെ	-5557
▁അതിക്രമ	-5558
▁ക്രിമിന	-5559
▁ചിത്രങ്ങൾ	-5560
പുരം	-5561
▁നടൻ	-5562
ത്തോട	-5563
റ്റിലെ	-5564
▁തോട്ട	-5565
▁ശുദ്ധ	-5566
▁വര്‍ധന	-5567
ികള്‍ക്കും	-5568
▁മുന്നറിയിപ്പ	-5569
▁p	-5570
ണിൽ	-5571
▁അരി	-5572
▁അനില്‍	-5573
▁ബാക്കി	-5574
▁കൊണ്ടുപോക	-5575
▁ഏറ്റെടുക്ക	-5576
▁ജില്ലകളില്‍	-5577
താവ	-5578
െണ്ണ	-5579
▁197	-5580
▁ജയം	-5581
ഭാഷണം	-5582
▁കോഴ്	-5583
▁പലിശ	-5584
▁അവള്‍	-5585
▁തമ്മിൽ	-5586
വെന്നാണ്	-5587
▁എപ്പോഴും	-5588
യിലായിരുന്നു	-5589
മ്മി	-5590
▁ശൈല	-5591
▁ഡ്യൂ	-5592
▁താലിബ	-5593
▁സച്ചി	-5594
ര്‍ത്തു	-5595
ാണെന്നു	-5596
▁പരുക്ക	-5597
▁മര്‍ദ്ദ	-5598
ംബര	-5599
▁ഹോം	-5600
സംഘടന	-5601
▁വിരമ	-5602
എസ്എസ്	-5603
ന്റിന്റെ	-5604
▁കഴിയില്ല	-5605
▁വില്‍പ്പന	-5606
▁കമ്പനിയുടെ	-5607
▁ദൃശ്യങ്ങള്‍	-5608
.7	-5609
പുഴ	-5610
വിന	-5611
സിഡ	-5612
▁കർണ	-5613
▁വൈദ	-5614
▁സ്ക	-5615
▁വേഗത	-5616
▁സണ്‍	-5617
▁റെയിൽ	-5618
▁ചെയര്‍	-5619
▁കുട്ടികൾ	-5620
▁യുവാവിനെ	-5621
േണ്ടതുണ്ട്	-5622
ിക്കുന്നുണ്ട	-5623
▁നിങ്ങള്‍ക്ക്	-5624
▁ശശി	-5625
സിറ്റി	-5626
ക്കാരും	-5627
▁വരുമ്പോ	-5628
▁സവിശേഷത	-5629
▁തൈ	-5630
▁തെളി	-5631
▁കേരളാ	-5632
▁പടിഞ്ഞ	-5633
പ്യൂട്ടി	-5634
▁നടപ്പാക്ക	-5635
▁പ്രഖ്യാപനം	-5636
▁ചിത്രത്തിലെ	-5637
▁റഹ്	-5638
യത്ത്	-5639
▁വന്ന്	-5640
▁നിരോധന	-5641
▁ഒരുമ	-5642
▁ആനുകൂല	-5643
▁രാജീവ്	-5644
തിനാലാണ്	-5645
▁കാലഘട്ട	-5646
▁മുകളില്‍	-5647
രിക്കുകയും	-5648
▁സ്ഥാനത്ത്	-5649
go	-5650
▁a	-5651
▁മകൻ	-5652
▁തൃശൂർ	-5653
▁ടൂറിസം	-5654
▁ചെയ്യാം	-5655
▁രാം	-5656
▁ജിയോ	-5657
▁ലഹരി	-5658
പഞ്ചായ	-5659
▁വിജയൻ	-5660
▁വിഡിയോ	-5661
▁മാര്‍ക്ക	-5662
▁അപകടത്തില്‍	-5663
പ്പെടുത്താന്‍	-5664
ബന്ധന	-5665
▁കന്ന	-5666
▁ഇപ്പോ	-5667
▁വെല്ലുവിള	-5668
▁കബ	-5669
▁ഉദാഹരണ	-5670
▁സിസ്റ്റ	-5671
▁ഇന്ത്യയെ	-5672
ിയായിരുന്നു	-5673
22	-5674
ഗു	-5675
വഴ	-5676
▁ഡൽഹ	-5677
▁മമത	-5678
▁അസ്വ	-5679
റ്റ്യൂ	-5680
▁ഡ്രൈവ	-5681
▁നെല്ല	-5682
വിശ്വാസ	-5683
▁സൂപ്പർ	-5684
▁വരുത്തിയ	-5685
▁വിജിലന്‍സ്	-5686
▁ആംബ	-5687
▁പരേ	-5688
▁സിന്റെ	-5689
▁തുടരുന്നു	-5690
ീകരിക്കുന്ന	-5691
തവണ	-5692
ാവിനെ	-5693
▁ആഹ്വ	-5694
▁ഭക്ത	-5695
▁പൃഥ്വി	-5696
▁കൊണ്ടുവന്ന	-5697
▁തുടങ്ങിയവര്‍	-5698
തിരി	-5699
ദിവസ	-5700
▁ആത്	-5701
▁താന	-5702
▁സെല്‍	-5703
▁വ്യാപകമായി	-5704
▁അറസ്റ്റിലായ	-5705
ത്തറ	-5706
▁ദ്ര	-5707
ര്‍ഷം	-5708
▁ബ്യൂ	-5709
▁എട്ടു	-5710
▁എന്തു	-5711
▁കവര്‍	-5712
▁പരാമർശ	-5713
▁അദ്ധ്യക്ഷ	-5714
▁എന്നിവയുടെ	-5715
▁മുടി	-5716
▁പൊതുവ	-5717
▁വ്യാപന	-5718
േണ്ടതില്ല	-5719
▁അവാര്‍ഡ്	-5720
▁സഹായിക്ക	-5721
▁പ്രത്യേകത	-5722
-19	-5723
▁അതീവ	-5724
▁വാഷി	-5725
▁നിരന്തരം	-5726
▁ആഴ	-5727
ക്ട്	-5728
ണ്ണ്	-5729
തിലും	-5730
കളുമായി	-5731
▁പറയാന്‍	-5732
ിദ്	-5733
▁ഇമ	-5734
▁അവൾ	-5735
▁ഇവിട	-5736
▁കാസർ	-5737
▁വിഭവ	-5738
▁ജിദ്ദ	-5739
▁ശ്രീധ	-5740
▁ബൈക്ക്	-5741
▁എന്നിവരും	-5742
▁സിനിമയിലെ	-5743
▁സഹായത്തോടെ	-5744
▁പുറത്തുവിട്ട	-5745
▁പന	-5746
▁ഗോവ	-5747
▁ഞാന	-5748
▁ഇന്ധന	-5749
▁റിയാദ്	-5750
ുണ്ടാകും	-5751
▁മണിക്കൂര്‍	-5752
9,	-5753
മറിയ	-5754
▁കലാക	-5755
▁ലളിത	-5756
▁ഒന്നു	-5757
▁ആളുകളെ	-5758
▁കുറിച്ച	-5759
▁വരുമാനം	-5760
▁സഹായിക്കും	-5761
▁ബഹ്	-5762
യുന്ന	-5763
േറ്റു	-5764
▁ഫലപ്രദ	-5765
▁ബലാത്സ	-5766
ട്ടിയാണ്	-5767
▁ഡയറക്ടറ	-5768
▁പ്രവർത്തകർ	-5769
ക്ഷൻ	-5770
ണ്ഡി	-5771
സ്പരം	-5772
▁യുടെ	-5773
റുകളും	-5774
റ്റുകൾ	-5775
▁ആശ്രയ	-5776
▁പ്രീമ	-5777
▁വ്യായ	-5778
െന്നായിരുന്നു	-5779
മുള	-5780
ടത്ത്	-5781
യില്ല	-5782
▁ഏരിയ	-5783
▁മോശം	-5784
▁നിത്യ	-5785
▁റിപ്പ	-5786
▁സ്വാഗ	-5787
ുണ്ടായത്	-5788
▁വിശുദ്ധ	-5789
▁സര്‍വീസ	-5790
▁അതിര്‍ത്തി	-5791
ാംശ	-5792
▁ചൗ	-5793
ടിവി	-5794
നിലെ	-5795
▁മായ	-5796
റിംഗ്	-5797
▁ആന്ധ	-5798
▁നൽകാൻ	-5799
▁പൊട്ട	-5800
▁കുടിവെ	-5801
▁അയ്യപ്പ	-5802
▁പ്രസ്ഥാന	-5803
▁വിഭാഗത്തില്‍	-5804
ണൽ	-5805
േല	-5806
▁ഖു	-5807
ത്തുക	-5808
വ്യാപ	-5809
ാറിനെ	-5810
നെറ്റ്	-5811
▁ജനകീയ	-5812
▁മാർച്ച്	-5813
▁പ്രചാരണം	-5814
▁കിടക്കുന്ന	-5815
▁വിപണിയില്‍	-5816
▁(4	-5817
ന്ദു	-5818
▁നാവ	-5819
▁മജി	-5820
ത്തായി	-5821
ന്നൂര്‍	-5822
▁അധ്യാപ	-5823
▁പരസ്പരം	-5824
▁തീരുമാനിച്ചത്	-5825
ഡിനെ	-5826
▁നീല	-5827
▁മാധ	-5828
സ്ഥാൻ	-5829
▁ക്രോ	-5830
▁പിതാ	-5831
▁വൃത്ത	-5832
ദ്ദീന്‍	-5833
▁അന്ത്യ	-5834
▁വൈകുന്നേരം	-5835
ിഡ്	-5836
ൈന്‍	-5837
▁ആദി	-5838
ഴ്ച്ച	-5839
▁ഗവേഷണ	-5840
▁നിരാശ	-5841
സിന്‍റെ	-5842
▁വാക്സിൻ	-5843
ണാഫ്രിക്ക	-5844
▁പ്രവൃത്തി	-5845
▁സംസാരിച്ച	-5846
▁പെണ്‍കുട്ടിയെ	-5847
തര	-5848
ഫറ	-5849
▁ശരാശ	-5850
▁ഫണ്ട്	-5851
▁എടുത്തു	-5852
▁ആരാധകര്‍	-5853
▁ലോകകപ്പ്	-5854
▁പ്രസിഡണ്ട്	-5855
▁പുറത്തിറക്കിയ	-5856
ീതം	-5857
ാസമ്മ	-5858
▁പ്രതിഭ	-5859
▁കൗണ്‍സില്‍	-5860
▁ഹര	-5861
ക്കർ	-5862
ാലിയ	-5863
▁നെട	-5864
▁ആംബുല	-5865
▁കാല്‍	-5866
▁സീരിയ	-5867
സംസ്ഥാന	-5868
▁അതായത്	-5869
▁രാജ്യാ	-5870
▁ശമ്പളം	-5871
▁അങ്ങനെയ	-5872
ാംപ	-5873
സംഘം	-5874
▁സെൻ	-5875
ംബ്രാ	-5876
▁ഡോസ്	-5877
▁പമ്പ	-5878
▁ടീച്ച	-5879
▁പൊള്ള	-5880
▁ഒരാഴ്ച	-5881
▁മീറ്റര്‍	-5882
▁പ്രോത്സാഹ	-5883
▁പ്രദേശത്ത്	-5884
രുക	-5885
▁വരാ	-5886
▁ഓൺലൈൻ	-5887
▁പോയത്	-5888
▁അവസാനം	-5889
▁രോഗബാധ	-5890
ാകുന്നത്	-5891
10	-5892
ഹാസ	-5893
▁കടല	-5894
നല്‍ക	-5895
പോലും	-5896
▁2013	-5897
▁പ്രേമ	-5898
▁ബോധ്യ	-5899
പരിശോധന	-5900
േറ്റര്‍	-5901
സിപ്പല്‍	-5902
▁നല്ലതാണ്	-5903
▁ആരംഭിച്ചത്	-5904
വള	-5905
▁48	-5906
▁കാന	-5907
ന്മാർ	-5908
െയുടെ	-5909
ജിന്റെ	-5910
ര്‍ട്ട	-5911
▁ശമ്പള	-5912
▁അത്ഭുത	-5913
▁ജയില്‍	-5914
▁സമാനമായ	-5915
▁അംഗീകാരം	-5916
▁കേന്ദ്രമന്ത്രി	-5917
ത്തകര	-5918
പത്രം	-5919
▁സ്വി	-5920
▁ഇറക്ക	-5921
▁ഹാജരാക	-5922
▁സ്വാഗതം	-5923
▁രാധാകൃഷ്ണ	-5924
▁തിരഞ്ഞെടുക്ക	-5925
▁36	-5926
ഗര്‍	-5927
നിധി	-5928
ശേരി	-5929
ുമാന	-5930
▁മുൻപ	-5931
▁എതിരാ	-5932
▁മലയാളം	-5933
▁വിവാഹിത	-5934
പ്രദേശിലെ	-5935
▁കുഞ്ഞിനെ	-5936
▁കോര്‍പ്പറ	-5937
▁പ്രവേശിപ്പിച്ചു	-5938
▁ഇടി	-5939
▁ശോഭ	-5940
▁മോഡല	-5941
▁നമ്മൾ	-5942
▁ടെലിവി	-5943
▁മുന്നോ	-5944
▁മൊത്തം	-5945
▁ഉറപ്പുവ	-5946
ക്കിടയില്‍	-5947
ിനുള്ളില്‍	-5948
വല്‍	-5949
▁അധി	-5950
▁പിൻവല	-5951
▁കർണാടക	-5952
▁രാജേഷ്	-5953
▁വാര്‍ഷിക	-5954
▁ദക്ഷിണാഫ്രിക്ക	-5955
നീയ	-5956
ാഷ്	-5957
▁വശ	-5958
▁സിവ	-5959
▁സുമ	-5960
പ്പിട	-5961
▁വേണു	-5962
▁കാണാൻ	-5963
ായിരിക്ക	-5964
▁രോഗികളുടെ	-5965
▁ലോകത്തിലെ	-5966
ംഗലം	-5967
▁ചൂട	-5968
▁ഇബ്ര	-5969
▁ആപ്പി	-5970
▁അമ്മയുടെ	-5971
▁പ്രായമുള്ള	-5972
▁ഇതര	-5973
▁റാവ	-5974
▁വേഗം	-5975
ടിയുടെ	-5976
▁പൊന്ന	-5977
▁രാജിവ	-5978
▁സോണിയ	-5979
▁തുറക്ക	-5980
▁നാഷണല്‍	-5981
ണയ	-5982
വരു	-5983
▁ആം	-5984
ാന്ത	-5985
കത്ത്	-5986
ൊഴിലാള	-5987
▁മോഹൻല	-5988
▁പോകുന്നത്	-5989
▁ഉച്ചയ്ക്ക്	-5990
ിച്ചിരുന്നത്	-5991
ബെ	-5992
▁33	-5993
കക്ഷ	-5994
▁രഞ്	-5995
വിന്‍	-5996
▁ഡിഗ്ര	-5997
▁ആശ്വാസ	-5998
▁തയ്യാറെ	-5999
▁തകര്‍ക്ക	-6000
▁അക്കൗണ്ട്	-6001
▁കുടിവെള്ള	-6002
▁അംഗീകരിച്ച	-6003
▁മുന്നോട്ടു	-6004
▁ഏര്‍പ്പെടുത്തിയ	-6005
▁എതിര	-6006
▁സൗഹൃദ	-6007
രുടേയും	-6008
ുകാരന്‍	-6009
▁കോടതിയ	-6010
▁നിർമാണ	-6011
ുവെന്നും	-6012
▁എന്നിങ്ങനെ	-6013
▁ചെയ്യുകയും	-6014
.8	-6015
കുളം	-6016
റിയും	-6017
▁എതിരെ	-6018
▁പാമ്പ	-6019
▁കാര്‍ഡ്	-6020
▁ഉണ്ടാക്ക	-6021
▁രാജ്യാന്തര	-6022
ീണ	-6023
ീയം	-6024
ര്യമ	-6025
▁കോയ	-6026
ിക്കര	-6027
▁ടിവി	-6028
േഷന്റെ	-6029
▁മൂല്യ	-6030
റിയില്‍	-6031
▁ഭീഷണിയ	-6032
നിന്നുള്ള	-6033
▁ഡ്രൈവര്‍	-6034
▁ശതമാനവും	-6035
▁സ്റ്റേറ്റ്	-6036
6)	-6037
ദേവ	-6038
▁ഫീ	-6039
മിനി	-6040
ിമുഖ	-6041
▁ഭവന	-6042
പ്രിൽ	-6043
വിഭാഗ	-6044
▁ഷാജി	-6045
▁ടാറ്റ	-6046
▁തൊഴിൽ	-6047
ിരിക്കെ	-6048
▁അധികാരം	-6049
രുതെന്നും	-6050
▁രവീന്ദ്ര	-6051
▁ക്രൈംബ്രാ	-6052
▁ധനമന്ത്രി	-6053
▁വകുപ്പിന്റെ	-6054
▁സ്ഥാനാര്‍ത്ഥി	-6055
▁ആലുവ	-6056
▁ക്യൂ	-6057
▁ശരിയായ	-6058
ഷേധിച്ച്	-6059
▁ശിവശങ്ക	-6060
▁മുതിർന്ന	-6061
▁ഗ്രാമപഞ്ചായ	-6062
ാഖ	-6063
▁!	-6064
ുക്ക	-6065
▁ജോസഫ	-6066
▁അനുയോ	-6067
▁താക്ക	-6068
▁പാക്ക	-6069
▁കൈമാറി	-6070
▁രംഗത്ത	-6071
▁കാണാതായ	-6072
▁നിങ്ങളെ	-6073
ിക്കേണ്ടത്	-6074
ഗ്ന	-6075
▁നീണ്ടു	-6076
▁രാജിവെ	-6077
▁വാര്‍ത്താ	-6078
▁പ്രാധാന്യം	-6079
▁ജീവനക്കാര്‍	-6080
▁അറിയിച്ചിരുന്നു	-6081
ഐഎ	-6082
▁ഇനിയ	-6083
▁ഗള്‍	-6084
▁തെലു	-6085
തുകൊണ്ട്	-6086
▁കസ്റ്റംസ്	-6087
ംഭ	-6088
▁സാര	-6089
ുകാരെ	-6090
▁2011	-6091
▁അസാധ	-6092
കളെയും	-6093
ത്തിച്ച	-6094
▁കൂട്ടിയ	-6095
17	-6096
8)	-6097
കഥ	-6098
ാഗോ	-6099
ക്കളെ	-6100
▁കറുത്ത	-6101
▁വരെയാണ്	-6102
▁വ്യത്യാസ	-6103
▁ക്യാപ്റ്റന്‍	-6104
▁രാജ്യങ്ങളില്‍	-6105
നിർ	-6106
ൊണാ	-6107
ണ്ടു	-6108
▁തെരുവ	-6109
▁പ്രശ്നം	-6110
▁വിലക്ക്	-6111
▁സ്മാര്‍	-6112
ത്തുനിന്ന്	-6113
ോം	-6114
കേരള	-6115
▁മേൽ	-6116
▁വിയ	-6117
▁അതിഥ	-6118
പ്പര്‍	-6119
▁ഇതിനകം	-6120
▁നോട്ട്	-6121
ഒരു	-6122
▁ഭഗ	-6123
ാട്ട	-6124
ായുധ	-6125
▁കിണ	-6126
▁ബാഗ	-6127
▁വാണി	-6128
▁ജോലിയ	-6129
▁ദുര്‍	-6130
▁പള്ളി	-6131
▁മദ്യപ	-6132
▁സിറിയ	-6133
▁വിരാട്	-6134
▁ഉപയോക്ത	-6135
▁പൂര്‍ണ്ണ	-6136
ത്തിനുള്ളില്‍	-6137
ഭേദ	-6138
▁ബദ	-6139
ത്തായ	-6140
മുണ്ടായ	-6141
ti	-6142
ബിൾ	-6143
പ്പണ	-6144
▁എംബ	-6145
▁കാറ്റ	-6146
▁ഖാന്‍	-6147
▁വെങ്ക	-6148
▁ഹെല്‍	-6149
▁കരുതിയ	-6150
▁കൂട്ടി	-6151
▁മക്കള്‍	-6152
▁കുട്ടികള	-6153
ിയായിരുന്ന	-6154
▁പ്രതിപക്ഷം	-6155
▁തട്ടിക്കൊണ്ട	-6156
▁വാര്‍ത്തകള്‍	-6157
▁പ്രധാനപ്പെട്ട	-6158
▁34	-6159
▁ആമ	-6160
ത്മക	-6161
ടിയും	-6162
▁വികസി	-6163
നങ്ങള്‍	-6164
▁ന്യൂസ്	-6165
▁സ്വാമി	-6166
▁താലൂക്ക്	-6167
▁ഒക്ടോബര്‍	-6168
▁മനുഷ്യാവകാശ	-6169
ബറ	-6170
സ്യം	-6171
▁നിർമ	-6172
ട്ടര്‍	-6173
ുകളായി	-6174
▁പങ്ക്	-6175
▁പിടിയിലായത്	-6176
ണ്ഠ	-6177
ഡന്‍	-6178
▁കലാ	-6179
▁കഴുക	-6180
ബ്ലിക്	-6181
ാനില്‍	-6182
ുകൂട്ട	-6183
▁ചെറുപ്പ	-6184
▁ന്യൂസില	-6185
സ്റ്റിറ്റ്യൂ	-6186
▁വീട്ടിലേക്ക്	-6187
കർ	-6188
സൺ	-6189
തുര	-6190
▁ദശ	-6191
ഗോഡ്	-6192
േക്കാൾ	-6193
▁മൊബൈൽ	-6194
▁സിന്ധ	-6195
▁നിലനിൽ	-6196
▁നെറ്റ്	-6197
▁ബജറ്റ്	-6198
മാകുന്നത്	-6199
▁ഇവര്‍ക്ക്	-6200
▁മമ്മൂട്ടി	-6201
▁പുലര്‍ച്ചെ	-6202
ലീം	-6203
ബ്രഹ	-6204
ഭൂമി	-6205
വാദം	-6206
സ്തവ	-6207
ാണ്ട്	-6208
ുണ്ടോ	-6209
▁അനുപ	-6210
▁ഇടവേള	-6211
▁കുത്ത	-6212
▁ദുബായ	-6213
▁ഏപ്രിൽ	-6214
▁നിയമനം	-6215
ങ്ങുന്നു	-6216
ല്ലെന്ന്	-6217
▁അഹമ്മദ്	-6218
▁വിദേശകാര്യ	-6219
റൂ	-6220
▁ഇടയ	-6221
ലിപ്പ	-6222
▁ജോയി	-6223
▁പുഷ്	-6224
ുമായും	-6225
▁കുറവ്	-6226
▁തകര്‍ന്ന	-6227
▁മോദിയുടെ	-6228
▁പെട്രോള്‍	-6229
ൻപ	-6230
▁യാ	-6231
പത്ര	-6232
▁ആവി	-6233
▁റ്റ്	-6234
▁സിസി	-6235
ടിച്ചു	-6236
▁ഒക്കെ	-6237
▁ഡാറ്റ	-6238
▁ബോട്ട	-6239
▁പ്രകാര	-6240
▁വിശ്വാസം	-6241
▁ദിവസങ്ങളില്‍	-6242
കിയ	-6243
ന്ദി	-6244
െയിൻ	-6245
▁ഫോമ	-6246
യായും	-6247
▁പര്യ	-6248
▁സത്യം	-6249
▁വിട്ട്	-6250
▁പിന്നിൽ	-6251
ടിപ്പിക്ക	-6252
▁വ്യാപാരി	-6253
യൽ	-6254
▁75	-6255
ക്കല	-6256
യോഗം	-6257
▁ഒതു	-6258
▁ജ്യോ	-6259
▁ലൈഫ്	-6260
റിഞ്ഞു	-6261
▁വിഷ്ണ	-6262
▁കുറ്റം	-6263
▁വാക്സിന	-6264
ങ്ങളുണ്ട്	-6265
▁നിര്‍മ്മാണ	-6266
▁പാര്‍ട്ടിയുടെ	-6267
പ്പൂ	-6268
▁ചാവ	-6269
▁ആര്യ	-6270
▁ഗൗരവ	-6271
ിക്കാണ	-6272
▁ആരാധന	-6273
▁കൊറിയ	-6274
▁ചാണ്ടി	-6275
▁പഠിപ്പ	-6276
▁അറസ്റ്റു	-6277
▁നിൽക്കുന്ന	-6278
ൂഷ	-6279
ൊല	-6280
മോഹ	-6281
ൾഡ്	-6282
▁196	-6283
▁വിവ	-6284
ജിനീയ	-6285
പിറ്റ	-6286
പിള്ള	-6287
ന്റേയും	-6288
▁എഞ്ചിന	-6289
▁രൂക്ഷമായ	-6290
▁ആരംഭിക്കും	-6291
▁c	-6292
ീത്	-6293
▁ആസി	-6294
▁സിറ്റ	-6295
ക്കാലത്ത്	-6296
▁കൗണ്‍സില	-6297
▁സ്ത്രീകൾ	-6298
▁ഗവര്‍ണര്‍	-6299
▁പ്രോസിക്യ	-6300
▁വളരെയധികം	-6301
▁നു	-6302
മാസം	-6303
രുവായ	-6304
ജിയുടെ	-6305
▁വിപുല	-6306
▁വിശ്വ	-6307
▁ഉറപ്പ്	-6308
▁വെട്ടി	-6309
▁മടങ്ങിയ	-6310
▁പാര്‍ട്ടിയ	-6311
▁ജീവനക്കാരുടെ	-6312
വര്‍ഷം	-6313
ത്തിന്റ	-6314
ിച്ചതായി	-6315
▁ചരിത്രം	-6316
▁പ്രകാശ്	-6317
▁പരിഹരിക്ക	-6318
▁സ്വാഭാവിക	-6319
കീ	-6320
ാൻഡ	-6321
▁ചങ്ങ	-6322
▁സൈസ്	-6323
▁ബില്‍	-6324
▁സാമ്പി	-6325
▁പങ്കാളി	-6326
തിനിടെയാണ്	-6327
▁സ്റ്റേഡിയ	-6328
▁ഉണ്ടാക്കിയ	-6329
▁പോലീസിന്റെ	-6330
ിക്കുന്നില്ല	-6331
▁ബന്ധുക്കള്‍	-6332
▁സാധ്യതയുണ്ട്	-6333
--	-6334
▁വള്ള	-6335
▁ആന്റ്	-6336
▁ഉപദേശ	-6337
▁ജമ്മു	-6338
▁തന്‍റെ	-6339
▁അതുപോലെ	-6340
▁പോകാന്‍	-6341
▁പ്ലാറ്റ്	-6342
▁വാഹനങ്ങള്‍	-6343
▁3,	-6344
▁സദ	-6345
▁കേൾ	-6346
ീര്‍ഘ	-6347
▁അഥവാ	-6348
▁പണിയ	-6349
▁ചെലവ്	-6350
▁മഞ്ജു	-6351
ര്‍ക്കു	-6352
▁ലോക്ഡൗ	-6353
▁വക്താവ്	-6354
രുന്നില്ല	-6355
▁ഉമ്മന്‍ച	-6356
▁മാധ്യമങ്ങള്‍	-6357
or	-6358
ബിയ	-6359
ത്തീ	-6360
▁ചാർ	-6361
▁പൈല	-6362
▁സിം	-6363
ന്തിര	-6364
ുകളില	-6365
▁അര്‍ഹ	-6366
റ്റിംഗ്	-6367
▁ഇസ്ലാമ	-6368
▁അക്കാദമി	-6369
▁ദിവസമാണ്	-6370
ണമെങ്കില്‍	-6371
▁സുരേന്ദ്രന്‍	-6372
on	-6373
▁n	-6374
▁കം	-6375
▁വിഭ	-6376
ാലത്ത്	-6377
▁പ്രയോജന	-6378
മാക്കുന്ന	-6379
ുണ്ടാകുന്ന	-6380
▁അതോറിറ്റി	-6381
▁ഡെപ്യൂട്ടി	-6382
▁എന	-6383
ണിലെ	-6384
ാധിക	-6385
▁ലാല	-6386
നോട്ട	-6387
പ്പിനെ	-6388
▁അഞ്ചാം	-6389
▁ആഭിമുഖ	-6390
▁രണ്ടാമ	-6391
▁എറണാകുള	-6392
▁കൊലപാതകം	-6393
▁ചേര്‍ത്ത	-6394
▁സ്വര്‍ണം	-6395
▁ഹൈദരാബാദ്	-6396
ിക്കുന്നതും	-6397
▁പട്ടികയില്‍	-6398
ൂസ്	-6399
▁സ്ല	-6400
▁കർശന	-6401
▁ഭീകരാ	-6402
▁തസ്തിക	-6403
▁മേഖലയിൽ	-6404
▁പ്രഖ്യാപിച്ചത്	-6405
47	-6406
▁കൊട	-6407
▁ഡിസ	-6408
▁പ്രൊഡ	-6409
▁ഭിന്ന	-6410
▁മനോജ്	-6411
▁വിസ്മ	-6412
▁വര്‍ഷമായി	-6413
ഹ്ല	-6414
രമായ	-6415
▁മാള	-6416
ുവിന്	-6417
▁പേരി	-6418
ൊന്നുമ	-6419
▁പ്രസവ	-6420
▁ഇയാളുടെ	-6421
നാട	-6422
വതി	-6423
േശ്	-6424
ിംഗ്	-6425
▁അഭയ	-6426
▁ലാമ	-6427
ുകാരി	-6428
▁ശരീരം	-6429
ക്കാർക്ക്	-6430
ല്ലെന്നും	-6431
ധ്യം	-6432
▁കൊഴു	-6433
▁പോള്‍	-6434
▁ഭാഗ്യ	-6435
▁ശ്വാസ	-6436
▁ഇറങ്ങി	-6437
▁ജനങ്ങൾ	-6438
▁അന്നത്തെ	-6439
▁ദൂര	-6440
▁അതില	-6441
▁ആപ്പ്	-6442
ിക്കാനായി	-6443
▁ബിജെപിക്ക്	-6444
▁രംഗത്തെത്തി	-6445
25	-6446
▁കൈയ	-6447
▁ശബ്	-6448
▁സുക	-6449
▁പ്ലേ	-6450
ങ്ങാടി	-6451
ാത്തത്	-6452
ക്കാരായ	-6453
ക്കൊണ്ട	-6454
▁തള്ളിയ	-6455
▁രണ്ടും	-6456
▁അപ്രതീക്ഷ	-6457
▁ആര്‍ക്കും	-6458
▁രജിസ്റ്റർ	-6459
▁പരിശോധിച്ച	-6460
വൽ	-6461
ാരോ	-6462
▁നര	-6463
▁ഹെഡ്	-6464
▁ഒത്തു	-6465
▁ഇന്ത്യക്ക്	-6466
▁ദയ	-6467
▁കമ്മ്യൂണി	-6468
▁കാര്യത്തിൽ	-6469
ഹാറ	-6470
യൊരു	-6471
▁ജോൺ	-6472
▁റൂമ	-6473
▁സോള	-6474
▁കഴിച്ച	-6475
▁പ്രേരി	-6476
▁ആഹ്വാനം	-6477
▁പ്രദര്‍ശ	-6478
▁രോഗബാധിത	-6479
▁അന്തരീക്ഷ	-6480
▁അന്തരിച്ചു	-6481
▁പ്രവര്‍ത്തിച്ച	-6482
സല	-6483
ഗണന	-6484
ഴിതാ	-6485
ണ്ടര്‍	-6486
▁താരതമ	-6487
മായുള്ള	-6488
▁ഗുരുതരമായ	-6489
സൗ	-6490
▁ഗവർ	-6491
▁ശത്	-6492
▁വിനോ	-6493
▁കൈയ്യ	-6494
▁ബിഎസ്	-6495
▁രോഹിത്	-6496
▁മുദ്രാവ	-6497
▁രേഖകള്‍	-6498
▁സഞ്ചരിച്ച	-6499
▁രേഖപ്പെടുത്തി	-6500
▁പ്രസിദ്ധീകരിച്ച	-6501
4)	-6502
സാമ	-6503
െല്ല	-6504
▁വാര	-6505
കൊണ്ട	-6506
▁നവംബർ	-6507
രിപ്പിക്ക	-6508
▁ഉല്‍	-6509
▁സ്ഥാനാർഥ	-6510
▁കേന്ദ്രസർ	-6511
▁നേതാക്കളുടെ	-6512
ാക്കിയിരുന്നു	-6513
ിട്ടുണ്ടെന്ന്	-6514
േതര	-6515
▁ചുഴ	-6516
▁ബഹു	-6517
▁മിന	-6518
▁സതീ	-6519
ഹാര്‍	-6520
▁ഇടത്	-6521
▁കരാറ	-6522
▁ധോണി	-6523
▁ടൂര്‍	-6524
▁പ്രവി	-6525
▁വലിച്ച	-6526
▁എടുത്തി	-6527
▁നടത്താൻ	-6528
▁ദേശീയപാത	-6529
▁വ്യക്തമായി	-6530
▁മോഹന്‍ലാല്‍	-6531
▁ശ്രദ്ധയില്‍	-6532
▁തിരിച്ചറിഞ്ഞ	-6533
▁പ്രത്യേകിച്ച്	-6534
▁ഉം	-6535
▁കവ	-6536
▁കുമ്	-6537
▁പയ്യ	-6538
▁വെയ്	-6539
റങ്ങിയ	-6540
▁ഇറങ്ങ	-6541
▁വികാര	-6542
▁പിന്മാ	-6543
▁സർവകലാശാല	-6544
▁സുപ്രീംകോട	-6545
▁വ്യക്തമാക്കിയത്	-6546
▁അണു	-6547
▁ആരെ	-6548
ബുക്ക്	-6549
ല്ലാതെ	-6550
▁സന്നി	-6551
▁ദീര്‍ഘ	-6552
▁പൂർണ്ണ	-6553
▁പെരുമ്പ	-6554
▁വെസ്റ്റ്	-6555
ുകൂട	-6556
▁സിൻ	-6557
▁സുഗ	-6558
ക്കാന	-6559
▁ഉണ്ണ	-6560
▁പൊലി	-6561
▁ആസൂത്ര	-6562
▁സൗത്ത്	-6563
▁അവർക്ക്	-6564
▁കൂളില്‍	-6565
▁വര്‍ക്ക	-6566
▁പന്തില്‍	-6567
▁അപ്രതീക്ഷിത	-6568
മുണ്ടായിരുന്നു	-6569
ോയ്	-6570
▁..	-6571
വ്വഹ	-6572
▁ചായ	-6573
▁ജൂൺ	-6574
ട്ടിൽ	-6575
▁പദവി	-6576
▁പ്രഥ	-6577
▁അലങ്ക	-6578
ിക്കണമെന്ന	-6579
▁ചിത്രത്തിൽ	-6580
ിക്കപ്പെടുന്ന	-6581
▁പശ്ചാത്തലത്തിൽ	-6582
പാദന	-6583
▁മാണ	-6584
ാര്‍ശ	-6585
▁ടാക്	-6586
▁മലിന	-6587
▁പറ്റിയ	-6588
▁തുടർച്ച	-6589
▁മുസ്ലീം	-6590
▁സന്തോഷം	-6591
▁കെപിസിസി	-6592
▁വാങ്ങുന്ന	-6593
▁ചോദ്യത്തിന്	-6594
ad	-6595
ഭൂമ	-6596
ിതം	-6597
ഷ്യൽ	-6598
▁സ്മ	-6599
▁ദ്വീപ	-6600
▁കേസുകൾ	-6601
▁രക്ഷിത	-6602
ാസമ്മേളന	-6603
▁ഒരുമിച്ച്	-6604
ഭാഷണ	-6605
▁പകര	-6606
▁വലു	-6607
പ്രിം	-6608
രേയും	-6609
ാന്‍ഡ	-6610
ാക്കണം	-6611
ത്തിനാണ്	-6612
▁ബാക്കിയ	-6613
▁37	-6614
▁അന്യ	-6615
▁ജപ്പ	-6616
▁നിഷ്	-6617
▁പെരി	-6618
▁ഷെയ്	-6619
▁ക്ഷേമ	-6620
▁പന്ത്	-6621
▁പ്രസ്	-6622
▁വേട്ട	-6623
▁ധരിച്ച	-6624
▁വെടിവെ	-6625
▁കൂടിയായ	-6626
▁നഷ്ടപരി	-6627
▁നിർദേശം	-6628
▁ഭരണകൂടം	-6629
▁പ്രസിഡൻറ്	-6630
▁വിശേഷിപ്പ	-6631
▁തുടർന്നാണ്	-6632
▁പ്രവർത്തനം	-6633
▁പ്രാര്‍ത്ഥ	-6634
▁അതിര്‍ത്തിയ	-6635
▁തെരഞ്ഞെടുക്ക	-6636
▁തെരഞ്ഞെടുപ്പിൽ	-6637
ാറും	-6638
▁കോലി	-6639
▁ഗോപി	-6640
▁ചിക്ക	-6641
▁യുവജന	-6642
▁സ്കൂൾ	-6643
റിന്‍റെ	-6644
▁മുഹമ്മ	-6645
▁സ്റ്റാ	-6646
യ്ക്കിടെ	-6647
▁നായകന്‍	-6648
▁രണ്ടുപേ	-6649
▁ഉയര്‍ത്തി	-6650
▁ഗുരുതരമായി	-6651
▁പെണ്‍കുട്ടിയുടെ	-6652
നൈ	-6653
▁/	-6654
▁ഹാള	-6655
ഗാന്ധ	-6656
ട്രോള	-6657
▁അതും	-6658
▁മദ്ര	-6659
▁വിജ്ഞ	-6660
▁ഡോക്ടറ	-6661
ത്തിൻ്റെ	-6662
യ്ക്കാണ്	-6663
ുകളുണ്ട്	-6664
▁ഇപ്പോഴിതാ	-6665
▁തെറ്റിദ്ധ	-6666
▁കേരളത്തിന്	-6667
▁ഡോക്ടര്‍മാര്‍	-6668
ധാര	-6669
▁അദ	-6670
▁നിശ	-6671
▁ബാംഗ	-6672
ക്കാലം	-6673
പ്രകാര	-6674
▁ഇന്റർ	-6675
▁ഒന്‍പ	-6676
▁ഉത്തരം	-6677
▁ഒടുവിൽ	-6678
▁സഹോദരി	-6679
▁ചെയ്യണം	-6680
▁പൊലീസിന്	-6681
▁സമീപത്തെ	-6682
▁ക്രിസ്ത്യ	-6683
▁വിഷയത്തിൽ	-6684
▁കണക്കുകള്‍	-6685
മ്ബ	-6686
ഷുറ	-6687
ക്കയ	-6688
ദ്വീ	-6689
തിനിട	-6690
ൊണ്ട്	-6691
▁നിർവഹ	-6692
▁ബാറ്റ	-6693
▁സംഗീതം	-6694
▁പഞ്ചാബ്	-6695
▁മണിയോടെ	-6696
▁എന്നിവയും	-6697
▁പ്രകടിപ്പ	-6698
▁മത്സരിക്ക	-6699
▁തിരിച്ചടിയ	-6700
2)	-6701
▁ജാ	-6702
▁2000	-6703
▁ഗ്രന്ഥ	-6704
▁എടുത്ത്	-6705
▁വീട്ടമ്മ	-6706
▁വേണമെന്ന്	-6707
▁ഡല്‍ഹിയില്‍	-6708
▁ലഭിക്കുന്നത്	-6709
ഫോഴ്	-6710
▁ഓഡി	-6711
▁കവി	-6712
▁വേള	-6713
ദ്ധ്യ	-6714
▁കൊടു	-6715
ുകൂടിയ	-6716
ത്തൂര്‍	-6717
▁ഇബ്രാഹി	-6718
▁പിടികൂട	-6719
▁കാര്യമായ	-6720
▁കോടതിയുടെ	-6721
▁ലക്ഷ്യമിട	-6722
പ്രവര്‍ത്തന	-6723
▁ഉൾപ്പെടെയുള്ള	-6724
ച്ചില	-6725
▁തൃണമ	-6726
▁യുപി	-6727
▁ജഡ്ജി	-6728
▁പതിവ്	-6729
▁കലാകാര	-6730
നത്തില്‍	-6731
▁തെറ്റായ	-6732
▁പ്രിന്‍	-6733
▁യൂറോപ്യ	-6734
ുകയുണ്ടായി	-6735
▁സമ്മേളനത്തില്‍	-6736
ദാസ	-6737
രളി	-6738
▁ദൂ	-6739
▁അബൂ	-6740
പ്രിയ	-6741
ിവാസി	-6742
▁ഗുണം	-6743
▁തരംഗ	-6744
പ്ലിക്ക	-6745
ുമായാണ്	-6746
▁ഇല്ലാതെ	-6747
തെരഞ്ഞെടു	-6748
▁നൽകുന്നത്	-6749
▁സ്റ്റാര്‍	-6750
▁രാഷ്ട്രപതി	-6751
▁പ്രധാനമായും	-6752
പീ	-6753
ഹൈ	-6754
സമാ	-6755
ുമാർ	-6756
▁150	-6757
▁ഇരി	-6758
▁നാശ	-6759
▁സ്ര	-6760
പ്പിലെ	-6761
▁ഇങ്ങനെയ	-6762
▁മിനിറ്റ്	-6763
.'	-6764
താപ	-6765
▁അശ	-6766
▁അവധ	-6767
കൃത്യ	-6768
▁ആകാശ	-6769
▁ബോംബ	-6770
▁സഞ്ജ	-6771
▁വെടിവ	-6772
തിനെതിരെ	-6773
ിലുള്ളത്	-6774
▁അഫ്ഗാനി	-6775
▁ഉയര്‍ത്ത	-6776
▁ഉറപ്പുവരുത്ത	-6777
.”	-6778
▁നാണ	-6779
▁ജിബി	-6780
▁പിരി	-6781
▁വഞ്ച	-6782
▁സൊസൈ	-6783
▁വൈദിക	-6784
▁ഉറപ്പു	-6785
▁ആദിവാസി	-6786
▁ഗുരുവായ	-6787
▁ആഭിമുഖ്യ	-6788
▁വന്നിരുന്നു	-6789
▁അസിസ്റ്റന്റ്	-6790
പ്രശ്	-6791
വിന്ദ്	-6792
▁ഉപരോധ	-6793
▁പാണ്ഡ	-6794
ന്മാരും	-6795
▁തുടരും	-6796
▁ചെയർമാൻ	-6797
▁യഥാർത്ഥ	-6798
▁ഉണ്ടാകുന്ന	-6799
▁പേര്‍ക്കും	-6800
▁അമേരിക്കയിലെ	-6801
ിട്ടില്ലെന്നും	-6802
ന്തോ	-6803
രഹിത	-6804
▁പദവ	-6805
▁പാലാ	-6806
▁ഹരിയ	-6807
ുവെന്ന	-6808
▁ഫിലിം	-6809
ത്തിനകം	-6810
േണ്ടതാണ്	-6811
▁വലിയൊരു	-6812
പ്പുറത്ത്	-6813
മുണ്ടായത്	-6814
▁പഞ്ചായത്തിലെ	-6815
90	-6816
▁അശ്	-6817
▁വരി	-6818
▁മുനി	-6819
ുണ്ടാവ	-6820
▁കൊന്ന	-6821
▁തടഞ്ഞ	-6822
▁യന്ത്ര	-6823
▁ശിവസേന	-6824
▁കളക്ടര്‍	-6825
▁തൊഴിലാളി	-6826
▁യോഗത്തിൽ	-6827
▁രക്ഷപ്പെട	-6828
ഷക	-6829
ഴുത	-6830
▁ആച	-6831
▁ചിറ	-6832
▁മേള	-6833
▁2012	-6834
▁ഒത്ത	-6835
മുണ്ടാക	-6836
▁നിരക്ക	-6837
▁അട്ടിമറ	-6838
▁മണിക്കൂ	-6839
▁വരുത്തി	-6840
ുകളുടെയും	-6841
▁ആക്രമിച്ച	-6842
കൂടി	-6843
ങ്കര	-6844
ർപ്പ	-6845
▁പൈസ	-6846
▁സന്ധ	-6847
നുമായി	-6848
▁ജാമ്യ	-6849
▁അറിയാം	-6850
▁തികച്ചും	-6851
▁ഗുജറാത്ത്	-6852
ത്തിലൂടെയാണ്	-6853
▁സാധ്യതയുണ്ട	-6854
▁ചൂണ്ടിക്കാട്ട	-6855
▁സഹായിക്കുന്നു	-6856
▁300	-6857
പ്പാറ	-6858
വസ്തു	-6859
▁ആചാര	-6860
▁നിറം	-6861
▁പുറം	-6862
തുമായി	-6863
▁കാന്‍	-6864
▁കഞ്ചാവ്	-6865
▁സുനില്‍	-6866
▁ക്കെതിരെ	-6867
▁നിക്ഷേപം	-6868
▁ഇത്തരമൊരു	-6869
▁കൂട്ടിച്ചേർത്തു	-6870
രുതി	-6871
▁സ്ഫ	-6872
ട്ടിക	-6873
വെള്ള	-6874
▁ആണ്‍	-6875
▁മെഗാ	-6876
▁ദിലീപ	-6877
▁ദൗത്യ	-6878
▁ആദിത്യ	-6879
▁വധശിക്ഷ	-6880
▁തിരിച്ച്	-6881
▁പങ്കുവെച്ച	-6882
▁ടേ	-6883
▁മുട	-6884
രുണ്യ	-6885
ുപേര്‍	-6886
▁മോഷണം	-6887
▁താരമാണ്	-6888
▁വിശദമായ	-6889
▁ഉയര്‍ന്നു	-6890
▁പതിറ്റാണ്ട	-6891
ാനിരിക്കുന്ന	-6892
▁നാട്ടിലേക്ക്	-6893
le	-6894
മറി	-6895
▁മിസൈ	-6896
▁വിഷമ	-6897
▁മാർക്ക	-6898
പ്പുകള്‍	-6899
ാനാവില്ല	-6900
ഫെ	-6901
മനു	-6902
▁(5	-6903
ദ്ദി	-6904
രീഷ്	-6905
▁അതെ	-6906
▁ഓടി	-6907
േറ്ററ	-6908
▁മരുമ	-6909
▁ഹാരി	-6910
ുകയെന്ന	-6911
ിക്കപ്പെട	-6912
▁വേണ്ടിയാണ്	-6913
▁കുറ്റപ്പെടുത്തി	-6914
▁38	-6915
▁കോല	-6916
▁പൊള	-6917
ക്കുട	-6918
▁ഐഎസ്	-6919
▁കുര്യ	-6920
▁മദ്യം	-6921
ക്കിംഗ്	-6922
ാതെയാണ്	-6923
ാലിക്കു	-6924
▁സ്വാഗത	-6925
്യമന്ത്ര	-6926
ത്തിലെത്തിയ	-6927
▁കിലോമീറ്റർ	-6928
▁കോണ്‍ഗ്രസിന്റെ	-6929
ോടി	-6930
▁ലയ	-6931
നഷ്ട	-6932
തുമാണ്	-6933
▁ഡൗണ്‍	-6934
▁ഒമ്പത്	-6935
▁മീഡിയയിൽ	-6936
▁താരങ്ങള്‍	-6937
▁സാന്നിധ്യ	-6938
▁പൊലീസിന്റെ	-6939
മട	-6940
▁ചട	-6941
▁സെൽ	-6942
▁കരുണ	-6943
▁ബാര്‍	-6944
ത്തിനുശേഷം	-6945
▁കാലാവസ്ഥാ	-6946
▁ഭൂരിപക്ഷം	-6947
▁സ്ഥാപിച്ച	-6948
▁ചര്‍ച്ചകള്‍	-6949
ഖി	-6950
ാവൂ	-6951
ിയാ	-6952
▁ഏറ	-6953
പ്പർ	-6954
ടിയിൽ	-6955
▁പ്രൈ	-6956
▁ഫീസ്	-6957
മാണെന്ന	-6958
▁റിസര്‍	-6959
▁സർവീസ്	-6960
▁ഒഴിവാക്കി	-6961
▁പരാമര്‍ശം	-6962
▁പ്രവർത്തനങ്ങൾ	-6963
▁കുട്ടികള്‍ക്ക്	-6964
ൃഹ	-6965
മൂല	-6966
▁അനൂ	-6967
▁തോമ	-6968
▁പോള	-6969
▁അയാൾ	-6970
▁ഗാനം	-6971
▁ചാനല	-6972
▁ദുബൈ	-6973
▁ഫോട്ട	-6974
▁മെന്റ	-6975
▁വിനോദ്	-6976
▁ഹോട്ടല	-6977
▁അബുദാബി	-6978
▁പ്രവിശ്യ	-6979
▁ബന്ധപ്പെട	-6980
ിക്കുന്നതാണ്	-6981
▁മണ്ഡലത്തില്‍	-6982
▁സ്വീകരിക്കുന്ന	-6983
▁65	-6984
▁കാൽ	-6985
▁ഫാഷ	-6986
▁നേരം	-6987
▁സ്പെ	-6988
▁ഗോപാല	-6989
▁രജിസ്	-6990
▁കൂളിലെ	-6991
▁പത്താം	-6992
▁നല്ലൊരു	-6993
▁സുപ്രിം	-6994
രുമെന്നും	-6995
▁പോലീസിന്	-6996
▁പ്രക്രിയ	-6997
▁മമ്മൂട്ട	-6998
▁അടിയന്തിര	-6999
▁ആവശ്യമാണ്	-7000
▁തുടങ്ങുന്ന	-7001
വലി	-7002
▁നാര	-7003
▁സംവ	-7004
ങ്ങളോ	-7005
ടുപുഴ	-7006
വിട്ടി	-7007
▁ഗ്രാം	-7008
ുമെന്നു	-7009
▁പത്രിക	-7010
▁പോലിസ്	-7011
▁പ്രചരണ	-7012
▁കാണിച്ച	-7013
▁കോടിയുടെ	-7014
▁പ്രതിഷേധിച്ച്	-7015
ജക	-7016
ഷാ	-7017
മാത	-7018
ങ്കി	-7019
സഞ്ച	-7020
▁അക്	-7021
▁തമിഴ	-7022
▁രാഷ്	-7023
▁അയല്‍	-7024
▁നാവിക	-7025
▁എതിരാള	-7026
▁പന്ത്ര	-7027
▁സൈബര്‍	-7028
▁രാജ്യസഭ	-7029
▁പാർട്ടിയ	-7030
▁സമ്മര്‍ദ്ദ	-7031
▁ചെയ്യപ്പെട്ട	-7032
▁രച	-7033
രിലെ	-7034
ാനിലെ	-7035
▁ഇന്‍ഡ	-7036
▁പിരിച്ചു	-7037
▁സംരക്ഷണം	-7038
▁ചിത്രത്തിന്	-7039
▁ജീവിതത്തില്‍	-7040
▁പൗ	-7041
ടിസി	-7042
▁വർധ	-7043
▁കഷ്ട	-7044
ാനാകും	-7045
▁പ്രഥമ	-7046
ൂട്ടീവ്	-7047
▁ബാധ്യത	-7048
▁വൈറ്റ്	-7049
▁പാടില്ല	-7050
▁ഫ്രാന്‍	-7051
തെങ്കിലും	-7052
▁ഉദ്യോഗസ്ഥർ	-7053
▁സുഹൃത്തുക്കള	-7054
-20	-7055
▁ടൊ	-7056
ുവഴി	-7057
▁രചന	-7058
ഫോണ്‍	-7059
ാകാത്ത	-7060
▁കമ്പ്യ	-7061
▁പ്രയാസ	-7062
▁റവന്യൂ	-7063
▁ഫോണില്‍	-7064
▁സെന്റര്‍	-7065
ിച്ചുകൊണ്ട	-7066
▁നിർദ്ദേശം	-7067
▁രോഗമുക്തി	-7068
ോഗ്	-7069
ാനായ	-7070
▁ഇളവ്	-7071
▁ബോസ്	-7072
▁അതാണ്	-7073
▁ആന്‍ഡ	-7074
▁തൊട്ടു	-7075
▁ഡയറക്ടർ	-7076
▁നിശ്ചിത	-7077
▁മറ്റൊരാ	-7078
▁അപ്പോള്‍	-7079
ാക്കള്‍ക്ക്	-7080
രുപ	-7081
ാപു	-7082
▁മദ	-7083
▁ഹൂ	-7084
ഡിപി	-7085
ാരും	-7086
▁നീര	-7087
▁ഫോർ	-7088
▁1000	-7089
▁ഒഴുക	-7090
▁മിനു	-7091
കരമാണ്	-7092
▁കിരീട	-7093
▁വീണ്ട	-7094
▁ഓസ്ട്ര	-7095
▁പ്രമേയ	-7096
ങ്ങളുള്ള	-7097
▁കരുതുന്ന	-7098
▁പ്രദേശത്തെ	-7099
രാഗത	-7100
േറ്റർ	-7101
▁അതിശ	-7102
▁ഉദ്ധ	-7103
▁ചക്ര	-7104
▁മധുര	-7105
▁ബോർഡ്	-7106
▁മേധാവ	-7107
▁ശാന്ത	-7108
▁തുടര്‍	-7109
▁മുകളിൽ	-7110
ാനെത്തിയ	-7111
▁ഏതാണ്ട്	-7112
▁മുന്നണി	-7113
▁വഴിയാണ്	-7114
ചെയ്യുന്ന	-7115
▁നയതന്ത്ര	-7116
▁വീടിന്റെ	-7117
▁ഇന്‍സ്റ്റ	-7118
▁ആയിരിക്കും	-7119
▁കേസെടുത്തു	-7120
▁പങ്കെടുക്കുന്ന	-7121
ജിത	-7122
വിസ്	-7123
▁തോൽ	-7124
ക്കാൾ	-7125
▁ദിലീ	-7126
▁ഹാജി	-7127
▁കാപ്പ	-7128
▁സമഗ്ര	-7129
മ്പില്‍	-7130
ുവരുന്ന	-7131
ത്തിയാണ്	-7132
ാനായില്ല	-7133
▁സിവില്‍	-7134
▁ആഫ്രിക്ക	-7135
▁യൂണിറ്റ്	-7136
▁യഥാര്‍ത്ഥ	-7137
നുബന്ധിച്ച്	-7138
';	-7139
ഡെ	-7140
ണും	-7141
ിവ്	-7142
ീഖ്	-7143
കാരി	-7144
ുപയോഗ	-7145
▁അളവ്	-7146
▁മറിയ	-7147
▁പോരാട്ടം	-7148
ോഗം	-7149
പ്രാ	-7150
▁അസ്	-7151
▁പരമ്പ	-7152
▁വിപ്ല	-7153
▁വിസ്ത	-7154
▁ശര്‍മ	-7155
▁ഇതിനോട	-7156
▁സമുദ്ര	-7157
▁സ്ഥിരം	-7158
ക്കാരന്‍	-7159
▁തടയാന്‍	-7160
▁തൊടുപുഴ	-7161
▁സ്വദേശികളായ	-7162
▁മയക്കുമരുന്ന്	-7163
ൈൻ	-7164
മാല	-7165
ക്ഷണ	-7166
ഘോഷം	-7167
ഡിങ്	-7168
തന്ന	-7169
▁താപ	-7170
▁പണമ	-7171
ുമ്പ്	-7172
▁ചില്ല	-7173
▁നൽകും	-7174
▁സംഘവും	-7175
മാര്‍ക്ക്	-7176
▁പച്ചക്കറ	-7177
▁വിമര്‍ശനം	-7178
▁കഴിഞ്ഞദിവസം	-7179
▁കൊല്ലപ്പെട്ടത്	-7180
മൊഴ	-7181
െയില	-7182
▁ക്വ	-7183
▁വർഗ	-7184
ന്ദിര	-7185
▁വികസ	-7186
▁അഹമ്മ	-7187
▁ബൈക്ക	-7188
▁ബാംഗ്ല	-7189
യാണെന്ന്	-7190
▁പരിക്കേറ്റു	-7191
ിനോ	-7192
▁55	-7193
സാണ്	-7194
▁അഷ്	-7195
▁ബിന്‍	-7196
▁വിശ്രമ	-7197
▁വേണ്ടത്	-7198
▁വർഷത്തെ	-7199
▁ആയിരുന്ന	-7200
ാക്കാനുള്ള	-7201
▁ട്രാന്‍സ്	-7202
ഫലം	-7203
ന്തു	-7204
▁ജമാ	-7205
ുവാനും	-7206
▁താമസം	-7207
ാകുന്നു	-7208
വരുടെയും	-7209
▁റെയിൽവേ	-7210
ങ്ങള്‍ക്ക	-7211
▁കുറിപ്പ്	-7212
▁പരസ്യമായി	-7213
ിച്ചെങ്കിലും	-7214
▁കോമ	-7215
▁ചേര	-7216
▁ഫണ്ട	-7217
▁ഭാരം	-7218
ികളിലും	-7219
ക്കിടയിൽ	-7220
▁അച്ഛന്‍	-7221
▁നിരോധനം	-7222
▁വിശദാംശ	-7223
▁കാരണമായി	-7224
▁ക്ഷേത്രം	-7225
▁സ്ത്രീകളുടെ	-7226
▁സെപ്റ്റംബര്‍	-7227
ല്ല്	-7228
▁ഓപ്	-7229
▁ജൈവ	-7230
▁മഞ്ച	-7231
▁വയസ്	-7232
ക്കിങ്	-7233
പ്പള്ള	-7234
റിയുടെ	-7235
ിക്കാതി	-7236
▁മാവോയി	-7237
▁സംഘടനാ	-7238
▁ഏറ്റുവാ	-7239
▁ജാമ്യാപ	-7240
▁ഭാഗമായാണ്	-7241
▁സത്യപ്രതി	-7242
▁നേതാക്കളും	-7243
▁വിദ്യാഭ്യാസം	-7244
▁സമര്‍പ്പിക്ക	-7245
▁ഉപയോഗിക്കുന്നത്	-7246
ഡു	-7247
▁ഹസ	-7248
ന്തം	-7249
സ്വദ	-7250
▁അവര	-7251
▁മരം	-7252
റിയാം	-7253
▁എതിര്‍	-7254
▁നിഗമനം	-7255
▁മൈക്രോ	-7256
▁കൊട്ടാര	-7257
▁സംഘടനകള്‍	-7258
▁ആവശ്യപ്പെട	-7259
▁പ്രതികരിച്ച	-7260
വിഷ	-7261
▁സന	-7262
്യാത	-7263
▁അകലം	-7264
▁കാലി	-7265
▁സതീശ	-7266
▁അതിവേ	-7267
▁ഐശ്വര	-7268
▁ട്രഷറ	-7269
ത്തിനിര	-7270
▁സർട്ടിഫ	-7271
ക്കേസില്‍	-7272
▁സിനിമയിൽ	-7273
▁എല്‍ഡിഎഫ്	-7274
▁നിലയിലാണ്	-7275
▁രേഖപ്പെടുത്ത	-7276
▁അബ	-7277
മയുടെ	-7278
▁ഒളിവ	-7279
▁പാർല	-7280
▁അണിയറ	-7281
▁നെഞ്ച	-7282
▁മില്യ	-7283
യോടെയാണ്	-7284
ിനെതിരായ	-7285
▁ഫ്രഞ്ച്	-7286
▁നിലനിര്‍ത്ത	-7287
▁വെളിപ്പെടുത്തി	-7288
15	-7289
en	-7290
▁അകല	-7291
▁റാം	-7292
ഗ്രാമ	-7293
വെച്ച	-7294
ാനൊരു	-7295
▁നായർ	-7296
▁പെയ്	-7297
▁ജോർജ്	-7298
▁പാത്ര	-7299
ഡിയില്‍	-7300
വർക്കും	-7301
▁എഴുന്ന	-7302
▁മത്സരിച്ച	-7303
▁ജാമ്യാപേക്ഷ	-7304
.’	-7305
23	-7306
▁സുവ	-7307
▁സൂര	-7308
ദാര്‍	-7309
വിന്ദ	-7310
ബിന്റെ	-7311
ല്ലൂര്‍	-7312
▁ഡിഗ്രി	-7313
ുകളിലാണ്	-7314
▁ആനുകൂല്യ	-7315
▁സൗന്ദര്യ	-7316
ിക്കുമ്പോൾ	-7317
▁ചന്ദ്രശേഖ	-7318
▁കമ്പ്യൂട്ട	-7319
▁കുറിച്ചുള്ള	-7320
ർഗ	-7321
വായി	-7322
വ്വം	-7323
▁ഇളവ	-7324
സഹായം	-7325
▁അനിവ	-7326
▁നിയോ	-7327
▁മക്ക	-7328
▁വിളി	-7329
ിക്കാറ	-7330
ങ്ങുകയാണ്	-7331
▁ശാസ്ത്രജ്ഞ	-7332
di	-7333
േണ	-7334
ർഥ	-7335
ൂലം	-7336
▁ചൈ	-7337
താരം	-7338
മൂലം	-7339
സിക്	-7340
ഴുതിയ	-7341
▁നാണ്	-7342
സംരക്ഷ	-7343
▁ഉത്തർ	-7344
സ്റ്റ്യ	-7345
▁ആഗ്രഹം	-7346
▁ഉത്പാദ	-7347
▁നിലവാര	-7348
▁വോട്ടു	-7349
ത്തൊഴിലാള	-7350
▁ടൂര്‍ണമെ	-7351
ങ്ങളൊന്നും	-7352
▁ഉള്‍പ്പടെ	-7353
▁പരമ്പരാഗത	-7354
▁തുടര്‍ന്നു	-7355
▁ഇത്തരത്തിലുള്ള	-7356
▁എല്ലാവര്‍ക്കും	-7357
▁സംസ്ഥാനങ്ങളില്‍	-7358
▁നന്മ	-7359
ത്തിരി	-7360
സിച്ച്	-7361
ാനന്തര	-7362
▁അടക്ക	-7363
▁വേര്‍	-7364
▁വെള്ളാ	-7365
▁കമ്മീഷൻ	-7366
▁ബംഗളൂരു	-7367
ത്തുടർന്ന്	-7368
▁കരുതുന്നത്	-7369
▁ചൂണ്ടിക്കാണ	-7370
െടുത്തിരുന്നു	-7371
▁ഥാന	-7372
▁ഡിസൈ	-7373
▁പോഷക	-7374
▁മാർഗ	-7375
▁ഹോസ്	-7376
ക്കേസ്	-7377
▁ആസ്വദ	-7378
▁നീട്ട	-7379
ത്തേയും	-7380
ുകാരനായ	-7381
▁ഉപയോഗം	-7382
ാവശ്യമായ	-7383
▁ഉദ്ഘാടന	-7384
▁മോട്ടോര്‍	-7385
▁സംഘടനയുടെ	-7386
▁എന്തായാലും	-7387
▁നടത്തുകയും	-7388
▁സൗജന്യമായി	-7389
ക്വ	-7390
▁ആയിര	-7391
ബ്രഹാം	-7392
▁നായകന	-7393
▁ഡിസംബർ	-7394
▁തോന്നി	-7395
മുണ്ടായി	-7396
▁നിബന്ധന	-7397
▁ഇംഗ്ലണ്ട്	-7398
▁നഗരത്തിലെ	-7399
▁നരേന്ദ്രമോദി	-7400
▁തുടര്‍ച്ചയായി	-7401
ച്യു	-7402
▁ഐടി	-7403
▁ജേത	-7404
▁ഭദ്ര	-7405
▁കരുതി	-7406
▁വിപണി	-7407
▁സമൂഹം	-7408
ങ്കില്‍	-7409
ാലിറ്റി	-7410
▁കാത്തു	-7411
▁പ്രചോദ	-7412
▁റോഡില്‍	-7413
▁രണ്ടാഴ്ച	-7414
▁ചുഴലിക്കാ	-7415
മുണ്ടായിരുന്ന	-7416
▁സത്യപ്രതിജ്ഞ	-7417
▁സ്വീകരിച്ചത്	-7418
▁വെളിപ്പെടുത്തിയ	-7419
കയ	-7420
േജി	-7421
▁ഭീ	-7422
▁തടസ	-7423
ിക്കൂ	-7424
▁തകരാ	-7425
സ്വാമി	-7426
▁ഉറക്ക	-7427
▁തൃണമൂ	-7428
▁തനിക്ക	-7429
▁സംഘപരി	-7430
ിക്കില്ല	-7431
െടുക്കാൻ	-7432
▁വാണിജ്യ	-7433
ത്തിക്കൊണ്ട	-7434
▁കൊല്ലപ്പെട്ടു	-7435
▁4,	-7436
▁re	-7437
കരണം	-7438
ങ്കോ	-7439
▁ഹെൽ	-7440
▁പാലം	-7441
▁ബോക്	-7442
▁ലിമി	-7443
▁വമ്പ	-7444
ിയെയും	-7445
▁മറക്ക	-7446
▁ഗര്‍ഭി	-7447
▁ഹിന്ദി	-7448
▁ഇന്നിങ്	-7449
▁എത്രയും	-7450
▁ഇതിനോടകം	-7451
▁ഇബ്രാഹിം	-7452
▁ബ്ലാക്ക്	-7453
▁സന്ദര്‍ശന	-7454
▁സ്ത്രീകളെ	-7455
▁റു	-7456
കളില	-7457
▁ഓളം	-7458
ചെയ്ത	-7459
ന്റീന	-7460
മേറ്റ	-7461
വാന്‍	-7462
▁ട്രോള	-7463
യെന്നും	-7464
ർക്കാണ്	-7465
▁ചാക്കോ	-7466
▁പാരമ്പ	-7467
▁വളർച്ച	-7468
▁വസ്തുത	-7469
▁കമ്യൂണി	-7470
▁ഫസ്റ്റ്	-7471
▁രജിസ്ട്ര	-7472
▁സാന്നിധ്യം	-7473
▁ജനങ്ങള്‍ക്ക്	-7474
▁സെക്രട്ടേറിയ	-7475
11	-7476
▁ആൾ	-7477
▁വേന	-7478
▁പരേത	-7479
ാലിന്റെ	-7480
▁അനുസ്മ	-7481
▁നിർത്തി	-7482
▁വിപണിയിൽ	-7483
ിരുന്നാലും	-7484
▁കീഴിലുള്ള	-7485
▁പിടിയില്‍	-7486
▁താരത്തിന്റെ	-7487
▁കുഞ്ഞാലിക്കു	-7488
ീർഘ	-7489
▁ജുഡ	-7490
വര്‍ഷ	-7491
▁ജെയ്	-7492
▁വീടിന്	-7493
▁അനുഗ്രഹ	-7494
▁ഐപിഎല്ല	-7495
▁ടീമില്‍	-7496
▁പ്രശാന്ത്	-7497
▁ഇത്തരത്തിൽ	-7498
▁സ്വന്തമായി	-7499
▁മുന്നോടിയായി	-7500
ക്കുഴ	-7501
▁ഇടവക	-7502
▁ട്രെ	-7503
▁ന്റെ	-7504
▁മോഡി	-7505
▁കുമ്പ	-7506
▁പണ്ഡി	-7507
▁പലതും	-7508
▁റിട്ട	-7509
ക്കാലിക	-7510
▁കല്യാണ	-7511
▁ആരോഗ്യം	-7512
▁പ്രമേയം	-7513
▁ഭാഗത്തു	-7514
ിച്ചുകൊണ്ട്	-7515
▁ണ	-7516
ട്സ്	-7517
യോട്ട	-7518
▁സ്കോ	-7519
ട്രല്‍	-7520
ബ്ല്യു	-7521
▁ഉറവിട	-7522
▁കാമ്പ	-7523
▁നഷ്ടം	-7524
▁നാഷണൽ	-7525
▁രക്തം	-7526
ക്ഷേത്ര	-7527
റ്റിങ്ങ	-7528
▁പതിനായി	-7529
ക്കുകയാണ്	-7530
പോര്‍ട്ട്	-7531
▁സംവിധായകൻ	-7532
▁പ്ലാസ്റ്റിക്	-7533
ുകയുമായിരുന്നു	-7534
▁മാധ്യമങ്ങളോട്	-7535
.9	-7536
യൂ	-7537
ടെക്	-7538
വച്ച	-7539
പര്യമ	-7540
വയാണ്	-7541
▁ആമസോ	-7542
▁ഫ്രീ	-7543
▁മോഹന	-7544
▁സ്വർണ	-7545
ികളുടെയും	-7546
▁പുനരാരംഭ	-7547
▁പെന്‍ഷന്‍	-7548
▁എടുക്കുന്ന	-7549
ിലുണ്ടായിരുന്ന	-7550
▁റിപ്പോർട്ടുകൾ	-7551
ലംഘ	-7552
▁42	-7553
▁പ്	-7554
സ്സി	-7555
▁പുത	-7556
▁സപ്	-7557
▁ഗ്യാ	-7558
▁ജുഡീ	-7559
ദ്വീപ്	-7560
▁ആവിഷ്	-7561
▁കമന്റ	-7562
▁കാർഷിക	-7563
▁പഞ്ചാബ	-7564
▁വിവാദം	-7565
▁ശരാശരി	-7566
▁വര്‍ഗീയ	-7567
▁സ്ത്രീയ	-7568
▁കലക്ടര്‍	-7569
▁ചേര്‍ത്ത്	-7570
▁സാധ്യതയുള്ള	-7571
പദ	-7572
പദ്ധ	-7573
▁അമീ	-7574
▁മുക	-7575
തുവരെ	-7576
യായത്	-7577
വേറ്റ	-7578
▁ക്രെ	-7579
▁തല്ല	-7580
▁മൊയ്	-7581
▁ഹൗസ്	-7582
▁ഇതുസം	-7583
▁ഫൗണ്ട	-7584
▁ഡോളര്‍	-7585
▁പ്രതിയ	-7586
▁പടിഞ്ഞാറ	-7587
▁കൊച്ചിയിലെ	-7588
▁പദ്ധതികള്‍	-7589
▁ചെയ്തിരുന്ന	-7590
▁സര്‍ക്കാരിനെ	-7591
am	-7592
st	-7593
െയെ	-7594
▁ഹീ	-7595
▁195	-7596
▁ഗംഭ	-7597
▁ബൗള	-7598
▁പാചക	-7599
നൊപ്പം	-7600
ന്മാരെ	-7601
▁പാപ്പ	-7602
▁പ്രകോ	-7603
▁അരുണ്‍	-7604
▁മടങ്ങി	-7605
▁മല്‍സര	-7606
ുകളിലൂടെ	-7607
▁ഏറ്റവുമ	-7608
▁കീഴില്‍	-7609
ിപ്പിച്ചു	-7610
▁രൂപീകരിക്ക	-7611
മർ	-7612
തിഥ	-7613
മേള	-7614
ിനിര	-7615
▁ശ്യ	-7616
മ്പാട	-7617
▁വിമത	-7618
▁വർധി	-7619
▁ജനിച്ച	-7620
▁വിമർശന	-7621
▁വെള്ളി	-7622
▁പ്രതിയായ	-7623
▁ഭാര്യയും	-7624
▁ശുപാര്‍ശ	-7625
▁അംഗങ്ങള്‍	-7626
▁തിരിച്ചടി	-7627
രക്കണക്കിന്	-7628
▁മലയാളികളുടെ	-7629
▁ആവർ	-7630
ക്രമം	-7631
▁അഡീഷ	-7632
▁ട്യൂ	-7633
▁അടയാള	-7634
▁അവശ്യ	-7635
▁മിന്ന	-7636
▁ഇന്‍സ്	-7637
▁അയാളുടെ	-7638
▁ഉത്പന്ന	-7639
▁ട്വന്റി	-7640
▁പ്രസംഗം	-7641
▁രാജസ്ഥാന	-7642
▁പ്രചരിപ്പ	-7643
▁പാര്‍ലമെന്റ	-7644
▁എന്നിരുന്നാലും	-7645
ഭ്	-7646
▁പവ	-7647
സിപി	-7648
▁ഫൈസ	-7649
യേയും	-7650
ശ്ചിത	-7651
▁ബാഴ്	-7652
▁വീണ്	-7653
▁സർവ്വ	-7654
ികൾക്കും	-7655
▁കാറില്‍	-7656
▁നിർമ്മാണ	-7657
മുണ്ടെന്ന്	-7658
▁പാകിസ്ഥാന	-7659
▁കണ്ടെത്താന്‍	-7660
▁ക്രൈംബ്രാഞ്ച്	-7661
കുറ	-7662
ക്രാ	-7663
▁ജനത	-7664
സിനും	-7665
ാര്‍ജ	-7666
▁നാഥ്	-7667
▁മട്ട	-7668
▁ലീഡ്	-7669
▁സൗകര	-7670
ക്ഷത്ര	-7671
▁പറയാം	-7672
▁കിടന്ന	-7673
▁പഞ്ചസാര	-7674
▁സഞ്ചാരി	-7675
▁സമ്മാനം	-7676
▁ഓഫീസില്‍	-7677
▁പ്രോട്ടോ	-7678
▁ബ്രാഞ്ച്	-7679
▁ട്രെയിന്‍	-7680
▁എഴുത്തുകാര	-7681
▁പേര്‍ക്കാണ്	-7682
▁മന്ത്രിയുടെ	-7683
▁അടിസ്ഥാനത്തിൽ	-7684
▁അവതരിപ്പിച്ചു	-7685
ാമോ	-7686
▁ധൈ	-7687
ങ്ങര	-7688
സമൂഹ	-7689
▁ചാണ്ട	-7690
▁പലയിട	-7691
▁മുഖേന	-7692
ങ്ങാന്‍	-7693
ുന്നതും	-7694
▁തടഞ്ഞു	-7695
▁ഹരിയാന	-7696
ക്കാരനായ	-7697
▁ജനസംഖ്യ	-7698
▁നേതാവും	-7699
▁പ്രഖ്യാ	-7700
▁അസോസിയേഷൻ	-7701
▁ചെയ്യാനുള്ള	-7702
റം	-7703
മയം	-7704
മിട	-7705
▁മകൾ	-7706
ത്തിര	-7707
▁ബാധക	-7708
▁മേയ്	-7709
▁രൂപയ	-7710
ബിയുടെ	-7711
യാളാണ്	-7712
▁അമ്പല	-7713
▁ഓഫീസർ	-7714
ിട്ടാണ്	-7715
▁ആകര്‍ഷ	-7716
▁അനുമതിയ	-7717
▁അമ്മയും	-7718
ിലേക്കാണ്	-7719
▁നൽകുന്നു	-7720
▁വന്നതോടെ	-7721
ിക്കുമെന്ന	-7722
▁വാക്കുകള്‍	-7723
▁അധ്യക്ഷനായി	-7724
▁അതുകൊണ്ടുതന്നെ	-7725
ചല	-7726
വൃ	-7727
▁ചര	-7728
വരിൽ	-7729
വട്ടം	-7730
▁ജീവൻ	-7731
▁ലോഡ്	-7732
▁ബുദ്ധ	-7733
▁മസ്ജി	-7734
▁കളിച്ച	-7735
▁മുന്നണ	-7736
▁വിൽപ്പന	-7737
തിരുന്നത്	-7738
▁ആരോപിച്ച്	-7739
▁രാജേന്ദ്ര	-7740
▁പുറത്തേക്ക്	-7741
▁ആരംഭിക്കുന്ന	-7742
▁കമ്മിറ്റിയുടെ	-7743
തരം	-7744
ഫോൺ	-7745
ബിന	-7746
▁44	-7747
▁കോം	-7748
▁ഹർജ	-7749
മുന്ന	-7750
യിന്‍	-7751
ഷിപ്പ	-7752
ുടേത്	-7753
▁അറിവ	-7754
▁കണ്‍വീന	-7755
▁ചടങ്ങിൽ	-7756
രിപ്പിച്ച	-7757
▁നിര്‍ത്ത	-7758
▁ജില്ലകളിൽ	-7759
▁തുടങ്ങിയവർ	-7760
▁വിശദീകരിക്ക	-7761
▁ആൻ	-7762
▁ബഷ	-7763
തോളം	-7764
▁ഒഴു	-7765
പാര്‍	-7766
രന്റെ	-7767
ാറ്റ്	-7768
ിലേറെ	-7769
▁ദീർഘ	-7770
▁നൂറു	-7771
▁മുൻക	-7772
േണ്ടിയ	-7773
▁ഗുണ്ട	-7774
ട്ടിയത്	-7775
▁ഗവര്‍ണ	-7776
▁ഈസ്റ്റ്	-7777
▁പങ്കുവച്ച	-7778
പടി	-7779
സംഗ	-7780
▁co	-7781
▁യേ	-7782
▁ആറാം	-7783
▁വാര്യ	-7784
▁ഒക്ടോബർ	-7785
▁ഭരണാധിക	-7786
▁അറിയില്ല	-7787
▁കൊച്ചിയില്‍	-7788
▁പരിശോധനയില്‍	-7789
നയ	-7790
▁43	-7791
▁സെമി	-7792
▁ഓര്‍മ	-7793
ക്കുട്ട	-7794
▁ഇതിനിട	-7795
▁ഞെട്ടി	-7796
▁സർക്കാ	-7797
ക്കുറിച്ച	-7798
▁പേരിലാണ്	-7799
ത്തിനൊപ്പം	-7800
▁ഇറക്കുമതി	-7801
▁ഇലക്ട്രിക്	-7802
▁സ്ഥാനാര്‍ഥി	-7803
▁പറയുന്നുണ്ട്	-7804
▁അഹ	-7805
▁ഫു	-7806
പിടി	-7807
മ്പു	-7808
ളിത്	-7809
▁ട്രൈ	-7810
▁വേറെ	-7811
പ്പുകൾ	-7812
▁ഉമ്മൻ	-7813
▁ശബ്ദം	-7814
ാക്കളും	-7815
▁സാധ്യമ	-7816
ത്തിലേറെ	-7817
▁ചേര്‍ക്ക	-7818
▁സുപ്രധാന	-7819
▁പെൺകുട്ടി	-7820
▁പോര്‍ട്ട്	-7821
▁ശ്രീനിവാസ	-7822
▁സ്മാര്‍ട്ട്	-7823
▁അന്വേഷണത്തില്‍	-7824
ിച്ചിരിക്കുകയാണ്	-7825
▁വിദ്യാര്‍ഥികള്‍	-7826
ോബ	-7827
ഭാര	-7828
മണ്ണ	-7829
റ്റേ	-7830
▁പാദ	-7831
ളില്‍	-7832
▁നായി	-7833
ികളായി	-7834
▁ഇടതുമ	-7835
▁ഒരാളെ	-7836
▁ഡോക്ട	-7837
▁അടുക്കള	-7838
▁നേടുന്ന	-7839
▁മാറ്റിവ	-7840
▁പിടിച്ച്	-7841
▁നെഗറ്റീവ്	-7842
ാനായിരുന്നു	-7843
▁ഉദ്യോഗസ്ഥരെ	-7844
▁ഉള്‍പ്പെട്ട	-7845
▁സെന്‍ട്രല്‍	-7846
▁ആക്രമണത്തില്‍	-7847
ഴം	-7848
▁രി	-7849
▁ദേഹ	-7850
▁നടു	-7851
▁സുന	-7852
▁ശശിക	-7853
മിയുടെ	-7854
▁ഞാനും	-7855
▁തെക്ക	-7856
▁പൂച്ച	-7857
▁വെറുതെ	-7858
▁തിരിച്ചെ	-7859
▁ശാസ്ത്രീയ	-7860
▁അഭ്യര്‍ത്ഥ	-7861
▁കുറ്റകൃത്യ	-7862
▁നിര്‍ത്തിയ	-7863
▁പ്രശ്നങ്ങൾ	-7864
▁രാഷ്ട്രീയം	-7865
▁തൊഴിലാളികള്‍	-7866
▁സ്വന്തമാക്കി	-7867
ഡർ	-7868
ൻഷൻ	-7869
▁ജഗ	-7870
ക്രി	-7871
നമാണ്	-7872
ലേറ്റ	-7873
▁ശൈലജ	-7874
▁നമ്പർ	-7875
▁ഇരിക്ക	-7876
▁പണിമുട	-7877
▁സൈക്കി	-7878
ർത്തുന്ന	-7879
▁ഒന്നിന്	-7880
▁ഓണ്‍ലൈന	-7881
▁ബിഷപ്പ്	-7882
▁ടീമിന്റെ	-7883
▁അവതരിപ്പിക്ക	-7884
നുമ	-7885
ാവശ	-7886
▁ലഘ	-7887
്	-7888
▁	-7889
ി	-7890
ന	-7891
ക	-7892
ത	-7893
ു	-7894
ാ	-7895
ര	-7896
യ	-7897
ട	-7898
പ	-7899
ല	-7900
മ	-7901
െ	-7902
വ	-7903
ം	-7904
സ	-7905
‍	-7906
റ	-7907
ച	-7908
ണ	-7909
ള	-7910
.	-7911
ോ	-7912
േ	-7913
ങ	-7914
ദ	-7915
അ	-7916
ീ	-7917
ഷ	-7918
ശ	-7919
എ	-7920
ജ	-7921
ൂ	-7922
ഗ	-7923
ബ	-7924
ധ	-7925
ഞ	-7926
ൽ	-7927
ർ	-7928
ഇ	-7929
ഹ	-7930
ആ	-7931
ഡ	-7932
,	-7933
ഭ	-7934
ൊ	-7935
ഴ	-7936
ൻ	-7937
ഉ	-7938
ഥ	-7939
ഫ	-7940
ൾ	-7941
ൈ	-7942
ഒ	-7943
0	-7944
1	-7945
ഖ	-7946
2	-7947
ൃ	-7948
:	-7949
ഓ	-7950
ഏ	-7951
ഘ	-7952
ഈ	-7953
5	-7954
ൗ	-7955
3	-7956
-	-7957
4	-7958
9	-7959
6	-7960
ഐ	-7961
)	-7962
(	-7963
8	-7964
7	-7965
ൺ	-7966
'	-7967
;	-7968
ഠ	-7969
a	-7970
?	-7971
‘	-7972
e	-7973
’	-7974
r	-7975
i	-7976
o	-7977
"	-7978
t	-7979
n	-7980
!	-7981
s	-7982
ഛ	-7983
c	-7984
m	-7985
w	-7986
l	-7987
h	-7988
d	-7989
ഔ	-7990
ഊ	-7991
”	-7992
/	-7993
p	-7994
u	-7995
g	-7996
