<unk>	0
<s>	0
</s>	0
ന്	-0
ക്	-1
ത്	-2
്‍	-3
▁പ	-4
ക്ക	-5
ന്ന	-6
തി	-7
▁ക	-8
്ട	-9
▁സ	-10
ില	-11
▁വ	-12
ും	-13
▁മ	-14
▁ന	-15
ര്‍	-16
▁അ	-17
ച്	-18
ിയ	-19
പ്	-20
ായ	-21
ുന്ന	-22
്ര	-23
്യ	-24
ങ്	-25
ത്തി	-26
ട്ട	-27
റ്	-28
ാണ	-29
സ്	-30
ത്ത	-31
രി	-32
പ്പ	-33
ച്ച	-34
▁ത	-35
ങ്ങ	-36
▁എ	-37
ാണ്	-38
▁ഇ	-39
ണ്ട	-40
ന്‍	-41
ുക	-42
▁ച	-43
ടെ	-44
ായി	-45
ല്‍	-46
▁ആ	-47
ിക്ക	-48
റ്റ	-49
ില്‍	-50
രു	-51
▁പ്ര	-52
ാന	-53
്ല	-54
ള്‍	-55
▁വി	-56
ിച്ച	-57
▁ര	-58
െയ	-59
ുമ	-60
ാര	-61
ഞ്	-62
▁ബ	-63
്ള	-64
ള്ള	-65
ക്ക്	-66
റെ	-67
ിക	-68
▁സ്	-69
ുന്നു	-70
▁ജ	-71
ന്ന്	-72
▁ഉ	-73
▁നി	-74
വി	-75
ടു	-76
ുടെ	-77
ത്ര	-78
ക്ഷ	-79
മ്	-80
▁ഒ	-81
ിൽ	-82
ന്റെ	-83
ുള്ള	-84
ിന	-85
ങ്ങള	-86
▁ശ	-87
െന്ന	-88
▁ല	-89
ദ്	-90
ഞ്ഞ	-91
▁എന്ന	-92
ാല	-93
ാക്ക	-94
▁സം	-95
ല്ല	-96
രിക്ക	-97
പ്പെ	-98
ില്ല	-99
ാര്‍	-100
രുന്നു	-101
▁മു	-102
ടി	-103
ാവ	-104
റി	-105
▁കോ	-106
ിലെ	-107
ദേ	-108
▁നട	-109
▁കു	-110
ണ്ട്	-111
ങ്ക	-112
ാന്‍	-113
▁ചെയ	-114
▁മാ	-115
ുവ	-116
സി	-117
ിവ	-118
ുന്നത്	-119
▁ഗ	-120
യും	-121
▁ഭ	-122
▁യ	-123
▁പി	-124
മ്മ	-125
േഷ	-126
ോഗ	-127
ത്യ	-128
ണം	-129
െന്ന്	-130
▁ദ	-131
▁പോ	-132
▁പു	-133
ച്ച്	-134
ാം	-135
ത്തിയ	-136
▁കേ	-137
▁ഒരു	-138
▁ഫ	-139
▁പറ	-140
വാ	-141
ത്ത്	-142
ന്ത	-143
റ്റ്	-144
▁കൊ	-145
ഡ്	-146
ങ്ങള്‍	-147
▁ഡ	-148
നി	-149
രാ	-150
ത്തില്‍	-151
▁ഹ	-152
ത്തില	-153
തിയ	-154
മായി	-155
സ്ഥ	-156
▁1	-157
ുകള	-158
ുട	-159
റിയ	-160
▁നേ	-161
ംഗ	-162
ത്തെ	-163
രെ	-164
▁രാ	-165
ദ്യ	-166
ട്	-167
▁അവ	-168
ന്ദ	-169
ിട്ട	-170
പി	-171
മായ	-172
▁റ	-173
▁കൂ	-174
യ്	-175
പ്പോ	-176
ണ്	-177
വും	-178
രം	-179
ിച്ചു	-180
▁ഏ	-181
െന്നും	-182
ദേശ	-183
▁ഓ	-184
..	-185
മാ	-186
തിന	-187
▁2	-188
മ്പ	-189
രിച്ച	-190
ാമ	-191
▁തി	-192
ായിരുന്നു	-193
▁ട	-194
▁സി	-195
▁ഈ	-196
ാൻ	-197
െടു	-198
ണ്‍	-199
തു	-200
ുകയ	-201
കള	-202
ിലും	-203
ഴ്	-204
ട്ട്	-205
▁തുട	-206
വര്‍	-207
ദ്ധ	-208
ങ്ങൾ	-209
്യാ	-210
ീക	-211
▁സാ	-212
ന്ധ	-213
ട്ടി	-214
ശ്	-215
▁സമ	-216
ാർ	-217
▁വീ	-218
ടിയ	-219
്യമ	-220
യില്‍	-221
ാക	-222
യുടെ	-223
▁കഴ	-224
▁ചെയ്	-225
നം	-226
▁ക്	-227
▁സ്വ	-228
രുന്ന	-229
ികള	-230
▁പരി	-231
ത്രി	-232
പ്ര	-233
ാല്‍	-234
ുണ്ട	-235
▁പേ	-236
▁വെ	-237
▁പ്രതി	-238
ുണ്ട്	-239
▁വാ	-240
ത്തിൽ	-241
മാണ്	-242
ാത	-243
▁സ്ഥ	-244
▁പറഞ്ഞ	-245
ിക്കുന്ന	-246
സ്റ്റ	-247
മാന	-248
യാ	-249
▁ചെയ്യ	-250
ലി	-251
യം	-252
▁അന	-253
ാഗ	-254
ീസ്	-255
ന്ത്യ	-256
▁സു	-257
ര്‍ക്ക	-258
ന്ദ്ര	-259
ുപ	-260
പ്പെട്ട	-261
സം	-262
▁പൊ	-263
െങ്ക	-264
ത്തിന്റെ	-265
ാര്യ	-266
ല്‍ക	-267
ത്തിന്	-268
രണ	-269
സ്ഥാന	-270
മി	-271
ുമായി	-272
ഞ്ച	-273
ുകള്‍	-274
ിയുടെ	-275
▁രാജ	-276
ക്ത	-277
നെ	-278
ിലേ	-279
▁വേ	-280
പ്പ്	-281
▁നല്‍ക	-282
▁സെ	-283
▁ഇന്ത്യ	-284
ഫ്	-285
ക്ര	-286
▁ബി	-287
ഷ്ട	-288
ോടെ	-289
ഷ്	-290
രുടെ	-291
ജി	-292
ഡി	-293
ക്കും	-294
ടുത്ത	-295
ളി	-296
▁വ്യ	-297
യി	-298
രോ	-299
▁ശ്ര	-300
റ്റി	-301
ണമ	-302
▁ചി	-303
ന്നെ	-304
ന്ത്രി	-305
▁തീ	-306
00	-307
▁കാ	-308
ക്കു	-309
▁കെ	-310
െയും	-311
▁പോല	-312
ജ്	-313
▁നില	-314
ദേഹ	-315
വ്	-316
ിനെ	-317
ന്റ	-318
ാട	-319
▁ഷ	-320
ത്തിന	-321
ണി	-322
▁(	-323
ൂര്‍	-324
ധി	-325
ുമ്	-326
▁ഉപ	-327
യാണ്	-328
യിൽ	-329
▁നിന്ന	-330
▁മൂ	-331
▁പറഞ്ഞു	-332
▁നിയ	-333
ിരിക്ക	-334
പോ	-335
ഗ്ര	-336
ക്കുന്ന	-337
▁ബാ	-338
ൂപ	-339
▁തെ	-340
ധാന	-341
വർ	-342
ിരുന്നു	-343
ിഞ്ഞ	-344
ുകൾ	-345
ോട്ട	-346
ശ്യ	-347
ത്സ	-348
▁പുറ	-349
ങ്ങിയ	-350
ഭവ	-351
മേ	-352
ത്തു	-353
കു	-354
▁ജന	-355
▁ജോ	-356
രള	-357
▁പറയ	-358
▁പെ	-359
ിനി	-360
ണ്ണ	-361
ീയ	-362
വന	-363
മാക്ക	-364
മു	-365
ുകയും	-366
വര	-367
ന്നു	-368
ന്ത്ര	-369
▁കണ്ട	-370
▁.	-371
ദ്ദേഹ	-372
▁നേത	-373
▁മോ	-374
വേ	-375
▁ലോ	-376
▁രൂപ	-377
ികള്‍	-378
കള്‍	-379
രീ	-380
▁റി	-381
ബ്	-382
ാത്ത	-383
ാൽ	-384
▁എന്നിവ	-385
▁നിര്‍	-386
എസ്	-387
ന്യ	-388
▁അറിയ	-389
ോള	-390
▁സംഘ	-391
▁വൈ	-392
▁സഹ	-393
▁ലഭ	-394
ാരം	-395
ിച്ചത്	-396
ക്കി	-397
യിലെ	-398
▁കേരള	-399
▁ചിത്ര	-400
▁എം	-401
▁അത	-402
േഖ	-403
▁അദ്ദേഹ	-404
പ്പെട	-405
▁കഴിഞ്ഞ	-406
▁തന്നെ	-407
ങ്ങളുടെ	-408
ോട്	-409
▁അധ	-410
▁കുറ	-411
ിപ്പ	-412
▁ജീ	-413
േണ്ട	-414
▁ഉണ്ട	-415
്യാപ	-416
▁മാത്ര	-417
▁സംസ്ഥാന	-418
യില	-419
ഴ്ച	-420
▁അഭ	-421
ന്റ്	-422
ാപ	-423
▁ആവ	-424
▁മുഖ	-425
ിയും	-426
ക്കാ	-427
ിലേക്ക്	-428
▁ട്ര	-429
▁നാ	-430
ീസ	-431
ര്യ	-432
ക്കെ	-433
...	-434
ഹി	-435
▁ഞ	-436
ാതെ	-437
▁രണ്ട	-438
യെ	-439
▁നിന്ന്	-440
ിയില്‍	-441
▁മെ	-442
▁ആശ	-443
ധന	-444
പു	-445
▁20	-446
▁നീ	-447
▁ജില്ല	-448
ോട	-449
▁ദിവ	-450
ിച്ച്	-451
ത്തിലെ	-452
ൊരു	-453
▁ഇത	-454
ബി	-455
ൽക	-456
തിന്	-457
▁ഇട	-458
ത്വ	-459
▁കാണ	-460
▁കേന്ദ്ര	-461
▁മല	-462
െന്നാണ്	-463
ുകയാണ്	-464
▁വര്‍	-465
ുറ	-466
ൂടെ	-467
▁3	-468
▁പാ	-469
രും	-470
സ്റ്റ്	-471
ലിയ	-472
▁ഐ	-473
വിഡ്	-474
ക്ട	-475
▁ചെ	-476
▁നൽക	-477
യോഗ	-478
െങ്കിലും	-479
▁മന	-480
ങ്ങളും	-481
▁രാജ്യ	-482
െയാണ്	-483
യ്ക്ക്	-484
▁പിന്ന	-485
▁ബന്ധ	-486
▁യു	-487
▁നിയമ	-488
ിട്ടുണ്ട്	-489
▁ഡി	-490
▁ആദ്യ	-491
▁സര്‍ക്ക	-492
രഞ്ഞ	-493
▁എല്ല	-494
താണ്	-495
▁സംഭവ	-496
രിയ	-497
ഷ്യ	-498
വേഷ	-499
▁ഏറ്റ	-500
തിരെ	-501
▁ശേഷ	-502
▁നടത്ത	-503
▁സാധ	-504
▁കാര	-505
▁അതി	-506
ഗ്	-507
ജെ	-508
ഡിയ	-509
▁ആവശ്യ	-510
സ്ത	-511
▁ചെയ്ത	-512
▁മുന്ന	-513
ത്ഥ	-514
▁ചേ	-515
നാ	-516
രഞ്ഞെടു	-517
ൂർ	-518
▁തിരു	-519
▁വിജ	-520
▁പരാ	-521
ിയെ	-522
▁ലക്ഷ	-523
പ്പെടു	-524
ങ്ങളില്‍	-525
ാസ	-526
▁നടത്തിയ	-527
▁കൈ	-528
▁കേസ	-529
▁മറ്റ	-530
ദി	-531
ുമ്പോ	-532
ടക്ക	-533
▁രോഗ	-534
▁ചോ	-535
രുമാന	-536
ാരി	-537
ലം	-538
▁ഇത്	-539
രണം	-540
▁അപ	-541
▁സൂ	-542
തല്‍	-543
▁നിര	-544
▁കോട	-545
▁പൊല	-546
▁പരിശ	-547
കൾ	-548
ുംബ	-549
▁കാല	-550
▁പ്രവര്‍	-551
സാ	-552
▁അദ്ദേഹം	-553
ക്ഷേ	-554
േറ്റ	-555
▁വ്യക്ത	-556
▁യുവ	-557
എം	-558
▁പങ്ക	-559
രിച്ചു	-560
▁വില	-561
▁പ്രധാന	-562
▁പുതിയ	-563
ുകൊ	-564
ാവ്	-565
ക്രമ	-566
▁അന്	-567
▁കട	-568
പ്പോള്‍	-569
ാനും	-570
ിലാണ്	-571
▁കൂടു	-572
െയ്	-573
▁സ്റ്റ	-574
പാ	-575
ികൾ	-576
▁റിപ്പോ	-577
ിക്കുന്നത്	-578
ിന്റെ	-579
ാക്കിയ	-580
ിക്കും	-581
ിര	-582
▁നിന്നും	-583
▁തോ	-584
▁ഉപയോഗ	-585
▁എന്നാല്‍	-586
ബന്ധ	-587
▁ബോ	-588
രേ	-589
ുകയായിരുന്നു	-590
ൊഴ	-591
ഷ്ട്ര	-592
▁പല	-593
▁സർ	-594
മാണ	-595
▁ഗ്ര	-596
▁വിദ്യ	-597
▁കാര്യ	-598
ാസ്	-599
ൈന	-600
▁നിർ	-601
ിക്കുന്നു	-602
▁കി	-603
▁ഭാഗ	-604
ാനുള്ള	-605
യാള	-606
യ്ക്ക	-607
▁വള	-608
തായി	-609
പ്പം	-610
ങ്ങി	-611
▁ഒന്ന	-612
▁തീരുമാന	-613
ാശ	-614
▁സിനി	-615
ാറ	-616
്യം	-617
ാത്ര	-618
▁പ്രസി	-619
▁'	-620
രോഗ	-621
ത്തര	-622
▁ചെയ്തു	-623
ലെ	-624
▁സൗ	-625
▁ഫോ	-626
കെ	-627
▁5	-628
ക്കാര	-629
▁അന്വേഷ	-630
▁മത്സ	-631
▁മുഖ്യമ	-632
ൃത	-633
രക്ഷ	-634
▁ധ	-635
വിധ	-636
സ്സ	-637
▁നടപ	-638
▁നല്‍കിയ	-639
▁എസ്	-640
▁4	-641
ര്‍ന്ന	-642
ാക്കി	-643
▁ദു	-644
▁പ്രക	-645
▁അനു	-646
▁അറ	-647
▁മേ	-648
▁എന്ന്	-649
▁കണ്ടെ	-650
ന്‍റെ	-651
ങ്ങളെ	-652
താ	-653
ുമായ	-654
▁വീട്ട	-655
ര്‍ശ	-656
മുള്ള	-657
തും	-658
വിടെ	-659
▁ഉയ	-660
▁ലോക	-661
ഷം	-662
▁അവസ	-663
വാസ	-664
▁ഡോ	-665
▁ചില	-666
കര	-667
▁വിവാ	-668
▁റോ	-669
▁അത്	-670
▁പേര	-671
▁ശേഷം	-672
ച്ചു	-673
ാഴ്ച	-674
▁കുട	-675
▁ന്യ	-676
ഴി	-677
ന്തപു	-678
▁കോണ്‍	-679
ീപ	-680
ാള	-681
റു	-682
്യൂ	-683
▁വന്ന	-684
മെ	-685
ണിയ	-686
ുമാണ്	-687
ംഗ്	-688
▁വേണ്ട	-689
▁സ്ഥാന	-690
▁അധിക	-691
തിനെ	-692
▁കൂട്ട	-693
▁ശ്രമ	-694
വനന്തപു	-695
പ്പെടുത്ത	-696
▁പാര്‍	-697
ത്തേ	-698
▁വർ	-699
▁ഗു	-700
ഭാഗ	-701
ര്‍ച്ച	-702
നും	-703
▁തുടങ്ങിയ	-704
▁കുട്ട	-705
ിക്കാന്‍	-706
▁നടന്ന	-707
▁തിരുവനന്തപു	-708
▁കമ്മ	-709
രീക്ഷ	-710
▁വലിയ	-711
ംബ	-712
▁ഇതി	-713
മാര	-714
▁വ്യക്തമാക്ക	-715
ര്‍ത്ത	-716
ിന്	-717
ഴു	-718
▁അംഗ	-719
▁പരിശോ	-720
ൂഹ	-721
തൽ	-722
വിത	-723
ര്‍ന്ന്	-724
▁201	-725
ുമെന്ന്	-726
പ്പോഴ	-727
▁സിനിമ	-728
ുകളും	-729
▁വര	-730
▁മന്ത്രി	-731
▁19	-732
റോ	-733
പ്പിച്ച	-734
ീഷ	-735
▁ആശുപ	-736
ിത	-737
▁പ്രസിഡ	-738
തോടെ	-739
▁പോലീസ്	-740
തല	-741
ത്തക	-742
▁ഏറ്റവും	-743
ായിരുന്ന	-744
▁നാല	-745
ീകരിക്ക	-746
▁മുന്‍	-747
▁മറ	-748
ങ്ങളിൽ	-749
ക്രട്ട	-750
ീന	-751
ടന	-752
▁വിശ	-753
ിരുന്ന	-754
▁കൊണ്ട	-755
▁മാറ്റ	-756
തീ	-757
സഭ	-758
▁നോ	-759
▁കള	-760
ാരണ	-761
സമ	-762
▁വയ	-763
▁പര	-764
ദ്യോഗ	-765
▁ന്യൂ	-766
▁പൊലീസ്	-767
▁വിജയ	-768
▁തല	-769
▁കോവിഡ്	-770
ിലൂടെ	-771
▁വെള്ള	-772
ീറ്റ	-773
▁കല	-774
▁കോണ്‍ഗ്ര	-775
▁രണ്ട്	-776
▁സെക്രട്ട	-777
ീകരിച്ച	-778
▁പാല	-779
▁സോ	-780
▁അഭി	-781
▁നേതൃ	-782
▁ഇന്ന്	-783
▁ബിജെ	-784
▁കഴിയ	-785
▁യൂ	-786
ബു	-787
▁ആരോ	-788
▁സര്‍ക്കാര്‍	-789
▁പ്രത്യ	-790
▁ആരോഗ	-791
▁ആയി	-792
▁ദിവസ	-793
ൊപ്പം	-794
ത്തിയത്	-795
ടുക്ക	-796
്യത	-797
▁കുടുംബ	-798
ികളുടെ	-799
ിരിക്കുന്നത്	-800
▁പദ്ധ	-801
▁ഖ	-802
മോ	-803
ത്തിലാണ്	-804
ഞ്ച്	-805
ട്ടിയ	-806
▁പറയുന്നു	-807
കം	-808
▁വരെ	-809
▁തട	-810
▁പിട	-811
▁നേതൃത്വ	-812
യോ	-813
▁കൃ	-814
ച്ചി	-815
ഷേ	-816
▁ടെ	-817
ൂര	-818
നായ	-819
▁തിരുവനന്തപുരം	-820
തിര	-821
ധ്യമ	-822
▁ബ്ര	-823
▁ഹൈ	-824
▁ഉറ	-825
േക്ഷ	-826
▁‘	-827
ണിക്ക	-828
▁പോക	-829
▁എല്ലാ	-830
രംഭ	-831
പ്പോൾ	-832
▁അട	-833
▁യാത്ര	-834
▁ഓഫ	-835
▁റിപ്പോര്‍	-836
മാക	-837
▁ടി	-838
ളം	-839
പക്ഷ	-840
▁ഗോ	-841
▁ഇരു	-842
ിലുള്ള	-843
ായ്	-844
▁സമ്മ	-845
▁തിരിച്ച	-846
ന്നും	-847
▁രാഷ്ട്ര	-848
രുത	-849
▁കണ്ണ	-850
ിട	-851
▁ഇവ	-852
റിച്ച്	-853
ദ്ദ	-854
▁ഒഴ	-855
▁6	-856
▁യോഗ	-857
ായക	-858
ല്ലാം	-859
െടുക്ക	-860
▁മി	-861
▁കോള	-862
▁ജി	-863
▁ആണ്	-864
▁പ്രവർ	-865
ഹ്	-866
▁ലി	-867
സിന്റെ	-868
▁മുഖ്യമന്ത്രി	-869
▁ക്ല	-870
▁ആരോപ	-871
ബാ	-872
േഖല	-873
ാവി	-874
ുകളില്‍	-875
▁പ്രഖ	-876
പ്പു	-877
ങ്ങള്‍ക്ക്	-878
ീം	-879
ത്തന	-880
ീല	-881
ഹന	-882
ഷ്ണ	-883
ാണെന്ന്	-884
▁രംഗ	-885
ിയിൽ	-886
മുണ്ട	-887
▁പഠ	-888
പ്പെട്ടു	-889
പ്പിക്ക	-890
▁സ്വദേശ	-891
മാര്‍	-892
▁അറിയിച്ചു	-893
ക്കാർ	-894
▁താര	-895
▁തെരഞ്ഞെടു	-896
▁അവസാന	-897
▁സാഹ	-898
ാഷ	-899
ൂട്ട	-900
▁സ്ത്ര	-901
വുമായി	-902
ണ്ഡ	-903
▁കയ	-904
ങ്ങനെ	-905
ക്തി	-906
▁താ	-907
▁അതേ	-908
ര്‍ക്ക്	-909
▁മാന	-910
▁ദിവസം	-911
▁വിഷ	-912
പെ	-913
യുള്ള	-914
ത്തിക്ക	-915
▁കമ്പ	-916
ക്കിയ	-917
ട്ര	-918
ണമെന്ന്	-919
▁കോടതി	-920
▁ആരംഭ	-921
▁-	-922
േയും	-923
തമാന	-924
▁ആരോഗ്യ	-925
▁പ്രശ്	-926
ജീ	-927
ോഷ	-928
▁മഹ	-929
െങ്കില്‍	-930
ഞ്ഞ്	-931
യു	-932
▁സ്ഥാപ	-933
▁പഞ്ച	-934
▁ചെയ്യുന്ന	-935
േക	-936
ിനു	-937
രിക്കും	-938
▁പ്രഖ്യാപ	-939
▁,	-940
െടുത്ത	-941
ക്കം	-942
▁അടി	-943
▁സര്‍	-944
ഷേധ	-945
ധിക	-946
ണ്ടും	-947
വേശ	-948
റും	-949
ചന	-950
▁നേരി	-951
വെ	-952
▁എന്ത	-953
ുവി	-954
ായത്	-955
▁സേ	-956
▁തന്റെ	-957
മന്ത്രി	-958
ശ്ച	-959
ുകാര	-960
▁ശതമാന	-961
▁മേഖല	-962
ശേഷ	-963
വണ	-964
നിയ	-965
▁മിക	-966
ത്തിലേ	-967
▁ശ്രദ്ധ	-968
▁വിള	-969
▁നേര	-970
എഫ്	-971
▁7	-972
▁സാഹച	-973
▁ഇന്ന	-974
▁സൈ	-975
ാക്കള	-976
▁എന്നാൽ	-977
),	-978
ാര്‍ത്ഥ	-979
▁സ്വാ	-980
▁വാര്‍	-981
▁ജീവിത	-982
മല്ല	-983
▁ജില്ലാ	-984
ദേശം	-985
▁വകു	-986
▁മലയാള	-987
രോധ	-988
▁ഭൂ	-989
ിട്ടില്ല	-990
▁ഉദ്യോഗ	-991
മുഖ	-992
ലോ	-993
▁ചോദ്യ	-994
▁ഇല്ല	-995
ട്ടു	-996
▁നെ	-997
ക്കള	-998
▁കൂട	-999
രിച്ച്	-1000
േഷ്	-1001
ത്തിനു	-1002
▁ബു	-1003
20	-1004
ഞ്ഞു	-1005
ുപോ	-1006
▁തുറ	-1007
▁ചെയ്തി	-1008
▁സെക്രട്ടറി	-1009
കാര്യ	-1010
പ്പെടുത്തിയ	-1011
ണക്ക	-1012
▁10	-1013
തിനു	-1014
▁കൊല്ല	-1015
▁സ്ഥിര	-1016
▁തൊഴ	-1017
▁ദേശ	-1018
▁വിമാന	-1019
▁ഉത്തര	-1020
െങ്കിൽ	-1021
▁ആക്രമ	-1022
കട	-1023
നു	-1024
ോദ	-1025
▁ആശുപത്ര	-1026
ത്തും	-1027
ൂല	-1028
ന്ത്	-1029
ാലി	-1030
▁ഉള്‍	-1031
േരി	-1032
▁ഉട	-1033
▁ക്ര	-1034
▁സമീപ	-1035
േഷന്‍	-1036
തെന്ന്	-1037
000	-1038
ിയാണ്	-1039
▁ഇറ	-1040
ികളെ	-1041
▁മാധ്യമ	-1042
കളും	-1043
▁നാട്ട	-1044
▁ലൈ	-1045
ലും	-1046
വധി	-1047
വില്‍	-1048
▁ചിക	-1049
ന്തര	-1050
▁പരാതി	-1051
▁ബാധ	-1052
തിയില്‍	-1053
കാശ	-1054
▁തന്ന	-1055
ർന്ന	-1056
ുകളുടെ	-1057
ോളം	-1058
റില്‍	-1059
▁പരിശോധന	-1060
▁അമ്മ	-1061
▁സ്വന്ത	-1062
ഡിയോ	-1063
▁സാഹചര്യ	-1064
▁കൂടി	-1065
▁വിവിധ	-1066
▁പ്രത്യേക	-1067
▁ആള	-1068
▁എന്‍	-1069
▁പ്രച	-1070
▁മുമ്	-1071
▁വീണ്ടും	-1072
▁മൂന്ന	-1073
പാട	-1074
ുമെന്നും	-1075
▁മുതല്‍	-1076
ുമ്പോള്‍	-1077
▁ഭരണ	-1078
ുള്ളത്	-1079
▁നല്ല	-1080
ത്മ	-1081
ിതി	-1082
മേരിക്ക	-1083
▁കൂടുതല്‍	-1084
പ്പെട്ട്	-1085
▁പ്ല	-1086
▁രക്ഷ	-1087
കളുടെ	-1088
ന്‍സ്	-1089
▁വിഭാഗ	-1090
▁പൂ	-1091
ര്‍ഷ	-1092
▁തുടര്‍ന്ന്	-1093
നിടെ	-1094
▁മാര്‍	-1095
▁നിരവധി	-1096
▁വ്യാപ	-1097
▁ഉദ്യോഗസ്ഥ	-1098
മായിരുന്നു	-1099
യായി	-1100
ാണെന്നും	-1101
▁അയ	-1102
▁ബിജെപി	-1103
▁ആര്‍	-1104
▁വിശ്	-1105
തം	-1106
വിധാന	-1107
▁ഘ	-1108
േഴ്	-1109
▁അല്ല	-1110
രിക	-1111
▁അടുത്ത	-1112
▁നഗ	-1113
▁ചൂ	-1114
▁കൊവിഡ്	-1115
▁ഇന്ത്യന്‍	-1116
ിത്സ	-1117
േറ്റ്	-1118
ിയായ	-1119
ുകൊണ്ട	-1120
▁മരണ	-1121
▁ജയ	-1122
▁രാഷ്ട്രീയ	-1123
സമയം	-1124
റിന്റെ	-1125
ത്തോടെ	-1126
ീമ	-1127
കൂ	-1128
▁മികച്ച	-1129
▁മരിച്ച	-1130
▁ഭക്ഷ	-1131
▁തിരഞ്ഞെടു	-1132
▁ഉള്ള	-1133
▁8	-1134
▁മാത്രം	-1135
സര്‍	-1136
ർച്ച	-1137
ിയിലെ	-1138
ഹു	-1139
▁ഇത്ത	-1140
▁അമേരിക്ക	-1141
▁മീ	-1142
തിയുടെ	-1143
്യക്ഷ	-1144
▁പ്രതിക	-1145
▁തേ	-1146
▁വാഹന	-1147
▁തക	-1148
▁തൃ	-1149
ഹമ്മ	-1150
▁നമ്മ	-1151
കാല	-1152
ദം	-1153
▁നഷ്ട	-1154
▁നിറ	-1155
െന്നു	-1156
▁വിവാഹ	-1157
▁ചികിത്സ	-1158
▁വിവര	-1159
രിക്കുന്ന	-1160
▁പിന്നീ	-1161
പ്പി	-1162
▁കോണ്‍ഗ്രസ്	-1163
▁മൂന്ന്	-1164
ിച്ചിരുന്നു	-1165
ർശ	-1166
▁മുൻ	-1167
▁സുരക്ഷ	-1168
ിക്കാൻ	-1169
▁പട്ട	-1170
▁പൂര്‍	-1171
▁9	-1172
▁സംവിധാന	-1173
▁പ്രസിഡന്റ്	-1174
▁തയ	-1175
▁അനുവ	-1176
▁നൽകിയ	-1177
ർത്ത	-1178
ാഭ	-1179
തായ	-1180
▁കുറ്റ	-1181
ാനം	-1182
▁ശക്ത	-1183
സിന്	-1184
നിന്ന്	-1185
▁പദ്ധതി	-1186
▁പ്രവേശ	-1187
▁വര്‍ഷ	-1188
റായി	-1189
▁സംബന്ധ	-1190
ുണ	-1191
▁കഥ	-1192
▁കൊണ്ട്	-1193
തില്‍	-1194
ദ്ര	-1195
▁വൈക	-1196
▁പിന്ത	-1197
▁വിക	-1198
യായ	-1199
▁കോൺ	-1200
▁കൊല	-1201
ങ്ങൾക്ക്	-1202
▁പുറത്ത	-1203
▁പ്രതിഷേധ	-1204
ജന	-1205
ാണ്ട	-1206
തെന്നും	-1207
ർക്ക	-1208
രുത്ത	-1209
▁ദേശീയ	-1210
▁സംസാ	-1211
ങ്ക്	-1212
കോ	-1213
▁കോടി	-1214
സില്‍	-1215
ായം	-1216
ാലും	-1217
ാനാണ്	-1218
രിൽ	-1219
വീ	-1220
കളെ	-1221
ാര്‍ഥ	-1222
ൊക്കെ	-1223
▁തയ്യാ	-1224
▁പക	-1225
▁രണ്ടു	-1226
സോ	-1227
ടങ്ങ	-1228
ാണി	-1229
▁ഇക്ക	-1230
▁ജീവന	-1231
▁കീ	-1232
ികളും	-1233
പ്പോഴും	-1234
ാകും	-1235
ില്ലെന്ന്	-1236
▁സമയ	-1237
▁ഇവിടെ	-1238
ബ്ര	-1239
▁അപകട	-1240
▁വ്യക്തമാക്കി	-1241
▁15	-1242
▁നടത്തി	-1243
▁പ്രാ	-1244
ത്തിലും	-1245
ാദ	-1246
▁അതേസമയം	-1247
▁വിമ	-1248
▁ഉദ്	-1249
▁പാർ	-1250
തിയെ	-1251
▁മത്സര	-1252
പ്പെടുന്ന	-1253
ള്ളി	-1254
▁രാവ	-1255
▁:	-1256
ർന്ന്	-1257
നില്‍	-1258
▁വൈറ	-1259
▁ഇപ്പോള്‍	-1260
തീക്ഷ	-1261
വിട	-1262
▁വിധ	-1263
ണമെന്നും	-1264
ിക്കാ	-1265
▁സാധ്യത	-1266
ത്തിലുള്ള	-1267
▁വഴ	-1268
ുകളിൽ	-1269
പ്പുറ	-1270
മല	-1271
▁സ്ഥല	-1272
ൂറ	-1273
▁ലഭിച്ച	-1274
▁മൊ	-1275
സ്റ്റി	-1276
▁എത്തിയ	-1277
▁പിന്നീട്	-1278
▁സാമ	-1279
െയുള്ള	-1280
വസ	-1281
രിപ്പ	-1282
▁കമ്മി	-1283
▁വാക്	-1284
▁രേഖ	-1285
▁നേടിയ	-1286
▁12	-1287
▁ഹി	-1288
▁വളരെ	-1289
▁ഭാര്യ	-1290
ബ്ദ	-1291
▁അനുവദ	-1292
▁കിട്ട	-1293
▁വഴി	-1294
പ്പെടെ	-1295
ക്കുള്ള	-1296
▁പരീക്ഷ	-1297
▁പ്രദേശ	-1298
▁ചിത്രം	-1299
ണമെന്ന	-1300
▁നടക്ക	-1301
▁എന്നാണ്	-1302
▁അഞ്ച	-1303
▁അഭിന	-1304
▁കാരണം	-1305
▁ജീവ	-1306
▁ബെ	-1307
▁ചെന്ന	-1308
▁സിപി	-1309
▁ലക്ഷം	-1310
ുകൊണ്ട്	-1311
▁രീ	-1312
▁ചര്‍ച്ച	-1313
ങ്ങളാണ്	-1314
ോട്ട്	-1315
യിലാണ്	-1316
ത്തിക	-1317
ുന്നുണ്ട്	-1318
▁റെ	-1319
ഷി	-1320
ിക്കുകയും	-1321
▁വ്യാ	-1322
ാനി	-1323
▁ലീ	-1324
സു	-1325
▁മെഡ	-1326
▁റിപ്പോര്‍ട്ട്	-1327
പര	-1328
▁പഞ്ചായ	-1329
▁സ്ത്രീ	-1330
സിന	-1331
▁തു	-1332
▁സീ	-1333
എല്‍	-1334
▁പോലും	-1335
കളില്‍	-1336
▁നഗര	-1337
▁വിദേശ	-1338
ിക്കുക	-1339
നേ	-1340
ോമ	-1341
പരി	-1342
▁ഒരാ	-1343
▁എത്ത	-1344
▁സന്ദ	-1345
▁എക്	-1346
▁അല	-1347
നിക്ക്	-1348
ർട്ട്	-1349
രേന്ദ്ര	-1350
ുവരെ	-1351
ക്ടര്‍	-1352
▁ഒഴിവ	-1353
ർക്ക്	-1354
പ്പെടുത്തി	-1355
തിന്റെ	-1356
വിൽ	-1357
▁പീ	-1358
▁അന്വേഷണ	-1359
ില്ലെന്നും	-1360
േയ	-1361
ജു	-1362
തിനാല്‍	-1363
ക്യ	-1364
ട്ടം	-1365
▁തെള	-1366
▁കുമ	-1367
▁മനു	-1368
▁കാര്‍	-1369
േജ	-1370
കുമ	-1371
ളള	-1372
▁ഫ്ര	-1373
▁പൊതു	-1374
▁സംഘടന	-1375
ക്കോ	-1376
ഗ്രഹ	-1377
▁പതി	-1378
ശ്ര	-1379
▁വേണ്ടി	-1380
ത്രം	-1381
നോ	-1382
▁മണിക്ക	-1383
ിക്കല്‍	-1384
▁ഹാ	-1385
▁എഴു	-1386
ക്കെതിരെ	-1387
ര്‍മ	-1388
നാണ്	-1389
▁ചു	-1390
മ്പ്	-1391
▁വിശദ	-1392
▁അടിസ്ഥാന	-1393
▁സർക്കാർ	-1394
കുട്ട	-1395
ാവുന്ന	-1396
▁ദേ	-1397
ഹമ്മദ്	-1398
▁സംഭവം	-1399
കാര	-1400
ാന്ധ	-1401
വരെ	-1402
▁നല്‍കി	-1403
▁കൂടുതൽ	-1404
▁വരുന്ന	-1405
▁താമ	-1406
▁അന്ത	-1407
▁പരിഹ	-1408
▁അധ്യക്ഷ	-1409
ാരാ	-1410
▁എത്തി	-1411
▁ജോലി	-1412
വല	-1413
ിട്ട്	-1414
▁തിര	-1415
▁ക്യാ	-1416
▁മന്ത്ര	-1417
▁11	-1418
ാടക	-1419
▁ഏറെ	-1420
▁കേസ്	-1421
▁രണ്ടാം	-1422
ൊണ്ട	-1423
▁നടപടി	-1424
▁രാവിലെ	-1425
വരുടെ	-1426
ഹൃ	-1427
▁ആരാ	-1428
വം	-1429
▁ചൈന	-1430
▁മാസ	-1431
േള	-1432
മീ	-1433
▁ഓരോ	-1434
ധ്യ	-1435
ാണു	-1436
▁നടപ്പ	-1437
▁അവരുടെ	-1438
▁വീഡിയോ	-1439
▁പരിഗ	-1440
▁അവത	-1441
▁പോയ	-1442
ഭാവ	-1443
▁ആല	-1444
ക്ഷേപ	-1445
ഖ്	-1446
▁പ്രതീക്ഷ	-1447
തിനായി	-1448
▁ബാല	-1449
▁ചോദ	-1450
▁കോൺഗ്ര	-1451
ാക്കുന്ന	-1452
▁നേരത്തെ	-1453
▁സമൂഹ	-1454
▁ശ്രീ	-1455
▁സഹായി	-1456
▁മറ്റ്	-1457
▁തൊഴില	-1458
▁ജനറ	-1459
▁മക	-1460
▁മണ്ഡ	-1461
പ്പില്‍	-1462
▁ഓഫ്	-1463
സിയ	-1464
▁താരം	-1465
രിക്കുന്നത്	-1466
▁പിന്നാല	-1467
▁മുതൽ	-1468
▁ഡയ	-1469
മില്ല	-1470
ക്കുറിച്ച്	-1471
▁നിങ്ങളുടെ	-1472
▁മനുഷ്യ	-1473
മായും	-1474
ല്‍ഹി	-1475
്ട്ര	-1476
▁ജെ	-1477
േജ്	-1478
േക്ക	-1479
▁കര	-1480
ഷന്‍	-1481
യിലും	-1482
▁സഭ	-1483
സില	-1484
▁ഉന്ന	-1485
▁ഓഫീസ	-1486
ുമ്പോൾ	-1487
▁തമി	-1488
▁കൂടിയ	-1489
▁കോട്ട	-1490
▁രാഹു	-1491
▁വിഷയ	-1492
▁തയ്യാറ	-1493
▁ശതമാനം	-1494
▁ചുമ	-1495
▁ഉൾ	-1496
▁കണക്ക	-1497
▁കൊച്ചി	-1498
ിരിക്കുന്ന	-1499
▁പറയുന്നത്	-1500
ിനും	-1501
ഫോ	-1502
യര്‍	-1503
ന്നി	-1504
ങ്ങളിലും	-1505
▁ഞാന്‍	-1506
▁പ്രധാനമന്ത്രി	-1507
ച്ഛ	-1508
േസ്	-1509
▁വാര്‍ത്ത	-1510
▁വോട്ട	-1511
ക്കാര്‍	-1512
▁മുസ്	-1513
ണ്ണം	-1514
ുമതി	-1515
▁പിന്തുണ	-1516
▁നടപട	-1517
വരം	-1518
▁റ്റ	-1519
കല	-1520
▁പേര്‍	-1521
േഷൻ	-1522
▁സുപ്ര	-1523
ന്തി	-1524
▁നയ	-1525
▁മുഴ	-1526
ത്തിറ	-1527
▁ശി	-1528
ബോ	-1529
നായി	-1530
▁ഇനി	-1531
▁ഇന്‍	-1532
▁വസ്	-1533
ശ്ശ	-1534
▁പ്രവര്‍ത്തക	-1535
▁കരു	-1536
▁ചെയ്തത്	-1537
ോടതി	-1538
▁ട്	-1539
▁കൗ	-1540
▁ഡ്ര	-1541
▁കുഞ്ഞ	-1542
ദിന	-1543
ത്തിനും	-1544
ാക്കള്‍	-1545
▁ഹൈക്ക	-1546
▁ചോദ്യം	-1547
▁തര	-1548
ിരിക്കുകയാണ്	-1549
▁സാമ്പ	-1550
▁അന്വേഷണം	-1551
ത്തനം	-1552
▁മറ്റൊരു	-1553
▁തമ്മ	-1554
െയി	-1555
▁എന്നീ	-1556
▁സമ്പ	-1557
ാർത്ഥ	-1558
ുതി	-1559
ാതി	-1560
ദ്ദേശ	-1561
ുത	-1562
▁പുന	-1563
▁ആത്മ	-1564
▁അധികൃത	-1565
▁ഹോ	-1566
ിക്കാന	-1567
▁കാരണ	-1568
▁പെണ്‍	-1569
▁ഇക്കാര്യ	-1570
വരും	-1571
▁പിണ	-1572
ത്തിലേക്ക്	-1573
രാജ	-1574
ഷണ	-1575
▁ഏക	-1576
സ്യ	-1577
▁അവര്‍	-1578
▁സര്‍ക്കാരി	-1579
ുമു	-1580
ക്കായി	-1581
ഘാട	-1582
▁അപേക്ഷ	-1583
▁ഏത	-1584
▁ദിന	-1585
ിക്കു	-1586
▁എന്റെ	-1587
▁നവ	-1588
ആര്‍	-1589
ജ്ഞ	-1590
ത്തേക്ക്	-1591
ൻസ്	-1592
▁സ്ഥാപന	-1593
▁നിയന്ത്ര	-1594
▁മഴ	-1595
െടുത്തു	-1596
▁വിത	-1597
▁ഗാന്ധ	-1598
▁സാമ്പത്തിക	-1599
▁പണം	-1600
▁ക്ഷേ	-1601
▁ഫെ	-1602
▁എൻ	-1603
ബര്‍	-1604
സർ	-1605
▁ഇവര്‍	-1606
▁നടത്തുന്ന	-1607
▁വീട	-1608
ൃഷ്ണ	-1609
ീവ്	-1610
▁ബ്ല	-1611
റാ	-1612
ംഗ്ല	-1613
▁പഴ	-1614
▁തൊ	-1615
▁കണ്ടെത്ത	-1616
▁200	-1617
ഫി	-1618
▁മറുപ	-1619
▁ടോ	-1620
പാട്	-1621
▁വര്‍ഷം	-1622
▁ഷോ	-1623
ങ്ങന	-1624
ക്കാല	-1625
▁സ്വീകരിക്ക	-1626
▁നടക്കുന്ന	-1627
▁ഭാര	-1628
തന്ത്ര	-1629
▁ഹെ	-1630
▁സമയം	-1631
▁പ്രതിരോധ	-1632
▁സന്ത	-1633
സൈ	-1634
▁അര	-1635
ദന	-1636
മസ്	-1637
▁പ്രസ	-1638
▁സ്വന്തം	-1639
▁"	-1640
േണ്ടി	-1641
ുമെന്ന	-1642
സേ	-1643
െല്ലാം	-1644
▁ശരീ	-1645
▁മുംബ	-1646
പാത	-1647
▁പുറത്തിറ	-1648
ാവും	-1649
ഭാഷ	-1650
ട്ടിക്ക	-1651
▁അറസ്റ്റ	-1652
▁അനുഭവ	-1653
ാഹ	-1654
▁മാത്രമാണ്	-1655
ൗര	-1656
ൊന്നും	-1657
ത്തിനെ	-1658
▁അറസ്റ്റ്	-1659
▁ഗ്രാമ	-1660
ികള്‍ക്ക്	-1661
▁വല	-1662
▁18	-1663
▁ക്യ	-1664
ുണ്ടായ	-1665
▁ചൂണ്ട	-1666
ീകരണ	-1667
തൃ	-1668
പ്പറ	-1669
ക്ഷി	-1670
▁മുംബൈ	-1671
ക്കുറ	-1672
▁തമിഴ്	-1673
ടക്കം	-1674
▁പ്രവര്‍ത്തന	-1675
വൈ	-1676
ബൈ	-1677
▁മത	-1678
▁ഉദ്ഘാട	-1679
▁സാമൂഹ	-1680
▁ഔ	-1681
▁നാല്	-1682
▁ഇത്തരം	-1683
▁ബൈ	-1684
▁എന്നും	-1685
▁മുഹമ്മദ്	-1686
ിലി	-1687
ധികം	-1688
▁വാർ	-1689
▁തീരുമാനം	-1690
ാറ്റ	-1691
▁നേതാവ്	-1692
▁നിരീക്ഷ	-1693
▁സത്യ	-1694
വ്വ	-1695
▁സ്വകാര്യ	-1696
▁ന്യൂഡ	-1697
ലൈ	-1698
▁സോഷ്യ	-1699
തിയിൽ	-1700
രുമ	-1701
▁പോലെ	-1702
▁എല്ലാവ	-1703
▁സംരക്ഷ	-1704
▁14	-1705
▁അഭിപ്ര	-1706
ക്കേ	-1707
ശേഷം	-1708
ോട്ടോ	-1709
▁മറ്റു	-1710
ിച്ചിട്ടുണ്ട്	-1711
ലില്‍	-1712
ക്കാട്	-1713
ഘോഷ	-1714
▁വനി	-1715
▁ഇതുവരെ	-1716
,000	-1717
▁ക്രി	-1718
▁25	-1719
യ്യ	-1720
ാലയ	-1721
ന്റെയും	-1722
ുകളാണ്	-1723
▁രോഗം	-1724
▁വിവാദ	-1725
▁ശിവ	-1726
▁നിയമസഭ	-1727
▁ആക	-1728
ങ്ങളിലെ	-1729
ിരുന്നത്	-1730
▁ജല	-1731
▁സംഘം	-1732
▁പ്രിയ	-1733
നീ	-1734
ൈവ	-1735
▁െ	-1736
▁ഇപ്പോൾ	-1737
ിയോ	-1738
▁അര്‍	-1739
▁സമാ	-1740
▁മുമ്പ്	-1741
▁ഷാ	-1742
പ്പുറം	-1743
ര്‍ശന	-1744
ുവന്ന	-1745
▁പൂർ	-1746
ത്തിനായി	-1747
▁പാര്‍ട്ടി	-1748
▁മനസ്സ	-1749
നില	-1750
റിൽ	-1751
▁തുടങ്ങി	-1752
ിലായി	-1753
ിട്ടുണ്ട	-1754
▁പിണറായി	-1755
▁പ്രതിപക്ഷ	-1756
വാദ	-1757
▁സഹോദ	-1758
ളെ	-1759
▁ചരി	-1760
▁പശ്ച	-1761
▁ഉറപ്പ	-1762
റിഞ്ഞ	-1763
ിയത്	-1764
▁നേരിട	-1765
▁ബന്ധപ്പെട്ട	-1766
ൗണ്ട	-1767
▁സുപ്രീം	-1768
പ്റ്റ	-1769
▁തന്നെയാണ്	-1770
കരണ	-1771
ാഭ്യാ	-1772
▁മാസം	-1773
▁ചെല	-1774
▁ഇര	-1775
▁നിന്നുള്ള	-1776
▁വിപ	-1777
▁ആരാധ	-1778
▁ഇന്നലെ	-1779
▁വർഷ	-1780
▁വിവരം	-1781
രന്‍	-1782
▁കോഴ	-1783
ട്രോ	-1784
▁ഉണ്ടാക	-1785
േദ	-1786
യിലേക്ക്	-1787
വുമ	-1788
▁ഡെ	-1789
▁മോഹ	-1790
▁ആർ	-1791
്യമാണ്	-1792
ച്ചത്	-1793
▁ആദ്യം	-1794
ുമെന്നാണ്	-1795
▁മുഴുവ	-1796
ന്‍സ	-1797
▁ക്ഷ	-1798
▁ആഭ	-1799
ർഷ	-1800
▁അവിടെ	-1801
ളു	-1802
▁മീഡിയ	-1803
റോണ	-1804
▁ആന	-1805
ജയ	-1806
ൻറ	-1807
ങ്ങുന്ന	-1808
തെ	-1809
ത്തിലൂടെ	-1810
▁സ്വദേശി	-1811
തിക	-1812
ുവെ	-1813
▁ഇന്ത്യൻ	-1814
▁എണ്ണം	-1815
രുദ്ധ	-1816
▁മൃത	-1817
▁രാത്രി	-1818
▁രജി	-1819
▁സംശ	-1820
▁അഞ്ച്	-1821
ാവസ്ഥ	-1822
▁കില	-1823
▁കമ്പന	-1824
പ്രദേശ	-1825
▁13	-1826
▁ഊ	-1827
കളിൽ	-1828
▁ഇതോടെ	-1829
▁കീഴ	-1830
▁നിലവ	-1831
▁24	-1832
▁സമര	-1833
▁വകുപ്പ്	-1834
ജീവ	-1835
ൃഷ്ട	-1836
തിനാൽ	-1837
പ്പുഴ	-1838
▁ഉത്ത	-1839
ണു	-1840
റിന്	-1841
േഷന	-1842
▁ജൂ	-1843
ഡോ	-1844
ീഷ്	-1845
▁ചാ	-1846
▁പ്രൊ	-1847
▁കൂടാതെ	-1848
ാരാഷ്ട്ര	-1849
▁സ്ഥിരീകരിച്ച	-1850
ട്ടുണ്ട്	-1851
▁അബ്ദ	-1852
ുകളെ	-1853
▁വ്യത്യ	-1854
▁സൂചന	-1855
▁സംഗ	-1856
▁മുഖ്യമന്ത്ര	-1857
▁ടീമ	-1858
▁റിയ	-1859
▁പോയി	-1860
▁എതി	-1861
▁സംവിധാനം	-1862
ീത	-1863
ഗോ	-1864
▁ഭീക	-1865
▁കേസില്‍	-1866
▁സാധാരണ	-1867
▁ഭാഗമായി	-1868
ിയ്	-1869
▁ആദ	-1870
▁ലെ	-1871
ര്‍ക്കും	-1872
▁താമസ	-1873
▁ചെറിയ	-1874
▁വ്യക്തി	-1875
▁സുഹൃ	-1876
ശി	-1877
സ്ട്ര	-1878
ില്ലാത്ത	-1879
ക്കൊ	-1880
ലക്ഷ	-1881
പ്പെട്ടി	-1882
സിൽ	-1883
ായിക	-1884
യാള്‍	-1885
▁30	-1886
▁പട്ടിക	-1887
▁മൃതദേഹ	-1888
▁പുര	-1889
▁നില്‍	-1890
ക്കുന്നത്	-1891
ാകു	-1892
ിക്കേണ്ട	-1893
സന്ധ	-1894
സ്റ്റര്‍	-1895
▁കമ	-1896
▁കൊറോണ	-1897
▁പരിശോധ	-1898
ാവശ്യ	-1899
ടിപ്പ	-1900
പ്പെട്ടത്	-1901
ര്‍ത്തി	-1902
▁ഒറ്റ	-1903
മാരുടെ	-1904
▁തുടർന്ന്	-1905
▁എന്നി	-1906
▁റോഡ	-1907
ക്കാന്‍	-1908
ൊന്ന	-1909
▁കമ്മീഷ	-1910
▁വൃ	-1911
യോടെ	-1912
തായും	-1913
▁സഹായ	-1914
▁ലോക്	-1915
ുമുള്ള	-1916
ടം	-1917
▁ആരാധക	-1918
▁അക	-1919
▁പക്ഷേ	-1920
▁ഫല	-1921
▁പാക	-1922
▁മാത്രമല്ല	-1923
▁താഴ	-1924
രാണ്	-1925
▁സംസ്ഥാനത്ത്	-1926
ഹിത	-1927
ക്കള്‍	-1928
▁ആഗ്രഹ	-1929
▁മണ്ഡല	-1930
▁തവണ	-1931
▁ഭീഷ	-1932
ിട്ടും	-1933
സ്വ	-1934
▁അവർ	-1935
▁ഡയറ	-1936
റ്റില്‍	-1937
▁എത്ര	-1938
▁ദൃ	-1939
▁കസ്റ്റ	-1940
▁കാർ	-1941
ൻ്	-1942
▁ഇടപെ	-1943
▁സ്പ	-1944
ീകരിച്ചു	-1945
▁പരിക്ക	-1946
▁റണ്‍	-1947
▁വിദ്യാഭ്യാ	-1948
▁ചീ	-1949
▁പ്രശ	-1950
▁പ്രോ	-1951
പ്പെടുന്നു	-1952
ിക്കറ്റ്	-1953
▁16	-1954
ട്ടെ	-1955
ക്കാണ്	-1956
മാർ	-1957
ിച്ചാണ്	-1958
നിര	-1959
▁സീറ്റ	-1960
രുവ	-1961
ികൂ	-1962
▁ഇൻ	-1963
▁മൂന്നു	-1964
▁ഉദ്ഘാടനം	-1965
ാംഗ	-1966
▁കൈമാ	-1967
തിൽ	-1968
േര്‍	-1969
▁പോലീസ	-1970
▁ആശുപത്രി	-1971
▁അഭിനയ	-1972
ബരി	-1973
യുണ്ട	-1974
രുന്നത്	-1975
▁ഇതു	-1976
▁ആയ	-1977
▁അമി	-1978
▁ദുര	-1979
▁മാത്രമേ	-1980
സും	-1981
▁കണ്ടെത്തിയ	-1982
▁പരിഗണ	-1983
ചി	-1984
▁ന്	-1985
▁നായ	-1986
▁വഹ	-1987
▁നമ്മുടെ	-1988
▁17	-1989
▁ഗ്രൂ	-1990
▁പിന്നാലെ	-1991
ീകരണം	-1992
ഥ്	-1993
▁ധന	-1994
▁വെളി	-1995
മാക്കി	-1996
േത	-1997
ിക്കെ	-1998
▁അക്ക	-1999
▁അവകാശ	-2000
▁പക്ഷ	-2001
▁തോന്ന	-2002
▁ശരീര	-2003
▁ശക്തമായ	-2004
ഗത	-2005
▁മാറ	-2006
ിക്കൽ	-2007
▁നിര്‍മ്മ	-2008
30	-2009
▁ഇത്തര	-2010
▁ഹിന്ദ	-2011
ുമോ	-2012
▁നേട	-2013
▁ഫാ	-2014
▁എല്‍	-2015
പ്പാ	-2016
▁തോമസ്	-2017
▁മൈ	-2018
▁സര്‍വ	-2019
▁വിട്ട	-2020
മ്പി	-2021
▁കോൺഗ്രസ്	-2022
▁ജോസ	-2023
▁പുല	-2024
▁മദ്യ	-2025
▁കൂള	-2026
▁ഫേസ്	-2027
▁വകുപ്പ	-2028
റണ	-2029
ന്മ	-2030
ാസ്ത്ര	-2031
ബ്ല	-2032
▁പ്രായ	-2033
▁പോസ്റ്റ	-2034
ംസ	-2035
പോലെ	-2036
മാന്‍	-2037
▁പുറത്തു	-2038
▁നമ്പ	-2039
▁പൊലീസ	-2040
ുമ്പോഴ	-2041
▁കെട്ടി	-2042
▁ചെയ്ത്	-2043
ത്തിനുള്ള	-2044
തിനുള്ള	-2045
ww	-2046
ാന്	-2047
▁മനോ	-2048
കൊ	-2049
▁ക്രിക്ക	-2050
▁ഹാജ	-2051
▁കന	-2052
▁ബിജെപ	-2053
ഖ്യ	-2054
ിയായി	-2055
യുമായി	-2056
നാട്	-2057
▁യുവതി	-2058
▁കുറഞ്ഞ	-2059
വര്‍ക്ക്	-2060
യായിരുന്നു	-2061
ിച്ചും	-2062
▁സൃഷ്ട	-2063
▁ബന്ധപ്പെട്ട്	-2064
▁ശബരി	-2065
തിരായ	-2066
▁ചെയ്യും	-2067
േളന	-2068
▁കേരളത്തിലെ	-2069
തിരേ	-2070
▁ചൊ	-2071
ടുത്ത്	-2072
▁ബാങ്ക	-2073
▁നല്‍കുന്ന	-2074
െറ	-2075
ഷിക	-2076
▁അവസ്ഥ	-2077
▁പുതു	-2078
റണാകു	-2079
െയ്യ	-2080
സന	-2081
ീര്‍	-2082
▁വരു	-2083
▁രാജ്യത്ത്	-2084
▁റിപ്പോര്‍ട്ട	-2085
▁പിടികൂ	-2086
ധു	-2087
▁നൽകി	-2088
▁ഇതിന്	-2089
പ്രവര്‍	-2090
▁ചെയ്യുന്നത്	-2091
ിക്കണം	-2092
ത്തല	-2093
▁തടയ	-2094
റ്റിയ	-2095
▁കര്‍	-2096
സൂ	-2097
▁പ്രണ	-2098
ിരിക്കുന്നു	-2099
്യാപക	-2100
▁ദേവ	-2101
ിക്കുകയ	-2102
▁നേതാക്കള	-2103
▁ഞാൻ	-2104
▁പൗര	-2105
▁രാജ്യത്തെ	-2106
ൂട്ടി	-2107
സെ	-2108
▁മോദി	-2109
തിനും	-2110
ര്‍ന്നു	-2111
▁ഇല	-2112
▁അഭിപ്രായ	-2113
▁അനുമതി	-2114
ുകൂല	-2115
▁സ്വര്‍	-2116
▁നരേന്ദ്ര	-2117
ാനെ	-2118
ലിന്റെ	-2119
▁പ്രതിസന്ധ	-2120
ുകാര്‍	-2121
▁ചടങ്ങ	-2122
കര്യ	-2123
തില	-2124
▁വീട്ടില്‍	-2125
▁പേരില്‍	-2126
ല്‍ക്ക	-2127
▁കോടിയ	-2128
രായ	-2129
▁അടിയ	-2130
▁ആഘോഷ	-2131
▁മണി	-2132
ഴിഞ്ഞ	-2133
ാനായി	-2134
▁മെഡിക്കല്‍	-2135
▁ശബരിമല	-2136
▁നേതൃത്വം	-2137
ളയ	-2138
▁ബംഗ	-2139
▁ഉച്ച	-2140
▁എറണാകു	-2141
▁ശു	-2142
▁പരിശീല	-2143
ൊക്ക	-2144
▁സമര്‍	-2145
▁ക്ഷേത്ര	-2146
ിനെതിരെ	-2147
▁അതു	-2148
▁കോഴിക്ക	-2149
ത്തോളം	-2150
ോടൊപ്പം	-2151
▁ആവശ	-2152
ാക്കാന്‍	-2153
▁ചൂണ്ടിക്കാ	-2154
ണാ	-2155
ൽക്ക	-2156
ിക്	-2157
▁തീവ	-2158
▁തെളിവ	-2159
▁ചരിത്ര	-2160
▁ആശുപത്രിയില്‍	-2161
ത്തിന്‍റെ	-2162
▁വിശ്വാസ	-2163
▁മോഡ	-2164
▁അല്‍	-2165
▁തൊഴിലാള	-2166
▁തൃശ	-2167
▁കിട	-2168
▁ചെറു	-2169
▁സംവിധ	-2170
▁രംഗത്തെ	-2171
▁ചെയ്യുന്നു	-2172
റെയും	-2173
ക്കാരി	-2174
▁ഉടമ	-2175
▁മരിച്ചു	-2176
▁ക്ക	-2177
▁ഇന്റ	-2178
എന്‍	-2179
ുവരി	-2180
മെന്റ്	-2181
▁പിടിയ	-2182
ശ്വാസ	-2183
▁വാങ്ങ	-2184
▁റിപ്പോർട്ട്	-2185
ർട്ട	-2186
▁നിയന്ത്രണ	-2187
പ്പന	-2188
ത്തുട	-2189
▁നിങ്ങൾ	-2190
▁പഞ്ചായത്ത്	-2191
▁സൈന	-2192
ടിച്ച്	-2193
േന്ദ്ര	-2194
▁വിലയി	-2195
യർ	-2196
രിത	-2197
െയില്‍	-2198
ുകളിലും	-2199
19	-2200
▁നായക	-2201
ടക	-2202
ar	-2203
▁ഫോണ	-2204
ന്‍ഡ	-2205
▁ബാങ്ക്	-2206
▁സൂക്ഷ	-2207
ത്തുന്ന	-2208
▁ഗുരുത	-2209
രുത്	-2210
▁ജാമ	-2211
▁പാകി	-2212
്രാ	-2213
▁അഡ്	-2214
▁ഇന്ത്യയുടെ	-2215
▁തെരഞ്ഞെടുപ്പ്	-2216
ൃദ	-2217
▁പറഞ്ഞത്	-2218
▁ഉപയോഗിച്ച്	-2219
▁എടുത്ത	-2220
▁പോരാ	-2221
ടുത്തി	-2222
▁ഇംഗ്ല	-2223
▁മാറ്റി	-2224
▁അച്ഛ	-2225
▁മിനി	-2226
▁എന്നിവര്‍	-2227
ര്‍ഷക	-2228
▁സഞ്ച	-2229
▁പ്രവര്‍ത്തി	-2230
ാപാത്ര	-2231
▁പുറത്ത്	-2232
ീപ്	-2233
ുമായിരുന്നു	-2234
▁ഇസ്	-2235
▁മൂല	-2236
ീന്‍	-2237
▁പിടിച്ച	-2238
▁മറുപടി	-2239
▁താന്‍	-2240
ുകൂ	-2241
▁പ്രമുഖ	-2242
ജ്ജ	-2243
ാവന	-2244
▁ദൃശ്യ	-2245
▁ജനറല്‍	-2246
▁മാർ	-2247
▁സംസ്	-2248
ുപോക	-2249
▁നിർമ്മ	-2250
▁പേർ	-2251
പ്രതി	-2252
▁രക്ത	-2253
▁സിപിഎം	-2254
▁ആവശ്യപ്പെട്ടു	-2255
▁ജില്ലയിലെ	-2256
നിൽ	-2257
ിക്കാം	-2258
▁പൈ	-2259
▁ചെന്നൈ	-2260
ദാ	-2261
▁50	-2262
▁കൊലപാത	-2263
▁കൃത്യ	-2264
▁ആക്രമണ	-2265
▁വിദ്യാര്‍ത്ഥ	-2266
ുണ്ടായി	-2267
▁ഗുരുതര	-2268
▁പശ്ചാത്ത	-2269
▁പട	-2270
ഷൻ	-2271
േര	-2272
നിന്ന	-2273
▁ഭക്ഷണ	-2274
▁കുറിച്ച്	-2275
▁മലപ്പുറം	-2276
ദ്ധി	-2277
▁പരിപാ	-2278
▁കാര്യം	-2279
▁പൂര്‍ത്തിയ	-2280
▁ഭീകര	-2281
▁നിക്ഷേപ	-2282
▁ചന്ദ്ര	-2283
▁ഉണ്ടായി	-2284
▁നടപടിയ	-2285
▁അക്രമ	-2286
യ്ക്കും	-2287
ിച്ചുള്ള	-2288
ത്വം	-2289
▁വന്‍	-2290
ുകള്‍ക്ക്	-2291
ാഗ്ര	-2292
▁സുര	-2293
ത്താവ	-2294
പ്പിൽ	-2295
▁ഗാന്ധി	-2296
▁ആശങ്ക	-2297
▁വധ	-2298
▁പഠന	-2299
ധിപ	-2300
രുന്ന്	-2301
▁അബ്ദു	-2302
▁കഴിയുന്ന	-2303
ാക്കൾ	-2304
▁കോട്ടയം	-2305
സംഘ	-2306
ാർഥ	-2307
്പ	-2308
▁ചർച്ച	-2309
ക്ടർ	-2310
ങ്ങാ	-2311
▁ഉള്‍പ്പെടെ	-2312
▁ഇന	-2313
▁വിദ്യാര്‍ഥ	-2314
മാണെന്ന്	-2315
▁സംവിധായക	-2316
▁വ്യാജ	-2317
▁പോസ്റ്റ്	-2318
ലാ	-2319
▁എണ്ണ	-2320
തുമ	-2321
▁നീക്കം	-2322
▁ഇതിന	-2323
സരിച്ച്	-2324
ക്ടറ	-2325
▁വിദ	-2326
▁സന്	-2327
മ്പര	-2328
ങ്ങ്	-2329
ല്ലോ	-2330
ുവര	-2331
ുല	-2332
വെന്ന്	-2333
▁ഉമ്മ	-2334
രിക്കാന്‍	-2335
ിച്ചിരുന്ന	-2336
▁കമ്മിറ്റി	-2337
ശോ	-2338
▁മൊഴ	-2339
▁നടത്തിയത്	-2340
മാൻ	-2341
▁നിക	-2342
മുണ്ട്	-2343
▁വൈദ്യ	-2344
▁പാര്‍ട്ട	-2345
ക്കുന്നു	-2346
....	-2347
▁പെണ്‍കുട്ട	-2348
മം	-2349
▁ഇഷ്ട	-2350
▁വൈറസ്	-2351
ട്ടും	-2352
▁ആരോപണ	-2353
▁മണിക്കൂറ	-2354
വന്‍	-2355
▁കൊല്ലം	-2356
▁പിന്‍	-2357
ര്‍മ്മ	-2358
▁കടുത്ത	-2359
▁നേടി	-2360
▁സെന്റ	-2361
▁മരണം	-2362
▁അധികാര	-2363
▁ഒന്നാം	-2364
▁കരുത	-2365
ണ്ണി	-2366
ഹത്യ	-2367
▁ഇതിന്റെ	-2368
▁വിദ്യാഭ്യാസ	-2369
എൽ	-2370
ർണ	-2371
ാകുന്ന	-2372
ഫ്ര	-2373
്യന്തര	-2374
▁കേരളത്തില്‍	-2375
ിക്കുകയായിരുന്നു	-2376
മന്ത്ര	-2377
ത്തം	-2378
▁ഫി	-2379
ിപ്പ്	-2380
▁സൂപ്പ	-2381
▁വിതരണം	-2382
▁തങ്ങളുടെ	-2383
▁പശ്ചാത്തല	-2384
വിട്ട	-2385
▁പ്രദ	-2386
▁സൗകര്യ	-2387
▁പറയുന്ന	-2388
▁ഹൈക്കോടതി	-2389
ധിത	-2390
▁കഥാപാത്ര	-2391
▁അതിന്റെ	-2392
ശം	-2393
▁കാഴ്ച	-2394
▁അദ്ദേഹത്തിന്റെ	-2395
▁നൂ	-2396
▁ആയിരുന്നു	-2397
കരമായ	-2398
▁പരിച	-2399
▁മുന്നറിയ	-2400
▁ആണ	-2401
▁റാ	-2402
▁ഇക്കാര്യം	-2403
▁രാമ	-2404
ന്മാര	-2405
▁നോട്ട	-2406
▁രാഹുല്‍	-2407
ിലായ	-2408
ധിച്ച്	-2409
▁പെട്ട	-2410
▁എനിക്ക്	-2411
▁കോര്‍	-2412
▁മട	-2413
ക്സ്	-2414
▁സാം	-2415
സിപ്പ	-2416
ഗം	-2417
ാക്കിയത്	-2418
▁ബന്ധു	-2419
▁പെരു	-2420
വിന്റെ	-2421
▁ഫേസ്ബു	-2422
ാളി	-2423
ൂക്ഷ	-2424
മാവ	-2425
വരാണ്	-2426
▁തെറ്റ	-2427
▁ക്വാ	-2428
▁എഫ്	-2429
▁പെൺ	-2430
ാമത്തെ	-2431
ക്കിട	-2432
▁ഇടപെട	-2433
▁ബീ	-2434
ര്‍ജ	-2435
ാണെന്ന	-2436
▁സ്വപ്	-2437
▁ഘട്ട	-2438
എഫ	-2439
പ്യ	-2440
യാളി	-2441
▁മുമ്പ	-2442
ിട്ടുള്ള	-2443
മെന്ന്	-2444
▁കമ്പനി	-2445
▁റില	-2446
▁നിലവില്‍	-2447
▁െൻറ	-2448
▁നീക്ക	-2449
ഡിഎഫ്	-2450
വാഹ	-2451
കാരം	-2452
▁വെള്ളം	-2453
പ്ല	-2454
മായാണ്	-2455
▁വിമാനത്താവ	-2456
▁കാസര്‍	-2457
▁പേര്	-2458
ടക്കമുള്ള	-2459
▁ആഭ്യന്തര	-2460
▁കടന്ന	-2461
മാക്കിയ	-2462
▁കൊച്ച	-2463
▁21	-2464
▁ചുമതല	-2465
▁യോഗം	-2466
▁തീവ്ര	-2467
ിക്കാനുള്ള	-2468
തന്നെ	-2469
▁പ്രശ്ന	-2470
▁പ്രസ്ത	-2471
▁വാർത്ത	-2472
▁ആലപ്പുഴ	-2473
▁ഏജ	-2474
▁മൊബൈ	-2475
▁കര്‍ഷക	-2476
21	-2477
ിറ	-2478
▁പാട	-2479
▁സംസാരിക്ക	-2480
ൻ്റെ	-2481
▁നമു	-2482
▁കണ്‍	-2483
▁പരാമ	-2484
▁മുഖ്യ	-2485
▁ശിക്ഷ	-2486
▁ന്യൂഡല്‍ഹി	-2487
ബർ	-2488
യ്ക്കു	-2489
▁നിന്നു	-2490
ഞ്ജ	-2491
▁ആറ	-2492
ികൾക്ക്	-2493
▁നിലപാട്	-2494
▁സ്ഥിതി	-2495
▁സംബന്ധിച്ച്	-2496
▁ആറ്	-2497
▁സ്വയം	-2498
▁പ്രകാരം	-2499
ിനുള്ള	-2500
▁മാതൃ	-2501
▁വിവാഹം	-2502
▁തിരി	-2503
ഘട്ട	-2504
▁മര	-2505
▁ഭാഷ	-2506
▁കണ	-2507
▁ചല	-2508
കോട്	-2509
▁എന്നു	-2510
മിന	-2511
▁സൈനിക	-2512
▁കണ്ണൂര്‍	-2513
▁സ്വീകരിച്ച	-2514
▁വികസന	-2515
നിട	-2516
കള്‍ക്ക്	-2517
ൽഹി	-2518
▁പരാജയ	-2519
▁ഇതില്‍	-2520
▁എന്നത്	-2521
വഹ	-2522
▁വിട	-2523
▁സുധ	-2524
▁സംശയ	-2525
ാണോ	-2526
വാസം	-2527
▁സമിതി	-2528
െടുത്ത്	-2529
▁കാത്തി	-2530
▁മുന്നില്‍	-2531
ങ്കിലും	-2532
▁നിര്‍ദേശ	-2533
കൃഷ്ണ	-2534
▁ഇങ്ങനെ	-2535
▁ഇത്തവണ	-2536
മന	-2537
▁നടി	-2538
പിത	-2539
▁രൂക്ഷ	-2540
ദ്യോഗിക	-2541
ാനാവ	-2542
▁നന്ദ	-2543
▁കോഴിക്കോട്	-2544
എമ്മ	-2545
ംസ്	-2546
േറിയ	-2547
▁പ്രവർത്തക	-2548
▁ലാ	-2549
▁ചീഫ്	-2550
▁അല്ലെങ്കിൽ	-2551
ൂരി	-2552
▁മുതി	-2553
▁നിശ്ച	-2554
ിച്ചിരിക്കുന്നത്	-2555
സിസി	-2556
േണ്ടത്	-2557
▁അസോ	-2558
▁പേര്‍ക്ക്	-2559
▁വരും	-2560
ികളില്‍	-2561
▁കണ്ടെത്തി	-2562
▁ഉയര്‍ന്ന	-2563
▁പള്ള	-2564
ുകളിലെ	-2565
▁തുടര്‍ന്ന	-2566
പ്പെടുന്നത്	-2567
പാല	-2568
▁ജയില	-2569
▁ട്രം	-2570
▁പുരു	-2571
▁ഉണ്ട്	-2572
▁വാക്ക	-2573
▁സാമൂഹിക	-2574
▁മൂന്നാം	-2575
▁ചെയ്തിരുന്നു	-2576
ട്ടോ	-2577
▁വസ്തു	-2578
▁മൃതദേഹം	-2579
ളൂ	-2580
▁ബ്രിട്ട	-2581
▁ടീ	-2582
▁ദില	-2583
▁ശ്രമിച്ച	-2584
ചെയ്യ	-2585
▁ഇതേ	-2586
▁വർഷം	-2587
▁അന്ന്	-2588
തിനിടെ	-2589
▁പോകുന്ന	-2590
▁മലയാളി	-2591
▁തള്ള	-2592
▁കള്ള	-2593
▁പുരസ്	-2594
▁ശരിയ	-2595
ംഗം	-2596
ാരായ	-2597
▁ഷെ	-2598
മൂ	-2599
▁നീണ്ട	-2600
ആർ	-2601
ര്‍ത്തിയ	-2602
▁ഒഴിവാക്ക	-2603
ളിച്ച	-2604
▁ഹോട്ട	-2605
▁തുടര	-2606
▁വനിതാ	-2607
▁ആത്മഹത്യ	-2608
കളാണ്	-2609
▁ആവശ്യമ	-2610
പ്പിച്ചു	-2611
▁22	-2612
▁ഒരിക്ക	-2613
co	-2614
▁തീയ	-2615
ശ്മീ	-2616
▁ഹൃദ	-2617
▁എടുക്ക	-2618
▁നോക്ക	-2619
ശു	-2620
▁പച്ച	-2621
ക്കിന്	-2622
▁നിലപാട	-2623
▁പ്രവർത്തന	-2624
▁മാറി	-2625
▁അസോസിയ	-2626
▁സജീവ	-2627
▁സ്കൂ	-2628
▁ശക്തി	-2629
െടുത്തി	-2630
▁ആരോപണം	-2631
റ്റം	-2632
വെന്നും	-2633
▁തട്ടി	-2634
▁വന്നു	-2635
മിക	-2636
▁കല്ല	-2637
ാഥ	-2638
▁മരിച്ചത്	-2639
ഹരി	-2640
ാമറ	-2641
▁രഹ	-2642
ർമ്മ	-2643
▁അർ	-2644
ലിൽ	-2645
▁വിദഗ്	-2646
▁ആവശ്യം	-2647
ുളള	-2648
▁ലം	-2649
▁അവതരിപ്പ	-2650
▁വ്യത്യസ്ത	-2651
കലാശ	-2652
ില്ലാതെ	-2653
▁നിലയില്‍	-2654
▁സന്ദര്‍ശ	-2655
പിട	-2656
▁യഥ	-2657
ക്കൾ	-2658
ലിന്	-2659
▁പതിന	-2660
▁എറണാകുളം	-2661
ാണിത്	-2662
▁കൂട്ടിച്ച	-2663
▁സഹോദര	-2664
▁ലീഗ്	-2665
▁അങ്ങനെ	-2666
▁പഴയ	-2667
യിലൂടെ	-2668
▁തുടങ്ങ	-2669
▁സേവന	-2670
ങ്ങളായി	-2671
ാലയം	-2672
നിധ	-2673
▁സർക്കാരി	-2674
▁മധ്യ	-2675
▁അധികൃതര്‍	-2676
▁ചെയ്യാന്‍	-2677
ന്റി	-2678
വസ്ഥ	-2679
ിലെത്തി	-2680
▁പാലക്കാട്	-2681
50	-2682
സര	-2683
താവ്	-2684
▁ശേഖ	-2685
▁ഭര്‍ത്ത	-2686
സ്സ്	-2687
രുമായി	-2688
തിയാണ്	-2689
▁ഒന്നും	-2690
ത്തിനിടെ	-2691
▁രംഗത്ത്	-2692
ദിവ	-2693
ത്താണ്	-2694
▁കോളേജ	-2695
▁ബോര്‍	-2696
ായില്ല	-2697
ോമീറ്റ	-2698
▁പ്രവേശിപ്പ	-2699
▁കുഴ	-2700
▁ജോസഫ്	-2701
▁പകരം	-2702
ട്ടില്ല	-2703
സിക	-2704
▁സമയത്ത്	-2705
ജോ	-2706
▁അമ	-2707
▁എല്ലാം	-2708
▁പണ	-2709
ഷന	-2710
ീർ	-2711
▁...	-2712
വർക്ക്	-2713
ര്‍ജി	-2714
കുട്ടി	-2715
ധിപത്യ	-2716
▁ശൈ	-2717
സിനെ	-2718
▁തൂ	-2719
▁ആകെ	-2720
▁ഭൂരി	-2721
▁വില്‍	-2722
ുമുണ്ട്	-2723
വുമായ	-2724
കലാശാല	-2725
പറ	-2726
▁പദ	-2727
▁തുക	-2728
ട്ടില്‍	-2729
▁ഭീഷണി	-2730
▁ഔദ്യോഗിക	-2731
▁ശാ	-2732
▁സമരം	-2733
ക്കില്‍	-2734
ോടു	-2735
▁കൃഷ്ണ	-2736
).	-2737
ാദ്	-2738
▁ആര	-2739
▁പിഴ	-2740
ഡ്ര	-2741
▁നിരീക്ഷണ	-2742
▁വിന	-2743
ിച്ചുവ	-2744
▁ബുദ്ധി	-2745
▁സോഷ്യല്‍	-2746
▁നല്‍കിയത്	-2747
▁ഡ്രൈ	-2748
▁ഭക്ഷണം	-2749
▁വിമര്‍ശ	-2750
▁പ്രസ്താവന	-2751
രാജ്	-2752
ീല്‍	-2753
▁ലംഘ	-2754
▁വ്യവസ	-2755
▁ജില്ലയില്‍	-2756
ോടും	-2757
▁യുഎ	-2758
▁സിറ്റി	-2759
യുണ്ട്	-2760
ക്കുമ	-2761
▁ക്രമ	-2762
▁വയസ്സ	-2763
ങ്കള	-2764
വില	-2765
▁സന്തോഷ	-2766
ംബര്‍	-2767
▁ജീവനക്കാര	-2768
▁കാര്യങ്ങള്‍	-2769
▁പ്ലാ	-2770
▁ഇവരുടെ	-2771
ലിസ്	-2772
▁ആഗ	-2773
▁പീഡ	-2774
▁പരിക്കേറ്റ	-2775
ിവെ	-2776
▁ഇവരെ	-2777
▁കൂടെ	-2778
ായിരിക്കും	-2779
ർശന	-2780
േല്‍	-2781
ികളായ	-2782
▁കേരളം	-2783
▁നടന്നത്	-2784
രമ	-2785
ങ്ങനെയ	-2786
ശ്വര	-2787
▁ചാന	-2788
ന്‍ഡ്	-2789
▁പ്രസിദ്ധ	-2790
ടുക്കി	-2791
▁ഇള	-2792
▁അവരെ	-2793
▁ലഭിക്കുന്ന	-2794
▁ദുബ	-2795
ഗ്ഗ	-2796
▁ഭേദ	-2797
േക്ക്	-2798
ിട്ടുള്ളത്	-2799
▁സംബന്ധിച്ച	-2800
▁നാട	-2801
▁പിറ	-2802
▁പ്രവാസ	-2803
▁സംഭവത്തില്‍	-2804
▁ഉദ	-2805
▁എന്നെ	-2806
▁ഡിസം	-2807
പ്പള്ളി	-2808
ല്‍ഹ	-2809
▁ഫോണ്‍	-2810
ുന്നതിന്	-2811
ിയിലേക്ക്	-2812
ർഡ്	-2813
▁ദി	-2814
ങ്ങളില	-2815
▁ഞെ	-2816
െത്തിയ	-2817
ോഭ	-2818
ര്‍ട്ട്	-2819
▁ലഭിക്ക	-2820
▁ചേര്‍ന്ന	-2821
▁ള	-2822
ാക്	-2823
▁ആയു	-2824
▁ട്വി	-2825
▁മുതല	-2826
▁വിധി	-2827
▁സുരേഷ്	-2828
▁ൽ	-2829
ീര	-2830
ിത്തല	-2831
▁പേരാണ്	-2832
▁23	-2833
▁ലൈംഗ	-2834
▁തുറന്ന	-2835
ൂരില്‍	-2836
പന	-2837
മ്പ്യ	-2838
ര്‍ജ്	-2839
▁പത്ര	-2840
ീവ	-2841
▁ഗൂ	-2842
▁നാലു	-2843
▁തെളിയ	-2844
▁സൗദി	-2845
▁വിജയം	-2846
▁ഹിന്ദു	-2847
▁ശാസ്ത്ര	-2848
in	-2849
▁മാറിയ	-2850
ൻസ	-2851
ഴിമ	-2852
▁ഏര്‍	-2853
▁ക്രിക്കറ്റ്	-2854
▁ജോല	-2855
▁നിയമം	-2856
▁ചെന്നിത്തല	-2857
പിച്ച്	-2858
ങ്ങിയത്	-2859
െടുത്തത്	-2860
ചന്ദ്ര	-2861
▁1.	-2862
▁വിലയിരുത്ത	-2863
▁മുറ	-2864
മാണെന്നും	-2865
ീൻ	-2866
മാകും	-2867
ിള്‍	-2868
ില്ലെന്ന	-2869
യാറ	-2870
▁എംഎല്‍	-2871
▁വേദ	-2872
തിട്ട	-2873
▁അനുകൂല	-2874
തെന്നാണ്	-2875
▁ഇന്ത്യയിലെ	-2876
റുകള്‍	-2877
▁എന്നതാണ്	-2878
▁വിമാനത്താവള	-2879
യിലുള്ള	-2880
സേന	-2881
▁തിയ	-2882
▁ഇത്ര	-2883
▁തുടക്ക	-2884
ഗതി	-2885
▁കൊലപാതക	-2886
രാമ	-2887
▁28	-2888
▁സാക്ഷ	-2889
▁വിഭാഗം	-2890
▁ഓണ്‍	-2891
ിക്കുകയാണ്	-2892
▁കിലോമീറ്റ	-2893
▁ഞായ	-2894
▁നേതൃത്വത്തില്‍	-2895
േക്കാ	-2896
ക്കാരുടെ	-2897
▁മമ്മ	-2898
▁ജീവിതം	-2899
ജ്യ	-2900
▁റോഡ്	-2901
വിന്	-2902
പൂര്‍	-2903
▁നേരെ	-2904
▁മോഹന്‍	-2905
▁പ്രി	-2906
ിക്കറ്റ	-2907
▁എങ്ങനെ	-2908
ടിപ്പിച്ച	-2909
ഭൂ	-2910
▁അതിന്	-2911
▁ഇയാള്‍	-2912
▁കിട്ടിയ	-2913
▁സൂച	-2914
▁തനിക്ക്	-2915
▁എൽ	-2916
▁ജൂല	-2917
▁പീഡി	-2918
▁സ്ത്രീക	-2919
▁കണ്ടെത്തിയത്	-2920
▁നന്ന	-2921
▁മണ	-2922
സിലെ	-2923
▁വേഷ	-2924
▁പ്രവ	-2925
▁വൈസ്	-2926
നിന്നും	-2927
▁കാലത്ത്	-2928
ാലോ	-2929
▁ഉന്നത	-2930
ുണ്ടായിരുന്ന	-2931
th	-2932
ര്‍ഭ	-2933
▁കൂടുതല	-2934
▁സിബി	-2935
▁ബിസിന	-2936
▁മനസ്സില	-2937
▁സെക്രട്ടറിയ	-2938
പ്പിന്	-2939
▁രൂപയുടെ	-2940
റിലെ	-2941
▁ഒടു	-2942
▁മേധ	-2943
▁അന്ന	-2944
▁അഴിമ	-2945
േക്കും	-2946
▁ജസ്റ്റി	-2947
ുപേ	-2948
ികളാണ്	-2949
▁ഇയാള	-2950
▁അഞ്ചു	-2951
▁എംഎല്‍എ	-2952
ുഡ്	-2953
ിക്കപ്പെട്ട	-2954
▁പറഞ്ഞ്	-2955
കന്‍	-2956
▁ദുരന്ത	-2957
▁ഇരുവരും	-2958
▁വെല്ല	-2959
ിക്കാനും	-2960
ാവകാശ	-2961
ത്തെയും	-2962
ണര്‍	-2963
▁നാളെ	-2964
▁മാതാ	-2965
▁ഉത്	-2966
▁മോദ	-2967
നിക്ക	-2968
▁മീറ്റ	-2969
വാദി	-2970
▁സുപ്രീംക	-2971
സ്പ	-2972
▁സർവ	-2973
▁സുരക്ഷാ	-2974
ത്തനംതിട്ട	-2975
▁ലോക്ക്	-2976
▁കരാ	-2977
▁ഇതിനെ	-2978
▁സിനിമാ	-2979
▁മുഴുവന്‍	-2980
ൃതി	-2981
▁സാഹചര്യത്തില്‍	-2982
യിലേ	-2983
▁വെള്ളിയ	-2984
▁തീര	-2985
സ്ത്ര	-2986
▁അധ്യാപക	-2987
▁ലൈംഗിക	-2988
▁വീട്ടിൽ	-2989
▁തിരക്ക	-2990
▁കയ്യ	-2991
▁പുസ്ത	-2992
▁വ്യക്തമാക്കിയ	-2993
▁കുറവ	-2994
ുകൾക്ക്	-2995
വകു	-2996
▁കനത്ത	-2997
▁ഉന്നയ	-2998
ാനാക	-2999
പ്രവര്‍ത്തക	-3000
ർന്നു	-3001
▁രമേ	-3002
▁ഉണ്ടായ	-3003
▁ലക്ഷ്യമ	-3004
▁സമ്മാന	-3005
ക്ടോ	-3006
ക്രിയ	-3007
▁ബോള	-3008
ലാണ്	-3009
▁വായ	-3010
കുമാര്‍	-3011
▁കുമാര്‍	-3012
▁സുരേന്ദ്ര	-3013
▁നേതാക്കള്‍	-3014
▁വിവരങ്ങള്‍	-3015
▁ലോകക	-3016
▁പങ്കെടുക്ക	-3017
േലിയ	-3018
▁ഇപ്പോഴും	-3019
▁വച്ച	-3020
ത്തുള്ള	-3021
ങ്കേ	-3022
▁സംസ്ഥാനത്തെ	-3023
കളിലും	-3024
▁കോടതിയില്‍	-3025
▁വോ	-3026
▁ടീം	-3027
▁കഴിയും	-3028
▁സമ്മേളന	-3029
▁പത്തനംതിട്ട	-3030
▁ആവശ്യപ്പെട്ട	-3031
ളൂരു	-3032
▁റദ്ദ	-3033
ങ്ങളുമായി	-3034
▁26	-3035
റുടെ	-3036
ായ്മ	-3037
തോ	-3038
ഡിന്റെ	-3039
ിക്കുന്നുണ്ട്	-3040
▁ട്രെയ	-3041
സ്മ	-3042
▁വെച്ച	-3043
പ്പിക്കുന്ന	-3044
▁ഭയ	-3045
▁റൂ	-3046
പരമായ	-3047
▁കൂള്‍	-3048
▁എത്തിയത്	-3049
▁മൂലം	-3050
▁വ്യാപക	-3051
▁27	-3052
▁സേന	-3053
▁യുദ്ധ	-3054
▁സീസ	-3055
ുണ്ടായിരുന്നു	-3056
▁പ്രതിഷേധം	-3057
▁പേരെ	-3058
▁സമു	-3059
▁വേണം	-3060
▁ക്ലാസ്	-3061
▁പരമ്പര	-3062
▁കൊടുക്ക	-3063
▁നടപടികള്‍	-3064
▁താല	-3065
▁പൂര്‍ണ	-3066
രിക്കുന്നു	-3067
കാ	-3068
▁ഫലം	-3069
▁ട്വിറ്റ	-3070
▁ഗുണ	-3071
ിനോട്	-3072
▁സ്ഥാനാര്‍ത്ഥ	-3073
▁നശ	-3074
േറെ	-3075
▁വാഗ്	-3076
▁വെച്ച്	-3077
തോടെയാണ്	-3078
ല്യ	-3079
▁നിയമസഭാ	-3080
യാൾ	-3081
▁ഇദ്ദേഹ	-3082
ഡൗ	-3083
ത്തോട്	-3084
▁അന്താരാഷ്ട്ര	-3085
▁എയര്‍	-3086
▁എന്നിവർ	-3087
▁കണ്ടു	-3088
▁ഉപേക്ഷ	-3089
ിയുള്ള	-3090
▁പ്രകട	-3091
▁പിന്നെ	-3092
ുകാ	-3093
▁പാർട്ടി	-3094
▁പ്രണയ	-3095
▁പ്രഖ്യാപിച്ച	-3096
ഭോ	-3097
▁ടൈ	-3098
▁റീ	-3099
▁ഉടന്‍	-3100
▁അഭിമുഖ	-3101
േന	-3102
ര്‍ദ്ദ	-3103
പ്പോഴാണ്	-3104
സ്ര	-3105
▁ഓട	-3106
▁പണി	-3107
▁ഫോട്ടോ	-3108
▁ഇടതു	-3109
▁വോട്ട്	-3110
▁ഇന്ത്യയില്‍	-3111
▁ഏഴ്	-3112
▁ബസ്	-3113
ുവിന്റെ	-3114
▁പങ്കുവ	-3115
തുവ	-3116
ശ്ശേരി	-3117
▁നഗരസഭ	-3118
നട	-3119
▁ഗ്ല	-3120
▁സംഗീത	-3121
ിപ്പിക്കുന്ന	-3122
▁ശ്	-3123
▁എന്നിവിട	-3124
ശാ	-3125
▁ജോസ്	-3126
▁യുവാവി	-3127
ാസം	-3128
▁ഒരേ	-3129
▁ഹാജര	-3130
ുടേയും	-3131
ാള്‍	-3132
▁കുവൈ	-3133
▁ക്രൈ	-3134
ാക്കും	-3135
▁അണ	-3136
▁199	-3137
ഡില്‍	-3138
▁തിങ്കള	-3139
▁മുന്നോട്ട	-3140
▁തിരുവനന്തപുര	-3141
▁വച്ച്	-3142
ങ്കേതിക	-3143
▁കൈവ	-3144
▁പറ്റ	-3145
▁സഹായം	-3146
ര്‍ത്ത്	-3147
▁തിരഞ്ഞെടുപ്പ്	-3148
മത	-3149
▁സ്വാതന്ത്ര	-3150
▁ആഴ്ച	-3151
▁നികുതി	-3152
ത്തിന്റെയും	-3153
ർത്തി	-3154
ക്കട	-3155
▁ദക്ഷി	-3156
മുറ	-3157
പ്രദ	-3158
▁ഡോള	-3159
ീസിന്	-3160
▁ലഭിക്കും	-3161
ോറി	-3162
▁ഗവ	-3163
▁പുരുഷ	-3164
▁പരിപാട	-3165
▁വിരുദ്ധ	-3166
റ്റിൽ	-3167
പ്ത	-3168
▁ബഹ	-3169
ർഷക	-3170
▁ലഭ്യമ	-3171
▁എന്നിവരാണ്	-3172
ങ്ങളായ	-3173
▁വരുമാന	-3174
ാധിപത്യ	-3175
▁കെട്ടിട	-3176
▁100	-3177
ാസി	-3178
▁പ്രമേ	-3179
▁ലക്ഷ്യം	-3180
▁ശേഷമാണ്	-3181
▁രാജ്	-3182
ങ്ങള്‍ക്കും	-3183
▁ജോര്‍ജ്	-3184
രൻ	-3185
ുകു	-3186
സ്റ്റർ	-3187
ുമില്ല	-3188
▁ചെലവ	-3189
▁മെന്റ്	-3190
ദ്വ	-3191
ലിം	-3192
ീസിന്റെ	-3193
▁ആദ്യമായി	-3194
▁31	-3195
▁വായി	-3196
▁ബന്ധം	-3197
വിനെ	-3198
▁സങ്ക	-3199
▁ഇതിനു	-3200
▁സാധിക്ക	-3201
▁പലപ്പോഴും	-3202
▁കേന്ദ്രം	-3203
▁നിന്നാണ്	-3204
രുടെയും	-3205
▁റെക്കോ	-3206
▁ചേര്‍ന്ന്	-3207
ണ്യ	-3208
സമ്മ	-3209
ബാധ	-3210
▁നേഹ	-3211
▁വാദ	-3212
▁ബുദ്ധിമു	-3213
▁40	-3214
റ്റാണ്ട	-3215
▁ഇല്ലാത	-3216
▁കഴിഞ്ഞു	-3217
▁നിങ്ങൾക്ക്	-3218
എച്ച്	-3219
▁പലരും	-3220
▁ഇടുക്കി	-3221
▁പരസ്യ	-3222
▁യൂണി	-3223
പ്പിന്റെ	-3224
▁പ്രേക്ഷ	-3225
▁സ്ഥാനം	-3226
▁ഒപ്പം	-3227
ജന്യ	-3228
▁ലീഗ	-3229
പ്പും	-3230
▁വായ്	-3231
▁ഏഴ	-3232
▁നമുക്ക്	-3233
▁വെബ്	-3234
▁പുരോഗ	-3235
രാശ	-3236
▁ലേ	-3237
▁മാത്യ	-3238
▁ഉയർന്ന	-3239
താര	-3240
ോക്ക്	-3241
▁വിച	-3242
▁ശനിയ	-3243
▁കേസിൽ	-3244
▁ശ്രമം	-3245
▁ആക്രമണം	-3246
▁മാനസിക	-3247
.1	-3248
▁പരിചയ	-3249
െടുക്കുന്ന	-3250
▁പ്രവർത്തി	-3251
ക്കാൻ	-3252
▁ഗവേഷ	-3253
ട്ടാണ്	-3254
▁ക്ലാസ	-3255
▁പ്രസംഗ	-3256
ൈസ	-3257
ോറ	-3258
മെന്റ	-3259
▁നിരോധ	-3260
▁മെഡിക്കൽ	-3261
ാനോ	-3262
▁ഓഫി	-3263
▁ല്‍	-3264
മായത്	-3265
ല്	-3266
ല്‍പ്പ	-3267
ുമായുള്ള	-3268
നിക	-3269
ന്‍റ്	-3270
ാക്കോ	-3271
ദ്ദേശം	-3272
യുടെയും	-3273
ോഷം	-3274
▁ബോധ	-3275
▁സൂപ്പര്‍	-3276
▁അവസാനിപ്പ	-3277
പതി	-3278
▁ത്ര	-3279
▁ഭൂമി	-3280
▁ഡോക്ടര്‍	-3281
▁സുഹൃത്തു	-3282
രാക	-3283
െയിൽ	-3284
▁പേരിൽ	-3285
ിലായിരുന്നു	-3286
.30	-3287
▁സേവ	-3288
▁അവസരം	-3289
▁സാങ്കേതിക	-3290
▁ഗത	-3291
പ്രവർ	-3292
▁കൃഷി	-3293
▁സ്ഥലം	-3294
▁അൽ	-3295
▁വട	-3296
▁മനസില	-3297
▁ക്യാമറ	-3298
▁മുന്നറിയിപ്പ്	-3299
▁ഒളി	-3300
ഭോക്ത	-3301
▁സര്‍ക്കാരിന്റെ	-3302
ുപോയ	-3303
▁ഉത്തരവ്	-3304
▁വെല്ലുവി	-3305
▁വിധേയ	-3306
▁ഇനിയും	-3307
▁അസ	-3308
▁നേട്ട	-3309
▁പങ്കുവെ	-3310
ാക്കുന്നത്	-3311
▁0	-3312
ണ്ടി	-3313
▁അത്യ	-3314
ാമെന്ന്	-3315
▁വിശ്വസ	-3316
▁അതുകൊണ്ട്	-3317
▁അഫ്	-3318
▁ഇവർ	-3319
▁സാന്നി	-3320
▁നിയന്ത്	-3321
ൻഡ്	-3322
▁ഭൂമ	-3323
▁പത്ത	-3324
തല്ല	-3325
▁അവതരി	-3326
ണമെന്നാണ്	-3327
▁മറ്റുള്ള	-3328
▁എല്ലാവരും	-3329
ാക്കാൻ	-3330
▁തമ്മിലുള്ള	-3331
▁ബാബു	-3332
ര്യം	-3333
വരില്‍	-3334
▁വാഗ്ദ	-3335
▁നേരിട്ട്	-3336
▁സംസാരിച്ചു	-3337
ഹാര	-3338
റാണ്	-3339
▁ആശയ	-3340
▁ആരും	-3341
▁തയാറ	-3342
▁കുറയ്ക്ക	-3343
കി	-3344
സ്തു	-3345
പ്പെടുത്തിയത്	-3346
▁പൂർത്തിയ	-3347
▁സംഘടിപ്പ	-3348
▁സിങ്	-3349
▁വ്യാഴ	-3350
▁അഭിഭാഷ	-3351
▁ആരംഭിച്ച	-3352
▁കാസര്‍കോട്	-3353
▁ജൂലൈ	-3354
▁വിശേഷ	-3355
▁റെയില്‍	-3356
▁ടൂ	-3357
ുമ്പ	-3358
▁ദീപ	-3359
▁യാത	-3360
▁ഗതാഗ	-3361
▁പ്രചാരണ	-3362
▁ടെക്	-3363
▁രമേശ്	-3364
ക്കൂ	-3365
ന്‍െറ	-3366
▁ഇരുപ	-3367
▁ഡിജി	-3368
▁മെയ്	-3369
▁സഹകരണ	-3370
▁വസ്ത്ര	-3371
▁ഥ	-3372
▁പക്ഷെ	-3373
▁തന്നെയ	-3374
▁മക്കള	-3375
ിച്ചാല്‍	-3376
▁രൂപയാണ്	-3377
്രമ	-3378
▁അള	-3379
▁ബജ	-3380
▁അമ്പ	-3381
▁കൗണ്‍	-3382
▁കുറി	-3383
▁മൊഴി	-3384
▁നടപ്പില	-3385
▁കേരളത്തിൽ	-3386
വ്വാ	-3387
ക്കുക	-3388
▁നിലനി	-3389
ടുക്കുന്ന	-3390
▁ടെസ്റ്റ്	-3391
യിട	-3392
▁പോളി	-3393
▁അതിനു	-3394
ങ്ങളിലൂടെ	-3395
▁വിദ്യാർത്ഥ	-3396
ിലെത്തിയ	-3397
▁പ്രേക്ഷക	-3398
▁തുടങ്ങിയവ	-3399
▁വെള്ളിയാഴ്ച	-3400
▁കശ്മീ	-3401
▁വരുത്ത	-3402
▁സാമൂഹ്യ	-3403
ത്തിനെതിരെ	-3404
▁ചൂണ്ടിക്കാട്ടി	-3405
▁ദൈവ	-3406
▁വനിത	-3407
▁വീട്	-3408
ടുത്തു	-3409
ക്ട്ര	-3410
ാണ്ടി	-3411
പ്രകാരം	-3412
ുട്	-3413
വാര്‍	-3414
▁പേരും	-3415
▁ഫെബ്ര	-3416
ർമ	-3417
▁മഹാരാഷ്ട്ര	-3418
▁ഒര	-3419
▁മണ്ണ	-3420
▁ഒക്ടോ	-3421
യ്ക്കുന്ന	-3422
▁തിങ്കളാഴ്ച	-3423
സഹ	-3424
ട്ടിഫ	-3425
▁നിങ്ങള്‍	-3426
ാബ്	-3427
സ്വാ	-3428
ന്‍സി	-3429
▁പരിപാടിയ	-3430
ബാദ്	-3431
▁പെട്രോ	-3432
▁നിര്‍ദേശം	-3433
രിക്കുകയാണ്	-3434
പ്പെടുത്തുന്ന	-3435
ശാല	-3436
ളുടെ	-3437
▁സൗജന്യ	-3438
▁അടിയന്തര	-3439
▁അക്കൗണ്ട	-3440
സാധ	-3441
മ്പോ	-3442
▁2020	-3443
ുകൊണ്ടാണ്	-3444
▁പീഡന	-3445
▁സോഷ്യൽ	-3446
▁ചെയ്യാൻ	-3447
▁പരാമര്‍ശ	-3448
▁ലഭിച്ചത്	-3449
▁2019	-3450
ക്കര്‍	-3451
മാരായ	-3452
▁പ്രേ	-3453
▁അടക്കമുള്ള	-3454
ഹര	-3455
▁കിഴ	-3456
▁നിരക്ക്	-3457
▁ആലോ	-3458
▁യൂറോ	-3459
ജിന	-3460
▁അവസര	-3461
▁അമിത്	-3462
ശ്വ	-3463
▁അംഗീക	-3464
സര്‍ക്ക	-3465
▁ബേ	-3466
▁ഫ്	-3467
റിനെ	-3468
ടും	-3469
▁ഗാന	-3470
▁അത്ര	-3471
▁ബുധന	-3472
▁തിരിച്ചറിയ	-3473
രുക്ക	-3474
ചെയ്	-3475
▁അദ്ധ	-3476
.5	-3477
മൊരു	-3478
▁അവി	-3479
ഹിത്യ	-3480
▁സ്റ്റേഷന	-3481
▁ലിം	-3482
▁ഒരുക്കിയ	-3483
ഫല	-3484
▁കാമ	-3485
ടിഞ്ഞ	-3486
റാഴ്ച	-3487
ൗണ്ട്	-3488
▁സമാന	-3489
▁എച്ച്	-3490
▁വിട്ടു	-3491
▁വ്യവസ്ഥ	-3492
.0	-3493
ടിവെ	-3494
ങ്ങളോട്	-3495
▁1,	-3496
പ്പെട്ടിരുന്നു	-3497
മെന്ന	-3498
ില്ലി	-3499
▁ജനറൽ	-3500
▁ശമ്പ	-3501
▁മുന്‍പ്	-3502
▁നിര്‍മാണ	-3503
തായിരുന്നു	-3504
▁ലേഖ	-3505
▁പ്രധാനമന്ത്ര	-3506
▁കാലാവസ്ഥ	-3507
ളിത	-3508
▁അഡ്വ	-3509
▁അഭ്യ	-3510
▁കര്‍ണ	-3511
ലു	-3512
www	-3513
▁യെ	-3514
▁അരങ്ങ	-3515
▁താല്‍	-3516
▁തിരിച്ചു	-3517
സ്ഥിതി	-3518
▁പ്രൊഫ	-3519
▁ഭരണകൂ	-3520
തിയായ	-3521
▁ഒട്ട	-3522
▁ജനാധിപത്യ	-3523
ിലേക്കു	-3524
▁ഉണ്ടായിരുന്നു	-3525
ുകാർ	-3526
▁സിന്‍	-3527
▁(2	-3528
▁അപ്പ	-3529
▁കാട്ട	-3530
▁സ്പീ	-3531
ക്കാരെ	-3532
ാന്‍സ്	-3533
▁സമാധാന	-3534
▁പ്രവാ	-3535
▁വന്നത്	-3536
▁ഞായറാഴ്ച	-3537
▁മന്ത്രിസഭ	-3538
▁സൂര്യ	-3539
▁പങ്കെടുത്തു	-3540
ശേഖ	-3541
ിനായി	-3542
▁തൃശൂര്‍	-3543
▁ഉൾപ്പെടെ	-3544
▁പിൻ	-3545
▁താഴെ	-3546
▁മറ്റും	-3547
▁വെളിപ്പെടുത്ത	-3548
▁റേ	-3549
▁കർഷക	-3550
ഷ്ഠ	-3551
▁വാദം	-3552
മാധ്യമ	-3553
▁ഒപ്പ	-3554
ിനെയും	-3555
▁ജാഗ്ര	-3556
▁ധാര	-3557
▁എവിടെ	-3558
▁കേസിലെ	-3559
▁ജനുവരി	-3560
ിക്കുമെന്ന്	-3561
ൊരാ	-3562
▁മാവ	-3563
ികളിൽ	-3564
▁ഷി	-3565
▁മിക്ക	-3566
▁മാതാപിത	-3567
▁ജസ്റ്റിസ്	-3568
▁കയറി	-3569
▁അഴിമതി	-3570
▁ഡല്‍ഹി	-3571
▁യുവാവ്	-3572
▁ഡിവ	-3573
ളിച്ച്	-3574
▁പെരുമാ	-3575
ിക്കെതിരെ	-3576
ൊപ്പ	-3577
▁അസി	-3578
▁പ്രളയ	-3579
▁സുരക്ഷിത	-3580
▁29	-3581
▁യോ	-3582
▁വാഹ	-3583
▁മത്സരം	-3584
▁മത്സ്യ	-3585
▁വിദഗ്ധ	-3586
ൂരിലെ	-3587
ച്ചിത്ര	-3588
▁കുട്ടി	-3589
വറ	-3590
com	-3591
ശങ്ക	-3592
ടിന്റെ	-3593
▁തദ്ദേശ	-3594
▁വേദന	-3595
▁ഓട്ടോ	-3596
▁നൽകുന്ന	-3597
▁നാം	-3598
രിച്ചത്	-3599
▁ഒമ്പ	-3600
ത്താന്‍	-3601
ുന്നുണ്ട	-3602
▁നിഷേധ	-3603
ിയുമായി	-3604
▁സീറ്റ്	-3605
▁ആരോപിച്ചു	-3606
▁അമേരിക്കന്‍	-3607
▁യാതൊരു	-3608
ാമി	-3609
കൾക്ക്	-3610
ുവാന്‍	-3611
▁കോളേജ്	-3612
▁പറഞ്ഞിരുന്നു	-3613
ലീ	-3614
▁ആന്റ	-3615
▁രാജ്യം	-3616
ിക്കണമെന്ന്	-3617
▁മുതിര്‍ന്ന	-3618
ണില്‍	-3619
▁തിരികെ	-3620
▁ക്യാമ്പ	-3621
▁ക്യാപ്റ്റ	-3622
റായ	-3623
ുകയോ	-3624
▁നിര്‍ബന്ധ	-3625
▁ഇതിൽ	-3626
▁നിമി	-3627
▁വിറ്റ	-3628
രൂപ	-3629
▁ഗുജ	-3630
▁തിക	-3631
ണക്കിന്	-3632
▁വ്യവസായ	-3633
ബൂ	-3634
പാദ	-3635
▁റഷ്യ	-3636
▁ക്രൂര	-3637
▁പ്രകടന	-3638
ോണി	-3639
ന്മാ	-3640
മാണി	-3641
▁നിര്‍മ	-3642
റ്റിന്റെ	-3643
▁വയസ	-3644
▁ചൊവ്വാ	-3645
▁തുടക്കം	-3646
ാണെന്നാണ്	-3647
▁കാര്യത്തില്‍	-3648
ീകരിച്ച്	-3649
നുസരിച്ച്	-3650
▁മയ	-3651
മാരെ	-3652
▁വിപണ	-3653
▁ശ്രീക	-3654
▁നടക്കുന്നത്	-3655
▁ഛ	-3656
▁അരു	-3657
മാരും	-3658
ിയര്‍	-3659
ക്കൊപ്പം	-3660
തെന്ന	-3661
▁വില്ല	-3662
▁മന്ത്രാലയം	-3663
▁പെൺകുട്ട	-3664
▁ആശുപത്രിയിൽ	-3665
ഥമിക	-3666
▁ഹൈദ	-3667
▁രാത്ര	-3668
▁നല്‍കാന്‍	-3669
ംബർ	-3670
ാഴ്	-3671
ദേശിക	-3672
▁അതിന	-3673
▁ഖത്ത	-3674
▁മാതൃക	-3675
ഗി	-3676
ടുവ	-3677
ഡിഎഫ	-3678
ഫ്രിക്ക	-3679
▁മാര്‍ച്ച്	-3680
▁നാള	-3681
സിറ്റ	-3682
വിള	-3683
▁ഫുട്	-3684
▁പത്ത്	-3685
ന്മാര്‍	-3686
▁നിലവിൽ	-3687
▁പ്രശസ്ത	-3688
▁ഉത്തരവാദി	-3689
▁നന്നായി	-3690
▁വൈദ്യുതി	-3691
▁ശനിയാഴ്ച	-3692
▁എഡി	-3693
ക്കിടെ	-3694
യെന്ന്	-3695
▁ക്ക്	-3696
▁രീതി	-3697
ലുകള്‍	-3698
▁കൊല്ലപ്പെട്ട	-3699
▁കരി	-3700
▁കണ്ട്	-3701
രിക്കാൻ	-3702
ാറുണ്ട്	-3703
▁ഒരാള്‍	-3704
-1	-3705
▁ദിവസവും	-3706
ർഡ	-3707
യല്‍	-3708
▁അലി	-3709
▁കാവ	-3710
▁ഫൈന	-3711
▁മാറ്റം	-3712
▁ഭൂരിപക്ഷ	-3713
ത്തരം	-3714
ാരായണ	-3715
െതിരെ	-3716
▁സിബിഐ	-3717
▁ആവശ്യപ്പെട്ട്	-3718
ഭരണ	-3719
ിലോ	-3720
▁ഡല്‍ഹ	-3721
▁പ്രതിനിധ	-3722
▁വരുന്നത്	-3723
▁ചിത്രത്തിന്റെ	-3724
▁അടങ്ങിയ	-3725
▁വര്‍ദ്ധ	-3726
ഹം	-3727
രോട്	-3728
▁മഹാ	-3729
കളിലെ	-3730
▁ഒന്ന്	-3731
ക്കൂട്ട	-3732
▁പ്രാഥമിക	-3733
▁ക്രീ	-3734
▁എട്ട്	-3735
▁സ്വാധ	-3736
▁പാര	-3737
ുഡ	-3738
▁കലാപ	-3739
▁വരിക	-3740
▁ഗുജറാ	-3741
▁നടന്നു	-3742
▁എത്തിച്ച	-3743
▁റിപ്പോർട്ട	-3744
▁ഉണ്ടായിരുന്ന	-3745
ിലേക്കും	-3746
▁ഉപഭോക്ത	-3747
ങ്ങനെയാണ്	-3748
ാധ	-3749
വിയ	-3750
▁ഡൗ	-3751
ഘാത	-3752
▁ഹൗ	-3753
▁ചെറ	-3754
നിന്നു	-3755
▁മകന്‍	-3756
▁പിടികൂടിയ	-3757
ോഗ്ര	-3758
▁സിന	-3759
ങ്ങും	-3760
വിരുദ്ധ	-3761
റുകൾ	-3762
▁ഐപി	-3763
▁വൈറല	-3764
▁പോലുള്ള	-3765
▁എത്തിക്ക	-3766
ബ്ബ	-3767
▁ബിരു	-3768
▁നിലവിലെ	-3769
▁നടത്തുന്നത്	-3770
▁പ്രവര്‍ത്തിക്ക	-3771
▁കാണുന്ന	-3772
▁പിന്‍വല	-3773
ഗണ	-3774
്യമുള്ള	-3775
ഖല	-3776
.20	-3777
▁ഘടക	-3778
▁കുടു	-3779
▁വിജില	-3780
സ്ഥാന്‍	-3781
ാണം	-3782
യാത്ര	-3783
▁ഏഷ്യ	-3784
ുണ്ടാക	-3785
▁മരുന്ന	-3786
▁കൺ	-3787
▁എളു	-3788
▁നഴ്	-3789
▁വീണ	-3790
ിലേക്കുള്ള	-3791
കേ	-3792
ാരംഭ	-3793
ിട്ടു	-3794
▁രീതിയ	-3795
▁മുന്നിൽ	-3796
ാളം	-3797
ായുള്ള	-3798
പേ	-3799
ോളജി	-3800
▁ജന്മ	-3801
▁മണിയ	-3802
▁വടക്ക	-3803
▁നിശ്ചയ	-3804
▁കര്‍ണാടക	-3805
▁ഹൃദയ	-3806
▁മുട്ട	-3807
▁ക്രിസ്	-3808
▁പ്രതികരണം	-3809
▁പ്രവര്‍ത്തകര്‍	-3810
തയും	-3811
▁ആക്	-3812
▁2018	-3813
▁എട്ട	-3814
▁ഹൈക്കോട	-3815
▁ഇല്ലാത്ത	-3816
▁പ്രാദേശിക	-3817
▁m	-3818
▁സഹക	-3819
▁വിഷയത്തില്‍	-3820
ന്‍റ	-3821
▁ബോളിവ	-3822
▁വാഹനം	-3823
▁പ്രസിഡന്റ	-3824
▁ചോദിച്ചു	-3825
▁ശ്രദ്ധേയ	-3826
തന	-3827
tha	-3828
ൻറെ	-3829
ല്ലി	-3830
▁യൂത്ത്	-3831
▁അതില്‍	-3832
▁രോ	-3833
▁പൂജ	-3834
▁അയ്യ	-3835
▁നീതി	-3836
പ്പിച്ച്	-3837
▁മൊബൈല്‍	-3838
ൃഗ	-3839
▁കൊണ്ടു	-3840
▁ഉപയോഗിക്കുന്ന	-3841
▁പാത	-3842
▁ചൈനീസ്	-3843
▁ആരംഭിച്ചു	-3844
▁പുറമെ	-3845
▁രഹസ്യ	-3846
▁യുഡിഎഫ്	-3847
▁35	-3848
െയര്‍	-3849
▁വ്യക്	-3850
▁പാകിസ്ത	-3851
ദു	-3852
▁ഭാവ	-3853
ിവേഴ്	-3854
▁മാസ്	-3855
▁യുഎഇ	-3856
▁നിര്‍ദ്ദേശ	-3857
▁;	-3858
▁വക	-3859
▁ചിന്ത	-3860
▁പരിഗണിക്ക	-3861
രുത്തി	-3862
▁വിപണിയ	-3863
ുകെ	-3864
ൻറ്	-3865
്യൂണി	-3866
വുമാണ്	-3867
▁ഉമ്മന്‍	-3868
▁ചെയ്യുക	-3869
▁മുസ്ലിം	-3870
▁കസ്റ്റഡിയ	-3871
െയോ	-3872
▁മസ്	-3873
ാനന്ദ	-3874
എൻ	-3875
റ്റും	-3876
വിശേഷ	-3877
▁സമീപം	-3878
▁നിറഞ്ഞ	-3879
ത്തെക്കുറിച്ച്	-3880
തയ	-3881
▁ബുധനാഴ്ച	-3882
ത്തോ	-3883
▁ഏപ്ര	-3884
▁മറിക	-3885
ാര്‍ഡ്	-3886
▁വര്‍ഗ	-3887
▁അടക്കം	-3888
▁യോഗത്തില്‍	-3889
ണല്‍	-3890
▁ആറു	-3891
ിലായത്	-3892
ചാര	-3893
ഷണല്‍	-3894
▁ഗവര്‍	-3895
▁രീതിയില്‍	-3896
വൻ	-3897
▁മോട്ടോ	-3898
▁കൊണ്ടുവ	-3899
▁മുന്നോട്ട്	-3900
ചിത	-3901
പൂ	-3902
ൻഡ	-3903
ർജ	-3904
▁ക്വാറ	-3905
▁പുസ്തക	-3906
▁പ്രകടനം	-3907
▁തമ്മില്‍	-3908
▁ഓൺ	-3909
▁സബ്	-3910
▁കാണാം	-3911
▁ഇലക്ട്ര	-3912
▁അംഗീകരിക്ക	-3913
ടനാ	-3914
മിച്ച്	-3915
▁സിംഗ്	-3916
ിയുടെയും	-3917
▁ഞങ്ങള്‍	-3918
ോപ	-3919
്വ	-3920
▁മൗ	-3921
▁പൊലിസ്	-3922
ര്‍മാന്‍	-3923
▁കാണാത	-3924
▁എഴുതിയ	-3925
▁അധ്യക്ഷത	-3926
ച്ചവ	-3927
റ്റോ	-3928
മ്പതി	-3929
▁നായിക	-3930
▁തിള	-3931
▁സമർ	-3932
▁മടങ്ങ	-3933
▁സ്ഥാനാര്‍ഥ	-3934
സാര	-3935
▁നം	-3936
▁അഫ്ഗ	-3937
ര്	-3938
▁യുഎസ്	-3939
▁വയനാട്	-3940
ക്കിൽ	-3941
▁സിപിഐ	-3942
▁അറിഞ്ഞ	-3943
▁ഭരണഘ	-3944
▁ഫേസ്ബുക്ക്	-3945
▁60	-3946
ണായക	-3947
ിനാണ്	-3948
▁നിലയിൽ	-3949
▁സൂചിപ്പ	-3950
▁ഗോള	-3951
▁വിജയ്	-3952
▁സ്ഥിരീകരിച്ചു	-3953
ാനു	-3954
▁അക്ഷ	-3955
▁കോളജ	-3956
▁സ്ഥിരീകരിച്ചത്	-3957
▁തന	-3958
▁സ്വർ	-3959
ർക്കും	-3960
▁ഭാരവാഹ	-3961
▁കാണാന്‍	-3962
ഭി	-3963
ലൈന്‍	-3964
▁അപ്ര	-3965
▁സന്ദേശ	-3966
▁ന്യൂഡൽഹി	-3967
ഞ്ചി	-3968
▁മധു	-3969
▁മാല	-3970
ുവേണ്ടി	-3971
▁തുറന്നു	-3972
▁അറിയിച്ച	-3973
▁ജനങ്ങള്‍	-3974
ശ്രീ	-3975
നെതിരെ	-3976
റ്റര്‍	-3977
▁ഗ്രൂപ്പ്	-3978
പൊ	-3979
ളും	-3980
▁പഠനം	-3981
▁ചലച്ചിത്ര	-3982
▁കറ	-3983
▁തീയതി	-3984
▁വിനോദ	-3985
▁വരെയുള്ള	-3986
artha	-3987
▁യൂണിയ	-3988
വിദ്യ	-3989
▁അമിത	-3990
▁ഇപ്പോഴ	-3991
ാണെങ്കില്‍	-3992
▁2017	-3993
▁അദ്ദേഹത്തെ	-3994
▁കുട്ടികള്‍	-3995
മനം	-3996
▁2016	-3997
▁അപകടം	-3998
▁മേധാവി	-3999
▁തിരുവ	-4000
▁വ്യാഴാഴ്ച	-4001
ോയി	-4002
▁സഖ	-4003
▁ബിന	-4004
▁നടന്‍	-4005
▁നേതാവ	-4006
ര്‍ത്ഥ	-4007
▁അക്കാ	-4008
▁വിക്കറ്റ്	-4009
▁അഭിനന്ദ	-4010
▁നേരിട്ട	-4011
▁എംപി	-4012
▁ഐക്യ	-4013
▁കാലം	-4014
▁ടൂറി	-4015
▁കാലാവ	-4016
▁ഏറ്റുമു	-4017
▁മോഹന്‍ല	-4018
▁അറിയിച്ചത്	-4019
വ്യ	-4020
▁വാങ്ങിയ	-4021
▁കുട്ടികളുടെ	-4022
▁ഫ്ല	-4023
നിര്‍	-4024
▁സ്നേ	-4025
▁ടെസ്റ്റ	-4026
▁താൻ	-4027
▁അബു	-4028
▁വിജയന്‍	-4029
പ്തി	-4030
ക്കല്‍	-4031
റ്റിന്	-4032
▁പാര്‍ല	-4033
ങ്ങളിലേക്ക്	-4034
ുകി	-4035
▁നൈ	-4036
▁കഴിവ	-4037
▁സാംസ്	-4038
▁പദ്ധതിയ	-4039
▁ഏതെങ്കിലും	-4040
ിക്കുന്നതിന്	-4041
▁തുടര്‍ന്നാണ്	-4042
▁കേള്‍	-4043
▁മുറിയ	-4044
രിക്കണം	-4045
ുണ്ടെന്ന്	-4046
▁വൻ	-4047
▁റെഡ്	-4048
▁ഡിസ്	-4049
▁പാക്കി	-4050
ിച്ചില്ല	-4051
▁തൊഴില്‍	-4052
▁പ്രാധ	-4053
കേന്ദ്ര	-4054
▁സ്വപ്ന	-4055
▁കൂടിയാണ്	-4056
ലേ	-4057
വു	-4058
കര്‍	-4059
▁ലഭ്യ	-4060
▁ആദ്യത്തെ	-4061
▁ചുവ	-4062
▁പുത്ത	-4063
പ്പെടും	-4064
▁സംരക്ഷണ	-4065
er	-4066
▁ഏത്	-4067
▁തങ്ങള്‍	-4068
▁മാറ്റിയ	-4069
▁ചൊവ്വാഴ്ച	-4070
▁അംബ	-4071
ാലാണ്	-4072
▁കമ്മിറ്റ	-4073
തയുടെ	-4074
▁ട്രോ	-4075
▁ശ്രീന	-4076
സീ	-4077
േളനം	-4078
▁മെച്ച	-4079
ചേ	-4080
േര്‍ത്തു	-4081
▁മഞ്ഞ	-4082
ഞ്ചേരി	-4083
▁വാക്സി	-4084
ുമ്പോഴും	-4085
▁പോരാട്ട	-4086
▁പിന്നാലെയാണ്	-4087
തമ	-4088
ഭാഗം	-4089
▁കഴി	-4090
▁സെക്ക	-4091
മറ	-4092
സമി	-4093
കാര്യം	-4094
▁അന്തി	-4095
മാകുന്ന	-4096
▁ധാരണ	-4097
ംഗളൂരു	-4098
▁സമ്മതി	-4099
▁ഇന്ത്യയിൽ	-4100
▁വേഗ	-4101
▁മുഴുവൻ	-4102
▁നിലനില്‍	-4103
ളിയ	-4104
ുദ്ധ	-4105
▁അച്ച	-4106
തായാണ്	-4107
▁അതിനെ	-4108
▁വായ്പ	-4109
▁കണ്ണൂർ	-4110
ുഴ	-4111
ർത്ത്	-4112
▁കേട്ട	-4113
▁അടുത്തി	-4114
▁സുപ്രീംകോടതി	-4115
▁പ്രഖ്യാപിച്ചു	-4116
ർത്തു	-4117
▁സെപ്റ്റ	-4118
ർത്തിയ	-4119
▁ട്രംപ്	-4120
99	-4121
േറ	-4122
ാനിയ	-4123
▁അറി	-4124
ാക്ക്	-4125
▁വരുന്നു	-4126
മായിരിക്കും	-4127
▁എന്	-4128
വെന്ന	-4129
െത്തി	-4130
ക്സ	-4131
നാഥ്	-4132
▁സസ്	-4133
ാന്റെ	-4134
▁ഗര്‍ഭ	-4135
കൻ	-4136
തിനാണ്	-4137
▁ഗോള്‍	-4138
▁രൂപയും	-4139
ട്ടിന്റെ	-4140
▁കൂടിക്ക	-4141
▁നടക്കും	-4142
▁നടത്തും	-4143
▁വിളിച്ചു	-4144
ാറിന്റെ	-4145
▁മേഖലയില്‍	-4146
.4	-4147
ുവീ	-4148
▁(1	-4149
യോട്	-4150
ിക്കൊ	-4151
ിക്ക്	-4152
▁കപ്പ	-4153
▁മാണി	-4154
▁സ്ത്രീകള്‍	-4155
ദിവസം	-4156
നാട്ട	-4157
രില്‍	-4158
ക്ഷന്‍	-4159
▁ചുരു	-4160
▁എത്തുന്ന	-4161
▁198	-4162
▁അധികം	-4163
▁ഹൈദരാ	-4164
▁അതിനാല്‍	-4165
▁എന്നായിരുന്നു	-4166
▁ബൗ	-4167
▁ഡിവൈ	-4168
▁റെയ്	-4169
ോടെയാണ്	-4170
▁കടന്നു	-4171
▁ഒരിക്കലും	-4172
ത്തിലായിരുന്നു	-4173
▁അഴ	-4174
▁തൊട്ട	-4175
▁താലൂ	-4176
▁വീതം	-4177
▁സുധാക	-4178
▁കുറച്ച്	-4179
▁ആവശ്യമായ	-4180
▁പ്രിയങ്ക	-4181
▁ചെയര്‍മാന്‍	-4182
▁മറുപടിയ	-4183
▁സ്വതന്ത്ര	-4184
▁ഇന്റര്‍	-4185
▁നങ്ങള്‍	-4186
▁ഫെയ്	-4187
▁മാലി	-4188
▁സാധന	-4189
ലിക	-4190
▁ഏർ	-4191
രായി	-4192
▁അനി	-4193
▁പന്ത	-4194
യ്ക്കായി	-4195
▁സര്‍ക്കാര	-4196
''	-4197
വത്	-4198
▁മതി	-4199
▁ജോണ്‍	-4200
▁പുറത്തുവന്ന	-4201
▁കേന്ദ്രസര്‍ക്ക	-4202
ിച്ചിട്ടില്ല	-4203
▁നില്‍ക്കുന്ന	-4204
▁അടച്ച	-4205
▁ഇതിനായി	-4206
▁റവ	-4207
നോട്	-4208
▁ആശ്ര	-4209
എല്ല	-4210
▁ഫോറ	-4211
▁ഇടപാട	-4212
▁എളുപ്പ	-4213
▁ചിന്തി	-4214
▁ആളുകള്‍	-4215
▁ഫിലി	-4216
▁സിംഗ	-4217
നത്തിന്	-4218
▁സാഹിത്യ	-4219
▁സഭാ	-4220
ിനിടെ	-4221
▁നാട്	-4222
▁ഞങ്ങൾ	-4223
▁വാഗ്ദാനം	-4224
▁രജിസ്റ്റര്‍	-4225
ാൾ	-4226
ഞ്ജു	-4227
▁സ്വദേശിയായ	-4228
▁പാക്	-4229
▁റൈ	-4230
▁പോവ	-4231
ജിത്ത്	-4232
▁കിടക്ക	-4233
ിക്കാത്ത	-4234
▁പിന്നില്‍	-4235
ഡറ	-4236
▁ഇടം	-4237
യുക്ത	-4238
റ്റിക്	-4239
▁എന്ത്	-4240
▁തള്ളി	-4241
▁ഡയറക്ടര്‍	-4242
കൃ	-4243
ക്ഷോഭ	-4244
▁സ്കൂള	-4245
▁കുറച്ചു	-4246
ാഗ്	-4247
ുവിനെ	-4248
▁കുറയ	-4249
▁പിതാവ്	-4250
മായിരുന്ന	-4251
▁നടത്താന്‍	-4252
േകം	-4253
▁ഓസ്	-4254
▁അയച്ച	-4255
ത്തുന്നത്	-4256
▁ഫെബ്രുവരി	-4257
▁മത്സരത്തില്‍	-4258
ാബ	-4259
▁ഡേ	-4260
േണ്ടിവ	-4261
▁ശ്രീല	-4262
▁ഇതിനിടെ	-4263
▁പച്ചക്ക	-4264
▁ബോര്‍ഡ്	-4265
▁വൈകുന്ന	-4266
▁ഉദ്യോഗസ്ഥര്‍	-4267
re	-4268
ീധ	-4269
▁കുള	-4270
▁ഓഹരി	-4271
▁ഓണ്‍ലൈന്‍	-4272
ലോക	-4273
▁പകു	-4274
ങ്ങളുടെയും	-4275
തക	-4276
▁ആലോച	-4277
▁ഏതാനും	-4278
▁തീവ്രവാദ	-4279
്മ	-4280
സിസ്	-4281
▁യൂണ	-4282
al	-4283
▁എയർ	-4284
▁എങ്കിലും	-4285
ുപറ	-4286
▁ആധ	-4287
ടുന്ന	-4288
ത്രിക	-4289
ൂട്ട്	-4290
േറ്റം	-4291
▁ലണ്ട	-4292
▁ചിത്രങ്ങള്‍	-4293
രക്ക	-4294
▁മുൻപ്	-4295
ുമെല്ലാം	-4296
ജന്‍	-4297
ാരോഗ	-4298
ിവാസ	-4299
▁കയറ	-4300
▁ഗോപ	-4301
▁ആഗോള	-4302
▁വര്‍ധ	-4303
▁എഴുത്ത	-4304
▁റണ്‍സ്	-4305
▁നേരിടുന്ന	-4306
ദാസ്	-4307
▁നന്ദി	-4308
▁മാത്യു	-4309
▁സന്ദർശ	-4310
പുര	-4311
▁ഫോൺ	-4312
ധുനിക	-4313
നെയും	-4314
ിക്കാര	-4315
▁ഗതാഗത	-4316
േഷ്യ	-4317
▁വളര	-4318
ാന്‍ഡ്	-4319
▁ന്യൂന	-4320
▁മണ്ഡലം	-4321
▁സെന്റ്	-4322
!!	-4323
▁അജ	-4324
ങ്ങളെയും	-4325
▁തിരക്കഥ	-4326
▁സാഹചര്യത്തിൽ	-4327
▁കറു	-4328
▁സമി	-4329
ിമ	-4330
▁നൂറ	-4331
ധികൃത	-4332
▁അംഗം	-4333
േണ്ടതു	-4334
▁പോര്‍	-4335
▁സംയുക്ത	-4336
▁സിപിഎമ്മ	-4337
▁രംഗത്തെത്തിയ	-4338
ഹ്മ	-4339
ർത്ഥ	-4340
▁കാറ	-4341
സ്ഥാപ	-4342
▁ബാധിത	-4343
മെന്നും	-4344
▁നൽകിയത്	-4345
ലുകൾ	-4346
▁ശാര	-4347
ര്‍പ്പ	-4348
▁അക്കാദ	-4349
▁ദമ്പതി	-4350
▁പ്രവാസി	-4351
▁കാര്യങ്ങൾ	-4352
▁കൂടിക്കാഴ്ച	-4353
▁?	-4354
രളീധ	-4355
▁സൗദ	-4356
▁''	-4357
ാരിക	-4358
▁ആയുധ	-4359
▁സിനിമയുടെ	-4360
an	-4361
ർദ്ദ	-4362
▁പാവ	-4363
▁കുടിയ	-4364
▁ഭർത്ത	-4365
▁വർദ്ധ	-4366
ിക്കാതെ	-4367
▁പേർക്ക്	-4368
▁മന്ത്രാലയ	-4369
പൂർ	-4370
▁ബസ	-4371
▁മേല്‍	-4372
▁ആസ്ഥാന	-4373
▁പ്രകാശ	-4374
▁ബാധിച്ച്	-4375
▁നിയന്ത്രണം	-4376
▁പങ്കെടുത്ത	-4377
60	-4378
ിയിലും	-4379
▁വിതരണ	-4380
▁എന്താണ്	-4381
▁ഓക്	-4382
▁തോല്‍	-4383
▁രാഹുൽ	-4384
▁ഉണ്ടാവ	-4385
▁ഓഫീസര്‍	-4386
▁ചികിത്സയില	-4387
ബല	-4388
▁വന	-4389
▁വിൽ	-4390
▁സ്ഥി	-4391
വയ	-4392
ദണ്ഡ	-4393
ന്യം	-4394
▁കിലോ	-4395
▁നില്‍ക്ക	-4396
▁ദൈ	-4397
ത്സവ	-4398
▁നാമ	-4399
ക്കളും	-4400
മാണിത്	-4401
▁വിഷയം	-4402
▁ജാമ്യം	-4403
▁വിദ്യാർഥ	-4404
ഗാ	-4405
▁തുടർന്ന	-4406
▁പ്രവർത്തിക്ക	-4407
▁ഉള്‍പ്പെടെയുള്ള	-4408
ോഷ്	-4409
ലിനെ	-4410
ുമാര	-4411
▁ദുരി	-4412
▁സജ്ജ	-4413
▁തേടിയ	-4414
▁ബംഗ്ല	-4415
▁തുടര്‍ച്ച	-4416
▁ഫൈ	-4417
▁റൺ	-4418
▁2021	-4419
▁കോളജ്	-4420
▁ജാഗ്രത	-4421
▁മാനേജ്	-4422
▁വിളിച്ച	-4423
▁പിടിച്ചു	-4424
▁ബുദ്ധിമുട്ട	-4425
ചക	-4426
ഭാവന	-4427
പ്പടെ	-4428
▁പരിസര	-4429
▁വിശദീകരണം	-4430
▁സയ	-4431
രംഗ	-4432
രുട	-4433
▁സീന	-4434
▁കാരം	-4435
▁ഞെട്ട	-4436
▁റിലീസ്	-4437
▁വഹിച്ചു	-4438
വശ	-4439
മാവധി	-4440
▁വിമര്‍ശന	-4441
▁എന്നിവരുടെ	-4442
▁ചെയ്തിട്ടുണ്ട്	-4443
ുപോയി	-4444
▁ട്വീ	-4445
▁ലോകം	-4446
▁സുന്ദ	-4447
ക്കളുടെ	-4448
▁വൈകിട്ട്	-4449
▁റെയില്‍വേ	-4450
▁പാസ	-4451
▁കയറിയ	-4452
▁വിവരങ്ങൾ	-4453
ടിവ	-4454
പഞ്ച	-4455
▁കാമുക	-4456
ിക്കൊണ്ട	-4457
▁രണ്ടാമത്തെ	-4458
▁ഭി	-4459
▁രമ	-4460
ായും	-4461
ായാണ്	-4462
▁പ്രചാര	-4463
െയർ	-4464
▁പരിധ	-4465
വകുപ്പ്	-4466
▁അനുസരിച്ച്	-4467
ോഹ	-4468
ുടേ	-4469
▁അഖ	-4470
▁ഉൽ	-4471
▁മോഹൻ	-4472
▁കുറിച്ചു	-4473
ാവുന്നതാണ്	-4474
▁ഭേദഗതി	-4475
▁വിചാരണ	-4476
ക്കാര്‍ക്ക്	-4477
ബോധ	-4478
▁ബിഷ	-4479
▁കണ്ടത്	-4480
▁ഒരുപാട്	-4481
▁പ്രവര്‍ത്തനം	-4482
േശ	-4483
ിയം	-4484
ടിച്ച	-4485
ിയുമായ	-4486
ാക്കളുടെ	-4487
▁പരമാവധി	-4488
പന്ന	-4489
▁ബാന	-4490
രാജ്യ	-4491
ിനൊപ്പം	-4492
പ്പിച്ചത്	-4493
ുണ്ടെന്നും	-4494
▁വസ	-4495
ബാധിത	-4496
▁താത്	-4497
▁താഴ്	-4498
▁മുറി	-4499
▁സേവനം	-4500
▁ഭക്ഷ്യ	-4501
ില്യ	-4502
▁ചാമ്പ്യ	-4503
▁ബാധിച്ച	-4504
▁സ്വാതന്ത്ര്യ	-4505
2,	-4506
▁കൊള	-4507
നുമായ	-4508
▁നിയോഗ	-4509
▁ലക്ഷ്യ	-4510
▁വര്‍ഷത്തെ	-4511
ിക്കണമെന്നും	-4512
▁ഓഗ	-4513
ുവാൻ	-4514
▁അസു	-4515
ജീവിത	-4516
▁2014	-4517
▁തേടി	-4518
▁കുന്ന	-4519
▁വെറും	-4520
▁ഇന്നും	-4521
▁കാര്യമ	-4522
▁കുത്തി	-4523
▁പിറന്ന	-4524
മില്ലാത്ത	-4525
▁യൂണിവേഴ്	-4526
▁ബിഗ്	-4527
ുമൊക്കെ	-4528
▁രാധ	-4529
▁മുകള	-4530
▁ഉപകരണ	-4531
▁കെട്ട	-4532
▁റണ്‍സ	-4533
▁വയ്ക്ക	-4534
വേദ	-4535
ിങ്	-4536
▁(3	-4537
▁കോവി	-4538
▁മതിയ	-4539
▁കുട്ടികളെ	-4540
▁പൗരത്വ	-4541
▁ട്രേലിയ	-4542
▁പിന്തുട	-4543
ംശ	-4544
▁തള	-4545
ാദ്യ	-4546
▁ബ്രാ	-4547
▁പരിപാടി	-4548
മയ	-4549
ങ്ങാട്	-4550
ാക്കുക	-4551
െടുപ്പ്	-4552
▁ഏകദേശം	-4553
▁ധാരാളം	-4554
▁എത്തുന്നത്	-4555
▁നല്‍കിയിരുന്നു	-4556
േട്ട	-4557
▁മാനദണ്ഡ	-4558
ീറ്റ്	-4559
▁ഇറ്റ	-4560
▁നാടക	-4561
നായിരുന്നു	-4562
▁നൗ	-4563
ന്‍പ	-4564
▁ഉയര	-4565
▁സുഖ	-4566
മിന്റെ	-4567
രാഷ്ട്ര	-4568
വിക	-4569
▁വഴിയ	-4570
▁ഓഫീസ്	-4571
േഷനില്‍	-4572
▁കൈകാര്യം	-4573
▁സാഹചര്യത്തിലാണ്	-4574
.2	-4575
ഷറ	-4576
▁കിരീ	-4577
▁ഫോര്‍	-4578
▁കഴിഞ്ഞ്	-4579
▁ഇസ്ല	-4580
▁ശബ്ദ	-4581
▁കായിക	-4582
▁നിര്‍ത്തി	-4583
▁സന്ന	-4584
▁സ്റ്റേ	-4585
▁ആശുപത്രിയിലെ	-4586
,,	-4587
ക്കുകയും	-4588
▁എന്നിവര	-4589
രാൻ	-4590
▁മുഖം	-4591
▁ബില്ല	-4592
▁മാനേജ	-4593
▁ട്വീറ്റ്	-4594
▁നരേന്ദ്രമോ	-4595
▁നേതൃത്വത്തിൽ	-4596
▁ഈട	-4597
▁ശശ	-4598
▁വെറു	-4599
▁കൈമാറ	-4600
▁കര്‍ശന	-4601
▁ചേർന്ന	-4602
▁ജഡ്	-4603
▁ചെയർ	-4604
ഫ്റ്റ്	-4605
▁ആന്‍ഡ്	-4606
ദായ	-4607
▁വിസ	-4608
▁അയാള	-4609
▁ആവേശ	-4610
▁ടെലി	-4611
ാവിന്റെ	-4612
▁രു	-4613
▁പാറ	-4614
▁മോശ	-4615
ന്തരം	-4616
▁പാസ്	-4617
▁ലഭിച്ചു	-4618
▁എഴ	-4619
ഹാരം	-4620
▁ഉടൻ	-4621
ാലോചന	-4622
▁കൊടുത്ത	-4623
▁തീരുമാനിച്ചു	-4624
▁s	-4625
ചിത്ര	-4626
ടുപ്പ	-4627
സംഖ്യ	-4628
▁ആശംസ	-4629
▁പരാതിയ	-4630
▁ലൂ	-4631
▁സൊ	-4632
ിലൂടെയാണ്	-4633
▁പ്രതികളെ	-4634
ാകെ	-4635
േഴ്സ്	-4636
▁സഖ്യ	-4637
▁അപമാന	-4638
▁നേടിയത്	-4639
▁ചിത്രത്തില്‍	-4640
▁സമര്‍പ്പിച്ച	-4641
▁ഏകദിന	-4642
▁നല്‍കും	-4643
▁സ്ഥലത്ത്	-4644
ുകയാണെന്നും	-4645
40	-4646
ചനം	-4647
▁ലൈസ	-4648
▁ഓര്‍	-4649
്മി	-4650
ൂരിൽ	-4651
▁ഡീസ	-4652
▁ഇരട്ട	-4653
▁അടുത്തിടെ	-4654
▁കൃഷ	-4655
സിക്യ	-4656
ൽഹ	-4657
▁നിൽ	-4658
▁തര്‍ക്ക	-4659
▁നേരത്തേ	-4660
▁കമ്മീഷന്‍	-4661
ക്കുറിച്ചുള്ള	-4662
ാഫ	-4663
▁യാഥ	-4664
▁വിര	-4665
ദ്വീപ	-4666
▁മല്‍	-4667
▁ഉദ്ദേശ	-4668
▁പ്രതിസന്ധി	-4669
▁സംഘടിപ്പിച്ച	-4670
ുമാ	-4671
▁2015	-4672
▁അതോറി	-4673
പ്രദേശ്	-4674
▁പ്രതികരണ	-4675
▁ചടങ്ങില്‍	-4676
▁നശിപ്പ	-4677
▁സവിശേഷ	-4678
▁ഏപ്രില്‍	-4679
തീഷ്	-4680
സ്ഥല	-4681
ാന്ത്	-4682
ാമെന്ന	-4683
▁ഒരുക്ക	-4684
▁ബാറ്റി	-4685
▁വര്‍ധി	-4686
▁അനധികൃത	-4687
▁നല്	-4688
ലക്ഷം	-4689
▁കെഎസ്	-4690
▁കാലാവധി	-4691
ബന്ധിച്ച്	-4692
ടിന്	-4693
ക്കൊള്ള	-4694
▁ട്രെയിന	-4695
▁നോക്കിയ	-4696
ണമെന്നാവശ്യ	-4697
70	-4698
▁നിര്‍വഹ	-4699
▁വ്യാപനം	-4700
ക്കര	-4701
നവും	-4702
▁വൈകീ	-4703
ുമാര്‍	-4704
▁നാട്ടില്‍	-4705
ിട്ടുണ്ടെന്നും	-4706
േബ	-4707
▁കത്തി	-4708
▁ദില്ലി	-4709
െടുക്കാന്‍	-4710
ില്ലെന്നാണ്	-4711
▁വെട്ട	-4712
ച്ചില്‍	-4713
▁സംഭാവന	-4714
ഷണം	-4715
ന്ദ്	-4716
▁കോർ	-4717
ൊന്ന്	-4718
▁ദുരിത	-4719
▁രക്ഷാ	-4720
▁സില്‍	-4721
▁ബ്ലോക്ക്	-4722
▁മുള	-4723
തുമായ	-4724
▁അതിനാൽ	-4725
▁ഉത്തര്‍	-4726
▁കമ്പനിയ	-4727
ങ്ങളിലാണ്	-4728
േൽ	-4729
▁താലി	-4730
▁പ്രഭ	-4731
▁നാലാം	-4732
കാലത്ത്	-4733
▁ലോകത്തെ	-4734
പ്പെടുകയും	-4735
7,	-4736
തേ	-4737
ുവാ	-4738
▁യുവതിയെ	-4739
▁സാഹചര്യം	-4740
ഷണൽ	-4741
▁45	-4742
▁നദ	-4743
കളായ	-4744
ജിത്	-4745
▁മൃഗ	-4746
തില്ല	-4747
▁രൂപം	-4748
▁സ്ട്ര	-4749
▁കുടുംബം	-4750
▁ഗ്രൂപ്പ	-4751
▁നോട്ടീസ്	-4752
▁പരിശീലനം	-4753
▁ഗൗ	-4754
▁ഓപ്പ	-4755
ത്തോടെയാണ്	-4756
▁സംഭവത്തിൽ	-4757
▁സല	-4758
▁കവിത	-4759
▁നിരോ	-4760
ാരോഗ്യ	-4761
െയിന്‍	-4762
▁പരിഹാരം	-4763
▁ഇന്നത്തെ	-4764
▁കേരളത്തിന്റെ	-4765
▁രോഹി	-4766
▁വെളു	-4767
ിലെയും	-4768
▁കോടതിയെ	-4769
▁താമസിക്കുന്ന	-4770
ണമെ	-4771
ടുള്ള	-4772
ികളുമായി	-4773
▁പ്രവേശനം	-4774
ിക്കുമെന്നും	-4775
പരിശോ	-4776
▁ഭാരത	-4777
▁ബിരുദ	-4778
▁നിർദേശ	-4779
▁ഒന്നാണ്	-4780
▁പേര്‍ക്ക	-4781
ട്ടിക്കിള്‍	-4782
▁”	-4783
മിത	-4784
▁പതിവ	-4785
ങ്ങുന്നത്	-4786
ങ്ങൾക്കും	-4787
▁നിഗ	-4788
ളിന്റെ	-4789
▁സ്നേഹ	-4790
▁സ്വഭാവ	-4791
▁സ്ഥാനാർത്ഥ	-4792
ാന്യ	-4793
പ്പാട	-4794
▁മനോഹര	-4795
▁സിനിമയില്‍	-4796
▁ബല	-4797
ലിലെ	-4798
ുള്ളൂ	-4799
ികമായി	-4800
▁വിമാനം	-4801
▁മണിക്ക്	-4802
▁ദിവസത്തെ	-4803
ലൈന	-4804
ുവും	-4805
▁അസുഖ	-4806
▁പുനര	-4807
യുമാണ്	-4808
▁ബാലകൃഷ്ണ	-4809
▁നല്‍കുന്നത്	-4810
▁അവതരിപ്പിച്ച	-4811
ത്താ	-4812
▁ഹര്‍ജ	-4813
▁കൊണ്ടാണ്	-4814
▁ആര്‍ട്ടിക്കിള്‍	-4815
3,	-4816
6,	-4817
നാഥ	-4818
▁ജമ്മ	-4819
▁എഴുതി	-4820
രുതെന്ന്	-4821
▁ഞങ്ങളുടെ	-4822
▁പ്രക്ഷോഭ	-4823
▁സംഭവിച്ച	-4824
ഡും	-4825
ുകൂടി	-4826
ഷ്യല്‍	-4827
▁അഭിമാന	-4828
▁എന്തെങ്കിലും	-4829
▁എഴുത	-4830
▁സൗഹൃ	-4831
ണിന്റെ	-4832
വിട്ടു	-4833
▁പാർട്ട	-4834
▁അഗ	-4835
▁ലാഭ	-4836
▁മുദ്ര	-4837
▁സംശയം	-4838
▁അത്തരം	-4839
▁ദുബായ്	-4840
ഡിന്	-4841
▁അട്ടി	-4842
▁കൊള്ള	-4843
ശാസ്ത്ര	-4844
▁ഉണ	-4845
▁മ്യൂ	-4846
▁ഇയാളെ	-4847
▁തന്ത്ര	-4848
▁പ്രവേശന	-4849
▁സ്വാധീന	-4850
▁ജനങ്ങളുടെ	-4851
ക്കുറിച്ചും	-4852
▁എന്നിവയാണ്	-4853
▁കഞ്ച	-4854
▁പിടി	-4855
▁സംരംഭ	-4856
പ്രവർത്തക	-4857
്യമന്ത്രി	-4858
▁ഡിസംബര്‍	-4859
പ്രി	-4860
▁സ്വര്‍ണ	-4861
ങ്ങളിലായി	-4862
▁അതുകൊണ്ട	-4863
4,	-4864
ഴിഞ്ഞു	-4865
▁പുറമേ	-4866
▁നേതാക്കൾ	-4867
ീൽ	-4868
വേള	-4869
ഴ്സ്	-4870
▁അതിൽ	-4871
▁ഇതാണ്	-4872
▁നോക്കി	-4873
രുമെന്ന്	-4874
▁കൃത്യമായ	-4875
▁)	-4876
▁ഉള്ളത്	-4877
▁പരിഗണന	-4878
▁ബുക്ക്	-4879
▁ഒടുവില്‍	-4880
▁ഉപയോഗിക്ക	-4881
▁നാട്ടുകാര്‍	-4882
റാം	-4883
ന്യൂ	-4884
റ്റു	-4885
▁പാട്ട	-4886
▁സെന്‍	-4887
▁നമ്പര്‍	-4888
▁അവര്‍ക്ക്	-4889
മേഖല	-4890
▁ആള്‍	-4891
▁കുതി	-4892
▁ദിനം	-4893
▁ഇത്രയും	-4894
സ്ഥത	-4895
ാൻസ്	-4896
▁ഇസ്ര	-4897
ടങ്ങിയ	-4898
▁കൊട്ട	-4899
▁സിദ്ധ	-4900
േക്കാള്‍	-4901
▁ചേർന്ന്	-4902
▁തുടരുന്ന	-4903
പ്പൊ	-4904
സാദ്	-4905
▁ഉരു	-4906
▁കച്ചവ	-4907
▁ജേക്ക	-4908
ുകാരുടെ	-4909
ാണെങ്കിൽ	-4910
▁ലു	-4911
പര്യ	-4912
▁ട്വ	-4913
▁പങ്കാള	-4914
▁ഉപയോഗിച്ച	-4915
പോല	-4916
ീതി	-4917
ർജി	-4918
ഞ്ചു	-4919
▁ജയ്	-4920
ടിയായി	-4921
▁കുറച്ച	-4922
▁ഏറ്റുമുട്ട	-4923
▁അടിസ്ഥാനത്തില്‍	-4924
▁അസം	-4925
▁യാദ	-4926
▁രോഗമു	-4927
ത്തന്നെ	-4928
▁മുന്‍പ	-4929
▁മുരളീധ	-4930
യള	-4931
താക	-4932
▁80	-4933
എന്ന	-4934
ഡര്‍	-4935
▁ഹരി	-4936
യെയും	-4937
▁സ്മാ	-4938
കരമായി	-4939
▁ദിലീപ്	-4940
▁പ്രയോഗ	-4941
സ്റ്റിക്	-4942
ൃത്തി	-4943
▁ഇന്ധ	-4944
▁കോടിയേരി	-4945
വോ	-4946
തുക	-4947
യാക	-4948
▁ഗണ	-4949
ക്രോ	-4950
▁പുഴ	-4951
▁പേരു	-4952
▁വാട്	-4953
ടിയില്‍	-4954
▁ദക്ഷിണ	-4955
▁വാങ്ങി	-4956
▁പ്രകൃതി	-4957
▁ഇടതുപക്ഷ	-4958
എസ	-4959
▁ഓവ	-4960
▁ഗി	-4961
ാമത്	-4962
യെന്ന	-4963
ായാലും	-4964
▁കുമാർ	-4965
▁നമ്മള്‍	-4966
▁ക്വാറന്റ	-4967
▁രാജ്യത്തിന്റെ	-4968
പം	-4969
▁്	-4970
പെട്ട	-4971
▁കാഞ്ഞ	-4972
▁അന്തിമ	-4973
▁ഐസ	-4974
ാണ്ഡ	-4975
ക്കിയത്	-4976
▁അനുവദിക്ക	-4977
▁സംവിധായകന്‍	-4978
ാടി	-4979
▁അറ്റ	-4980
ിയിലാണ്	-4981
▁പേരുടെ	-4982
▁കണക്കിലെ	-4983
ഡിന	-4984
▁രവി	-4985
▁ഗുരു	-4986
ാക്കുന്നു	-4987
ായു	-4988
▁ക്ഷണ	-4989
▁വാടക	-4990
▁ശങ്ക	-4991
ശ്വാസം	-4992
ാമെന്നും	-4993
5,	-4994
യിച്ച്	-4995
▁ജൂണ്‍	-4996
▁കൊലപ്പെടുത്തിയ	-4997
ാഹി	-4998
്യു	-4999
ച്ചും	-5000
▁ന്യൂയോ	-5001
▁അദ്ദേഹത്തിന്	-5002
▁വംശ	-5003
ലാത്സ	-5004
▁അങ്ക	-5005
പ്പെടുവ	-5006
▁മാര	-5007
▁അനുമ	-5008
▁ലക്ഷണ	-5009
യ്ക്കുള്ള	-5010
▁സര്‍വീസ്	-5011
▁സര്‍വകലാശാല	-5012
▁അല്ലെങ്കില്‍	-5013
8,	-5014
▁പൃ	-5015
ാദേശ	-5016
▁ബിജു	-5017
പരമായി	-5018
▁യോഗ്യത	-5019
ാണുള്ളത്	-5020
▁പദ്ധതിയുടെ	-5021
തുട	-5022
▁പുലര്‍ച്ച	-5023
▁സാധിക്കും	-5024
ുകയായിരുന്ന	-5025
ത്തുടര്‍ന്ന്	-5026
▁പീഡിപ്പിച്ച	-5027
▁ശ്രമിക്കുന്ന	-5028
ഫിയ	-5029
▁ഉദാഹ	-5030
പിന്റെ	-5031
▁ശ്രീലങ്ക	-5032
▁പ്രത്യക്ഷ	-5033
▁പെട്ടെന്ന്	-5034
▁പ്രിയപ്പെട്ട	-5035
േഡ്	-5036
▁കൂട്ടിച്ചേ	-5037
േരിയ	-5038
▁വീഴ്	-5039
ക്കെതിര	-5040
രിക്കുക	-5041
▁കുടുംബാംഗ	-5042
▁തെരഞ്ഞെടുപ്പ	-5043
▁ടാ	-5044
▁ചട്ട	-5045
▁ദേവസ്	-5046
▁കുഞ്ഞു	-5047
▁നൂറ്റാണ്ട	-5048
ര്‍ദ	-5049
▁500	-5050
▁കൗൺ	-5051
▁പ്രയാ	-5052
▁സമ്മേളനം	-5053
ുമെ	-5054
ളിന്	-5055
ബിള്‍	-5056
ക്കെതിരേ	-5057
▁ഡിജിറ്റ	-5058
▁തീരുമാനമ	-5059
▁കട്ട	-5060
ാക്കളെ	-5061
▁ചാര്‍	-5062
▁മിശ്ര	-5063
▁വിമർശ	-5064
▁പ്രതിയെ	-5065
▁തരത്തിലുള്ള	-5066
ക്ല	-5067
ഭുത	-5068
▁ശുപ	-5069
▁കല്യ	-5070
സിയുടെ	-5071
▁ഹര്‍ജി	-5072
▁തലസ്ഥാന	-5073
▁പരാതിയില്‍	-5074
ീരിക	-5075
ഞ്ഞത്	-5076
ിയോട്	-5077
▁പശ്ചിമ	-5078
മുട	-5079
രേഖ	-5080
▁മലബ	-5081
▁അറേബ	-5082
▁വക്ത	-5083
▁തടസ്സ	-5084
▁ആക്ഷേപ	-5085
▁എനിക്ക	-5086
▁ശസ്ത്ര	-5087
ന്മാരുടെ	-5088
▁അഭിപ്രായം	-5089
▁കൂട്ടായ്മ	-5090
▁നഷ്ടപ്പെട്ട	-5091
.3	-5092
ബാദ	-5093
ിയില	-5094
▁വനം	-5095
▁പരിഹാര	-5096
ഡിഎ	-5097
ത്സാഹ	-5098
▁വല്ല	-5099
▁ആധുനിക	-5100
▁ഡോക്ടർ	-5101
▁ഇത്തരത്തില്‍	-5102
ിയർ	-5103
▁32	-5104
റിഞ്ഞ്	-5105
▁ദേവസ്വം	-5106
▁തുടങ്ങിയത്	-5107
▁ബൂ	-5108
▁ആൻഡ്	-5109
▁പൂർണ	-5110
▁നാരായണ	-5111
▁വ്യാപാര	-5112
താണെന്നും	-5113
▁നൃ	-5114
▁ഏഴു	-5115
റ്റഡ്	-5116
▁അത്തര	-5117
▁കുട്ടിയുടെ	-5118
▁തുടരുകയാണ്	-5119
▁പെണ്‍കുട്ടി	-5120
▁70	-5121
ിക്കി	-5122
▁പത്മ	-5123
▁പരിഷ്	-5124
▁പിള്ള	-5125
▁അറേബ്യ	-5126
▁സൈന്യം	-5127
▁ചോദിച്ച	-5128
താം	-5129
▁വിവേ	-5130
ക്കെട്ട	-5131
▁തെറ്റി	-5132
▁നിർബന്ധ	-5133
▁കോടതിയിൽ	-5134
▁തട്ടിക്ക	-5135
ണോ	-5136
്ക്ക്	-5137
▁എക്സ്	-5138
താശ്വാസ	-5139
എൽഎ	-5140
ത്തിനിട	-5141
▁വെളിച്ച	-5142
ാണെങ്കിലും	-5143
ൻസി	-5144
ൊഴില	-5145
▁പേജ	-5146
വരെയും	-5147
▁വെടിയ	-5148
▁സമുദായ	-5149
ീരിയ	-5150
▁നീള	-5151
▁മേനോ	-5152
ോടുള്ള	-5153
▁ബാറ്റ്	-5154
▁സ്റ്റോ	-5155
▁വിളിച്ച്	-5156
ാലം	-5157
▁കഴു	-5158
▁അടിച്ച	-5159
ുന്നില്ല	-5160
▁കൃത്യമായി	-5161
ല്ലേ	-5162
കുമാർ	-5163
ട്ടിന്	-5164
▁പ്രയോ	-5165
▁സംഘര്‍ഷ	-5166
▁ജില്ലയിൽ	-5167
ിരുന്നില്ല	-5168
▁ആസൂ	-5169
ള്‍ഡ്	-5170
▁ബംഗാള	-5171
▁ശാരീരിക	-5172
▁സന്ദേശം	-5173
▁കഴിയാത്ത	-5174
▁ബെംഗളൂരു	-5175
▁അധ്യക്ഷന്‍	-5176
വീന	-5177
പിന്ന	-5178
▁ഒരാള	-5179
▁തൃശ്ശ	-5180
▁ന്യായ	-5181
▁മുല്ല	-5182
▁ബോളിവുഡ്	-5183
▁തട്ടിപ്പ്	-5184
▁പുറപ്പെടുവ	-5185
ൻെറ	-5186
▁പൊട്ടി	-5187
▁വിക്കറ്റ	-5188
▁രസ	-5189
▁കളി	-5190
▁ഗൗര	-5191
▁മംഗ	-5192
െന്നി	-5193
▁മുത്ത	-5194
റ്റുകള്‍	-5195
▁പരിശീലന	-5196
▁നാട്ടിലെ	-5197
▁ശക്തമായി	-5198
▁ഭര്‍ത്താവ്	-5199
▁പുറത്തിറങ്ങിയ	-5200
▁ചെലവഴ	-5201
▁നിമിഷ	-5202
▁മരുന്ന്	-5203
▁സമൂഹമാധ്യമ	-5204
5)	-5205
ലൈൻ	-5206
മര്‍	-5207
ല്‍ക്കത്ത	-5208
▁നിര്‍ദ്ദേശം	-5209
ണർ	-5210
▁പൃഥ്	-5211
▁സല്‍	-5212
▁ഇദ്ദേഹം	-5213
▁ശസ്ത്രക്രിയ	-5214
ളിവ	-5215
വാള	-5216
▁ടു	-5217
ജ്ജ്	-5218
▁ബഹി	-5219
▁കുരു	-5220
▁പൊതുജന	-5221
▁ഭരണഘടന	-5222
ുകളുമായി	-5223
▁അധികൃതർ	-5224
▁മേഖലയിലെ	-5225
പട	-5226
▁കഠ	-5227
▁ഓപ്പറ	-5228
▁വ്യോമ	-5229
ക്കെതിരായ	-5230
▁കേസുകള്‍	-5231
▁നിർദ്ദേശ	-5232
ിക്കോ	-5233
▁അങ്ങ	-5234
▁കാലയള	-5235
▁ചെയ്യാ	-5236
▁നവംബര്‍	-5237
▁ലോക്ക്ഡൗ	-5238
▁തീരുമാനിച്ച	-5239
ഹാ	-5240
▁2,	-5241
▁90	-5242
▁ടൗ	-5243
കാലം	-5244
ക്കാം	-5245
ക്രമണ	-5246
ടുത്തെ	-5247
െടുക്കും	-5248
▁പുതുതായി	-5249
▁ആഗ്രഹിക്കുന്ന	-5250
as	-5251
പിയുടെ	-5252
▁എംഎൽഎ	-5253
▁ഒന്നര	-5254
ുവെന്ന്	-5255
▁ജാതി	-5256
കൊണ്ട്	-5257
▁കയറ്റ	-5258
▁പോസിറ്റ	-5259
പ്പിക്കാൻ	-5260
▁അസിസ്റ്റ	-5261
▁ഇക്കാര്യത്തില്‍	-5262
▁പന്	-5263
▁ഇതില	-5264
▁നായര്‍	-5265
▁നിന്നെ	-5266
▁മാര്‍ഗ	-5267
ലിശ	-5268
ദിനം	-5269
▁അഗ്	-5270
▁ചാല	-5271
▁ഗെയി	-5272
▁വീഴ്ച	-5273
▁മുന്‍ക	-5274
െയായിരുന്നു	-5275
▁സ്വന്തമാക്ക	-5276
ോസ്	-5277
▁ശര	-5278
റ്റർ	-5279
▁കെപി	-5280
▁യുവതിയുടെ	-5281
ഷീ	-5282
സമിതി	-5283
▁കത്ത്	-5284
▁ചുറ്റ	-5285
പ്പിക്കാന്‍	-5286
ാന്യം	-5287
▁ഭാഗം	-5288
ക്കുറി	-5289
തിലൂടെ	-5290
▁സൈന്യ	-5291
▁പുരോഗമ	-5292
▁തുറന്ന്	-5293
▁ബിസിനസ്	-5294
ിലേയ്ക്ക്	-5295
▁ഇംഗ്ലണ്ട	-5296
▁അസോസിയേഷന്‍	-5297
▁ദുരിതാശ്വാസ	-5298
വാര	-5299
ലിക്കാ	-5300
▁ബോള്‍	-5301
ക്കാള്‍	-5302
യെല്ലാം	-5303
▁ഭാഗത്ത്	-5304
ുകളിലേക്ക്	-5305
▁പരിസ്ഥിതി	-5306
ിക്കുമ്പോള്‍	-5307
▁പൊതുമ	-5308
താണെന്ന്	-5309
▁നടപടികൾ	-5310
ാക്കുകയും	-5311
ികെ	-5312
റ്ററ	-5313
ന്വേഷ	-5314
▁കാരിക	-5315
▁ജയരാജ	-5316
ക്കിന്റെ	-5317
▁ഉണ്ടാകും	-5318
▁പ്രതികള്‍	-5319
▁ബ്രിട്ടീഷ്	-5320
▁രേഖപ്പെടുത്തിയ	-5321
കീയ	-5322
രിയ്	-5323
▁ഒരാൾ	-5324
ുതന്നെ	-5325
▁ക്ലബ്	-5326
▁ജനങ്ങളെ	-5327
▁മയക്കുമ	-5328
വക	-5329
▁താൽ	-5330
സഭാ	-5331
▁ത്രി	-5332
▁അബുദാ	-5333
മില്ലാതെ	-5334
▁സര്‍വ്വ	-5335
▁ഇംഗ്ലീഷ്	-5336
ങ്ങള്‍ക്കു	-5337
ുര	-5338
ജിയ	-5339
▁പാഠ	-5340
ന്നത്	-5341
▁വളരെയ	-5342
ാശ്	-5343
▁ദൗ	-5344
ന്റേ	-5345
▁പാന	-5346
▁കടക്ക	-5347
▁പത്തു	-5348
▁പ്ലസ്	-5349
▁ആന്റണി	-5350
▁ചിലര്‍	-5351
▁വളര്‍ച്ച	-5352
ുകിട	-5353
▁അശോ	-5354
ഭാവിക	-5355
ുകാരും	-5356
േക്കാം	-5357
▁തോന്നിയ	-5358
▁വൃത്തിയ	-5359
▁ഗർ	-5360
▁നിൽക്ക	-5361
▁ഭരണകൂട	-5362
▁സ്മാർട്ട്	-5363
▁സർക്കാരിന്റെ	-5364
1,	-5365
▁എട	-5366
▁മുപ്പ	-5367
▁അവളുടെ	-5368
▁യുഡിഎഫ	-5369
▁കൈമാറിയ	-5370
▁സന്തോഷ്	-5371
ത്തിലധികം	-5372
വര്‍ക്കും	-5373
ിക്കാനാണ്	-5374
▁വൈകീട്ട്	-5375
ാൻഡ്	-5376
▁തേട	-5377
▁ദുരൂഹ	-5378
▁ഓഗസ്റ്റ്	-5379
ച്ചിരുന്നു	-5380
ഡീഷ	-5381
▁റഫ	-5382
ക്കൽ	-5383
വാസ്	-5384
േരം	-5385
▁തണു	-5386
▁തസ്	-5387
▁നെഗ	-5388
മാറ്റ	-5389
▁അയാള്‍	-5390
▁കിഴക്ക	-5391
▁അനുസ	-5392
▁പെന്‍	-5393
▁മകള്‍	-5394
ന്ഥ	-5395
▁അണിയ	-5396
ാകൃഷ്ണ	-5397
ീന്ദ്ര	-5398
▁കുട്ടിയെ	-5399
▁പ്രത്യേകം	-5400
▁ബംഗ്ലാദേശ	-5401
▁സമ്പര്‍ക്ക	-5402
80	-5403
▁ജ്യ	-5404
മാകുന്നു	-5405
▁ഒട്ടേറെ	-5406
▁പുറത്തെ	-5407
▁പ്രോഗ്ര	-5408
▁കാര്‍ഷിക	-5409
▁ഓണ	-5410
▁ഹു	-5411
തുപോലെ	-5412
ദിന്റെ	-5413
▁ഇന്നു	-5414
▁അടുക്ക	-5415
▁തട്ടിയ	-5416
ിപ്പിച്ച	-5417
▁അമേരിക്കൻ	-5418
▁ബിജെപിയുടെ	-5419
▁അറസ്റ്റില്‍	-5420
തയെ	-5421
▁ദാ	-5422
വേദന	-5423
രെയും	-5424
▁ഇയാൾ	-5425
▁നേട്ടം	-5426
▁പ്രതികരിച്ചു	-5427
▁വാഴ	-5428
▁ഏജന്‍സ	-5429
ാതിരുന്ന	-5430
▁അനുവദിച്ച	-5431
▁കാണുന്നത്	-5432
▁നിലവിലുള്ള	-5433
ിലുണ്ട്	-5434
ങ്ങളെല്ലാം	-5435
ില്ലെങ്കില്‍	-5436
ാമം	-5437
ര്‍ഥ	-5438
റിങ്	-5439
▁ആസ്	-5440
▁പുക	-5441
▁മോഷ്ട	-5442
▁ഓര്‍മ്മ	-5443
ള്‍പ്പെടെ	-5444
ുമ്പോഴാണ്	-5445
▁സ്ഥലത്തെ	-5446
▁രാമചന്ദ്ര	-5447
▁കൊല്‍ക്കത്ത	-5448
▁പൂര്‍ണമായും	-5449
ര്‍ണ	-5450
▁ആളുകൾ	-5451
▁പരീക്ഷണ	-5452
▁അബ്ദുല്‍	-5453
ക്കാറ	-5454
▁എഞ്ച	-5455
▁ഡിവി	-5456
ഡുകള്‍	-5457
ിലധികം	-5458
▁തലമുറ	-5459
ിയ്ക്ക്	-5460
▁എന്നറിയ	-5461
ന്യാ	-5462
▁വീഴ	-5463
ത്താൻ	-5464
▁ഫെഡറ	-5465
▁വിരാ	-5466
▁മാലിന്യ	-5467
▁രീതിയിൽ	-5468
▁ചിത്രമാണ്	-5469
▁നിര്‍ണായക	-5470
▁മീഡിയയില്‍	-5471
▁പിടികൂടിയത്	-5472
▁കസ്റ്റഡിയിലെ	-5473
ാഫി	-5474
▁ഫോട	-5475
ക്തിയ	-5476
▁അവധി	-5477
▁ജേക്കബ്	-5478
▁വീട്ടിലെ	-5479
▁സര്‍ട്ടിഫ	-5480
െയായി	-5481
▁കരിയ	-5482
▁ആവര്‍	-5483
ികളെയും	-5484
▁ഉണ്ടായത്	-5485
▁പഞ്ചായത്ത	-5486
▁സഹായിക്കുന്ന	-5487
യേ	-5488
▁ഏതു	-5489
കുന്ന	-5490
▁കക്ഷ	-5491
▁കഠിന	-5492
▁മെട്രോ	-5493
▁ഷൂട്ടി	-5494
▁അഭിഭാഷക	-5495
▁പിടികൂടി	-5496
▁ചെയ്തിട്ട	-5497
ജൻ	-5498
മാസ	-5499
ര്‍ഡ്	-5500
ശിക്ഷ	-5501
പ്പറ്റി	-5502
▁സന്നദ്ധ	-5503
▁എന്നിവരെ	-5504
ോണ	-5505
▁അവാ	-5506
▁പല്ല	-5507
▁സ്പോ	-5508
▁നെഗറ്റ	-5509
ുകയാണെന്ന്	-5510
▁കിലോമീറ്റര്‍	-5511
.6	-5512
▁മറികട	-5513
▁ജീവന്‍	-5514
ര്‍ത്തുന്ന	-5515
▁വ്യക്തമായ	-5516
ഹ്വ	-5517
▁ജോർ	-5518
▁കണക്ക്	-5519
ര്‍മാര്‍	-5520
▁ലോകത്ത്	-5521
▁ഇപ്പോഴത്തെ	-5522
▁തയ്യാറാക്കിയ	-5523
പുല	-5524
▁അഥ	-5525
▁അപ്	-5526
▁ആന്റി	-5527
▁സൗന്ദ	-5528
▁പ്രായം	-5529
▁അതിനിടെ	-5530
▁ജയിലില്‍	-5531
ഡിൽ	-5532
നിറ	-5533
▁തരം	-5534
▁നാഗ	-5535
▁രാജി	-5536
▁കരാര്‍	-5537
▁സൗകര്യം	-5538
▁പുറത്തുവ	-5539
▁രവീ	-5540
▁ഡൽഹി	-5541
▁ഭരണം	-5542
▁ഇറങ്ങിയ	-5543
▁സര്‍ക്കാരിന്	-5544
ുടമ	-5545
സണ്‍	-5546
▁കത്ത	-5547
▁തട്ട	-5548
▁വായന	-5549
▁ടിക്കറ്റ്	-5550
▁ന്യൂനപക്ഷ	-5551
▁നടത്തിയിരുന്നു	-5552
ഗോപ	-5553
ാട്	-5554
▁തറ	-5555
▁ഉപയോ	-5556
പ്പോലെ	-5557
▁അതിക്രമ	-5558
▁ക്രിമിന	-5559
▁ചിത്രങ്ങൾ	-5560
പുരം	-5561
▁നടൻ	-5562
ത്തോട	-5563
റ്റിലെ	-5564
▁തോട്ട	-5565
▁ശുദ്ധ	-5566
▁വര്‍ധന	-5567
ികള്‍ക്കും	-5568
▁മുന്നറിയിപ്പ	-5569
▁p	-5570
ണിൽ	-5571
▁അരി	-5572
▁അനില്‍	-5573
▁ബാക്കി	-5574
▁കൊണ്ടുപോക	-5575
▁ഏറ്റെടുക്ക	-5576
▁ജില്ലകളില്‍	-5577
താവ	-5578
െണ്ണ	-5579
▁197	-5580
▁ജയം	-5581
ഭാഷണം	-5582
▁കോഴ്	-5583
▁പലിശ	-5584
▁അവള്‍	-5585
▁തമ്മിൽ	-5586
വെന്നാണ്	-5587
▁എപ്പോഴും	-5588
യിലായിരുന്നു	-5589
മ്മി	-5590
▁ശൈല	-5591
▁ഡ്യൂ	-5592
▁താലിബ	-5593
▁സച്ചി	-5594
ര്‍ത്തു	-5595
ാണെന്നു	-5596
▁പരുക്ക	-5597
▁മര്‍ദ്ദ	-5598
ംബര	-5599
▁ഹോം	-5600
സംഘടന	-5601
▁വിരമ	-5602
എസ്എസ്	-5603
ന്റിന്റെ	-5604
▁കഴിയില്ല	-5605
▁വില്‍പ്പന	-5606
▁കമ്പനിയുടെ	-5607
▁ദൃശ്യങ്ങള്‍	-5608
.7	-5609
പുഴ	-5610
വിന	-5611
സിഡ	-5612
▁കർണ	-5613
▁വൈദ	-5614
▁സ്ക	-5615
▁വേഗത	-5616
▁സണ്‍	-5617
▁റെയിൽ	-5618
▁ചെയര്‍	-5619
▁കുട്ടികൾ	-5620
▁യുവാവിനെ	-5621
േണ്ടതുണ്ട്	-5622
ിക്കുന്നുണ്ട	-5623
▁നിങ്ങള്‍ക്ക്	-5624
▁ശശി	-5625
സിറ്റി	-5626
ക്കാരും	-5627
▁വരുമ്പോ	-5628
▁സവിശേഷത	-5629
▁തൈ	-5630
▁തെളി	-5631
▁കേരളാ	-5632
▁പടിഞ്ഞ	-5633
പ്യൂട്ടി	-5634
▁നടപ്പാക്ക	-5635
▁പ്രഖ്യാപനം	-5636
▁ചിത്രത്തിലെ	-5637
▁റഹ്	-5638
യത്ത്	-5639
▁വന്ന്	-5640
▁നിരോധന	-5641
▁ഒരുമ	-5642
▁ആനുകൂല	-5643
▁രാജീവ്	-5644
തിനാലാണ്	-5645
▁കാലഘട്ട	-5646
▁മുകളില്‍	-5647
രിക്കുകയും	-5648
▁സ്ഥാനത്ത്	-5649
go	-5650
▁a	-5651
▁മകൻ	-5652
▁തൃശൂർ	-5653
▁ടൂറിസം	-5654
▁ചെയ്യാം	-5655
▁രാം	-5656
▁ജിയോ	-5657
▁ലഹരി	-5658
പഞ്ചായ	-5659
▁വിജയൻ	-5660
▁വിഡിയോ	-5661
▁മാര്‍ക്ക	-5662
▁അപകടത്തില്‍	-5663
പ്പെടുത്താന്‍	-5664
ബന്ധന	-5665
▁കന്ന	-5666
▁ഇപ്പോ	-5667
▁വെല്ലുവിള	-5668
▁കബ	-5669
▁ഉദാഹരണ	-5670
▁സിസ്റ്റ	-5671
▁ഇന്ത്യയെ	-5672
ിയായിരുന്നു	-5673
22	-5674
ഗു	-5675
വഴ	-5676
▁ഡൽഹ	-5677
▁മമത	-5678
▁അസ്വ	-5679
റ്റ്യൂ	-5680
▁ഡ്രൈവ	-5681
▁നെല്ല	-5682
വിശ്വാസ	-5683
▁സൂപ്പർ	-5684
▁വരുത്തിയ	-5685
▁വിജിലന്‍സ്	-5686
▁ആംബ	-5687
▁പരേ	-5688
▁സിന്റെ	-5689
▁തുടരുന്നു	-5690
ീകരിക്കുന്ന	-5691
തവണ	-5692
ാവിനെ	-5693
▁ആഹ്വ	-5694
▁ഭക്ത	-5695
▁പൃഥ്വി	-5696
▁കൊണ്ടുവന്ന	-5697
▁തുടങ്ങിയവര്‍	-5698
തിരി	-5699
ദിവസ	-5700
▁ആത്	-5701
▁താന	-5702
▁സെല്‍	-5703
▁വ്യാപകമായി	-5704
▁അറസ്റ്റിലായ	-5705
ത്തറ	-5706
▁ദ്ര	-5707
ര്‍ഷം	-5708
▁ബ്യൂ	-5709
▁എട്ടു	-5710
▁എന്തു	-5711
▁കവര്‍	-5712
▁പരാമർശ	-5713
▁അദ്ധ്യക്ഷ	-5714
▁എന്നിവയുടെ	-5715
▁മുടി	-5716
▁പൊതുവ	-5717
▁വ്യാപന	-5718
േണ്ടതില്ല	-5719
▁അവാര്‍ഡ്	-5720
▁സഹായിക്ക	-5721
▁പ്രത്യേകത	-5722
-19	-5723
▁അതീവ	-5724
▁വാഷി	-5725
▁നിരന്തരം	-5726
▁ആഴ	-5727
ക്ട്	-5728
ണ്ണ്	-5729
തിലും	-5730
കളുമായി	-5731
▁പറയാന്‍	-5732
ിദ്	-5733
▁ഇമ	-5734
▁അവൾ	-5735
▁ഇവിട	-5736
▁കാസർ	-5737
▁വിഭവ	-5738
▁ജിദ്ദ	-5739
▁ശ്രീധ	-5740
▁ബൈക്ക്	-5741
▁എന്നിവരും	-5742
▁സിനിമയിലെ	-5743
▁സഹായത്തോടെ	-5744
▁പുറത്തുവിട്ട	-5745
▁പന	-5746
▁ഗോവ	-5747
▁ഞാന	-5748
▁ഇന്ധന	-5749
▁റിയാദ്	-5750
ുണ്ടാകും	-5751
▁മണിക്കൂര്‍	-5752
9,	-5753
മറിയ	-5754
▁കലാക	-5755
▁ലളിത	-5756
▁ഒന്നു	-5757
▁ആളുകളെ	-5758
▁കുറിച്ച	-5759
▁വരുമാനം	-5760
▁സഹായിക്കും	-5761
▁ബഹ്	-5762
യുന്ന	-5763
േറ്റു	-5764
▁ഫലപ്രദ	-5765
▁ബലാത്സ	-5766
ട്ടിയാണ്	-5767
▁ഡയറക്ടറ	-5768
▁പ്രവർത്തകർ	-5769
ക്ഷൻ	-5770
ണ്ഡി	-5771
സ്പരം	-5772
▁യുടെ	-5773
റുകളും	-5774
റ്റുകൾ	-5775
▁ആശ്രയ	-5776
▁പ്രീമ	-5777
▁വ്യായ	-5778
െന്നായിരുന്നു	-5779
മുള	-5780
ടത്ത്	-5781
യില്ല	-5782
▁ഏരിയ	-5783
▁മോശം	-5784
▁നിത്യ	-5785
▁റിപ്പ	-5786
▁സ്വാഗ	-5787
ുണ്ടായത്	-5788
▁വിശുദ്ധ	-5789
▁സര്‍വീസ	-5790
▁അതിര്‍ത്തി	-5791
ാംശ	-5792
▁ചൗ	-5793
ടിവി	-5794
നിലെ	-5795
▁മായ	-5796
റിംഗ്	-5797
▁ആന്ധ	-5798
▁നൽകാൻ	-5799
▁പൊട്ട	-5800
▁കുടിവെ	-5801
▁അയ്യപ്പ	-5802
▁പ്രസ്ഥാന	-5803
▁വിഭാഗത്തില്‍	-5804
ണൽ	-5805
േല	-5806
▁ഖു	-5807
ത്തുക	-5808
വ്യാപ	-5809
ാറിനെ	-5810
നെറ്റ്	-5811
▁ജനകീയ	-5812
▁മാർച്ച്	-5813
▁പ്രചാരണം	-5814
▁കിടക്കുന്ന	-5815
▁വിപണിയില്‍	-5816
▁(4	-5817
ന്ദു	-5818
▁നാവ	-5819
▁മജി	-5820
ത്തായി	-5821
ന്നൂര്‍	-5822
▁അധ്യാപ	-5823
▁പരസ്പരം	-5824
▁തീരുമാനിച്ചത്	-5825
ഡിനെ	-5826
▁നീല	-5827
▁മാധ	-5828
സ്ഥാൻ	-5829
▁ക്രോ	-5830
▁പിതാ	-5831
▁വൃത്ത	-5832
ദ്ദീന്‍	-5833
▁അന്ത്യ	-5834
▁വൈകുന്നേരം	-5835
ിഡ്	-5836
ൈന്‍	-5837
▁ആദി	-5838
ഴ്ച്ച	-5839
▁ഗവേഷണ	-5840
▁നിരാശ	-5841
സിന്‍റെ	-5842
▁വാക്സിൻ	-5843
ണാഫ്രിക്ക	-5844
▁പ്രവൃത്തി	-5845
▁സംസാരിച്ച	-5846
▁പെണ്‍കുട്ടിയെ	-5847
തര	-5848
ഫറ	-5849
▁ശരാശ	-5850
▁ഫണ്ട്	-5851
▁എടുത്തു	-5852
▁ആരാധകര്‍	-5853
▁ലോകകപ്പ്	-5854
▁പ്രസിഡണ്ട്	-5855
▁പുറത്തിറക്കിയ	-5856
ീതം	-5857
ാസമ്മ	-5858
▁പ്രതിഭ	-5859
▁കൗണ്‍സില്‍	-5860
▁ഹര	-5861
ക്കർ	-5862
ാലിയ	-5863
▁നെട	-5864
▁ആംബുല	-5865
▁കാല്‍	-5866
▁സീരിയ	-5867
സംസ്ഥാന	-5868
▁അതായത്	-5869
▁രാജ്യാ	-5870
▁ശമ്പളം	-5871
▁അങ്ങനെയ	-5872
ാംപ	-5873
സംഘം	-5874
▁സെൻ	-5875
ംബ്രാ	-5876
▁ഡോസ്	-5877
▁പമ്പ	-5878
▁ടീച്ച	-5879
▁പൊള്ള	-5880
▁ഒരാഴ്ച	-5881
▁മീറ്റര്‍	-5882
▁പ്രോത്സാഹ	-5883
▁പ്രദേശത്ത്	-5884
രുക	-5885
▁വരാ	-5886
▁ഓൺലൈൻ	-5887
▁പോയത്	-5888
▁അവസാനം	-5889
▁രോഗബാധ	-5890
ാകുന്നത്	-5891
10	-5892
ഹാസ	-5893
▁കടല	-5894
നല്‍ക	-5895
പോലും	-5896
▁2013	-5897
▁പ്രേമ	-5898
▁ബോധ്യ	-5899
പരിശോധന	-5900
േറ്റര്‍	-5901
സിപ്പല്‍	-5902
▁നല്ലതാണ്	-5903
▁ആരംഭിച്ചത്	-5904
വള	-5905
▁48	-5906
▁കാന	-5907
ന്മാർ	-5908
െയുടെ	-5909
ജിന്റെ	-5910
ര്‍ട്ട	-5911
▁ശമ്പള	-5912
▁അത്ഭുത	-5913
▁ജയില്‍	-5914
▁സമാനമായ	-5915
▁അംഗീകാരം	-5916
▁കേന്ദ്രമന്ത്രി	-5917
ത്തകര	-5918
പത്രം	-5919
▁സ്വി	-5920
▁ഇറക്ക	-5921
▁ഹാജരാക	-5922
▁സ്വാഗതം	-5923
▁രാധാകൃഷ്ണ	-5924
▁തിരഞ്ഞെടുക്ക	-5925
▁36	-5926
ഗര്‍	-5927
നിധി	-5928
ശേരി	-5929
ുമാന	-5930
▁മുൻപ	-5931
▁എതിരാ	-5932
▁മലയാളം	-5933
▁വിവാഹിത	-5934
പ്രദേശിലെ	-5935
▁കുഞ്ഞിനെ	-5936
▁കോര്‍പ്പറ	-5937
▁പ്രവേശിപ്പിച്ചു	-5938
▁ഇടി	-5939
▁ശോഭ	-5940
▁മോഡല	-5941
▁നമ്മൾ	-5942
▁ടെലിവി	-5943
▁മുന്നോ	-5944
▁മൊത്തം	-5945
▁ഉറപ്പുവ	-5946
ക്കിടയില്‍	-5947
ിനുള്ളില്‍	-5948
വല്‍	-5949
▁അധി	-5950
▁പിൻവല	-5951
▁കർണാടക	-5952
▁രാജേഷ്	-5953
▁വാര്‍ഷിക	-5954
▁ദക്ഷിണാഫ്രിക്ക	-5955
നീയ	-5956
ാഷ്	-5957
▁വശ	-5958
▁സിവ	-5959
▁സുമ	-5960
പ്പിട	-5961
▁വേണു	-5962
▁കാണാൻ	-5963
ായിരിക്ക	-5964
▁രോഗികളുടെ	-5965
▁ലോകത്തിലെ	-5966
ംഗലം	-5967
▁ചൂട	-5968
▁ഇബ്ര	-5969
▁ആപ്പി	-5970
▁അമ്മയുടെ	-5971
▁പ്രായമുള്ള	-5972
▁ഇതര	-5973
▁റാവ	-5974
▁വേഗം	-5975
ടിയുടെ	-5976
▁പൊന്ന	-5977
▁രാജിവ	-5978
▁സോണിയ	-5979
▁തുറക്ക	-5980
▁നാഷണല്‍	-5981
ണയ	-5982
വരു	-5983
▁ആം	-5984
ാന്ത	-5985
കത്ത്	-5986
ൊഴിലാള	-5987
▁മോഹൻല	-5988
▁പോകുന്നത്	-5989
▁ഉച്ചയ്ക്ക്	-5990
ിച്ചിരുന്നത്	-5991
ബെ	-5992
▁33	-5993
കക്ഷ	-5994
▁രഞ്	-5995
വിന്‍	-5996
▁ഡിഗ്ര	-5997
▁ആശ്വാസ	-5998
▁തയ്യാറെ	-5999
▁തകര്‍ക്ക	-6000
▁അക്കൗണ്ട്	-6001
▁കുടിവെള്ള	-6002
▁അംഗീകരിച്ച	-6003
▁മുന്നോട്ടു	-6004
▁ഏര്‍പ്പെടുത്തിയ	-6005
▁എതിര	-6006
▁സൗഹൃദ	-6007
രുടേയും	-6008
ുകാരന്‍	-6009
▁കോടതിയ	-6010
▁നിർമാണ	-6011
ുവെന്നും	-6012
▁എന്നിങ്ങനെ	-6013
▁ചെയ്യുകയും	-6014
.8	-6015
കുളം	-6016
റിയും	-6017
▁എതിരെ	-6018
▁പാമ്പ	-6019
▁കാര്‍ഡ്	-6020
▁ഉണ്ടാക്ക	-6021
▁രാജ്യാന്തര	-6022
ീണ	-6023
ീയം	-6024
ര്യമ	-6025
▁കോയ	-6026
ിക്കര	-6027
▁ടിവി	-6028
േഷന്റെ	-6029
▁മൂല്യ	-6030
റിയില്‍	-6031
▁ഭീഷണിയ	-6032
നിന്നുള്ള	-6033
▁ഡ്രൈവര്‍	-6034
▁ശതമാനവും	-6035
▁സ്റ്റേറ്റ്	-6036
6)	-6037
ദേവ	-6038
▁ഫീ	-6039
മിനി	-6040
ിമുഖ	-6041
▁ഭവന	-6042
പ്രിൽ	-6043
വിഭാഗ	-6044
▁ഷാജി	-6045
▁ടാറ്റ	-6046
▁തൊഴിൽ	-6047
ിരിക്കെ	-6048
▁അധികാരം	-6049
രുതെന്നും	-6050
▁രവീന്ദ്ര	-6051
▁ക്രൈംബ്രാ	-6052
▁ധനമന്ത്രി	-6053
▁വകുപ്പിന്റെ	-6054
▁സ്ഥാനാര്‍ത്ഥി	-6055
▁ആലുവ	-6056
▁ക്യൂ	-6057
▁ശരിയായ	-6058
ഷേധിച്ച്	-6059
▁ശിവശങ്ക	-6060
▁മുതിർന്ന	-6061
▁ഗ്രാമപഞ്ചായ	-6062
ാഖ	-6063
▁!	-6064
ുക്ക	-6065
▁ജോസഫ	-6066
▁അനുയോ	-6067
▁താക്ക	-6068
▁പാക്ക	-6069
▁കൈമാറി	-6070
▁രംഗത്ത	-6071
▁കാണാതായ	-6072
▁നിങ്ങളെ	-6073
ിക്കേണ്ടത്	-6074
ഗ്ന	-6075
▁നീണ്ടു	-6076
▁രാജിവെ	-6077
▁വാര്‍ത്താ	-6078
▁പ്രാധാന്യം	-6079
▁ജീവനക്കാര്‍	-6080
▁അറിയിച്ചിരുന്നു	-6081
ഐഎ	-6082
▁ഇനിയ	-6083
▁ഗള്‍	-6084
▁തെലു	-6085
തുകൊണ്ട്	-6086
▁കസ്റ്റംസ്	-6087
ംഭ	-6088
▁സാര	-6089
ുകാരെ	-6090
▁2011	-6091
▁അസാധ	-6092
കളെയും	-6093
ത്തിച്ച	-6094
▁കൂട്ടിയ	-6095
17	-6096
8)	-6097
കഥ	-6098
ാഗോ	-6099
ക്കളെ	-6100
▁കറുത്ത	-6101
▁വരെയാണ്	-6102
▁വ്യത്യാസ	-6103
▁ക്യാപ്റ്റന്‍	-6104
▁രാജ്യങ്ങളില്‍	-6105
നിർ	-6106
ൊണാ	-6107
ണ്ടു	-6108
▁തെരുവ	-6109
▁പ്രശ്നം	-6110
▁വിലക്ക്	-6111
▁സ്മാര്‍	-6112
ത്തുനിന്ന്	-6113
ോം	-6114
കേരള	-6115
▁മേൽ	-6116
▁വിയ	-6117
▁അതിഥ	-6118
പ്പര്‍	-6119
▁ഇതിനകം	-6120
▁നോട്ട്	-6121
ഒരു	-6122
▁ഭഗ	-6123
ാട്ട	-6124
ായുധ	-6125
▁കിണ	-6126
▁ബാഗ	-6127
▁വാണി	-6128
▁ജോലിയ	-6129
▁ദുര്‍	-6130
▁പള്ളി	-6131
▁മദ്യപ	-6132
▁സിറിയ	-6133
▁വിരാട്	-6134
▁ഉപയോക്ത	-6135
▁പൂര്‍ണ്ണ	-6136
ത്തിനുള്ളില്‍	-6137
ഭേദ	-6138
▁ബദ	-6139
ത്തായ	-6140
മുണ്ടായ	-6141
ti	-6142
ബിൾ	-6143
പ്പണ	-6144
▁എംബ	-6145
▁കാറ്റ	-6146
▁ഖാന്‍	-6147
▁വെങ്ക	-6148
▁ഹെല്‍	-6149
▁കരുതിയ	-6150
▁കൂട്ടി	-6151
▁മക്കള്‍	-6152
▁കുട്ടികള	-6153
ിയായിരുന്ന	-6154
▁പ്രതിപക്ഷം	-6155
▁തട്ടിക്കൊണ്ട	-6156
▁വാര്‍ത്തകള്‍	-6157
▁പ്രധാനപ്പെട്ട	-6158
▁34	-6159
▁ആമ	-6160
ത്മക	-6161
ടിയും	-6162
▁വികസി	-6163
നങ്ങള്‍	-6164
▁ന്യൂസ്	-6165
▁സ്വാമി	-6166
▁താലൂക്ക്	-6167
▁ഒക്ടോബര്‍	-6168
▁മനുഷ്യാവകാശ	-6169
ബറ	-6170
സ്യം	-6171
▁നിർമ	-6172
ട്ടര്‍	-6173
ുകളായി	-6174
▁പങ്ക്	-6175
▁പിടിയിലായത്	-6176
ണ്ഠ	-6177
ഡന്‍	-6178
▁കലാ	-6179
▁കഴുക	-6180
ബ്ലിക്	-6181
ാനില്‍	-6182
ുകൂട്ട	-6183
▁ചെറുപ്പ	-6184
▁ന്യൂസില	-6185
സ്റ്റിറ്റ്യൂ	-6186
▁വീട്ടിലേക്ക്	-6187
കർ	-6188
സൺ	-6189
തുര	-6190
▁ദശ	-6191
ഗോഡ്	-6192
േക്കാൾ	-6193
▁മൊബൈൽ	-6194
▁സിന്ധ	-6195
▁നിലനിൽ	-6196
▁നെറ്റ്	-6197
▁ബജറ്റ്	-6198
മാകുന്നത്	-6199
▁ഇവര്‍ക്ക്	-6200
▁മമ്മൂട്ടി	-6201
▁പുലര്‍ച്ചെ	-6202
ലീം	-6203
ബ്രഹ	-6204
ഭൂമി	-6205
വാദം	-6206
സ്തവ	-6207
ാണ്ട്	-6208
ുണ്ടോ	-6209
▁അനുപ	-6210
▁ഇടവേള	-6211
▁കുത്ത	-6212
▁ദുബായ	-6213
▁ഏപ്രിൽ	-6214
▁നിയമനം	-6215
ങ്ങുന്നു	-6216
ല്ലെന്ന്	-6217
▁അഹമ്മദ്	-6218
▁വിദേശകാര്യ	-6219
റൂ	-6220
▁ഇടയ	-6221
ലിപ്പ	-6222
▁ജോയി	-6223
▁പുഷ്	-6224
ുമായും	-6225
▁കുറവ്	-6226
▁തകര്‍ന്ന	-6227
▁മോദിയുടെ	-6228
▁പെട്രോള്‍	-6229
ൻപ	-6230
▁യാ	-6231
പത്ര	-6232
▁ആവി	-6233
▁റ്റ്	-6234
▁സിസി	-6235
ടിച്ചു	-6236
▁ഒക്കെ	-6237
▁ഡാറ്റ	-6238
▁ബോട്ട	-6239
▁പ്രകാര	-6240
▁വിശ്വാസം	-6241
▁ദിവസങ്ങളില്‍	-6242
കിയ	-6243
ന്ദി	-6244
െയിൻ	-6245
▁ഫോമ	-6246
യായും	-6247
▁പര്യ	-6248
▁സത്യം	-6249
▁വിട്ട്	-6250
▁പിന്നിൽ	-6251
ടിപ്പിക്ക	-6252
▁വ്യാപാരി	-6253
യൽ	-6254
▁75	-6255
ക്കല	-6256
യോഗം	-6257
▁ഒതു	-6258
▁ജ്യോ	-6259
▁ലൈഫ്	-6260
റിഞ്ഞു	-6261
▁വിഷ്ണ	-6262
▁കുറ്റം	-6263
▁വാക്സിന	-6264
ങ്ങളുണ്ട്	-6265
▁നിര്‍മ്മാണ	-6266
▁പാര്‍ട്ടിയുടെ	-6267
പ്പൂ	-6268
▁ചാവ	-6269
▁ആര്യ	-6270
▁ഗൗരവ	-6271
ിക്കാണ	-6272
▁ആരാധന	-6273
▁കൊറിയ	-6274
▁ചാണ്ടി	-6275
▁പഠിപ്പ	-6276
▁അറസ്റ്റു	-6277
▁നിൽക്കുന്ന	-6278
ൂഷ	-6279
ൊല	-6280
മോഹ	-6281
ൾഡ്	-6282
▁196	-6283
▁വിവ	-6284
ജിനീയ	-6285
പിറ്റ	-6286
പിള്ള	-6287
ന്റേയും	-6288
▁എഞ്ചിന	-6289
▁രൂക്ഷമായ	-6290
▁ആരംഭിക്കും	-6291
▁c	-6292
ീത്	-6293
▁ആസി	-6294
▁സിറ്റ	-6295
ക്കാലത്ത്	-6296
▁കൗണ്‍സില	-6297
▁സ്ത്രീകൾ	-6298
▁ഗവര്‍ണര്‍	-6299
▁പ്രോസിക്യ	-6300
▁വളരെയധികം	-6301
▁നു	-6302
മാസം	-6303
രുവായ	-6304
ജിയുടെ	-6305
▁വിപുല	-6306
▁വിശ്വ	-6307
▁ഉറപ്പ്	-6308
▁വെട്ടി	-6309
▁മടങ്ങിയ	-6310
▁പാര്‍ട്ടിയ	-6311
▁ജീവനക്കാരുടെ	-6312
വര്‍ഷം	-6313
ത്തിന്റ	-6314
ിച്ചതായി	-6315
▁ചരിത്രം	-6316
▁പ്രകാശ്	-6317
▁പരിഹരിക്ക	-6318
▁സ്വാഭാവിക	-6319
കീ	-6320
ാൻഡ	-6321
▁ചങ്ങ	-6322
▁സൈസ്	-6323
▁ബില്‍	-6324
▁സാമ്പി	-6325
▁പങ്കാളി	-6326
തിനിടെയാണ്	-6327
▁സ്റ്റേഡിയ	-6328
▁ഉണ്ടാക്കിയ	-6329
▁പോലീസിന്റെ	-6330
ിക്കുന്നില്ല	-6331
▁ബന്ധുക്കള്‍	-6332
▁സാധ്യതയുണ്ട്	-6333
--	-6334
▁വള്ള	-6335
▁ആന്റ്	-6336
▁ഉപദേശ	-6337
▁ജമ്മു	-6338
▁തന്‍റെ	-6339
▁അതുപോലെ	-6340
▁പോകാന്‍	-6341
▁പ്ലാറ്റ്	-6342
▁വാഹനങ്ങള്‍	-6343
▁3,	-6344
▁സദ	-6345
▁കേൾ	-6346
ീര്‍ഘ	-6347
▁അഥവാ	-6348
▁പണിയ	-6349
▁ചെലവ്	-6350
▁മഞ്ജു	-6351
ര്‍ക്കു	-6352
▁ലോക്ഡൗ	-6353
▁വക്താവ്	-6354
രുന്നില്ല	-6355
▁ഉമ്മന്‍ച	-6356
▁മാധ്യമങ്ങള്‍	-6357
or	-6358
ബിയ	-6359
ത്തീ	-6360
▁ചാർ	-6361
▁പൈല	-6362
▁സിം	-6363
ന്തിര	-6364
ുകളില	-6365
▁അര്‍ഹ	-6366
റ്റിംഗ്	-6367
▁ഇസ്ലാമ	-6368
▁അക്കാദമി	-6369
▁ദിവസമാണ്	-6370
ണമെങ്കില്‍	-6371
▁സുരേന്ദ്രന്‍	-6372
on	-6373
▁n	-6374
▁കം	-6375
▁വിഭ	-6376
ാലത്ത്	-6377
▁പ്രയോജന	-6378
മാക്കുന്ന	-6379
ുണ്ടാകുന്ന	-6380
▁അതോറിറ്റി	-6381
▁ഡെപ്യൂട്ടി	-6382
▁എന	-6383
ണിലെ	-6384
ാധിക	-6385
▁ലാല	-6386
നോട്ട	-6387
പ്പിനെ	-6388
▁അഞ്ചാം	-6389
▁ആഭിമുഖ	-6390
▁രണ്ടാമ	-6391
▁എറണാകുള	-6392
▁കൊലപാതകം	-6393
▁ചേര്‍ത്ത	-6394
▁സ്വര്‍ണം	-6395
▁ഹൈദരാബാദ്	-6396
ിക്കുന്നതും	-6397
▁പട്ടികയില്‍	-6398
ൂസ്	-6399
▁സ്ല	-6400
▁കർശന	-6401
▁ഭീകരാ	-6402
▁തസ്തിക	-6403
▁മേഖലയിൽ	-6404
▁പ്രഖ്യാപിച്ചത്	-6405
47	-6406
▁കൊട	-6407
▁ഡിസ	-6408
▁പ്രൊഡ	-6409
▁ഭിന്ന	-6410
▁മനോജ്	-6411
▁വിസ്മ	-6412
▁വര്‍ഷമായി	-6413
ഹ്ല	-6414
രമായ	-6415
▁മാള	-6416
ുവിന്	-6417
▁പേരി	-6418
ൊന്നുമ	-6419
▁പ്രസവ	-6420
▁ഇയാളുടെ	-6421
നാട	-6422
വതി	-6423
േശ്	-6424
ിംഗ്	-6425
▁അഭയ	-6426
▁ലാമ	-6427
ുകാരി	-6428
▁ശരീരം	-6429
ക്കാർക്ക്	-6430
ല്ലെന്നും	-6431
ധ്യം	-6432
▁കൊഴു	-6433
▁പോള്‍	-6434
▁ഭാഗ്യ	-6435
▁ശ്വാസ	-6436
▁ഇറങ്ങി	-6437
▁ജനങ്ങൾ	-6438
▁അന്നത്തെ	-6439
▁ദൂര	-6440
▁അതില	-6441
▁ആപ്പ്	-6442
ിക്കാനായി	-6443
▁ബിജെപിക്ക്	-6444
▁രംഗത്തെത്തി	-6445
25	-6446
▁കൈയ	-6447
▁ശബ്	-6448
▁സുക	-6449
▁പ്ലേ	-6450
ങ്ങാടി	-6451
ാത്തത്	-6452
ക്കാരായ	-6453
ക്കൊണ്ട	-6454
▁തള്ളിയ	-6455
▁രണ്ടും	-6456
▁അപ്രതീക്ഷ	-6457
▁ആര്‍ക്കും	-6458
▁രജിസ്റ്റർ	-6459
▁പരിശോധിച്ച	-6460
വൽ	-6461
ാരോ	-6462
▁നര	-6463
▁ഹെഡ്	-6464
▁ഒത്തു	-6465
▁ഇന്ത്യക്ക്	-6466
▁ദയ	-6467
▁കമ്മ്യൂണി	-6468
▁കാര്യത്തിൽ	-6469
ഹാറ	-6470
യൊരു	-6471
▁ജോൺ	-6472
▁റൂമ	-6473
▁സോള	-6474
▁കഴിച്ച	-6475
▁പ്രേരി	-6476
▁ആഹ്വാനം	-6477
▁പ്രദര്‍ശ	-6478
▁രോഗബാധിത	-6479
▁അന്തരീക്ഷ	-6480
▁അന്തരിച്ചു	-6481
▁പ്രവര്‍ത്തിച്ച	-6482
സല	-6483
ഗണന	-6484
ഴിതാ	-6485
ണ്ടര്‍	-6486
▁താരതമ	-6487
മായുള്ള	-6488
▁ഗുരുതരമായ	-6489
സൗ	-6490
▁ഗവർ	-6491
▁ശത്	-6492
▁വിനോ	-6493
▁കൈയ്യ	-6494
▁ബിഎസ്	-6495
▁രോഹിത്	-6496
▁മുദ്രാവ	-6497
▁രേഖകള്‍	-6498
▁സഞ്ചരിച്ച	-6499
▁രേഖപ്പെടുത്തി	-6500
▁പ്രസിദ്ധീകരിച്ച	-6501
4)	-6502
സാമ	-6503
െല്ല	-6504
▁വാര	-6505
കൊണ്ട	-6506
▁നവംബർ	-6507
രിപ്പിക്ക	-6508
▁ഉല്‍	-6509
▁സ്ഥാനാർഥ	-6510
▁കേന്ദ്രസർ	-6511
▁നേതാക്കളുടെ	-6512
ാക്കിയിരുന്നു	-6513
ിട്ടുണ്ടെന്ന്	-6514
േതര	-6515
▁ചുഴ	-6516
▁ബഹു	-6517
▁മിന	-6518
▁സതീ	-6519
ഹാര്‍	-6520
▁ഇടത്	-6521
▁കരാറ	-6522
▁ധോണി	-6523
▁ടൂര്‍	-6524
▁പ്രവി	-6525
▁വലിച്ച	-6526
▁എടുത്തി	-6527
▁നടത്താൻ	-6528
▁ദേശീയപാത	-6529
▁വ്യക്തമായി	-6530
▁മോഹന്‍ലാല്‍	-6531
▁ശ്രദ്ധയില്‍	-6532
▁തിരിച്ചറിഞ്ഞ	-6533
▁പ്രത്യേകിച്ച്	-6534
▁ഉം	-6535
▁കവ	-6536
▁കുമ്	-6537
▁പയ്യ	-6538
▁വെയ്	-6539
റങ്ങിയ	-6540
▁ഇറങ്ങ	-6541
▁വികാര	-6542
▁പിന്മാ	-6543
▁സർവകലാശാല	-6544
▁സുപ്രീംകോട	-6545
▁വ്യക്തമാക്കിയത്	-6546
▁അണു	-6547
▁ആരെ	-6548
ബുക്ക്	-6549
ല്ലാതെ	-6550
▁സന്നി	-6551
▁ദീര്‍ഘ	-6552
▁പൂർണ്ണ	-6553
▁പെരുമ്പ	-6554
▁വെസ്റ്റ്	-6555
ുകൂട	-6556
▁സിൻ	-6557
▁സുഗ	-6558
ക്കാന	-6559
▁ഉണ്ണ	-6560
▁പൊലി	-6561
▁ആസൂത്ര	-6562
▁സൗത്ത്	-6563
▁അവർക്ക്	-6564
▁കൂളില്‍	-6565
▁വര്‍ക്ക	-6566
▁പന്തില്‍	-6567
▁അപ്രതീക്ഷിത	-6568
മുണ്ടായിരുന്നു	-6569
ോയ്	-6570
▁..	-6571
വ്വഹ	-6572
▁ചായ	-6573
▁ജൂൺ	-6574
ട്ടിൽ	-6575
▁പദവി	-6576
▁പ്രഥ	-6577
▁അലങ്ക	-6578
ിക്കണമെന്ന	-6579
▁ചിത്രത്തിൽ	-6580
ിക്കപ്പെടുന്ന	-6581
▁പശ്ചാത്തലത്തിൽ	-6582
പാദന	-6583
▁മാണ	-6584
ാര്‍ശ	-6585
▁ടാക്	-6586
▁മലിന	-6587
▁പറ്റിയ	-6588
▁തുടർച്ച	-6589
▁മുസ്ലീം	-6590
▁സന്തോഷം	-6591
▁കെപിസിസി	-6592
▁വാങ്ങുന്ന	-6593
▁ചോദ്യത്തിന്	-6594
ad	-6595
ഭൂമ	-6596
ിതം	-6597
ഷ്യൽ	-6598
▁സ്മ	-6599
▁ദ്വീപ	-6600
▁കേസുകൾ	-6601
▁രക്ഷിത	-6602
ാസമ്മേളന	-6603
▁ഒരുമിച്ച്	-6604
ഭാഷണ	-6605
▁പകര	-6606
▁വലു	-6607
പ്രിം	-6608
രേയും	-6609
ാന്‍ഡ	-6610
ാക്കണം	-6611
ത്തിനാണ്	-6612
▁ബാക്കിയ	-6613
▁37	-6614
▁അന്യ	-6615
▁ജപ്പ	-6616
▁നിഷ്	-6617
▁പെരി	-6618
▁ഷെയ്	-6619
▁ക്ഷേമ	-6620
▁പന്ത്	-6621
▁പ്രസ്	-6622
▁വേട്ട	-6623
▁ധരിച്ച	-6624
▁വെടിവെ	-6625
▁കൂടിയായ	-6626
▁നഷ്ടപരി	-6627
▁നിർദേശം	-6628
▁ഭരണകൂടം	-6629
▁പ്രസിഡൻറ്	-6630
▁വിശേഷിപ്പ	-6631
▁തുടർന്നാണ്	-6632
▁പ്രവർത്തനം	-6633
▁പ്രാര്‍ത്ഥ	-6634
▁അതിര്‍ത്തിയ	-6635
▁തെരഞ്ഞെടുക്ക	-6636
▁തെരഞ്ഞെടുപ്പിൽ	-6637
ാറും	-6638
▁കോലി	-6639
▁ഗോപി	-6640
▁ചിക്ക	-6641
▁യുവജന	-6642
▁സ്കൂൾ	-6643
റിന്‍റെ	-6644
▁മുഹമ്മ	-6645
▁സ്റ്റാ	-6646
യ്ക്കിടെ	-6647
▁നായകന്‍	-6648
▁രണ്ടുപേ	-6649
▁ഉയര്‍ത്തി	-6650
▁ഗുരുതരമായി	-6651
▁പെണ്‍കുട്ടിയുടെ	-6652
നൈ	-6653
▁/	-6654
▁ഹാള	-6655
ഗാന്ധ	-6656
ട്രോള	-6657
▁അതും	-6658
▁മദ്ര	-6659
▁വിജ്ഞ	-6660
▁ഡോക്ടറ	-6661
ത്തിൻ്റെ	-6662
യ്ക്കാണ്	-6663
ുകളുണ്ട്	-6664
▁ഇപ്പോഴിതാ	-6665
▁തെറ്റിദ്ധ	-6666
▁കേരളത്തിന്	-6667
▁ഡോക്ടര്‍മാര്‍	-6668
ധാര	-6669
▁അദ	-6670
▁നിശ	-6671
▁ബാംഗ	-6672
ക്കാലം	-6673
പ്രകാര	-6674
▁ഇന്റർ	-6675
▁ഒന്‍പ	-6676
▁ഉത്തരം	-6677
▁ഒടുവിൽ	-6678
▁സഹോദരി	-6679
▁ചെയ്യണം	-6680
▁പൊലീസിന്	-6681
▁സമീപത്തെ	-6682
▁ക്രിസ്ത്യ	-6683
▁വിഷയത്തിൽ	-6684
▁കണക്കുകള്‍	-6685
മ്ബ	-6686
ഷുറ	-6687
ക്കയ	-6688
ദ്വീ	-6689
തിനിട	-6690
ൊണ്ട്	-6691
▁നിർവഹ	-6692
▁ബാറ്റ	-6693
▁സംഗീതം	-6694
▁പഞ്ചാബ്	-6695
▁മണിയോടെ	-6696
▁എന്നിവയും	-6697
▁പ്രകടിപ്പ	-6698
▁മത്സരിക്ക	-6699
▁തിരിച്ചടിയ	-6700
2)	-6701
▁ജാ	-6702
▁2000	-6703
▁ഗ്രന്ഥ	-6704
▁എടുത്ത്	-6705
▁വീട്ടമ്മ	-6706
▁വേണമെന്ന്	-6707
▁ഡല്‍ഹിയില്‍	-6708
▁ലഭിക്കുന്നത്	-6709
ഫോഴ്	-6710
▁ഓഡി	-6711
▁കവി	-6712
▁വേള	-6713
ദ്ധ്യ	-6714
▁കൊടു	-6715
ുകൂടിയ	-6716
ത്തൂര്‍	-6717
▁ഇബ്രാഹി	-6718
▁പിടികൂട	-6719
▁കാര്യമായ	-6720
▁കോടതിയുടെ	-6721
▁ലക്ഷ്യമിട	-6722
പ്രവര്‍ത്തന	-6723
▁ഉൾപ്പെടെയുള്ള	-6724
ച്ചില	-6725
▁തൃണമ	-6726
▁യുപി	-6727
▁ജഡ്ജി	-6728
▁പതിവ്	-6729
▁കലാകാര	-6730
നത്തില്‍	-6731
▁തെറ്റായ	-6732
▁പ്രിന്‍	-6733
▁യൂറോപ്യ	-6734
ുകയുണ്ടായി	-6735
▁സമ്മേളനത്തില്‍	-6736
ദാസ	-6737
രളി	-6738
▁ദൂ	-6739
▁അബൂ	-6740
പ്രിയ	-6741
ിവാസി	-6742
▁ഗുണം	-6743
▁തരംഗ	-6744
പ്ലിക്ക	-6745
ുമായാണ്	-6746
▁ഇല്ലാതെ	-6747
തെരഞ്ഞെടു	-6748
▁നൽകുന്നത്	-6749
▁സ്റ്റാര്‍	-6750
▁രാഷ്ട്രപതി	-6751
▁പ്രധാനമായും	-6752
പീ	-6753
ഹൈ	-6754
സമാ	-6755
ുമാർ	-6756
▁150	-6757
▁ഇരി	-6758
▁നാശ	-6759
▁സ്ര	-6760
പ്പിലെ	-6761
▁ഇങ്ങനെയ	-6762
▁മിനിറ്റ്	-6763
.'	-6764
താപ	-6765
▁അശ	-6766
▁അവധ	-6767
കൃത്യ	-6768
▁ആകാശ	-6769
▁ബോംബ	-6770
▁സഞ്ജ	-6771
▁വെടിവ	-6772
തിനെതിരെ	-6773
ിലുള്ളത്	-6774
▁അഫ്ഗാനി	-6775
▁ഉയര്‍ത്ത	-6776
▁ഉറപ്പുവരുത്ത	-6777
.”	-6778
▁നാണ	-6779
▁ജിബി	-6780
▁പിരി	-6781
▁വഞ്ച	-6782
▁സൊസൈ	-6783
▁വൈദിക	-6784
▁ഉറപ്പു	-6785
▁ആദിവാസി	-6786
▁ഗുരുവായ	-6787
▁ആഭിമുഖ്യ	-6788
▁വന്നിരുന്നു	-6789
▁അസിസ്റ്റന്റ്	-6790
പ്രശ്	-6791
വിന്ദ്	-6792
▁ഉപരോധ	-6793
▁പാണ്ഡ	-6794
ന്മാരും	-6795
▁തുടരും	-6796
▁ചെയർമാൻ	-6797
▁യഥാർത്ഥ	-6798
▁ഉണ്ടാകുന്ന	-6799
▁പേര്‍ക്കും	-6800
▁അമേരിക്കയിലെ	-6801
ിട്ടില്ലെന്നും	-6802
ന്തോ	-6803
രഹിത	-6804
▁പദവ	-6805
▁പാലാ	-6806
▁ഹരിയ	-6807
ുവെന്ന	-6808
▁ഫിലിം	-6809
ത്തിനകം	-6810
േണ്ടതാണ്	-6811
▁വലിയൊരു	-6812
പ്പുറത്ത്	-6813
മുണ്ടായത്	-6814
▁പഞ്ചായത്തിലെ	-6815
90	-6816
▁അശ്	-6817
▁വരി	-6818
▁മുനി	-6819
ുണ്ടാവ	-6820
▁കൊന്ന	-6821
▁തടഞ്ഞ	-6822
▁യന്ത്ര	-6823
▁ശിവസേന	-6824
▁കളക്ടര്‍	-6825
▁തൊഴിലാളി	-6826
▁യോഗത്തിൽ	-6827
▁രക്ഷപ്പെട	-6828
ഷക	-6829
ഴുത	-6830
▁ആച	-6831
▁ചിറ	-6832
▁മേള	-6833
▁2012	-6834
▁ഒത്ത	-6835
മുണ്ടാക	-6836
▁നിരക്ക	-6837
▁അട്ടിമറ	-6838
▁മണിക്കൂ	-6839
▁വരുത്തി	-6840
ുകളുടെയും	-6841
▁ആക്രമിച്ച	-6842
കൂടി	-6843
ങ്കര	-6844
ർപ്പ	-6845
▁പൈസ	-6846
▁സന്ധ	-6847
നുമായി	-6848
▁ജാമ്യ	-6849
▁അറിയാം	-6850
▁തികച്ചും	-6851
▁ഗുജറാത്ത്	-6852
ത്തിലൂടെയാണ്	-6853
▁സാധ്യതയുണ്ട	-6854
▁ചൂണ്ടിക്കാട്ട	-6855
▁സഹായിക്കുന്നു	-6856
▁300	-6857
പ്പാറ	-6858
വസ്തു	-6859
▁ആചാര	-6860
▁നിറം	-6861
▁പുറം	-6862
തുമായി	-6863
▁കാന്‍	-6864
▁കഞ്ചാവ്	-6865
▁സുനില്‍	-6866
▁ക്കെതിരെ	-6867
▁നിക്ഷേപം	-6868
▁ഇത്തരമൊരു	-6869
▁കൂട്ടിച്ചേർത്തു	-6870
രുതി	-6871
▁സ്ഫ	-6872
ട്ടിക	-6873
വെള്ള	-6874
▁ആണ്‍	-6875
▁മെഗാ	-6876
▁ദിലീപ	-6877
▁ദൗത്യ	-6878
▁ആദിത്യ	-6879
▁വധശിക്ഷ	-6880
▁തിരിച്ച്	-6881
▁പങ്കുവെച്ച	-6882
▁ടേ	-6883
▁മുട	-6884
രുണ്യ	-6885
ുപേര്‍	-6886
▁മോഷണം	-6887
▁താരമാണ്	-6888
▁വിശദമായ	-6889
▁ഉയര്‍ന്നു	-6890
▁പതിറ്റാണ്ട	-6891
ാനിരിക്കുന്ന	-6892
▁നാട്ടിലേക്ക്	-6893
le	-6894
മറി	-6895
▁മിസൈ	-6896
▁വിഷമ	-6897
▁മാർക്ക	-6898
പ്പുകള്‍	-6899
ാനാവില്ല	-6900
ഫെ	-6901
മനു	-6902
▁(5	-6903
ദ്ദി	-6904
രീഷ്	-6905
▁അതെ	-6906
▁ഓടി	-6907
േറ്ററ	-6908
▁മരുമ	-6909
▁ഹാരി	-6910
ുകയെന്ന	-6911
ിക്കപ്പെട	-6912
▁വേണ്ടിയാണ്	-6913
▁കുറ്റപ്പെടുത്തി	-6914
▁38	-6915
▁കോല	-6916
▁പൊള	-6917
ക്കുട	-6918
▁ഐഎസ്	-6919
▁കുര്യ	-6920
▁മദ്യം	-6921
ക്കിംഗ്	-6922
ാതെയാണ്	-6923
ാലിക്കു	-6924
▁സ്വാഗത	-6925
്യമന്ത്ര	-6926
ത്തിലെത്തിയ	-6927
▁കിലോമീറ്റർ	-6928
▁കോണ്‍ഗ്രസിന്റെ	-6929
ോടി	-6930
▁ലയ	-6931
നഷ്ട	-6932
തുമാണ്	-6933
▁ഡൗണ്‍	-6934
▁ഒമ്പത്	-6935
▁മീഡിയയിൽ	-6936
▁താരങ്ങള്‍	-6937
▁സാന്നിധ്യ	-6938
▁പൊലീസിന്റെ	-6939
മട	-6940
▁ചട	-6941
▁സെൽ	-6942
▁കരുണ	-6943
▁ബാര്‍	-6944
ത്തിനുശേഷം	-6945
▁കാലാവസ്ഥാ	-6946
▁ഭൂരിപക്ഷം	-6947
▁സ്ഥാപിച്ച	-6948
▁ചര്‍ച്ചകള്‍	-6949
ഖി	-6950
ാവൂ	-6951
ിയാ	-6952
▁ഏറ	-6953
പ്പർ	-6954
ടിയിൽ	-6955
▁പ്രൈ	-6956
▁ഫീസ്	-6957
മാണെന്ന	-6958
▁റിസര്‍	-6959
▁സർവീസ്	-6960
▁ഒഴിവാക്കി	-6961
▁പരാമര്‍ശം	-6962
▁പ്രവർത്തനങ്ങൾ	-6963
▁കുട്ടികള്‍ക്ക്	-6964
ൃഹ	-6965
മൂല	-6966
▁അനൂ	-6967
▁തോമ	-6968
▁പോള	-6969
▁അയാൾ	-6970
▁ഗാനം	-6971
▁ചാനല	-6972
▁ദുബൈ	-6973
▁ഫോട്ട	-6974
▁മെന്റ	-6975
▁വിനോദ്	-6976
▁ഹോട്ടല	-6977
▁അബുദാബി	-6978
▁പ്രവിശ്യ	-6979
▁ബന്ധപ്പെട	-6980
ിക്കുന്നതാണ്	-6981
▁മണ്ഡലത്തില്‍	-6982
▁സ്വീകരിക്കുന്ന	-6983
▁65	-6984
▁കാൽ	-6985
▁ഫാഷ	-6986
▁നേരം	-6987
▁സ്പെ	-6988
▁ഗോപാല	-6989
▁രജിസ്	-6990
▁കൂളിലെ	-6991
▁പത്താം	-6992
▁നല്ലൊരു	-6993
▁സുപ്രിം	-6994
രുമെന്നും	-6995
▁പോലീസിന്	-6996
▁പ്രക്രിയ	-6997
▁മമ്മൂട്ട	-6998
▁അടിയന്തിര	-6999
▁ആവശ്യമാണ്	-7000
▁തുടങ്ങുന്ന	-7001
വലി	-7002
▁നാര	-7003
▁സംവ	-7004
ങ്ങളോ	-7005
ടുപുഴ	-7006
വിട്ടി	-7007
▁ഗ്രാം	-7008
ുമെന്നു	-7009
▁പത്രിക	-7010
▁പോലിസ്	-7011
▁പ്രചരണ	-7012
▁കാണിച്ച	-7013
▁കോടിയുടെ	-7014
▁പ്രതിഷേധിച്ച്	-7015
ജക	-7016
ഷാ	-7017
മാത	-7018
ങ്കി	-7019
സഞ്ച	-7020
▁അക്	-7021
▁തമിഴ	-7022
▁രാഷ്	-7023
▁അയല്‍	-7024
▁നാവിക	-7025
▁എതിരാള	-7026
▁പന്ത്ര	-7027
▁സൈബര്‍	-7028
▁രാജ്യസഭ	-7029
▁പാർട്ടിയ	-7030
▁സമ്മര്‍ദ്ദ	-7031
▁ചെയ്യപ്പെട്ട	-7032
▁രച	-7033
രിലെ	-7034
ാനിലെ	-7035
▁ഇന്‍ഡ	-7036
▁പിരിച്ചു	-7037
▁സംരക്ഷണം	-7038
▁ചിത്രത്തിന്	-7039
▁ജീവിതത്തില്‍	-7040
▁പൗ	-7041
ടിസി	-7042
▁വർധ	-7043
▁കഷ്ട	-7044
ാനാകും	-7045
▁പ്രഥമ	-7046
ൂട്ടീവ്	-7047
▁ബാധ്യത	-7048
▁വൈറ്റ്	-7049
▁പാടില്ല	-7050
▁ഫ്രാന്‍	-7051
തെങ്കിലും	-7052
▁ഉദ്യോഗസ്ഥർ	-7053
▁സുഹൃത്തുക്കള	-7054
-20	-7055
▁ടൊ	-7056
ുവഴി	-7057
▁രചന	-7058
ഫോണ്‍	-7059
ാകാത്ത	-7060
▁കമ്പ്യ	-7061
▁പ്രയാസ	-7062
▁റവന്യൂ	-7063
▁ഫോണില്‍	-7064
▁സെന്റര്‍	-7065
ിച്ചുകൊണ്ട	-7066
▁നിർദ്ദേശം	-7067
▁രോഗമുക്തി	-7068
ോഗ്	-7069
ാനായ	-7070
▁ഇളവ്	-7071
▁ബോസ്	-7072
▁അതാണ്	-7073
▁ആന്‍ഡ	-7074
▁തൊട്ടു	-7075
▁ഡയറക്ടർ	-7076
▁നിശ്ചിത	-7077
▁മറ്റൊരാ	-7078
▁അപ്പോള്‍	-7079
ാക്കള്‍ക്ക്	-7080
രുപ	-7081
ാപു	-7082
▁മദ	-7083
▁ഹൂ	-7084
ഡിപി	-7085
ാരും	-7086
▁നീര	-7087
▁ഫോർ	-7088
▁1000	-7089
▁ഒഴുക	-7090
▁മിനു	-7091
കരമാണ്	-7092
▁കിരീട	-7093
▁വീണ്ട	-7094
▁ഓസ്ട്ര	-7095
▁പ്രമേയ	-7096
ങ്ങളുള്ള	-7097
▁കരുതുന്ന	-7098
▁പ്രദേശത്തെ	-7099
രാഗത	-7100
േറ്റർ	-7101
▁അതിശ	-7102
▁ഉദ്ധ	-7103
▁ചക്ര	-7104
▁മധുര	-7105
▁ബോർഡ്	-7106
▁മേധാവ	-7107
▁ശാന്ത	-7108
▁തുടര്‍	-7109
▁മുകളിൽ	-7110
ാനെത്തിയ	-7111
▁ഏതാണ്ട്	-7112
▁മുന്നണി	-7113
▁വഴിയാണ്	-7114
ചെയ്യുന്ന	-7115
▁നയതന്ത്ര	-7116
▁വീടിന്റെ	-7117
▁ഇന്‍സ്റ്റ	-7118
▁ആയിരിക്കും	-7119
▁കേസെടുത്തു	-7120
▁പങ്കെടുക്കുന്ന	-7121
ജിത	-7122
വിസ്	-7123
▁തോൽ	-7124
ക്കാൾ	-7125
▁ദിലീ	-7126
▁ഹാജി	-7127
▁കാപ്പ	-7128
▁സമഗ്ര	-7129
മ്പില്‍	-7130
ുവരുന്ന	-7131
ത്തിയാണ്	-7132
ാനായില്ല	-7133
▁സിവില്‍	-7134
▁ആഫ്രിക്ക	-7135
▁യൂണിറ്റ്	-7136
▁യഥാര്‍ത്ഥ	-7137
നുബന്ധിച്ച്	-7138
';	-7139
ഡെ	-7140
ണും	-7141
ിവ്	-7142
ീഖ്	-7143
കാരി	-7144
ുപയോഗ	-7145
▁അളവ്	-7146
▁മറിയ	-7147
▁പോരാട്ടം	-7148
ോഗം	-7149
പ്രാ	-7150
▁അസ്	-7151
▁പരമ്പ	-7152
▁വിപ്ല	-7153
▁വിസ്ത	-7154
▁ശര്‍മ	-7155
▁ഇതിനോട	-7156
▁സമുദ്ര	-7157
▁സ്ഥിരം	-7158
ക്കാരന്‍	-7159
▁തടയാന്‍	-7160
▁തൊടുപുഴ	-7161
▁സ്വദേശികളായ	-7162
▁മയക്കുമരുന്ന്	-7163
ൈൻ	-7164
മാല	-7165
ക്ഷണ	-7166
ഘോഷം	-7167
ഡിങ്	-7168
തന്ന	-7169
▁താപ	-7170
▁പണമ	-7171
ുമ്പ്	-7172
▁ചില്ല	-7173
▁നൽകും	-7174
▁സംഘവും	-7175
മാര്‍ക്ക്	-7176
▁പച്ചക്കറ	-7177
▁വിമര്‍ശനം	-7178
▁കഴിഞ്ഞദിവസം	-7179
▁കൊല്ലപ്പെട്ടത്	-7180
മൊഴ	-7181
െയില	-7182
▁ക്വ	-7183
▁വർഗ	-7184
ന്ദിര	-7185
▁വികസ	-7186
▁അഹമ്മ	-7187
▁ബൈക്ക	-7188
▁ബാംഗ്ല	-7189
യാണെന്ന്	-7190
▁പരിക്കേറ്റു	-7191
ിനോ	-7192
▁55	-7193
സാണ്	-7194
▁അഷ്	-7195
▁ബിന്‍	-7196
▁വിശ്രമ	-7197
▁വേണ്ടത്	-7198
▁വർഷത്തെ	-7199
▁ആയിരുന്ന	-7200
ാക്കാനുള്ള	-7201
▁ട്രാന്‍സ്	-7202
ഫലം	-7203
ന്തു	-7204
▁ജമാ	-7205
ുവാനും	-7206
▁താമസം	-7207
ാകുന്നു	-7208
വരുടെയും	-7209
▁റെയിൽവേ	-7210
ങ്ങള്‍ക്ക	-7211
▁കുറിപ്പ്	-7212
▁പരസ്യമായി	-7213
ിച്ചെങ്കിലും	-7214
▁കോമ	-7215
▁ചേര	-7216
▁ഫണ്ട	-7217
▁ഭാരം	-7218
ികളിലും	-7219
ക്കിടയിൽ	-7220
▁അച്ഛന്‍	-7221
▁നിരോധനം	-7222
▁വിശദാംശ	-7223
▁കാരണമായി	-7224
▁ക്ഷേത്രം	-7225
▁സ്ത്രീകളുടെ	-7226
▁സെപ്റ്റംബര്‍	-7227
ല്ല്	-7228
▁ഓപ്	-7229
▁ജൈവ	-7230
▁മഞ്ച	-7231
▁വയസ്	-7232
ക്കിങ്	-7233
പ്പള്ള	-7234
റിയുടെ	-7235
ിക്കാതി	-7236
▁മാവോയി	-7237
▁സംഘടനാ	-7238
▁ഏറ്റുവാ	-7239
▁ജാമ്യാപ	-7240
▁ഭാഗമായാണ്	-7241
▁സത്യപ്രതി	-7242
▁നേതാക്കളും	-7243
▁വിദ്യാഭ്യാസം	-7244
▁സമര്‍പ്പിക്ക	-7245
▁ഉപയോഗിക്കുന്നത്	-7246
ഡു	-7247
▁ഹസ	-7248
ന്തം	-7249
സ്വദ	-7250
▁അവര	-7251
▁മരം	-7252
റിയാം	-7253
▁എതിര്‍	-7254
▁നിഗമനം	-7255
▁മൈക്രോ	-7256
▁കൊട്ടാര	-7257
▁സംഘടനകള്‍	-7258
▁ആവശ്യപ്പെട	-7259
▁പ്രതികരിച്ച	-7260
വിഷ	-7261
▁സന	-7262
്യാത	-7263
▁അകലം	-7264
▁കാലി	-7265
▁സതീശ	-7266
▁അതിവേ	-7267
▁ഐശ്വര	-7268
▁ട്രഷറ	-7269
ത്തിനിര	-7270
▁സർട്ടിഫ	-7271
ക്കേസില്‍	-7272
▁സിനിമയിൽ	-7273
▁എല്‍ഡിഎഫ്	-7274
▁നിലയിലാണ്	-7275
▁രേഖപ്പെടുത്ത	-7276
▁അബ	-7277
മയുടെ	-7278
▁ഒളിവ	-7279
▁പാർല	-7280
▁അണിയറ	-7281
▁നെഞ്ച	-7282
▁മില്യ	-7283
യോടെയാണ്	-7284
ിനെതിരായ	-7285
▁ഫ്രഞ്ച്	-7286
▁നിലനിര്‍ത്ത	-7287
▁വെളിപ്പെടുത്തി	-7288
15	-7289
en	-7290
▁അകല	-7291
▁റാം	-7292
ഗ്രാമ	-7293
വെച്ച	-7294
ാനൊരു	-7295
▁നായർ	-7296
▁പെയ്	-7297
▁ജോർജ്	-7298
▁പാത്ര	-7299
ഡിയില്‍	-7300
വർക്കും	-7301
▁എഴുന്ന	-7302
▁മത്സരിച്ച	-7303
▁ജാമ്യാപേക്ഷ	-7304
.’	-7305
23	-7306
▁സുവ	-7307
▁സൂര	-7308
ദാര്‍	-7309
വിന്ദ	-7310
ബിന്റെ	-7311
ല്ലൂര്‍	-7312
▁ഡിഗ്രി	-7313
ുകളിലാണ്	-7314
▁ആനുകൂല്യ	-7315
▁സൗന്ദര്യ	-7316
ിക്കുമ്പോൾ	-7317
▁ചന്ദ്രശേഖ	-7318
▁കമ്പ്യൂട്ട	-7319
▁കുറിച്ചുള്ള	-7320
ർഗ	-7321
വായി	-7322
വ്വം	-7323
▁ഇളവ	-7324
സഹായം	-7325
▁അനിവ	-7326
▁നിയോ	-7327
▁മക്ക	-7328
▁വിളി	-7329
ിക്കാറ	-7330
ങ്ങുകയാണ്	-7331
▁ശാസ്ത്രജ്ഞ	-7332
di	-7333
േണ	-7334
ർഥ	-7335
ൂലം	-7336
▁ചൈ	-7337
താരം	-7338
മൂലം	-7339
സിക്	-7340
ഴുതിയ	-7341
▁നാണ്	-7342
സംരക്ഷ	-7343
▁ഉത്തർ	-7344
സ്റ്റ്യ	-7345
▁ആഗ്രഹം	-7346
▁ഉത്പാദ	-7347
▁നിലവാര	-7348
▁വോട്ടു	-7349
ത്തൊഴിലാള	-7350
▁ടൂര്‍ണമെ	-7351
ങ്ങളൊന്നും	-7352
▁ഉള്‍പ്പടെ	-7353
▁പരമ്പരാഗത	-7354
▁തുടര്‍ന്നു	-7355
▁ഇത്തരത്തിലുള്ള	-7356
▁എല്ലാവര്‍ക്കും	-7357
▁സംസ്ഥാനങ്ങളില്‍	-7358
▁നന്മ	-7359
ത്തിരി	-7360
സിച്ച്	-7361
ാനന്തര	-7362
▁അടക്ക	-7363
▁വേര്‍	-7364
▁വെള്ളാ	-7365
▁കമ്മീഷൻ	-7366
▁ബംഗളൂരു	-7367
ത്തുടർന്ന്	-7368
▁കരുതുന്നത്	-7369
▁ചൂണ്ടിക്കാണ	-7370
െടുത്തിരുന്നു	-7371
▁ഥാന	-7372
▁ഡിസൈ	-7373
▁പോഷക	-7374
▁മാർഗ	-7375
▁ഹോസ്	-7376
ക്കേസ്	-7377
▁ആസ്വദ	-7378
▁നീട്ട	-7379
ത്തേയും	-7380
ുകാരനായ	-7381
▁ഉപയോഗം	-7382
ാവശ്യമായ	-7383
▁ഉദ്ഘാടന	-7384
▁മോട്ടോര്‍	-7385
▁സംഘടനയുടെ	-7386
▁എന്തായാലും	-7387
▁നടത്തുകയും	-7388
▁സൗജന്യമായി	-7389
ക്വ	-7390
▁ആയിര	-7391
ബ്രഹാം	-7392
▁നായകന	-7393
▁ഡിസംബർ	-7394
▁തോന്നി	-7395
മുണ്ടായി	-7396
▁നിബന്ധന	-7397
▁ഇംഗ്ലണ്ട്	-7398
▁നഗരത്തിലെ	-7399
▁നരേന്ദ്രമോദി	-7400
▁തുടര്‍ച്ചയായി	-7401
ച്യു	-7402
▁ഐടി	-7403
▁ജേത	-7404
▁ഭദ്ര	-7405
▁കരുതി	-7406
▁വിപണി	-7407
▁സമൂഹം	-7408
ങ്കില്‍	-7409
ാലിറ്റി	-7410
▁കാത്തു	-7411
▁പ്രചോദ	-7412
▁റോഡില്‍	-7413
▁രണ്ടാഴ്ച	-7414
▁ചുഴലിക്കാ	-7415
മുണ്ടായിരുന്ന	-7416
▁സത്യപ്രതിജ്ഞ	-7417
▁സ്വീകരിച്ചത്	-7418
▁വെളിപ്പെടുത്തിയ	-7419
കയ	-7420
േജി	-7421
▁ഭീ	-7422
▁തടസ	-7423
ിക്കൂ	-7424
▁തകരാ	-7425
സ്വാമി	-7426
▁ഉറക്ക	-7427
▁തൃണമൂ	-7428
▁തനിക്ക	-7429
▁സംഘപരി	-7430
ിക്കില്ല	-7431
െടുക്കാൻ	-7432
▁വാണിജ്യ	-7433
ത്തിക്കൊണ്ട	-7434
▁കൊല്ലപ്പെട്ടു	-7435
▁4,	-7436
▁re	-7437
കരണം	-7438
ങ്കോ	-7439
▁ഹെൽ	-7440
▁പാലം	-7441
▁ബോക്	-7442
▁ലിമി	-7443
▁വമ്പ	-7444
ിയെയും	-7445
▁മറക്ക	-7446
▁ഗര്‍ഭി	-7447
▁ഹിന്ദി	-7448
▁ഇന്നിങ്	-7449
▁എത്രയും	-7450
▁ഇതിനോടകം	-7451
▁ഇബ്രാഹിം	-7452
▁ബ്ലാക്ക്	-7453
▁സന്ദര്‍ശന	-7454
▁സ്ത്രീകളെ	-7455
▁റു	-7456
കളില	-7457
▁ഓളം	-7458
ചെയ്ത	-7459
ന്റീന	-7460
മേറ്റ	-7461
വാന്‍	-7462
▁ട്രോള	-7463
യെന്നും	-7464
ർക്കാണ്	-7465
▁ചാക്കോ	-7466
▁പാരമ്പ	-7467
▁വളർച്ച	-7468
▁വസ്തുത	-7469
▁കമ്യൂണി	-7470
▁ഫസ്റ്റ്	-7471
▁രജിസ്ട്ര	-7472
▁സാന്നിധ്യം	-7473
▁ജനങ്ങള്‍ക്ക്	-7474
▁സെക്രട്ടേറിയ	-7475
11	-7476
▁ആൾ	-7477
▁വേന	-7478
▁പരേത	-7479
ാലിന്റെ	-7480
▁അനുസ്മ	-7481
▁നിർത്തി	-7482
▁വിപണിയിൽ	-7483
ിരുന്നാലും	-7484
▁കീഴിലുള്ള	-7485
▁പിടിയില്‍	-7486
▁താരത്തിന്റെ	-7487
▁കുഞ്ഞാലിക്കു	-7488
ീർഘ	-7489
▁ജുഡ	-7490
വര്‍ഷ	-7491
▁ജെയ്	-7492
▁വീടിന്	-7493
▁അനുഗ്രഹ	-7494
▁ഐപിഎല്ല	-7495
▁ടീമില്‍	-7496
▁പ്രശാന്ത്	-7497
▁ഇത്തരത്തിൽ	-7498
▁സ്വന്തമായി	-7499
▁മുന്നോടിയായി	-7500
ക്കുഴ	-7501
▁ഇടവക	-7502
▁ട്രെ	-7503
▁ന്റെ	-7504
▁മോഡി	-7505
▁കുമ്പ	-7506
▁പണ്ഡി	-7507
▁പലതും	-7508
▁റിട്ട	-7509
ക്കാലിക	-7510
▁കല്യാണ	-7511
▁ആരോഗ്യം	-7512
▁പ്രമേയം	-7513
▁ഭാഗത്തു	-7514
ിച്ചുകൊണ്ട്	-7515
▁ണ	-7516
ട്സ്	-7517
യോട്ട	-7518
▁സ്കോ	-7519
ട്രല്‍	-7520
ബ്ല്യു	-7521
▁ഉറവിട	-7522
▁കാമ്പ	-7523
▁നഷ്ടം	-7524
▁നാഷണൽ	-7525
▁രക്തം	-7526
ക്ഷേത്ര	-7527
റ്റിങ്ങ	-7528
▁പതിനായി	-7529
ക്കുകയാണ്	-7530
പോര്‍ട്ട്	-7531
▁സംവിധായകൻ	-7532
▁പ്ലാസ്റ്റിക്	-7533
ുകയുമായിരുന്നു	-7534
▁മാധ്യമങ്ങളോട്	-7535
.9	-7536
യൂ	-7537
ടെക്	-7538
വച്ച	-7539
പര്യമ	-7540
വയാണ്	-7541
▁ആമസോ	-7542
▁ഫ്രീ	-7543
▁മോഹന	-7544
▁സ്വർണ	-7545
ികളുടെയും	-7546
▁പുനരാരംഭ	-7547
▁പെന്‍ഷന്‍	-7548
▁എടുക്കുന്ന	-7549
ിലുണ്ടായിരുന്ന	-7550
▁റിപ്പോർട്ടുകൾ	-7551
ലംഘ	-7552
▁42	-7553
▁പ്	-7554
സ്സി	-7555
▁പുത	-7556
▁സപ്	-7557
▁ഗ്യാ	-7558
▁ജുഡീ	-7559
ദ്വീപ്	-7560
▁ആവിഷ്	-7561
▁കമന്റ	-7562
▁കാർഷിക	-7563
▁പഞ്ചാബ	-7564
▁വിവാദം	-7565
▁ശരാശരി	-7566
▁വര്‍ഗീയ	-7567
▁സ്ത്രീയ	-7568
▁കലക്ടര്‍	-7569
▁ചേര്‍ത്ത്	-7570
▁സാധ്യതയുള്ള	-7571
പദ	-7572
പദ്ധ	-7573
▁അമീ	-7574
▁മുക	-7575
തുവരെ	-7576
യായത്	-7577
വേറ്റ	-7578
▁ക്രെ	-7579
▁തല്ല	-7580
▁മൊയ്	-7581
▁ഹൗസ്	-7582
▁ഇതുസം	-7583
▁ഫൗണ്ട	-7584
▁ഡോളര്‍	-7585
▁പ്രതിയ	-7586
▁പടിഞ്ഞാറ	-7587
▁കൊച്ചിയിലെ	-7588
▁പദ്ധതികള്‍	-7589
▁ചെയ്തിരുന്ന	-7590
▁സര്‍ക്കാരിനെ	-7591
am	-7592
st	-7593
െയെ	-7594
▁ഹീ	-7595
▁195	-7596
▁ഗംഭ	-7597
▁ബൗള	-7598
▁പാചക	-7599
നൊപ്പം	-7600
ന്മാരെ	-7601
▁പാപ്പ	-7602
▁പ്രകോ	-7603
▁അരുണ്‍	-7604
▁മടങ്ങി	-7605
▁മല്‍സര	-7606
ുകളിലൂടെ	-7607
▁ഏറ്റവുമ	-7608
▁കീഴില്‍	-7609
ിപ്പിച്ചു	-7610
▁രൂപീകരിക്ക	-7611
മർ	-7612
തിഥ	-7613
മേള	-7614
ിനിര	-7615
▁ശ്യ	-7616
മ്പാട	-7617
▁വിമത	-7618
▁വർധി	-7619
▁ജനിച്ച	-7620
▁വിമർശന	-7621
▁വെള്ളി	-7622
▁പ്രതിയായ	-7623
▁ഭാര്യയും	-7624
▁ശുപാര്‍ശ	-7625
▁അംഗങ്ങള്‍	-7626
▁തിരിച്ചടി	-7627
രക്കണക്കിന്	-7628
▁മലയാളികളുടെ	-7629
▁ആവർ	-7630
ക്രമം	-7631
▁അഡീഷ	-7632
▁ട്യൂ	-7633
▁അടയാള	-7634
▁അവശ്യ	-7635
▁മിന്ന	-7636
▁ഇന്‍സ്	-7637
▁അയാളുടെ	-7638
▁ഉത്പന്ന	-7639
▁ട്വന്റി	-7640
▁പ്രസംഗം	-7641
▁രാജസ്ഥാന	-7642
▁പ്രചരിപ്പ	-7643
▁പാര്‍ലമെന്റ	-7644
▁എന്നിരുന്നാലും	-7645
ഭ്	-7646
▁പവ	-7647
സിപി	-7648
▁ഫൈസ	-7649
യേയും	-7650
ശ്ചിത	-7651
▁ബാഴ്	-7652
▁വീണ്	-7653
▁സർവ്വ	-7654
ികൾക്കും	-7655
▁കാറില്‍	-7656
▁നിർമ്മാണ	-7657
മുണ്ടെന്ന്	-7658
▁പാകിസ്ഥാന	-7659
▁കണ്ടെത്താന്‍	-7660
▁ക്രൈംബ്രാഞ്ച്	-7661
കുറ	-7662
ക്രാ	-7663
▁ജനത	-7664
സിനും	-7665
ാര്‍ജ	-7666
▁നാഥ്	-7667
▁മട്ട	-7668
▁ലീഡ്	-7669
▁സൗകര	-7670
ക്ഷത്ര	-7671
▁പറയാം	-7672
▁കിടന്ന	-7673
▁പഞ്ചസാര	-7674
▁സഞ്ചാരി	-7675
▁സമ്മാനം	-7676
▁ഓഫീസില്‍	-7677
▁പ്രോട്ടോ	-7678
▁ബ്രാഞ്ച്	-7679
▁ട്രെയിന്‍	-7680
▁എഴുത്തുകാര	-7681
▁പേര്‍ക്കാണ്	-7682
▁മന്ത്രിയുടെ	-7683
▁അടിസ്ഥാനത്തിൽ	-7684
▁അവതരിപ്പിച്ചു	-7685
ാമോ	-7686
▁ധൈ	-7687
ങ്ങര	-7688
സമൂഹ	-7689
▁ചാണ്ട	-7690
▁പലയിട	-7691
▁മുഖേന	-7692
ങ്ങാന്‍	-7693
ുന്നതും	-7694
▁തടഞ്ഞു	-7695
▁ഹരിയാന	-7696
ക്കാരനായ	-7697
▁ജനസംഖ്യ	-7698
▁നേതാവും	-7699
▁പ്രഖ്യാ	-7700
▁അസോസിയേഷൻ	-7701
▁ചെയ്യാനുള്ള	-7702
റം	-7703
മയം	-7704
മിട	-7705
▁മകൾ	-7706
ത്തിര	-7707
▁ബാധക	-7708
▁മേയ്	-7709
▁രൂപയ	-7710
ബിയുടെ	-7711
യാളാണ്	-7712
▁അമ്പല	-7713
▁ഓഫീസർ	-7714
ിട്ടാണ്	-7715
▁ആകര്‍ഷ	-7716
▁അനുമതിയ	-7717
▁അമ്മയും	-7718
ിലേക്കാണ്	-7719
▁നൽകുന്നു	-7720
▁വന്നതോടെ	-7721
ിക്കുമെന്ന	-7722
▁വാക്കുകള്‍	-7723
▁അധ്യക്ഷനായി	-7724
▁അതുകൊണ്ടുതന്നെ	-7725
ചല	-7726
വൃ	-7727
▁ചര	-7728
വരിൽ	-7729
വട്ടം	-7730
▁ജീവൻ	-7731
▁ലോഡ്	-7732
▁ബുദ്ധ	-7733
▁മസ്ജി	-7734
▁കളിച്ച	-7735
▁മുന്നണ	-7736
▁വിൽപ്പന	-7737
തിരുന്നത്	-7738
▁ആരോപിച്ച്	-7739
▁രാജേന്ദ്ര	-7740
▁പുറത്തേക്ക്	-7741
▁ആരംഭിക്കുന്ന	-7742
▁കമ്മിറ്റിയുടെ	-7743
തരം	-7744
ഫോൺ	-7745
ബിന	-7746
▁44	-7747
▁കോം	-7748
▁ഹർജ	-7749
മുന്ന	-7750
യിന്‍	-7751
ഷിപ്പ	-7752
ുടേത്	-7753
▁അറിവ	-7754
▁കണ്‍വീന	-7755
▁ചടങ്ങിൽ	-7756
രിപ്പിച്ച	-7757
▁നിര്‍ത്ത	-7758
▁ജില്ലകളിൽ	-7759
▁തുടങ്ങിയവർ	-7760
▁വിശദീകരിക്ക	-7761
▁ആൻ	-7762
▁ബഷ	-7763
തോളം	-7764
▁ഒഴു	-7765
പാര്‍	-7766
രന്റെ	-7767
ാറ്റ്	-7768
ിലേറെ	-7769
▁ദീർഘ	-7770
▁നൂറു	-7771
▁മുൻക	-7772
േണ്ടിയ	-7773
▁ഗുണ്ട	-7774
ട്ടിയത്	-7775
▁ഗവര്‍ണ	-7776
▁ഈസ്റ്റ്	-7777
▁പങ്കുവച്ച	-7778
പടി	-7779
സംഗ	-7780
▁co	-7781
▁യേ	-7782
▁ആറാം	-7783
▁വാര്യ	-7784
▁ഒക്ടോബർ	-7785
▁ഭരണാധിക	-7786
▁അറിയില്ല	-7787
▁കൊച്ചിയില്‍	-7788
▁പരിശോധനയില്‍	-7789
നയ	-7790
▁43	-7791
▁സെമി	-7792
▁ഓര്‍മ	-7793
ക്കുട്ട	-7794
▁ഇതിനിട	-7795
▁ഞെട്ടി	-7796
▁സർക്കാ	-7797
ക്കുറിച്ച	-7798
▁പേരിലാണ്	-7799
ത്തിനൊപ്പം	-7800
▁ഇറക്കുമതി	-7801
▁ഇലക്ട്രിക്	-7802
▁സ്ഥാനാര്‍ഥി	-7803
▁പറയുന്നുണ്ട്	-7804
▁അഹ	-7805
▁ഫു	-7806
പിടി	-7807
മ്പു	-7808
ളിത്	-7809
▁ട്രൈ	-7810
▁വേറെ	-7811
പ്പുകൾ	-7812
▁ഉമ്മൻ	-7813
▁ശബ്ദം	-7814
ാക്കളും	-7815
▁സാധ്യമ	-7816
ത്തിലേറെ	-7817
▁ചേര്‍ക്ക	-7818
▁സുപ്രധാന	-7819
▁പെൺകുട്ടി	-7820
▁പോര്‍ട്ട്	-7821
▁ശ്രീനിവാസ	-7822
▁സ്മാര്‍ട്ട്	-7823
▁അന്വേഷണത്തില്‍	-7824
ിച്ചിരിക്കുകയാണ്	-7825
▁വിദ്യാര്‍ഥികള്‍	-7826
ോബ	-7827
ഭാര	-7828
മണ്ണ	-7829
റ്റേ	-7830
▁പാദ	-7831
ളില്‍	-7832
▁നായി	-7833
ികളായി	-7834
▁ഇടതുമ	-7835
▁ഒരാളെ	-7836
▁ഡോക്ട	-7837
▁അടുക്കള	-7838
▁നേടുന്ന	-7839
▁മാറ്റിവ	-7840
▁പിടിച്ച്	-7841
▁നെഗറ്റീവ്	-7842
ാനായിരുന്നു	-7843
▁ഉദ്യോഗസ്ഥരെ	-7844
▁ഉള്‍പ്പെട്ട	-7845
▁സെന്‍ട്രല്‍	-7846
▁ആക്രമണത്തില്‍	-7847
ഴം	-7848
▁രി	-7849
▁ദേഹ	-7850
▁നടു	-7851
▁സുന	-7852
▁ശശിക	-7853
മിയുടെ	-7854
▁ഞാനും	-7855
▁തെക്ക	-7856
▁പൂച്ച	-7857
▁വെറുതെ	-7858
▁തിരിച്ചെ	-7859
▁ശാസ്ത്രീയ	-7860
▁അഭ്യര്‍ത്ഥ	-7861
▁കുറ്റകൃത്യ	-7862
▁നിര്‍ത്തിയ	-7863
▁പ്രശ്നങ്ങൾ	-7864
▁രാഷ്ട്രീയം	-7865
▁തൊഴിലാളികള്‍	-7866
▁സ്വന്തമാക്കി	-7867
ഡർ	-7868
ൻഷൻ	-7869
▁ജഗ	-7870
ക്രി	-7871
നമാണ്	-7872
ലേറ്റ	-7873
▁ശൈലജ	-7874
▁നമ്പർ	-7875
▁ഇരിക്ക	-7876
▁പണിമുട	-7877
▁സൈക്കി	-7878
ർത്തുന്ന	-7879
▁ഒന്നിന്	-7880
▁ഓണ്‍ലൈന	-7881
▁ബിഷപ്പ്	-7882
▁ടീമിന്റെ	-7883
▁അവതരിപ്പിക്ക	-7884
നുമ	-7885
ാവശ	-7886
▁ലഘ	-7887
പ്ലോ	-7888
▁ഫിന	-7889
നങ്ങൾ	-7890
▁ബേബി	-7891
▁ഹരിത	-7892
▁ചെങ്ങ	-7893
▁ജര്‍മ	-7894
▁സണ്ണി	-7895
ിച്ചതിന്	-7896
▁ആണെന്ന്	-7897
▁ഓവറില്‍	-7898
▁ചൈനയുടെ	-7899
▁ജനപ്രതി	-7900
▁അധ്യാപിക	-7901
▁പ്രാധാന്യ	-7902
▁മാസ്റ്റര്‍	-7903
▁ഇന്ത്യയ്ക്ക്	-7904
▁കുടുംബത്തിന്	-7905
ർഷം	-7906
മിന്	-7907
ലളിത	-7908
ഴുതി	-7909
▁സെമ	-7910
ഡിംഗ്	-7911
▁അന്‍	-7912
▁പതാക	-7913
▁ബ്രോ	-7914
ഇന്ത്യ	-7915
രാത്രി	-7916
വിട്ട്	-7917
▁ദിവ്യ	-7918
▁പട്ടി	-7919
▁ഭാരത്	-7920
▁മുണ്ട	-7921
▁അവന്റെ	-7922
▁സത്യവാ	-7923
▁പ്രതിഫല	-7924
കള്‍ക്കും	-7925
▁അനിശ്ചിത	-7926
▁ട്വിറ്ററ	-7927
▁വീടുകളില്‍	-7928
▁മണിക്കൂറിനിടെ	-7929
▁ചാര	-7930
മുക്ത	-7931
▁ഫിറോ	-7932
▁റിസോ	-7933
▁വടകര	-7934
റ്റിങ്	-7935
▁ആരാധകർ	-7936
▁തൂങ്ങി	-7937
▁ഇന്ത്യാ	-7938
▁ആപ്ലിക്ക	-7939
▁പൊട്ടിത്തെ	-7940
▁പോസിറ്റീവ്	-7941
▁ഘട്ടത്തില്‍	-7942
▁േ	-7943
സാക്ഷ	-7944
▁യേശു	-7945
▁ഉണ്ണി	-7946
▁തർക്ക	-7947
▁അമ്മയെ	-7948
▁ആന്ധ്ര	-7949
റ്റിയുടെ	-7950
ുകളിലായി	-7951
▁ഐശ്വര്യ	-7952
▁നാട്ടിൽ	-7953
▁പ്രസാദ്	-7954
▁മത്സരത്തിൽ	-7955
▁ഉള്‍പ്പെടുത്തിയ	-7956
te	-7957
സറ	-7958
▁51	-7959
▁ഓറ	-7960
വാടി	-7961
▁തുല	-7962
▁ശരി	-7963
▁2010	-7964
▁നെഹ്	-7965
▁രാജു	-7966
ക്കിലെ	-7967
ക്രമണം	-7968
വിയുടെ	-7969
▁ഔട്ട്	-7970
▁നിലപാ	-7971
ിനെയാണ്	-7972
▁അവാർഡ്	-7973
▁ബഹുമാന	-7974
▁ലക്ഷ്മി	-7975
▁സംഘത്തെ	-7976
▁സംഘമാണ്	-7977
▁മറികടക്ക	-7978
▁ഇടതുമുന്ന	-7979
ക്കുന്നതിന്	-7980
▁മലയാളികള്‍	-7981
ജനം	-7982
ജീവന	-7983
േഷന്	-7984
▁തടവ	-7985
▁വാല	-7986
ങ്കാന	-7987
റുക്ക	-7988
▁വീണു	-7989
ക്കോട്	-7990
ിട്ടത്	-7991
ിയ്ക്ക	-7992
▁ഡിസൈന	-7993
▁പോകും	-7994
ടുത്തത്	-7995
▁ബ്യൂറോ	-7996
▁തിരിച്ചട	-7997
▁റദ്ദാക്ക	-7998
▁വര്‍ഗീസ്	-7999
▁സച്ചിന്‍	-8000
▁കോളേജില്‍	-8001
▁പട്ടികയിൽ	-8002
▁അമേരിക്കയില്‍	-8003
കുട	-8004
മ്യ	-8005
ബോധന	-8006
▁അലോ	-8007
▁പരു	-8008
രുമ്പോ	-8009
ിക്കിട	-8010
▁ആനന്ദ	-8011
▁സാധ്യ	-8012
▁അക്രമം	-8013
▁അപൂര്‍	-8014
▁ഒഴിഞ്ഞ	-8015
▁അനുബന്ധ	-8016
▁ലിസ്റ്റ	-8017
▁അധിക്ഷേപ	-8018
▁മനോഹരമായ	-8019
▁സഹോദരന്‍	-8020
▁നിര്‍മ്മാത	-8021
▁യാത്രക്കാര	-8022
▁സെക്	-8023
ാഴ്ച്ച	-8024
▁മർദ്ദ	-8025
▁ആരെയും	-8026
▁കൂട്ടു	-8027
▁ടീമിനെ	-8028
കൃഷ്ണന്‍	-8029
▁ചേർത്ത്	-8030
▁അധ്യക്ഷൻ	-8031
▁ചികിത്സാ	-8032
▁ഒഴിവാക്കിയ	-8033
മര	-8034
കും	-8035
ര്‍ഗ	-8036
▁എയ്	-8037
▁ഗാല	-8038
തിയും	-8039
▁റിലയ	-8040
▁അവന്‍	-8041
▁ഹയര്‍	-8042
ാക്കളായ	-8043
▁മീറ്റർ	-8044
▁ഏഷ്യാനെ	-8045
▁വില്‍പന	-8046
▁വൈറലായി	-8047
▁ഹര്‍ത്ത	-8048
▁പുത്തന്‍	-8049
▁കാര്യമാണ്	-8050
▁കുടിയേറ്റ	-8051
▁പിടിയിലായ	-8052
▁ബാധിച്ചത്	-8053
▁മുല്ലപ്പള്ളി	-8054
▁നിയന്ത്രണങ്ങള്‍	-8055
റേ	-8056
▁ർ	-8057
മാലി	-8058
ൃതിയ	-8059
▁ശാഖ	-8060
കുമാര	-8061
ച്ചിൽ	-8062
യുമായ	-8063
▁ഗായക	-8064
▁പ്രീ	-8065
പ്പാണ്	-8066
▁മെമ്പ	-8067
▁സെമിന	-8068
▁അതിജീവ	-8069
▁സംഘാടക	-8070
▁പോയിന്റ	-8071
▁മലബാര്‍	-8072
▁മുമ്പാണ്	-8073
ിക്കുന്നതായി	-8074
▁ചേര്‍ന്നാണ്	-8075
▁കോണ്‍ഗ്രസിന്	-8076
ഘാതം	-8077
ട്രി	-8078
ര്‍ല	-8079
▁400	-8080
▁ഡാമ	-8081
▁യുണ	-8082
കുറ്റ	-8083
ത്സവം	-8084
ാപുരം	-8085
▁ആദായ	-8086
▁കൊവി	-8087
▁ബ്ലാ	-8088
പ്പറ്റ	-8089
▁ഗാര്‍	-8090
▁പുതുവ	-8091
▁നിലമ്പ	-8092
▁കുറവാണ്	-8093
▁ലഭ്യമാണ്	-8094
▁വെല്ലുവിളി	-8095
▁സ്വീകരിച്ചു	-8096
▁ട്വിറ്ററില്‍	-8097
▁നടപ്പാക്കുന്ന	-8098
.,	-8099
,,,	-8100
ൊടു	-8101
▁ദോഹ	-8102
▁രജന	-8103
▁റഷീ	-8104
ാട്ട്	-8105
▁മകളെ	-8106
▁മല്ല	-8107
▁തോറ്റ	-8108
വുമില്ല	-8109
ിക്കാര്‍	-8110
▁വെട്ടിക്ക	-8111
▁കഴിഞ്ഞില്ല	-8112
▁കുറ്റപത്രം	-8113
▁ഗാന്ധിയുടെ	-8114
▁ഉപതെരഞ്ഞെടു	-8115
24	-8116
ഗർ	-8117
താമ	-8118
വാൻ	-8119
▁ആഡ	-8120
ഷാദ്	-8121
ുമാസ	-8122
▁റാല	-8123
കളായി	-8124
്ടണ്‍	-8125
▁അമൃത	-8126
▁അശ്ല	-8127
▁ആല്‍	-8128
▁ബ്രസ	-8129
▁ഭാവി	-8130
▁ശിശു	-8131
▁സിന്	-8132
ൊക്കെയ	-8133
▁ഉത്സവ	-8134
▁ഉൽപ്പ	-8135
▁വച്ചു	-8136
ത്തിലിറ	-8137
▁ചെക്ക്	-8138
ിലുണ്ടായ	-8139
▁തെളിഞ്ഞ	-8140
▁സുഹൃത്ത്	-8141
ത്തോടൊപ്പം	-8142
ുകള്‍ക്കും	-8143
▁ഉറപ്പാക്ക	-8144
▁ശ്രമിച്ചു	-8145
▁സ്വര്‍ണക്ക	-8146
',	-8147
ര്‍ബ	-8148
വ്യൂ	-8149
▁ധ്യ	-8150
▁ലിയ	-8151
▁മഹാമ	-8152
▁നൂറുക	-8153
▁നൃത്ത	-8154
▁ബെഞ്ച	-8155
▁വിശാല	-8156
▁സ്ഫോട	-8157
കളിലാണ്	-8158
▁ക്യാംപ	-8159
▁ചേർക്ക	-8160
▁നീട്ടി	-8161
▁മറിച്ച്	-8162
▁ആദ്യഘട്ട	-8163
▁കുവൈറ്റ്	-8164
▁പഠിക്കുന്ന	-8165
മഹ	-8166
▁r	-8167
▁നൊ	-8168
▁ഛായ	-8169
ഭാഗ്യ	-8170
▁അഗ്നി	-8171
▁ഫീച്ച	-8172
▁കൂട്ടം	-8173
▁യാത്രാ	-8174
ുകൊടുക്ക	-8175
▁കുറഞ്ഞു	-8176
▁വേണമെന്ന	-8177
▁കുടുംബവും	-8178
▁നേതാക്കളെ	-8179
പ്പെടുത്താൻ	-8180
▁വ്യക്തമല്ല	-8181
▁ആരോഗ്യമന്ത്രി	-8182
▁കസ്റ്റഡിയില്‍	-8183
ing	-8184
്ടി	-8185
മാനം	-8186
▁മതം	-8187
കോടതി	-8188
▁സരിത	-8189
ഷനില്‍	-8190
▁ദില്ല	-8191
രിക്കാം	-8192
▁ഒളിമ്പി	-8193
▁തകര്‍ത്ത	-8194
▁സംസ്ഥാനം	-8195
▁അഭിനയിച്ച	-8196
▁കഴിക്കുന്ന	-8197
ിട്ടില്ലെന്ന്	-8198
യോര	-8199
▁കർ	-8200
ഡിലെ	-8201
കോട്ട	-8202
ത്തത്	-8203
▁തെരു	-8204
▁യോഗി	-8205
▁വണ്ട	-8206
ുവെച്ച	-8207
ല്ലാത്ത	-8208
▁ജയലളിത	-8209
▁നല്ലത്	-8210
▁വെബ്സൈ	-8211
▁ക്രമക്കേ	-8212
▁ക്രൂരമായി	-8213
▁എന്നിട്ടും	-8214
▁സംഭവിച്ചത്	-8215
▁പ്രസിഡന്‍റ്	-8216
▁വേണ്ടിയുള്ള	-8217
▁നൽകിയിരുന്നു	-8218
പ്പെടുത്തുന്നു	-8219
▁41	-8220
ഫര്‍	-8221
▁അയോ	-8222
പ്പോയ	-8223
▁വിനീ	-8224
യുള്ളൂ	-8225
▁ജലനിര	-8226
▁നടിയെ	-8227
▁സമസ്ത	-8228
േഷിന്റെ	-8229
▁ദുരൂഹത	-8230
▁മകളുടെ	-8231
▁വിട്ടയ	-8232
▁പരിക്ക്	-8233
▁വ്യായാമ	-8234
▁കെട്ടിടം	-8235
▁മാത്രമായി	-8236
▁ആരോപണങ്ങള്‍	-8237
▁പാക്കിസ്ഥാന	-8238
▁രാജ്യങ്ങളിൽ	-8239
പ്പെടുത്തുകയും	-8240
▁ഉല	-8241
പ്പായ	-8242
പ്രസ്	-8243
ാഗ്രഹ	-8244
▁2009	-8245
▁ഉടനെ	-8246
▁ചർമ്മ	-8247
▁രണ്ടര	-8248
▁ലാല്‍	-8249
▁ഇന്ദ്ര	-8250
ത്തിച്ചു	-8251
▁ഇൻസ്റ്റ	-8252
▁ഭാര്യയെ	-8253
▁കുറിച്ചും	-8254
▁സ്ഥിരമായി	-8255
ങ്കം	-8256
▁ഫില	-8257
▁ശീല	-8258
▁അവിട	-8259
▁ഫ്രാ	-8260
▁പറയാൻ	-8261
ട്ടുള്ള	-8262
▁അടുപ്പ	-8263
ക്കുട്ടി	-8264
▁ഇന്ത്യയും	-8265
രിക്കാനുള്ള	-8266
റാമ	-8267
▁സര	-8268
ഡ്യൂ	-8269
മാണു	-8270
പിയും	-8271
ബന്ധം	-8272
▁കോഹ്	-8273
▁സഖ്യം	-8274
▁ഹെലിക	-8275
ങ്ങൾക്കു	-8276
നത്തിന്റെ	-8277
▁അബ്ദുല്ല	-8278
▁ഇതെല്ലാം	-8279
▁ടിക്കറ്റ	-8280
▁നാട്ടുകാർ	-8281
▁ആദ്യമായാണ്	-8282
▁രൂപീകരിച്ച	-8283
▁സുരേന്ദ്രൻ	-8284
▁നൽകിയിട്ടുണ്ട്	-8285
ാലെ	-8286
▁സൽ	-8287
ണിന്	-8288
ശക്തി	-8289
▁ഗൂഗി	-8290
▁ലോറി	-8291
മാത്രം	-8292
ുമാത്ര	-8293
▁ഓർമ്മ	-8294
▁കപ്പ്	-8295
▁കിരീടം	-8296
▁സര്‍വേ	-8297
▁ഇതുമായി	-8298
▁സഹായിച്ച	-8299
▁പ്രതിനിധി	-8300
▁മേഖലകളില്‍	-8301
▁പ്രകടിപ്പിച്ച	-8302
ജയം	-8303
മാശ	-8304
▁തുണ	-8305
▁നയം	-8306
പര്യം	-8307
ബിന്‍	-8308
ക്യൂരി	-8309
സാധ്യത	-8310
▁കത്തോ	-8311
▁തുല്യ	-8312
▁ലോകമെ	-8313
▁അയച്ചു	-8314
▁കടന്ന്	-8315
▁കരിപ്പ	-8316
▁വിഷ്ണു	-8317
▁സഭയുടെ	-8318
▁ഇതിലൂടെ	-8319
▁വാര്‍ഡ്	-8320
▁ഹോസ്റ്റ	-8321
പ്പിക്കും	-8322
▁തലത്തില്‍	-8323
▁പരിപാടിയില്‍	-8324
ഫു	-8325
▁5,	-8326
▁നും	-8327
ാഫിക്	-8328
▁കീഴട	-8329
▁കാണാന	-8330
▁മക്കൾ	-8331
▁മില്ല	-8332
▁സമനില	-8333
▁കുഞ്ഞ്	-8334
▁തൃപ്തി	-8335
▁നിയോജക	-8336
ക്കമുള്ള	-8337
▁ഇവരില്‍	-8338
▁കോർപ്പറ	-8339
▁കിട്ടുന്ന	-8340
▁തരത്തില്‍	-8341
▁അപേക്ഷിച്ച്	-8342
▁സംഘടിപ്പിച്ചു	-8343
▁h	-8344
▁i	-8345
ലിന	-8346
ാത്	-8347
ങ്കണ	-8348
ുപുഴ	-8349
തമായി	-8350
▁എങ്ങ	-8351
▁ഓടിയ	-8352
കളിലൂടെ	-8353
▁അനുഭവം	-8354
▁ക്ലബ്ബ	-8355
ിക്കരുത്	-8356
▁എഞ്ചിനീയ	-8357
▁കാണിച്ച്	-8358
▁വയസ്സുള്ള	-8359
▁ഭാഗങ്ങളില്‍	-8360
ജ്ര	-8361
യുമ	-8362
മാണോ	-8363
▁സും	-8364
കാര്‍	-8365
ോഗ്രാ	-8366
▁ആകാം	-8367
ാവുകയും	-8368
▁ജ്യോതി	-8369
▁ഉടമസ്ഥത	-8370
▁സൃഷ്ടിച്ച	-8371
▁എങ്ങനെയാണ്	-8372
▁നടത്തുന്നു	-8373
▁നല്‍കുന്നു	-8374
പ്പിക്കുകയും	-8375
▁ചിത്രങ്ങളും	-8376
▁ഉണ്ടാക്കുന്ന	-8377
ക്കുകയായിരുന്നു	-8378
-2	-8379
▁52	-8380
കാരിക	-8381
ിന്യം	-8382
▁ഏജൻസ	-8383
▁സാംസ	-8384
ുവര്‍ഷ	-8385
▁അനൂപ്	-8386
▁പറയും	-8387
▁ലൈന്‍	-8388
▁സെഞ്ച്	-8389
▁ഹിറ്റ്	-8390
ിക്കുള്ള	-8391
▁നിറഞ്ഞു	-8392
തിരെയുള്ള	-8393
▁അനുയോജ്യ	-8394
▁ഉന്നയിച്ച	-8395
▁വാക്സിന്‍	-8396
▁അറസ്റ്റിലായത്	-8397
▁പ്രിന്‍സിപ്പല്‍	-8398
മൈ	-8399
ംബ്	-8400
▁ഫഹ	-8401
സിങ്	-8402
▁കായ	-8403
▁ടീസ	-8404
▁ഡൗൺ	-8405
▁സജി	-8406
ച്യുത	-8407
▁മകനെ	-8408
ാക്കാം	-8409
▁കന്യാ	-8410
▁യാദവ്	-8411
രുത്തിയ	-8412
▁അടയ്ക്ക	-8413
▁ചെറുകിട	-8414
▁പെട്രോൾ	-8415
▁പ്രതികൾ	-8416
▁ബംഗാള്‍	-8417
▁മുഖത്ത്	-8418
▁കമ്മറ്റി	-8419
ത്തിനുള്ളിൽ	-8420
▁ഓസ്ട്രേലിയ	-8421
▁ന്യൂയോര്‍ക്ക്	-8422
സ്റ്റിറ്റ്യൂട്ട്	-8423
ചരണ	-8424
▁വേർ	-8425
വര്‍ഗ	-8426
സിംഗ്	-8427
▁അഖില	-8428
▁ഹൈസ്	-8429
പ്പാട്	-8430
▁കുമാര	-8431
▁ജൂനിയ	-8432
▁മജിസ്	-8433
▁മര്‍ദ	-8434
ിക്കായി	-8435
▁കയറ്റി	-8436
▁കൃത്രി	-8437
ത്തേക്കു	-8438
ിനുള്ളിൽ	-8439
നാട്ടില്‍	-8440
▁അതിനുള്ള	-8441
▁തീര്‍ത്ത	-8442
▁ഭർത്താവ്	-8443
▁സീസണില്‍	-8444
▁പ്രതികരിക്ക	-8445
▁പരാജയപ്പെട്ട	-8446
▁എത്തിയിരുന്നു	-8447
ഡൻ	-8448
god	-8449
മിറ	-8450
ദ്രവ	-8451
ഭാരം	-8452
ൊട്ട	-8453
▁കരീ	-8454
▁സിഐ	-8455
▁അല്പ	-8456
▁സിക്	-8457
▁അര്‍ധ	-8458
▁പാല്‍	-8459
▁മെത്ര	-8460
▁വൃക്ക	-8461
ത്തിൻറെ	-8462
ന്റില്‍	-8463
▁ചാനല്‍	-8464
▁താപനില	-8465
▁പഠിച്ച	-8466
▁കെട്ടിയ	-8467
▁സമ്പന്ന	-8468
▁സെക്യൂരി	-8469
▁കോണ്‍ഗ്രസ	-8470
▁കാഞ്ഞങ്ങാട്	-8471
▁പാകിസ്താന്‍	-8472
ാവോ	-8473
▁39	-8474
ജീവി	-8475
▁മീന	-8476
ായുടെ	-8477
ാവശ്യം	-8478
▁കാക്ക	-8479
▁പ്രമോ	-8480
▁കൗൺസില	-8481
▁പിന്നില	-8482
▁പുസ്തകം	-8483
▁വന്നാല്‍	-8484
▁കര്‍ഷകര്‍	-8485
▁മുന്നേറ്റ	-8486
▁ഹോസ്പിറ്റ	-8487
▁ചിത്രീകരണം	-8488
▁മണ്ഡലത്തിലെ	-8489
▁എന്നിവര്‍ക്ക	-8490
3)	-8491
പാഠ	-8492
▁64	-8493
▁ഹൃ	-8494
മന്‍	-8495
ോത്സവ	-8496
രിക്കു	-8497
▁നിസ്സ	-8498
▁പറ്റി	-8499
▁പെരിയ	-8500
▁കോര്‍പറ	-8501
യാണെന്നും	-8502
▁അതിർത്തി	-8503
▁മണിക്കൂർ	-8504
▁വിദേശത്ത്	-8505
പ്പോഴേക്കും	-8506
▁സന്ദര്‍ശനം	-8507
▁റെക്കോര്‍ഡ്	-8508
ചിക	-8509
▁49	-8510
.201	-8511
ാകാം	-8512
▁ഏകോ	-8513
പ്പണം	-8514
രാകാശ	-8515
രിയിൽ	-8516
ോണിക്	-8517
▁കല്‍	-8518
▁വേണമ	-8519
▁സയ്യ	-8520
▁സസ്യ	-8521
ജന്റീന	-8522
ുപോലും	-8523
▁ഫ്രാൻ	-8524
▁മതേതര	-8525
▁ശത്രു	-8526
▁സിക്യ	-8527
▁അശ്ലീല	-8528
▁മാപ്പ്	-8529
▁ഹോട്ട്	-8530
▁എങ്ങനെയ	-8531
▁നിർണായക	-8532
▁ആഗസ്റ്റ്	-8533
▁ക്യാമ്പ്	-8534
▁പ്രാർത്ഥ	-8535
▁നിര്‍മാണം	-8536
▁തെളിവുകള്‍	-8537
▁ഉപയോഗിക്കാം	-8538
▁കോണ്‍ഗ്രസില്‍	-8539
▁d	-8540
താന	-8541
▁ഗ്	-8542
▁ഷം	-8543
ത്രെ	-8544
മുളള	-8545
വാണ്	-8546
വിവര	-8547
▁ജനം	-8548
▁കരാർ	-8549
▁ചിഹ്	-8550
ക്കാരന	-8551
▁സൈറ്റ	-8552
▁റ്റേഷന	-8553
യ്ക്കല്‍	-8554
▁സംഭവത്തെ	-8555
▁സോഫ്റ്റ്	-8556
▁പച്ചക്കറി	-8557
▁പ്രദേശവാസ	-8558
▁സ്റ്റേഷനില്‍	-8559
രാധ	-8560
സ്‍	-8561
▁ആൽ	-8562
asar	-8563
സമ്പ	-8564
▁ജനി	-8565
▁ഉപാധ	-8566
▁സമാപ	-8567
▁മഹാരാ	-8568
▁രാവില	-8569
▁സ്മാര	-8570
▁കേട്ട്	-8571
▁റിമാന്‍	-8572
▁യൂണിയന്‍	-8573
▁സത്യവാങ്	-8574
▁സന്നിധാന	-8575
ങ്ങളിലൊന്ന	-8576
രുന്നുണ്ട്	-8577
▁കരുതുന്നു	-8578
▁പോലീസില്‍	-8579
▁സംബന്ധിച്ചു	-8580
ഫോമ	-8581
ുവേ	-8582
▁തത്	-8583
▁മഹി	-8584
ശ്രൂഷ	-8585
ാവിന്	-8586
ന്വേഷണ	-8587
▁ന്യൂദ	-8588
സംരക്ഷണ	-8589
▁ഇസ്രായ	-8590
▁ഡേവിഡ്	-8591
▁പ്രതിമ	-8592
▁വെച്ചു	-8593
കളുടെയും	-8594
ടങ്ങുന്ന	-8595
ുപോകുന്ന	-8596
▁അംഗീകാര	-8597
▁സാമ്പിള	-8598
▁കൊണ്ടുവര	-8599
▁പിന്നിലെ	-8600
▁രോഗവ്യാപ	-8601
▁സീനിയര്‍	-8602
▁നോര്‍ത്ത്	-8603
▁എന്തുകൊണ്ട്	-8604
ഷധ	-8605
പെട	-8606
േദം	-8607
▁ഗൾ	-8608
▁നസ	-8609
▁സഊ	-8610
▁2008	-8611
▁ഓട്ട	-8612
ാണല്ലോ	-8613
ിനില്‍	-8614
▁പങ്കു	-8615
▁മുങ്ങി	-8616
▁തിരുത്ത	-8617
▁വയനാട്ട	-8618
▁സ്റ്റോറ	-8619
ാക്കൾക്ക്	-8620
▁കാസർകോട്	-8621
▁പരാതിയിൽ	-8622
▁ശ്രമിക്കുന്നത്	-8623
▁46	-8624
▁റമ	-8625
ദീപ്	-8626
▁മൃദ	-8627
▁ബാഗ്	-8628
ാവില്ല	-8629
ിച്ചാൽ	-8630
▁കാവ്യ	-8631
▁സൂപ്ര	-8632
▁കുഞ്ഞി	-8633
▁മാതാവ്	-8634
ക്കൂട്ടം	-8635
▁കാലത്തെ	-8636
▁ഖത്തര്‍	-8637
▁പുലർച്ച	-8638
പ്പെടുത്തും	-8639
ങ്ങള്‍ക്കായി	-8640
▁പരിഗണിക്കും	-8641
ുകയാണെങ്കില്‍	-8642
▁ചെയ്യുന്നുണ്ട്	-8643
▁ഫയ	-8644
▁ഭര	-8645
മ്പന	-8646
യല്ല	-8647
▁അബ്	-8648
▁ഓള്‍	-8649
▁ക്രൂ	-8650
▁ജോയ്	-8651
▁വേഷം	-8652
▁ആരാണ്	-8653
▁പരിഹസ	-8654
▁പോകാൻ	-8655
▁മാഞ്ച	-8656
▁സർവീസ	-8657
ുണ്ടെന്ന	-8658
▁മുന്നേറ	-8659
ിക്കേണ്ടി	-8660
▁തലശ്ശേരി	-8661
▁ഒരിക്കല്‍	-8662
▁ചെയര്‍മാന	-8663
▁ആരെങ്കിലും	-8664
▁ദിവസങ്ങളിൽ	-8665
ായിരുന്നില്ല	-8666
▁തിരഞ്ഞെടുപ്പ	-8667
▁വിമാനത്താവളം	-8668
45	-8669
ജാത	-8670
ദാന	-8671
▁47	-8672
▁എല	-8673
ജാതി	-8674
ല്യം	-8675
വ്യാ	-8676
ായിര	-8677
ിയാക	-8678
ുകാല	-8679
▁ഐസി	-8680
▁ശുച	-8681
യാന്‍	-8682
▁അവശേഷ	-8683
ക്കൊപ്പ	-8684
▁വോട്ടി	-8685
▁ബഹിരാകാശ	-8686
▁സ്വദേശിനി	-8687
▁ശ്രമിച്ചത്	-8688
ുണ്ടായിരുന്നത്	-8689
▁കണക്കിലെടുത്ത്	-8690
ബീ	-8691
ബിഐ	-8692
ോളജ	-8693
്പന	-8694
▁എഐ	-8695
▁ജഡ	-8696
ണ്ണമ	-8697
▁അവൻ	-8698
▁വാസ	-8699
ിക്കട	-8700
▁വണ്‍	-8701
കൂട്ടി	-8702
▁പീഡനം	-8703
▁പ്ലാന	-8704
asargod	-8705
▁തെന്നി	-8706
▁മാനേജര്‍	-8707
▁വിശദമായി	-8708
▁ജീവനക്കാർ	-8709
▁സ്ഥാപനങ്ങള്‍	-8710
▁ഉമ്മന്‍ചാണ്ടി	-8711
ങ്ങളെക്കുറിച്ച്	-8712
▁ഉണ്ടായിരുന്നത്	-8713
ഷോ	-8714
േമ	-8715
ാദം	-8716
ാർശ	-8717
▁മഠ	-8718
ാപകട	-8719
▁പശു	-8720
ന്നൂർ	-8721
▁ഫുഡ്	-8722
▁അക്ഷര	-8723
▁പകുതി	-8724
പിടിച്ച	-8725
▁നിന്റെ	-8726
▁പ്രണയം	-8727
▁പ്രശംസ	-8728
▁മ്യൂസിയ	-8729
മാക്കാന്‍	-8730
▁വ്യവസായി	-8731
▁അപകടത്തിൽ	-8732
▁രൂക്ഷമായി	-8733
▁സാധനങ്ങള്‍	-8734
.)	-8735
ളിക	-8736
▁ഒല	-8737
ഖണ്ഡ	-8738
ള്ളൂ	-8739
വിനി	-8740
ശേഷി	-8741
ാവലി	-8742
▁ഇവി	-8743
▁ദോഷ	-8744
▁യോജ	-8745
▁തമ്പ	-8746
▁മാരക	-8747
ഡിറ്റ്	-8748
തെന്നു	-8749
പ്പോയി	-8750
ലുകളും	-8751
▁മെമ്മ	-8752
▁തടയുന്ന	-8753
▁താഴ്ന്ന	-8754
▁പബ്ലിക്	-8755
▁സ്പീക്ക	-8756
ത്തിന്‍െറ	-8757
ുവെന്നാണ്	-8758
▁വിശദീകരണ	-8759
▁കമ്മിഷന്‍	-8760
▁ദൃശ്യങ്ങൾ	-8761
▁തൊട്ടടുത്ത	-8762
▁വരുമ്പോള്‍	-8763
▁സ്പീക്കര്‍	-8764
വ്വേ	-8765
റുന്ന	-8766
ർക്കം	-8767
▁കൈവശ	-8768
▁റിസർ	-8769
▁ഇഞ്ച്	-8770
▁മണ്ണി	-8771
സമ്മേളന	-8772
▁കുവൈത്ത്	-8773
▁ചുമത്തിയ	-8774
▁ഡിജിറ്റൽ	-8775
▁വോട്ടര്‍	-8776
ില്‍നിന്ന്	-8777
▁കുറിച്ചത്	-8778
▁സമീപിച്ചത്	-8779
▁വോട്ടെടുപ്പ്	-8780
49	-8781
ലിജ	-8782
▁കൂൾ	-8783
▁ഗോൾ	-8784
▁തെര	-8785
▁മേല	-8786
▁ലക്	-8787
▁യുണൈ	-8788
ങ്ങിന്	-8789
ഗോപാല്‍	-8790
റ്റോറിയ	-8791
▁തുറമുഖ	-8792
▁ആശ്വാസം	-8793
▁ഉല്‍പ്പ	-8794
▁കാരണമായ	-8795
▁ചേരുന്ന	-8796
▁ഡിവൈഎഫ്	-8797
▁ഫ്രണ്ട്	-8798
രിക്കാനും	-8799
ില്ലെങ്കിൽ	-8800
മുണ്ടെന്നും	-8801
▁അമേരിക്കയുടെ	-8802
▁സ്വാതന്ത്ര്യം	-8803
ോത	-8804
ഴിയ	-8805
▁ഘടന	-8806
ഹാന്‍	-8807
▁കീഴ്	-8808
▁സിലി	-8809
ന്ദര്‍	-8810
യൊക്കെ	-8811
▁പെണ്ണ	-8812
▁പ്രവണ	-8813
▁യുദ്ധം	-8814
▁വരാന്‍	-8815
▁ആന്‍ഡ്ര	-8816
▁എന്‍ഡിഎ	-8817
▁ലണ്ടന്‍	-8818
▁സുകുമാര	-8819
ൊക്കെയാണ്	-8820
▁ചെയ്താല്‍	-8821
▁രൂപയ്ക്ക്	-8822
▁നയിക്കുന്ന	-8823
▁സമർപ്പിച്ച	-8824
▁മൂന്നാമത്തെ	-8825
▁വര്‍ദ്ധിപ്പ	-8826
▁മാധ്യമങ്ങളില്‍	-8827
18	-8828
▁സിയ	-8829
▁അന്ധ	-8830
▁പോക്	-8831
▁റ്റേ	-8832
▁വിധം	-8833
▁സച്ച	-8834
ണിച്ച്	-8835
പ്പന്‍	-8836
സിപ്പൽ	-8837
▁അജിത്	-8838
▁സിവിൽ	-8839
ുമുതല്‍	-8840
▁എത്തും	-8841
▁കോയമ്പ	-8842
▁പരിശ്രമ	-8843
ാമെന്നാണ്	-8844
▁പോകുന്നു	-8845
▁പാരമ്പര്യ	-8846
▁സീറ്റുകള്‍	-8847
▁പ്രഖ്യാപിച്ച്	-8848
▁ആവശ്യപ്പെട്ടത്	-8849
ഉം	-8850
ത്രേ	-8851
പ്പട	-8852
▁(19	-8853
▁കൃത	-8854
▁പനി	-8855
▁പോര	-8856
▁ലൈന	-8857
ദ്വേഷ	-8858
റിയിൽ	-8859
▁അജ്ഞ	-8860
▁അനിൽ	-8861
ജീവിതം	-8862
ശ്രദ്ധ	-8863
▁സ്വീക	-8864
▁ഗതാഗതം	-8865
▁ചുവന്ന	-8866
▁ഫാത്തി	-8867
▁നല്‍കുക	-8868
▁കഴിയുന്നത്	-8869
▁ജീവിതത്തിൽ	-8870
യെക്കുറിച്ച്	-8871
▁ജീവിക്കുന്ന	-8872
ിച്ചിരിക്കുന്ന	-8873
ഭയ	-8874
മണി	-8875
▁അടു	-8876
▁ച്ച	-8877
കൊള്ള	-8878
പ്പോല	-8879
▁ശുചി	-8880
▁നയിച്ച	-8881
തിരെയാണ്	-8882
▁അവര്‍ക്ക	-8883
▁പൊലീസിനെ	-8884
▁പോലീസിനെ	-8885
▁ഉയര്‍ത്തിയ	-8886
▁പരിപാടികള്‍	-8887
▁നടപടിയെടുക്ക	-8888
65	-8889
▁t	-8890
ഹ്യ	-8891
▁ഷൈ	-8892
ൂണ്‍	-8893
▁ചെലു	-8894
ദ്ധ്യമ	-8895
ശാന്ത്	-8896
സ്ഥാനം	-8897
ാറില്ല	-8898
▁ഗെയിം	-8899
▁ട്രംപ	-8900
▁നേരിയ	-8901
▁പീറ്റ	-8902
ാക്കാനും	-8903
▁പ്രദീപ്	-8904
▁തള്ളിക്ക	-8905
▁തീര്‍ക്ക	-8906
▁നിർമ്മാത	-8907
▁മാറ്റിവെ	-8908
▁വിദ്യാലയ	-8909
▁ഏറ്റെടുത്ത	-8910
▁ഭീകരാക്രമണ	-8911
48	-8912
വിൻ	-8913
ദേവി	-8914
പ്പുര	-8915
▁ദാരി	-8916
▁ഫോറം	-8917
▁ഹർജി	-8918
ികൃഷ്ണ	-8919
▁സംഘർഷ	-8920
വല്‍ക്ക	-8921
▁അണിനിര	-8922
▁ബെഞ്ച്	-8923
▁സമ്പദ്	-8924
ത്തിച്ച്	-8925
▁നടക്കുക	-8926
വെങ്കിലും	-8927
▁കുറഞ്ഞത്	-8928
▁കൂട്ടുകെ	-8929
▁തട്ടിപ്പ	-8930
▁ലക്ഷത്തോളം	-8931
▁ഓസ	-8932
▁ഭൗ	-8933
ക്സി	-8934
ട്ടർ	-8935
ബല്യ	-8936
ക്ഷേമ	-8937
▁നെയ്	-8938
▁വരവ്	-8939
ചെയ്തു	-8940
ണിയുടെ	-8941
▁കങ്കണ	-8942
▁മെറ്റ	-8943
▁നിമിഷം	-8944
▁കുമ്മനം	-8945
▁ചികില്‍	-8946
ിട്ടുണ്ടോ	-8947
▁കേസുമായി	-8948
ിക്കാവുന്ന	-8949
▁ഇക്കഴിഞ്ഞ	-8950
▁ഔദ്യോഗികമായി	-8951
▁ആരോഗ്യവകുപ്പ്	-8952
▁ഉദ്യോഗസ്ഥരുടെ	-8953
▁തിരിച്ചെത്തിയ	-8954
▁ചിദ	-8955
▁തുര	-8956
കരുടെ	-8957
കുഞ്ഞ	-8958
ിച്ചി	-8959
ിയോടെ	-8960
▁അധ്യ	-8961
▁ജെയി	-8962
▁പൊളി	-8963
സുകള്‍	-8964
▁അച്ഛൻ	-8965
▁അശോക്	-8966
▁അണുബാധ	-8967
▁ആധാര്‍	-8968
▁മിഷന്‍	-8969
▁ലൈറ്റ്	-8970
▁സഞ്ജയ്	-8971
ന്‍റെയും	-8972
രിച്ചാണ്	-8973
▁നടത്തുക	-8974
▁തിരുവല്ല	-8975
▁നന്ദിയും	-8976
▁ഉണ്ടെന്ന്	-8977
▁ചെയ്യേണ്ട	-8978
▁നിലനിർത്ത	-8979
▁പെരുമാറ്റ	-8980
▁ബന്ധുക്കള	-8981
▁കന്യാസ്ത്ര	-8982
▁കമ്പനികള്‍	-8983
▁ദിനത്തില്‍	-8984
▁കുടുംബത്തിലെ	-8985
വറി	-8986
ൂഖ്	-8987
ഡുകൾ	-8988
പിരി	-8989
▁കോശ	-8990
ക്കണം	-8991
ഗ്രാം	-8992
ില്ലാ	-8993
ഗാന്ധി	-8994
ലങ്കാന	-8995
▁ഹൃദയാ	-8996
▁എക്കാല	-8997
▁ഭാഗമാണ്	-8998
കളിലേക്ക്	-8999
▁വിവാദമായ	-9000
▁കാസര്‍ഗോഡ്	-9001
▁നല്‍കുകയും	-9002
▁മാത്രമായിരുന്നു	-9003
രാഗ	-9004
ണ്ടർ	-9005
▁വ്ര	-9006
▁ഹമീ	-9007
▁അറബ്	-9008
▁അശ്വ	-9009
▁എതിർ	-9010
▁തുടർ	-9011
▁രൂപക	-9012
ാറില്‍	-9013
▁കാരണമ	-9014
▁ചൊല്ല	-9015
▁ഡിപ്പ	-9016
▁ദളിത്	-9017
▁മുരളി	-9018
▁അര്‍ജു	-9019
▁ഗള്‍ഫ്	-9020
▁നക്ഷത്ര	-9021
▁വിട്ടത്	-9022
ക്കാനുള്ള	-9023
ത്തേയ്ക്ക്	-9024
▁ലോകാരോഗ്യ	-9025
▁ആവശ്യമുള്ള	-9026
▁കണ്‍വീനര്‍	-9027
▁കേസുകളില്‍	-9028
▁ജനപ്രതിനിധ	-9029
▁രാജസ്ഥാന്‍	-9030
▁പുറത്തിറങ്ങ	-9031
▁മാറ്റങ്ങള്‍	-9032
▁തുടര്‍ച്ചയായ	-9033
▁സ്ഥലങ്ങളില്‍	-9034
▁സ്ഥിരീകരിക്ക	-9035
▁മാതാപിതാക്കള്‍	-9036
500	-9037
ാറ്	-9038
▁250	-9039
▁അസമ	-9040
▁ഗർഭ	-9041
▁വിറ	-9042
▁വീത	-9043
▁വെട	-9044
▁ഷാജ	-9045
▁അവളെ	-9046
കാരനായ	-9047
യാക്കി	-9048
ായതോടെ	-9049
ാർട്ട്	-9050
▁അവതാര	-9051
േറ്റീവ്	-9052
▁അച്യുത	-9053
▁എസ്റ്റ	-9054
▁ഒളിച്ച	-9055
▁ഡ്രൈവർ	-9056
ത്തുകയും	-9057
നിന്നാണ്	-9058
▁ഓര്‍ക്ക	-9059
▁നിരന്തര	-9060
▁സയ്യിദ്	-9061
▁കാര്യക്ഷ	-9062
▁തയ്യാറാക	-9063
ൊന്നുമില്ല	-9064
▁എത്തിച്ചു	-9065
▁ഏറ്റവുമധികം	-9066
▁പങ്കെടുക്കും	-9067
▁പുറത്തിറങ്ങി	-9068
▁വ്യത്യസ്തമായ	-9069
▁പ്രോത്സാഹിപ്പ	-9070
▁ആയിരക്കണക്കിന്	-9071
▁ഉപയോഗിക്കുന്നു	-9072
ച്ചെ	-9073
▁മേഘ	-9074
▁കളിയ	-9075
▁ശേഷി	-9076
രിക്കെ	-9077
റുമായി	-9078
▁തങ്ങൾ	-9079
▁മകനും	-9080
▁സസ്പെ	-9081
▁വാക്ക്	-9082
▁വാർഷിക	-9083
▁വികസനം	-9084
ത്തുന്നു	-9085
▁ആക്ഷേപം	-9086
▁കെഎസ്ആര്‍	-9087
▁താഴെയുള്ള	-9088
▁പുരസ്കാരം	-9089
▁സാധാരണയായി	-9090
▁ഭാരവാഹികള്‍	-9091
▁സ്ഥാനാർത്ഥി	-9092
▁വീട്ടിലെത്തി	-9093
ഹോ	-9094
സ്തി	-9095
തയാണ്	-9096
ബോള്‍	-9097
മീഡിയ	-9098
റ്റില	-9099
ാറിന്	-9100
▁ഹീറോ	-9101
സുരക്ഷ	-9102
▁കാർഡ്	-9103
▁ഗവണ്‍	-9104
▁ഘട്ടം	-9105
▁തലച്ച	-9106
▁പന്തി	-9107
▁സിദ്ദ	-9108
▁അല്‍പം	-9109
▁ശ്വാസം	-9110
ിക്കുകയോ	-9111
▁അടുത്ത്	-9112
▁അധികാരി	-9113
▁നോക്കാം	-9114
▁രോഗലക്ഷ	-9115
▁ലിറ്റര്‍	-9116
▁ഹൈദരാബാദ	-9117
ുണ്ടാക്കിയ	-9118
▁ഇതിനെതിരെ	-9119
▁ജലനിരപ്പ്	-9120
▁ഡിജിറ്റല്‍	-9121
▁വിവരങ്ങളും	-9122
▁പരിശോധനയ്ക്ക്	-9123
▁മത്സരിക്കുന്ന	-9124
ർദ	-9125
രുണ	-9126
പിന്	-9127
▁എലി	-9128
▁ഒൻപ	-9129
ത്തുറ	-9130
▁അതിര	-9131
▁അറുപ	-9132
▁ക്ലി	-9133
▁പരസ്	-9134
▁പിസി	-9135
▁മനസ്	-9136
തിന്‍റെ	-9137
തുകൊണ്ട	-9138
ൾപ്പെടെ	-9139
▁ഒട്ടും	-9140
▁ആര്‍ക്ക	-9141
▁മാസത്തെ	-9142
നായിരുന്ന	-9143
▁ഓരോരുത്ത	-9144
▁കേരളത്തെ	-9145
▁തുടങ്ങും	-9146
▁സംഘടനയായ	-9147
മാണെന്നാണ്	-9148
▁കമ്പനിയായ	-9149
▁തമിഴ്നാട്	-9150
▁തിരിച്ചുവര	-9151
▁യുവാക്കള്‍	-9152
▁അറിയപ്പെടുന്ന	-9153
▁വിലയിരുത്തല്‍	-9154
▁രംഗത്തെത്തിയത്	-9155
35	-9156
ഹിതം	-9157
▁തുള	-9158
▁ഫാമ	-9159
▁ഭീമ	-9160
▁മെഷ	-9161
ള്‍സ്	-9162
▁അപൂർ	-9163
▁ഉപ്പ	-9164
▁പിഎസ്	-9165
▁മാന്‍	-9166
▁കൗൺസിൽ	-9167
▁പരിപാല	-9168
▁ഭാരതീയ	-9169
▁റേഷന്‍	-9170
▁വാര്‍ഡ	-9171
ക്കൊണ്ട്	-9172
ാനാവാത്ത	-9173
ിച്ചതിനെ	-9174
▁അസാധാരണ	-9175
▁പരിശോധനാ	-9176
▁എന്തിനാണ്	-9177
▁പെരുമ്പാവ	-9178
▁മാറ്റിയത്	-9179
▁സെപ്റ്റംബർ	-9180
െടുത്തിട്ടുണ്ട്	-9181
ch	-9182
ue	-9183
’.	-9184
കോട	-9185
▁എഴുപ	-9186
▁വർധന	-9187
നത്തിൽ	-9188
വെച്ച്	-9189
▁അഭ്യൂ	-9190
▁പരിധി	-9191
▁പ്രാപ	-9192
▁മാന്യ	-9193
▁വേരിയ	-9194
▁ഹജ്ജ്	-9195
എസിന്റെ	-9196
പിടുത്ത	-9197
മാർക്ക്	-9198
▁ഉപദ്രവ	-9199
▁നഗരസഭാ	-9200
▁പുത്തൻ	-9201
▁മഹാമാര	-9202
▁കൊണ്ടും	-9203
▁സഭയില്‍	-9204
മാക്കിയത്	-9205
▁ചേര്‍ന്നു	-9206
ത്തുടര്‍ന്ന	-9207
ില്ലെങ്കിലും	-9208
▁മരിച്ചവരുടെ	-9209
▁വിലയിരുത്തി	-9210
▁കഴിക്കുന്നത്	-9211
▁പ്രവര്‍ത്തകര	-9212
ചെ	-9213
തുറ	-9214
നാശ	-9215
നുസ	-9216
വാർ	-9217
വിറ	-9218
▁ജ്	-9219
നീളം	-9220
ലിയെ	-9221
ുമുഖ	-9222
▁കാത	-9223
മേല്‍	-9224
▁read	-9225
▁നിരാ	-9226
▁ബ്ലൂ	-9227
▁റ്റോ	-9228
▁സീറോ	-9229
ുമാറ്റ	-9230
▁ട്രീയ	-9231
മെന്‍റ്	-9232
▁ഡിജിപി	-9233
▁പണിക്ക	-9234
▁സെന്ററ	-9235
േരിയില്‍	-9236
▁പെരുന്ന	-9237
▁അല്ലാത്ത	-9238
▁പ്രതികൂല	-9239
▁ബ്ലാസ്റ്റ	-9240
▁സുധാകരന്‍	-9241
▁കുഞ്ഞിന്റെ	-9242
▁നിയമങ്ങള്‍	-9243
ുണ്ടെങ്കിലും	-9244
▁കൊടുക്കുന്ന	-9245
7)	-9246
ീനം	-9247
▁കവർ	-9248
പക്ഷം	-9249
ാദര്‍	-9250
ൊന്നു	-9251
▁സെയ്	-9252
▁പ്രോജ	-9253
ട്രോള്‍	-9254
▁കച്ചവട	-9255
▁തലവേദന	-9256
▁നൈറ്റ്	-9257
ിൽനിന്ന്	-9258
▁ഗ്രാമീണ	-9259
▁ചുറ്റും	-9260
▁ഭരണഘടനാ	-9261
▁വാഗ്ദാന	-9262
▁വിജ്ഞാപ	-9263
▁തെലങ്കാന	-9264
▁ദിവസമായി	-9265
▁ലൈസന്‍സ്	-9266
▁സ്വദേശിന	-9267
ിയ്ക്കുന്ന	-9268
▁എന്‍ജിനീയ	-9269
▁കണക്കാക്ക	-9270
▁കുടുങ്ങിയ	-9271
▁ചെയ്യാനും	-9272
▁പാവപ്പെട്ട	-9273
▁കാണിക്കുന്ന	-9274
▁വികസിപ്പിച്ച	-9275
▁നിയന്ത്രണങ്ങൾ	-9276
▁സ്വന്തമാക്കിയ	-9277
പഠ	-9278
▁72	-9279
പിക്	-9280
വത്ക	-9281
സല്‍	-9282
▁ഔഷധ	-9283
▁ജസ്	-9284
▁ടോം	-9285
▁ബിൽ	-9286
▁രാസ	-9287
▁ഏല്‍	-9288
▁കുടി	-9289
▁ദൈവം	-9290
▁മന്‍	-9291
▁വട്ട	-9292
▁ഹ്യൂ	-9293
▁കത്തയ	-9294
▁ദുരുപ	-9295
▁ബോംബ്	-9296
▁മുക്ത	-9297
▁സെപ്ത	-9298
▁ഹാര്‍	-9299
▁തങ്ങളെ	-9300
▁പരിമിത	-9301
▁തീര്‍ത്ഥ	-9302
▁ജീവനക്കാരെ	-9303
▁പരുക്കേറ്റ	-9304
▁വീട്ടുകാര്‍	-9305
▁പാര്‍ട്ടിയില്‍	-9306
ീകൃത	-9307
ോഗിക	-9308
▁നിധ	-9309
▁ഉചിത	-9310
▁ഏഴാം	-9311
ക്കാതി	-9312
ന്റിന്	-9313
ലുമായി	-9314
വിറ്റി	-9315
▁ഓക്സി	-9316
▁ചിട്ട	-9317
▁ഹൃദയം	-9318
▁മാരുതി	-9319
▁ഷാര്‍ജ	-9320
▁ട്വീറ്റ	-9321
▁സൗകര്യമ	-9322
ക്കെല്ലാം	-9323
▁ഹോട്ടല്‍	-9324
▁അടങ്ങുന്ന	-9325
▁സംബന്ധമായ	-9326
▁ഉത്തരവാദിത്ത	-9327
▁ഉദ്യോഗസ്ഥന്‍	-9328
▁ഉദ്യോഗസ്ഥരും	-9329
▁സംസാരിക്കുന്ന	-9330
കോശ	-9331
വാല	-9332
▁ഇം	-9333
രീസ്	-9334
റിട്ട	-9335
ാക്കു	-9336
ുവച്ച	-9337
ാകട്ടെ	-9338
ുവേണ്ട	-9339
▁അവലോക	-9340
▁ആഡംബര	-9341
▁നല്‍കണം	-9342
▁മിനിറ്റ	-9343
▁മോഹൻലാൽ	-9344
▁അരവിന്ദ്	-9345
▁ഭാര്യയുടെ	-9346
▁അരങ്ങേറ്റം	-9347
▁അറിയുന്നത്	-9348
പ്പിക്കുന്നു	-9349
▁വിശദീകരിച്ചു	-9350
▁അഭിമുഖത്തില്‍	-9351
▁ഇക്കാര്യത്തിൽ	-9352
തീക	-9353
▁(6	-9354
▁2.	-9355
▁ഇൗ	-9356
ചക്ര	-9357
▁അസാ	-9358
▁ഗംഗ	-9359
▁പൊത	-9360
▁യൂട	-9361
നുള്ള	-9362
▁കിങ്	-9363
▁ചിലർ	-9364
▁ബസ്സ	-9365
▁വന്യ	-9366
▁ഹുസൈ	-9367
▁കരസ്ഥ	-9368
▁അഴിച്ചു	-9369
പ്രവർത്തന	-9370
▁കണക്കുകൾ	-9371
▁ഭൂരിഭാഗം	-9372
▁ശരിക്കും	-9373
▁സാഹചര്യമ	-9374
പ്രദേശില്‍	-9375
▁അറ്റകുറ്റ	-9376
▁പ്രോഗ്രാം	-9377
▁നരേന്ദ്രമോദ	-9378
▁നിയമസഭയില്‍	-9379
വധ	-9380
മതി	-9381
യിന	-9382
ുകട	-9383
▁ത്	-9384
യാണു	-9385
വിധി	-9386
▁ത്യ	-9387
▁ദിശ	-9388
▁ശാല	-9389
ങ്കിൽ	-9390
വാള്‍	-9391
ില്ലേ	-9392
ുമാസം	-9393
ുവാണ്	-9394
▁കാനഡ	-9395
▁കുറെ	-9396
▁ചൂട്	-9397
▁ത്രീ	-9398
പ്രവേശ	-9399
ികളിലെ	-9400
▁താങ്ക	-9401
▁പക്ഷം	-9402
▁വിക്ക	-9403
ങ്ങളിലേ	-9404
▁ആത്മീയ	-9405
▁മതിയായ	-9406
▁മുതലായ	-9407
▁ധനകാര്യ	-9408
തലത്തില്‍	-9409
▁അബ്ദുള്ള	-9410
▁കത്തില്‍	-9411
▁സംഘര്‍ഷം	-9412
▁സിസിടിവി	-9413
ങ്ങളിലുള്ള	-9414
▁അരങ്ങേറിയ	-9415
▁പോലെയുള്ള	-9416
▁ഒരുക്കുന്ന	-9417
ിക്കപ്പെട്ടു	-9418
▁അടിയന്തരമായി	-9419
▁കേന്ദ്രീകരിച്ച്	-9420
▁ലഭിച്ചിട്ടുണ്ട്	-9421
ബാല	-9422
ധാരണ	-9423
മണ്ഡ	-9424
▁ആസ്പ	-9425
▁പൊടി	-9426
▁ഭീതി	-9427
▁ശരത്	-9428
▁സക്ക	-9429
മാറ്റം	-9430
തിരെയും	-9431
▁ഓറഞ്ച്	-9432
▁പുനര്‍	-9433
▁ബിസിസി	-9434
▁റോയല്‍	-9435
▁ട്രാൻസ്	-9436
പ്പിക്കുക	-9437
▁കേള്‍ക്ക	-9438
▁സജീവമായി	-9439
▁പൂർണമായും	-9440
▁ശതമാനമാണ്	-9441
▁നേരിടേണ്ടി	-9442
▁നഷ്ടപരിഹാരം	-9443
▁ബാധിക്കുന്ന	-9444
▁കുട്ടികൾക്ക്	-9445
▁യാത്രക്കാര്‍	-9446
സേര	-9447
ണ്ഡ്	-9448
▁കമല	-9449
▁ഖാൻ	-9450
▁സില	-9451
പള്ളി	-9452
▁ഇൻസ്	-9453
▁ഓഫിസ	-9454
ട്ടിക്	-9455
▁താങ്ങ	-9456
▁ബഹിഷ്	-9457
▁സംപ്ര	-9458
▁സൗമ്യ	-9459
▁ഇറാന്‍	-9460
ാവുന്നത്	-9461
▁ഓര്‍ത്ത	-9462
▁പ്രോട്ട	-9463
▁റിപ്പബ്ല	-9464
▁വാർത്തകൾ	-9465
▁തയ്യാറായി	-9466
▁ബന്ധുക്കൾ	-9467
▁വിഭാഗത്തിൽ	-9468
▁ആത്മവിശ്വാസ	-9469
ിക്കുന്നതിനായി	-9470
▁പ്രവര്‍ത്തകരെ	-9471
▁o	-9472
ിഷ്	-9473
▁ഒരി	-9474
ഷന്റെ	-9475
▁ചെങ്ക	-9476
▁പുല്ല	-9477
▁മറന്ന	-9478
▁മൂത്ത	-9479
▁ലൈബ്ര	-9480
▁ഡീസല്‍	-9481
▁പകുതിയ	-9482
▁പ്രദർശ	-9483
പിടിച്ച്	-9484
മെന്നാണ്	-9485
▁അല്ലാതെ	-9486
▁നടപടികള	-9487
▁വയസുള്ള	-9488
ിക്കൊണ്ട്	-9489
▁കൊടുത്തു	-9490
▁ട്രാഫിക്	-9491
▁പ്രാബല്യ	-9492
▁അറസ്റ്റിൽ	-9493
▁നിലപാടാണ്	-9494
▁റദ്ദാക്കി	-9495
▁സമിതിയുടെ	-9496
▁ഹെല്‍ത്ത്	-9497
▁ആര്‍എസ്എസ്	-9498
▁സർക്കാരിന്	-9499
ിക്കുന്നതില്‍	-9500
▁ആരോപിക്കുന്നു	-9501
▁ചെയ്തിട്ടില്ല	-9502
ലിംഗ	-9503
▁ഗാർ	-9504
▁ഹോള	-9505
റിക്ഷ	-9506
▁ജമാഅ	-9507
ത്വവും	-9508
▁ഇന്നല	-9509
▁പ്രവച	-9510
▁ബില്യ	-9511
▁റൂട്ട	-9512
▁റൗണ്ട	-9513
▁വാഷിങ	-9514
▁റെയ്ഡ്	-9515
▁രസകരമായ	-9516
▁ലോക്സഭാ	-9517
▁സ്വർണ്ണ	-9518
▁കൊടുത്തി	-9519
▁സമ്പൂര്‍	-9520
▁ഒളിമ്പിക്	-9521
▁ന്യൂദല്‍ഹി	-9522
▁കാത്തിരിക്ക	-9523
'.	-9524
തട	-9525
ഫീ	-9526
ബാമ	-9527
ാകൃ	-9528
ാമു	-9529
▁85	-9530
▁ഖന	-9531
▁കരണ	-9532
▁കാൻ	-9533
▁മറു	-9534
▁മിഥ	-9535
▁വാള	-9536
▁സുശ	-9537
▁കുറേ	-9538
▁ഡിഎം	-9539
മാരാണ്	-9540
രികയാണ്	-9541
▁ശേഷവും	-9542
▁സഞ്ചാര	-9543
ക്കടത്ത്	-9544
▁ഉയർന്നു	-9545
▁നിര്യാത	-9546
▁പെട്രോള	-9547
▁മുതലാണ്	-9548
▁മാലിന്യം	-9549
ത്തിലുണ്ട്	-9550
▁അതോടൊപ്പം	-9551
▁വിനോദസഞ്ച	-9552
▁സല്‍മാന്‍	-9553
ുകയാണെങ്കിൽ	-9554
▁കുടുംബശ്രീ	-9555
▁റദ്ദാക്കിയ	-9556
▁ജീവിതത്തിലെ	-9557
▁ടെസ്റ്റില്‍	-9558
▁പ്രസംഗിച്ചു	-9559
▁രീതിയിലുള്ള	-9560
▁ഹൈക്കോടതിയെ	-9561
▁തിരഞ്ഞെടുപ്പിൽ	-9562
▁തന്നെയായിരുന്നു	-9563
▁നേതൃത്വത്തിലാണ്	-9564
il	-9565
ഫാ	-9566
മൻ	-9567
ലഭ	-9568
‍ർ	-9569
ചകം	-9570
സഹായ	-9571
▁അജി	-9572
▁അയൽ	-9573
▁ഐസ്	-9574
▁ബയോ	-9575
ാര്യം	-9576
▁ക്ഷമ	-9577
▁റോയ്	-9578
ബ്രഹ്മ	-9579
▁മടക്ക	-9580
▁രേഖകൾ	-9581
▁വൈവിധ	-9582
▁ചുമതലയ	-9583
▁റാങ്ക്	-9584
▁ശുപാർശ	-9585
▁കോണ്‍ഫറ	-9586
▁പോര്‍ട്	-9587
▁വച്ചാണ്	-9588
യില്ലാത്ത	-9589
▁എന്നുള്ള	-9590
▁കുറ്റവാള	-9591
▁ചികില്‍സ	-9592
▁ഫൈനലില്‍	-9593
▁വിജയിച്ച	-9594
▁സ്ത്രീകള	-9595
▁അതിനുശേഷം	-9596
▁കൂടുതലായി	-9597
▁ഘട്ടത്തിൽ	-9598
▁ഏഷ്യാനെറ്റ്	-9599
▁അന്വേഷണത്തിന്	-9600
▁വെള്ളാപ്പള്ളി	-9601
46	-9602
യറ	-9603
.''	-9604
പേഴ്	-9605
ബ്യൂ	-9606
▁അതോ	-9607
▁ഭംഗ	-9608
▁ശീത	-9609
▁സുഭ	-9610
കാലിക	-9611
സിദ്ധ	-9612
ിവര്‍	-9613
▁താമര	-9614
ഭാഗവും	-9615
▁ഫയര്‍	-9616
▁ലോട്ട	-9617
ൽക്കത്ത	-9618
▁അവാര്‍	-9619
▁ഇരുന്ന	-9620
▁ഡ്രൈവി	-9621
▁ഭാഗമായ	-9622
▁ലക്ഷ്മ	-9623
പ്പറമ്പ്	-9624
▁അനാവശ്യ	-9625
▁ഇക്കുറി	-9626
▁പൊലീസും	-9627
െന്നുമാണ്	-9628
▁ആസൂത്രണം	-9629
▁ബലാത്സംഗ	-9630
▁വളര്‍ത്ത	-9631
▁വാഹനാപകട	-9632
▁അദ്ധ്യാപക	-9633
▁ബാധിതരുടെ	-9634
▁മരണത്തിന്	-9635
ക്കുള്ളില്‍	-9636
▁വോട്ടുകള്‍	-9637
▁ശരീരത്തിലെ	-9638
▁ഏർപ്പെടുത്തിയ	-9639
യവ	-9640
നാള	-9641
▁ശില	-9642
▁അഭാവ	-9643
▁ഉപരി	-9644
▁കൃതി	-9645
▁രഹിത	-9646
▁റൺസ്	-9647
▁വൃദ്ധ	-9648
യാക്കിയ	-9649
▁അബ്ദുൽ	-9650
▁കുമ്പള	-9651
മല്ലാത്ത	-9652
▁വിദ്വേഷ	-9653
▁അബ്ദുള്‍	-9654
▁നടപടിക്രമ	-9655
▁പ്രഖ്യാപന	-9656
▁ചിലപ്പോള്‍	-9657
ത്തില്‍നിന്ന്	-9658
▁കേന്ദ്രസർക്കാർ	-9659
ഗര	-9660
വായ	-9661
നടപട	-9662
പ്പേ	-9663
റര്‍	-9664
ോപ്പ	-9665
കക്ഷി	-9666
വാറ്റ	-9667
ശിഷ്ട	-9668
ുള്ളി	-9669
▁ആശയം	-9670
▁ചാരി	-9671
▁പാരി	-9672
ിന്‍റെ	-9673
▁ഉറങ്ങ	-9674
▁നിയമന	-9675
▁സഹായക	-9676
തെല്ലാം	-9677
ന്മാരായ	-9678
▁എട്ടാം	-9679
▁ധരിക്ക	-9680
▁വൈകാതെ	-9681
▁സംഭാഷണ	-9682
വിശ്വാസം	-9683
ുകയുള്ളൂ	-9684
▁കീഴടക്ക	-9685
▁ദശലക്ഷം	-9686
▁പോലീസും	-9687
▁സന്ദീപ്	-9688
▁ശേഖരിച്ച	-9689
▁സിസ്റ്റം	-9690
▁ബലാത്സംഗം	-9691
▁ബിസിനസ്സ്	-9692
▁യുവാവിന്റെ	-9693
▁അനധികൃതമായി	-9694
▁ശബരിമലയില്‍	-9695
ാസമ്മേളനത്തില്‍	-9696
ടാ	-9697
ഡേ	-9698
ഷള	-9699
ംഗല	-9700
▁ഷഹ	-9701
ദ്യം	-9702
▁പെയ	-9703
▁സീത	-9704
ലിക്ക	-9705
ാത്മക	-9706
▁2006	-9707
▁ഡൊണാ	-9708
പിക്ക്	-9709
▁അഭിസം	-9710
▁ക്രിയ	-9711
▁റോഡിൽ	-9712
ുകാരിയെ	-9713
▁സൈറ്റ്	-9714
ുകൾക്കും	-9715
▁കാണുന്നു	-9716
▁വരികയാണ്	-9717
▁നടപ്പിലാക്ക	-9718
▁നിന്നെത്തിയ	-9719
▁രാജ്യങ്ങള്‍	-9720
▁എന്നിവരെയാണ്	-9721
▁മത്സരങ്ങളില്‍	-9722
▁പിടിച്ചെടുത്തു	-9723
▁നിലനില്‍ക്കുന്ന	-9724
▁56	-9725
▁ജു	-9726
▁രജ	-9727
ന്റോ	-9728
ളിങ്	-9729
ഹാബ്	-9730
▁ധോണ	-9731
മ്പിൽ	-9732
റങ്ങി	-9733
ിയന്‍	-9734
▁2007	-9735
▁അക്ര	-9736
▁പുഷ്പ	-9737
▁ലൊക്ക	-9738
▁വൈകിയ	-9739
ത്താല്‍	-9740
ുകളുള്ള	-9741
▁അവയുടെ	-9742
▁പ്രമേഹ	-9743
▁സമ്പാദ	-9744
▁സ്റ്റീ	-9745
▁സ്റ്റൈ	-9746
ിടത്തോളം	-9747
▁നാശനഷ്ട	-9748
▁ബിസിസിഐ	-9749
ചന്ദ്രന്‍	-9750
തിരഞ്ഞെടു	-9751
▁കോളേജിലെ	-9752
▁ബാധിച്ചു	-9753
▁മരണസംഖ്യ	-9754
▁നിരീക്ഷണം	-9755
▁മനസ്സില്‍	-9756
▁വാങ്ങാന്‍	-9757
▁ഡല്‍ഹിയിലെ	-9758
▁സ്റ്റേഷന്‍	-9759
▁അതിര്‍ത്തിയില്‍	-9760
▁ഗ്രാമപഞ്ചായത്ത്	-9761
12	-9762
16	-9763
ൂൺ	-9764
▁ദീ	-9765
ബാബു	-9766
▁ആരു	-9767
▁ഗ്യ	-9768
▁ചാം	-9769
▁പാൽ	-9770
ഗോപാല	-9771
▁ഇമ്ര	-9772
▁തുകയ	-9773
ക്കുടി	-9774
ര്‍ജ്ജ	-9775
ൊടുക്ക	-9776
കുട്ടിയ	-9777
▁ഞങ്ങളെ	-9778
▁തീരദേശ	-9779
▁ബിന്ദു	-9780
▁ഇടയില്‍	-9781
▁ഒരുപോലെ	-9782
▁ജനപ്രിയ	-9783
▁മോട്ടോർ	-9784
▁പദ്ധതികൾ	-9785
▁പറഞ്ഞാല്‍	-9786
▁ബിജെപിയും	-9787
▁അനുവദിച്ചു	-9788
▁പെൺകുട്ടിയെ	-9789
▁പ്രദേശങ്ങളില്‍	-9790
▁മുഖ്യമന്ത്രിയും	-9791
ളിൽ	-9792
ദ്മി	-9793
ഭാവം	-9794
മേഴ്	-9795
▁വഷള	-9796
ക്കൊല	-9797
▁സാനി	-9798
ച്ചന്‍	-9799
ടെയാണ്	-9800
▁നമ്മെ	-9801
▁ശക്തിയ	-9802
▁എന്നതും	-9803
▁കോളേജിൽ	-9804
▁ജന്മദിന	-9805
▁മുംബൈയിലെ	-9806
▁ക്രിമിനല്‍	-9807
▁സാംസ്കാരിക	-9808
▁സ്ത്രീകളും	-9809
▁ലഭിച്ചിരുന്നു	-9810
▁മത്സ്യത്തൊഴിലാള	-9811
ഫ്യൂ	-9812
ബിലി	-9813
റല്‍	-9814
ാടനം	-9815
▁ഗീത	-9816
▁ടൈം	-9817
▁രഹസ	-9818
▁അബൂബ	-9819
▁നിലയ	-9820
▁സാബു	-9821
ക്തമായ	-9822
▁ഇതുവര	-9823
▁തൃക്ക	-9824
▁പതിനെ	-9825
▁മഹാമാ	-9826
▁മാറും	-9827
വിട്ടത്	-9828
▁കരുത്ത	-9829
▁കാശ്മീ	-9830
ുന്നതാണ്	-9831
▁അഡ്മിനി	-9832
▁ഇന്‍ഷുറ	-9833
▁ക്വാര്‍	-9834
▁തുര്‍ക്ക	-9835
▁വെച്ചാണ്	-9836
▁കൊണ്ടുള്ള	-9837
▁കൊൽക്കത്ത	-9838
▁സ്വാഗതവും	-9839
▁അനുയോജ്യമായ	-9840
▁നാട്ടുകാരും	-9841
▁ജം	-9842
വെയ്	-9843
▁ലേല	-9844
▁സുഷ	-9845
മംഗലം	-9846
▁രമ്യ	-9847
വയ്ക്ക	-9848
ിനേയും	-9849
▁കീഴിൽ	-9850
▁ശശികല	-9851
യര്‍ന്ന	-9852
ലക്ഷ്മി	-9853
▁കൊച്ചു	-9854
▁ചേർത്ത	-9855
▁യൂട്യൂ	-9856
ുവാനുള്ള	-9857
▁തവണയാണ്	-9858
▁മഞ്ചേരി	-9859
▁സ്വീകരണ	-9860
▁മഹീന്ദ്ര	-9861
▁വ്യാപാരം	-9862
▁അഭിസംബോധന	-9863
ത്തിക്കാന്‍	-9864
▁പദ്ധതിക്ക്	-9865
▁ആവശ്യത്തിന്	-9866
▁പ്രതികരിച്ചത്	-9867
ിക്കുന്നതിനുള്ള	-9868
ടകം	-9869
ുവയ	-9870
ിന്‍	-9871
▁(20	-9872
▁ഫ്ള	-9873
▁രാഘ	-9874
▁സംഭ	-9875
രോടും	-9876
▁അട്ട	-9877
▁ഉദ്യ	-9878
▁കാബൂ	-9879
▁സായി	-9880
മോക്രാ	-9881
▁അജണ്ട	-9882
▁അനുശോ	-9883
▁പ്രൈവ	-9884
പ്പൊക്ക	-9885
സമയത്ത്	-9886
▁അവകാശം	-9887
▁ഉടമസ്ഥ	-9888
▁കിട്ടി	-9889
▁മാനേജി	-9890
▁വ്യതിയ	-9891
▁ഇന്റലിജ	-9892
▁ഉയരുന്ന	-9893
▁മുഹമ്മദ	-9894
▁വായിച്ച	-9895
ണ്ടെന്നും	-9896
▁പ്രതികളായ	-9897
▁അധികൃതരുടെ	-9898
▁എത്തിച്ചത്	-9899
▁പദ്ധതിയില്‍	-9900
▁എല്ലാവർക്കും	-9901
▁അവതരിപ്പിച്ചത്	-9902
▁ആഭിമുഖ്യത്തില്‍	-9903
▁ലക്ഷ്യമിടുന്നത്	-9904
75	-9905
▁g	-9906
▁ഗെ	-9907
വിധം	-9908
▁120	-9909
▁അവഗ	-9910
▁അവശ	-9911
▁ധീര	-9912
നിയോഗ	-9913
▁തങ്ക	-9914
▁വേദി	-9915
▁അതിഥി	-9916
▁കടല്‍	-9917
▁കുപ്പ	-9918
▁തൂക്ക	-9919
▁പൂട്ട	-9920
▁സെല്ല	-9921
▁കാട്ടി	-9922
▁പതിനാല	-9923
▁വിപ്ലവ	-9924
ത്തിലായി	-9925
ൊപ്പമാണ്	-9926
▁അടിച്ചു	-9927
▁കാട്ടാന	-9928
▁പുരോഗതി	-9929
▁വേണ്ടിവ	-9930
▁ക്കൊപ്പം	-9931
▁പൊതുമേഖല	-9932
ങ്ങനെയുള്ള	-9933
▁മുറിയില്‍	-9934
▁വർദ്ധിപ്പ	-9935
▁സെക്കന്‍ഡ	-9936
ിച്ചപ്പോള്‍	-9937
▁നടക്കുന്നു	-9938
▁ലഭിക്കാത്ത	-9939
രിക്കുമെന്ന്	-9940
▁വിവാഹത്തിന്	-9941
▁നേടിയിരുന്നു	-9942
▁സമൂഹത്തിന്റെ	-9943
▁തൊഴിലാളികളുടെ	-9944
▁സ്ഥാനത്തേക്ക്	-9945
ശൈ	-9946
നാഭ	-9947
ാനാ	-9948
▁53	-9949
ാവായ	-9950
▁അറബ	-9951
▁ഇളയ	-9952
▁വാറ	-9953
▁അജയ്	-9954
▁വക്ക	-9955
▁സുനി	-9956
▁സെബാ	-9957
▁ആയിരം	-9958
▁കൃഷിയ	-9959
▁കൈവശം	-9960
▁മല്‍സ	-9961
▁മൊത്ത	-9962
▁ചടങ്ങ്	-9963
▁ഫെയ്സ്	-9964
▁രാജന്‍	-9965
▁വയസ്സ്	-9966
പിടിച്ചു	-9967
ലിസ്റ്റ്	-9968
▁അത്യാവശ	-9969
▁ഇടപെടല്‍	-9970
▁ട്രെയിനി	-9971
▁പരീക്ഷണം	-9972
▁പൂര്‍ത്ത	-9973
▁ലഭിക്കുക	-9974
▁വ്യോമസേന	-9975
▁സ്വാധീനം	-9976
▁അംഗങ്ങളായ	-9977
▁പിന്നിട്ട	-9978
▁ബംഗ്ലാദേശ്	-9979
▁അതുകൊണ്ടാണ്	-9980
▁സിക്യൂട്ടീവ്	-9981
ിച്ചിരിക്കുന്നു	-9982
▁നിര്‍ദേശങ്ങള്‍	-9983
ുലി	-9984
▁ഗൃഹ	-9985
▁ജ്വ	-9986
▁സെഷ	-9987
▁കലാശ	-9988
▁ജ്യൂ	-9989
▁മുകു	-9990
▁റ്റി	-9991
▁വിചാ	-9992
ങ്കല്‍	-9993
തിയിലെ	-9994
സ്ഥാപന	-9995
▁അന്നു	-9996
▁പ്രവീ	-9997
▁പ്രിൻ	-9998
▁മമ്മൂ	-9999
രംഗത്ത്	-10000
▁ആരോപണമ	-10001
▁ഉയർത്ത	-10002
▁ഗ്യാസ്	-10003
▁പട്ടാള	-10004
▁പരിശീലക	-10005
▁വെളുത്ത	-10006
▁ഇറ്റാലിയ	-10007
▁അവസാനമായി	-10008
പ്പെടുത്തുന്നത്	-10009
▁പൂര്‍ത്തിയാക്കി	-10010
1)	-10011
es	-10012
ുദ	-10013
ൊടി	-10014
തമായ	-10015
ാഘോഷ	-10016
▁എടി	-10017
▁തളി	-10018
▁ബാബ	-10019
▁ഹോമ	-10020
ദര്‍ശ	-10021
▁നല്ക	-10022
പദ്ധതി	-10023
വ്യാപക	-10024
ാതെയും	-10025
▁അമ്പര	-10026
▁ചേട്ട	-10027
▁തൊണ്ട	-10028
▁പലതവണ	-10029
▁പുന്ന	-10030
ക്കറ്റ്	-10031
▁വസ്ത്രം	-10032
വിദ്യാഭ്യാ	-10033
▁കേസെടുക്ക	-10034
▁ശ്രീധരന്‍	-10035
▁ഹോട്ടലില്‍	-10036
▁സര്‍ക്കാരും	-10037
▁വര്‍ഷങ്ങളായി	-10038
▁തുടക്കത്തില്‍	-10039
മേധ	-10040
ളയം	-10041
▁3.	-10042
▁ഊർ	-10043
മിന്‍	-10044
ായിരം	-10045
▁വരെയ	-10046
▁വാസു	-10047
ണിക്ക്	-10048
▁ആളാണ്	-10049
▁ബേക്ക	-10050
▁വിന്യ	-10051
ാസ്ത്രം	-10052
▁ഗ്ലാസ്	-10053
▁നെടുമ്	-10054
▁ബിരുദം	-10055
▁വരെയും	-10056
ിരിക്കും	-10057
▁ജെയിംസ്	-10058
▁ഡൽഹിയിൽ	-10059
▁മദ്രാസ്	-10060
▁സോളാര്‍	-10061
▁ഉൽപ്പന്ന	-10062
▁അത്തരമൊരു	-10063
▁എത്തിച്ചേ	-10064
▁നഗരത്തില്‍	-10065
▁കണ്‍ട്രോള്‍	-10066
▁സംഘത്തിന്റെ	-10067
ിക്കുമെന്നാണ്	-10068
▁പ്രവർത്തിച്ച	-10069
▁സെക്യൂരിറ്റി	-10070
4-	-10071
ളവ	-10072
ൃം	-10073
▁l	-10074
വഴി	-10075
ക്കറ	-10076
ാനിട	-10077
▁ആണവ	-10078
▁ഫാസ	-10079
ഗിള്‍	-10080
ഞ്ജലി	-10081
▁മേരി	-10082
വരുന്ന	-10083
സമ്മതി	-10084
▁അസീസ്	-10085
▁കോപ്പ	-10086
▁അജ്ഞാത	-10087
▁അപ്പോൾ	-10088
▁തകർന്ന	-10089
▁സ്വർണം	-10090
▁ഹെലികോ	-10091
▁ഇവർക്ക്	-10092
▁ധനസഹായം	-10093
▁ബാറ്ററി	-10094
▁മാതൃഭൂമി	-10095
▁സിനേഷന്‍	-10096
യിലേക്കുള്ള	-10097
▁കുടുംബത്തെ	-10098
▁തോന്നുന്നു	-10099
പ്രവര്‍ത്തകര്‍	-10100
വാട	-10101
വാമ	-10102
ാടന	-10103
ൈസ്	-10104
▁ഈജി	-10105
▁നുണ	-10106
▁യൂസ	-10107
▁ലഖ്	-10108
▁ശുഭ	-10109
▁അഭിവ	-10110
▁ഇട്ട	-10111
▁പാതി	-10112
▁മോഷണ	-10113
▁സംഗമ	-10114
▁ചെല്ല	-10115
▁മറച്ച	-10116
▁ഉറച്ചു	-10117
▁കിറ്റ്	-10118
▁ജയിലിൽ	-10119
▁അഹമ്മദാ	-10120
▁ഒരാളുടെ	-10121
▁ഫെസ്റ്റ	-10122
▁സൂക്ഷ്മ	-10123
യെങ്കിലും	-10124
ില്ലെന്നു	-10125
▁അച്ഛന്റെ	-10126
▁ആളുകളുടെ	-10127
▁കളിക്കാര	-10128
▁ചിത്രമായ	-10129
ക്കുറിച്ചു	-10130
▁താലിബാന്‍	-10131
▁കുട്ടികളും	-10132
▁പൃഥ്വിരാജ്	-10133
▁വിമാനത്തില്‍	-10134
കുള	-10135
രാഘ	-10136
നുഭവ	-10137
രിയെ	-10138
ല്‍ഖ	-10139
വേദി	-10140
ായിൽ	-10141
ൊരാള	-10142
്വാന	-10143
ിതമായ	-10144
▁അവഗണ	-10145
▁നിരസ	-10146
ടിയാണ്	-10147
ന്തല്‍	-10148
സുമായി	-10149
▁ഓൺലൈന	-10150
▁കടത്തി	-10151
▁ക്രിസ്ത	-10152
▁താരതമ്യ	-10153
▁വടക്കന്‍	-10154
▁വാക്കുകൾ	-10155
മില്ലെന്ന്	-10156
▁തൃശ്ശൂര്‍	-10157
▁പേരിലുള്ള	-10158
▁സമ്മതിച്ച	-10159
യില്‍നിന്ന്	-10160
▁രീതിയിലാണ്	-10161
▁നല്‍കുമെന്ന്	-10162
▁ആവശ്യപ്പെട്ടി	-10163
▁ഇന്റര്‍നെറ്റ്	-10164
▁ശ്രദ്ധിക്കേണ്ട	-10165
ഫൈ	-10166
ംബോ	-10167
രോട	-10168
ര്‍ആ	-10169
ലോഡ്	-10170
▁മേജ	-10171
യാഴ്ച	-10172
ാദ്യം	-10173
ൂരപ്പ	-10174
▁ചതുര	-10175
▁തമാശ	-10176
▁വിഷം	-10177
▁ആലോചന	-10178
▁കാണും	-10179
▁ഡിസംബ	-10180
▁സഹിതം	-10181
പ്യൂട്ട	-10182
▁ഷോപ്പി	-10183
തിനൊപ്പം	-10184
▁ഓഫിസര്‍	-10185
▁കഴിയാതെ	-10186
▁നേടാന്‍	-10187
മെങ്കിലും	-10188
▁ജയരാജന്‍	-10189
▁ശശീന്ദ്ര	-10190
▁അതിർത്തിയ	-10191
▁മുരളീധരന്‍	-10192
▁യൂറോപ്യന്‍	-10193
▁ഏറ്റെടുത്ത്	-10194
▁ബാക്കിയുള്ള	-10195
▁ശരീരത്തില്‍	-10196
▁ആരോഗ്യത്തിന്	-10197
▁സാങ്കേതികവിദ്യ	-10198
(3	-10199
-0	-10200
വയ്	-10201
▁കൽ	-10202
▁നന	-10203
ജിന്	-10204
ത്മാ	-10205
ാറാം	-10206
ിനിട	-10207
്ക്ക	-10208
▁കളയ	-10209
▁പരോ	-10210
ദ്ദീൻ	-10211
▁മരിയ	-10212
ിച്ചതോടെ	-10213
▁പാണ്ഡ്യ	-10214
▁അവസ്ഥയാണ്	-10215
▁വിപണിയിലെ	-10216
▁കൊണ്ടുപോയി	-10217
▁സംഘടനകളുടെ	-10218
▁നടപ്പാക്കിയ	-10219
▁ലോക്ക്ഡൗണ്‍	-10220
തിനെക്കുറിച്ച്	-10221
▁എന്നിങ്ങനെയാണ്	-10222
▁കേന്ദ്രീകരിച്ച	-10223
▁സുഹൃത്തുക്കള്‍	-10224
ജല	-10225
കൃത	-10226
ബോധം	-10227
ശേഖര	-10228
ാക്യ	-10229
ൃദ്ധ	-10230
▁മൗല	-10231
▁വേല	-10232
ൈറ്റ്	-10233
▁ആഞ്ഞ	-10234
▁ഒമാന	-10235
▁ഫൈസി	-10236
▁റായ്	-10237
ങ്ങില്‍	-10238
മൊന്നും	-10239
▁10,000	-10240
▁ചാംപ്യ	-10241
▁അറിയാതെ	-10242
▁തെലുങ്ക്	-10243
▁പ്രായമായ	-10244
▁ശേഷമുള്ള	-10245
▁ക്രെഡിറ്റ്	-10246
ുണ്ടെങ്കില്‍	-10247
▁എല്ലാവരെയും	-10248
▁നിയമവിരുദ്ധ	-10249
▁ചെയ്യുമെന്ന്	-10250
▁ഹൈക്കോടതിയില്‍	-10251
▁ഐഎ	-10252
നിയമ	-10253
▁ചോര	-10254
താവും	-10255
ദ്രോഹ	-10256
മ്പ്ര	-10257
▁അണ്ണ	-10258
▁നവംബ	-10259
െടുപ്പ	-10260
▁കിംഗ്	-10261
▁വെല്‍	-10262
കൾക്കും	-10263
മാക്കും	-10264
▁ഉറവിടം	-10265
▁ഒന്നാമ	-10266
▁മോഡല്‍	-10267
▁വാട്ട്	-10268
▁ഒരിക്കൽ	-10269
▁മോശമായി	-10270
▁അഭ്യർത്ഥ	-10271
▁ആറ്റിങ്ങ	-10272
▁ഇതിനുള്ള	-10273
▁വീടുകള്‍	-10274
▁കൂടുതലാണ്	-10275
▁ദിലീപിന്റെ	-10276
▁നേതാക്കളായ	-10277
▁പട്ടികജാതി	-10278
▁മുഖ്യമന്ത്	-10279
▁സംഭവങ്ങള്‍	-10280
▁ചോദിക്കുന്നു	-10281
▁പിന്തുണയ്ക്ക	-10282
▁സ്ഥലത്തെത്തി	-10283
ിക്കപ്പെടുന്നു	-10284
▁അനുഭവിക്കുന്ന	-10285
▁ഞെട്ടിക്കുന്ന	-10286
▁കേന്ദ്രങ്ങളില്‍	-10287
വത	-10288
സൽ	-10289
▁ഉഷ	-10290
ുമാറ	-10291
▁വീര	-10292
തലമുറ	-10293
വരോട്	-10294
▁ഒബാമ	-10295
▁കിഫ്	-10296
െയ്ന്‍	-10297
▁എക്സൈ	-10298
▁ക്രൈം	-10299
▁മൈതാന	-10300
▁സുരേഷ	-10301
രുതെന്ന	-10302
▁തീര്‍ഥ	-10303
▁മുടക്ക	-10304
▁യൂണിയൻ	-10305
▁വിസ്മയ	-10306
ക്കാരാണ്	-10307
യിലെത്തിയ	-10308
▁അസ്വസ്ഥത	-10309
▁കവര്‍ച്ച	-10310
▁ട്രഷറര്‍	-10311
▁രാജകുമാര	-10312
തുകൊണ്ടാണ്	-10313
▁കാര്യമായി	-10314
▁മാര്‍ക്ക്	-10315
▁കണ്ണൂരില്‍	-10316
▁ചാമ്പ്യന്‍	-10317
▁പിന്തുണയും	-10318
▁രാജ്യങ്ങളും	-10319
▁ചര്‍ച്ചയില്‍	-10320
▁രാമചന്ദ്രന്‍	-10321
▁ഉടമസ്ഥതയിലുള്ള	-10322
is	-10323
▁ഹൊ	-10324
ച്ചൊ	-10325
▁10,	-10326
▁ജിഹ	-10327
▁പാണ	-10328
▁സോണ	-10329
ത്തോള	-10330
ന്തിയ	-10331
ളൂരുവ	-10332
െയ്യാ	-10333
▁5000	-10334
ിയെന്ന	-10335
▁നീങ്ങ	-10336
▁പെര്‍	-10337
▁മീന്‍	-10338
▁ശില്‍	-10339
യുടേയും	-10340
ുകയില്ല	-10341
▁ഇടുക്ക	-10342
▁മകന്റെ	-10343
▁മുകേഷ്	-10344
▁മോദിയെ	-10345
ത്തെയാണ്	-10346
▁അതിനായി	-10347
▁എന്നൊരു	-10348
▁കാരണമാക	-10349
▁ചുമത്തി	-10350
▁വേട്ടയാ	-10351
▁സാക്ഷ്യ	-10352
▁സ്വപ്നം	-10353
▁കേസിന്റെ	-10354
▁റിസര്‍വ്	-10355
ത്തിലേക്കു	-10356
▁ചെയ്തതായി	-10357
▁പ്രൈവറ്റ്	-10358
▁കമ്മീഷണര്‍	-10359
▁ഉപയോഗിച്ചാണ്	-10360
▁ചെയ്യുമ്പോള്‍	-10361
ാഖ്	-10362
വിനോ	-10363
▁നഷ്	-10364
▁ന്ന	-10365
▁ബിജ	-10366
▁റോള	-10367
വിനും	-10368
▁തായ്	-10369
▁ദൂരം	-10370
▁നഗരം	-10371
▁ബ്ലോ	-10372
നിയിലെ	-10373
റിലാണ്	-10374
▁അയോധ്യ	-10375
▁കമ്മിഷണ	-10376
▁കൃത്രിമ	-10377
▁തോല്‍വി	-10378
▁വർഷമായി	-10379
▁ലംഘിച്ച്	-10380
▁പ്രതിദിനം	-10381
▁നിര്‍മിച്ച	-10382
▁ഹാജരാക്കിയ	-10383
▁നിയമപ്രകാരം	-10384
▁പ്രാര്‍ത്ഥന	-10385
▁ലോകത്തിന്റെ	-10386
▁വിദ്യാര്‍ഥി	-10387
▁വൃത്തങ്ങള്‍	-10388
▁വ്യക്തിപരമായ	-10389
▁ദ്	-10390
യിസ്	-10391
ശ്രമ	-10392
ാപ്പ	-10393
▁എബി	-10394
▁കടം	-10395
▁ലാം	-10396
▁ഷാര	-10397
▁സെന	-10398
പൊട്ട	-10399
രിഞ്ഞ	-10400
സൂര്യ	-10401
▁കമീഷ	-10402
▁കാമറ	-10403
▁കുറു	-10404
▁തടാക	-10405
▁നമസ്	-10406
▁മിസ്	-10407
▁രഞ്ജ	-10408
പ്രധാന	-10409
▁ശൈലിയ	-10410
ക്ടറുടെ	-10411
ിനെതിരേ	-10412
▁എത്രയോ	-10413
▁മനസ്സ്	-10414
▁മലേഷ്യ	-10415
▁ലുക്ക്	-10416
▁സെഞ്ചു	-10417
▁ട്രേഷന്‍	-10418
▁പ്രതിഫലം	-10419
▁രോഗലക്ഷണ	-10420
▁യാഥാര്‍ത്ഥ	-10421
ാക്കുന്നതിന്	-10422
▁പരിശോധിച്ച്	-10423
രിക്കുന്നതിന്	-10424
▁വെള്ളപ്പൊക്ക	-10425
(2	-10426
സിം	-10427
ിയൻ	-10428
ത്സര	-10429
▁എംപ	-10430
▁ത്വ	-10431
▁വാന	-10432
മുളക്	-10433
▁ആന്ത	-10434
▁ആഹാര	-10435
▁ഡോളർ	-10436
▁നൂറ്	-10437
▁മംഗല	-10438
▁ലങ്ക	-10439
▁ആസിഡ്	-10440
▁മൂര്‍	-10441
▁ഉത്തരാ	-10442
▁എന്നോട്	-10443
▁യഥാര്‍ഥ	-10444
▁വൈദ്യുത	-10445
▁ലിസ്റ്റ്	-10446
▁ഇതോടെയാണ്	-10447
▁കിട്ടിയത്	-10448
▁കൊണ്ടുപോയ	-10449
▁ലഭ്യമാക്ക	-10450
▁സ്വര്‍ണ്ണ	-10451
ത്തിലുള്ളത്	-10452
▁പള്ളിയില്‍	-10453
▁ശ്രമങ്ങള്‍	-10454
▁മത്സരങ്ങള്‍	-10455
▁ആക്രമണത്തിന്	-10456
▁ചെയ്യണമെന്ന്	-10457
▁ഉള്‍പ്പെടുന്ന	-10458
▁പാക്കിസ്ഥാന്‍	-10459
▁എന്നിവിടങ്ങളിൽ	-10460
▁ക്ഷേത്രത്തില്‍	-10461
9)	-10462
ic	-10463
▁7,	-10464
ഡല്‍	-10465
ുപുറ	-10466
▁ആലപ	-10467
▁ഉസ്	-10468
▁തയാ	-10469
▁റാഷ	-10470
▁വീശ	-10471
▁ഹാസ	-10472
ക്ഷണം	-10473
പക്ഷേ	-10474
▁കുരി	-10475
▁ഖാലി	-10476
▁ഗ്രഹ	-10477
▁പന്ന	-10478
▁മഞ്ജ	-10479
▁സമാഹ	-10480
ീല്‍ഡ്	-10481
ുകിട്ട	-10482
▁കമല്‍	-10483
▁ദീപിക	-10484
▁പതിമൂ	-10485
▁റഷീദ്	-10486
▁റിയാദ	-10487
▁റിലീസ	-10488
▁തെറ്റ്	-10489
▁നിങ്ങള	-10490
▁ഫിറോസ്	-10491
▁ബോട്ട്	-10492
▁ഇതൊക്കെ	-10493
▁ദുരന്തം	-10494
▁പരീക്ഷാ	-10495
▁വിജിലൻസ്	-10496
▁എതിര്‍ക്ക	-10497
▁കിഴക്കന്‍	-10498
▁തകര്‍ന്നു	-10499
▁അഭിഭാഷകന്‍	-10500
▁കണ്ടെത്താൻ	-10501
▁കണക്കുകൂട്ട	-10502
▁തെന്നിന്ത്യ	-10503
▁പാകിസ്ഥാന്‍	-10504
▁ബാലകൃഷ്ണന്‍	-10505
▁പിടിച്ചെടുത്ത	-10506
▁കേരളത്തിലേക്ക്	-10507
▁സ്വീകരിക്കാന്‍	-10508
▁പ്രസിദ്ധീകരിക്ക	-10509
un	-10510
ഖം	-10511
ഗുല	-10512
ീസി	-10513
▁ഉമ	-10514
ഴക്ക	-10515
ുകളോ	-10516
ൃംഖല	-10517
▁ഇതാ	-10518
▁നവാ	-10519
▁മോച	-10520
▁റഫ്	-10521
വാറും	-10522
ാക്യം	-10523
ാനിഷ്	-10524
േഷനും	-10525
▁കടകം	-10526
▁കടുവ	-10527
▁കുളി	-10528
▁വീടു	-10529
▁ഷിബു	-10530
മോഹന്‍	-10531
റിയാതെ	-10532
▁കന്നഡ	-10533
▁കുതിര	-10534
▁നാല്‍	-10535
▁നിവാസ	-10536
രാമത്ത്	-10537
▁അടച്ചു	-10538
▁മൂല്യം	-10539
ാനുള്ളത്	-10540
▁ആർക്കും	-10541
▁മേനോന്‍	-10542
▁ലീഗില്‍	-10543
▁ലേഖകന്‍	-10544
▁വാർത്താ	-10545
▁വേണ്ടിയ	-10546
▁കുടുങ്ങി	-10547
▁സൊസൈറ്റി	-10548
പൂര്‍ത്തിയ	-10549
▁പങ്കാളിത്ത	-10550
▁ഭരണാധികാരി	-10551
▁ഞങ്ങള്‍ക്ക്	-10552
▁ഇന്‍ഷുറന്‍സ്	-10553
▁കുറയ്ക്കാന്‍	-10554
▁സംഘടിപ്പിക്ക	-10555
▁ഉൾപ്പെടുത്തിയ	-10556
▁ഫേസ്ബുക്കില്‍	-10557
▁സ്വന്തമാക്കിയത്	-10558
വസര	-10559
സമയ	-10560
ാരെ	-10561
▁കപ	-10562
ോണ്‍	-10563
▁നിസ	-10564
▁സജീ	-10565
ബില്‍	-10566
▁ത്തി	-10567
▁നായ്	-10568
▁പ്രയ	-10569
▁ശൈഖ്	-10570
▁സേതു	-10571
ക്കാരൻ	-10572
ഫോഴ്സ്	-10573
ശാന്തി	-10574
▁അതോടെ	-10575
▁പുല്‍	-10576
▁വിശകല	-10577
യുണ്ടായ	-10578
രുമെന്ന	-10579
ുകളെയും	-10580
▁ഇതാദ്യ	-10581
▁കാലിഫോ	-10582
▁ജയിച്ച	-10583
▁തെളിവ്	-10584
▁ബഷീര്‍	-10585
▁ഏജന്‍സി	-10586
▁തീരത്ത്	-10587
▁പോയിന്റ്	-10588
▁പ്രക്ഷോഭം	-10589
▁പ്രദര്‍ശന	-10590
▁വരുമെന്ന്	-10591
ക്കാലികമായി	-10592
▁മാധ്യമങ്ങൾ	-10593
▁മുകളിലുള്ള	-10594
▁ലോകമെമ്പാട	-10595
▁പരാതിയുമായി	-10596
▁മുദ്രാവാക്യം	-10597
▁സംസ്ഥാനങ്ങളിൽ	-10598
▁ആശുപത്രികളില്‍	-10599
യട	-10600
ിൾ	-10601
ഴും	-10602
ഷന്	-10603
▁രഘ	-10604
▁പാപ	-10605
സ്ഥിര	-10606
ീയമായ	-10607
▁ഭീഷണ	-10608
ക്കുരു	-10609
ാകരന്‍	-10610
▁കൗണ്ട	-10611
▁സുല്‍	-10612
▁തീർച്ച	-10613
▁റേഡിയോ	-10614
▁സ്ഥാപക	-10615
▁അന്ത്യം	-10616
▁ചേർന്നു	-10617
▁നിയമങ്ങൾ	-10618
▁സമ്മർദ്ദ	-10619
മെന്റിന്റെ	-10620
▁പ്രായോഗിക	-10621
▁ഓട്ടോറിക്ഷ	-10622
▁ഐക്യരാഷ്ട്ര	-10623
▁ചൂണ്ടിക്കാട്ടിയ	-10624
▁പ്രവര്‍ത്തകരുടെ	-10625
ഫർ	-10626
ala	-10627
സസ്	-10628
വരണം	-10629
▁കും	-10630
വിധേയ	-10631
▁ഗാംഗ	-10632
▁ചുണ്ട	-10633
▁രണ്ടോ	-10634
ശേഷമാണ്	-10635
▁അടച്ചി	-10636
▁ഡയറക്ട	-10637
▁പന്തിൽ	-10638
▁പ്രവണത	-10639
▁റോഡിലെ	-10640
▁സ്മാരക	-10641
▁സ്വത്ത്	-10642
▁ജോയിന്റ്	-10643
▁പുരസ്കാര	-10644
▁മുന്നിലെ	-10645
▁രോഗികള്‍	-10646
▁വിസമ്മതി	-10647
▁സമ്പർക്ക	-10648
ിക്കഴിഞ്ഞു	-10649
▁ആരോഗ്യനില	-10650
▁നഷ്ടപ്പെട	-10651
▁പന്ത്രണ്ട	-10652
▁പേർക്കാണ്	-10653
ുണ്ടെന്നാണ്	-10654
▁ഉള്‍ക്കൊള്ള	-10655
▁വസ്തുക്കള്‍	-10656
▁ആരോഗ്യമന്ത്ര	-10657
▁തയ്യാറായില്ല	-10658
▁ചികിത്സയിലാണ്	-10659
▁ആഗ്രഹിക്കുന്നു	-10660
▁സംസ്ഥാനത്തിന്റെ	-10661
ഓളം	-10662
▁57	-10663
ഗിരി	-10664
ട്രൽ	-10665
ദേവ്	-10666
മിക്	-10667
▁con	-10668
▁ഇറാഖ	-10669
▁ജഡേജ	-10670
▁ജയിൽ	-10671
▁മുനീ	-10672
കുടുംബ	-10673
ച്ചേരി	-10674
▁കക്ഷി	-10675
▁ഗവർണർ	-10676
▁ബ്രസീ	-10677
▁മോര്‍	-10678
ക്കാനും	-10679
ണമെന്നു	-10680
▁ആനന്ദ്	-10681
▁പാട്ട്	-10682
▁മൊയ്തീ	-10683
▁യുവതിയ	-10684
യിലെത്തി	-10685
െയെല്ലാം	-10686
▁കുത്തിയ	-10687
▁ഡിവൈഎസ്	-10688
▁പ്രചരണം	-10689
ുവരിയില്‍	-10690
▁ക്രമീകരണ	-10691
▁പറഞ്ഞാണ്	-10692
▁വര്‍ക്ക്	-10693
▁വാഹനങ്ങൾ	-10694
▁സ്വയംഭരണ	-10695
▁കഥാപാത്രം	-10696
▁നേതാവുമായ	-10697
▁ഫേസ്ബുക്ക	-10698
▁മണ്ഡലത്തിൽ	-10699
▁പിന്തുണയുമായി	-10700
▁ആഭ്യന്തരമന്ത്രി	-10701
-3	-10702
ാതല	-10703
ുകര	-10704
▁66	-10705
▁മജീ	-10706
▁വെൽ	-10707
എന്റെ	-10708
വൂര്‍	-10709
▁കസേര	-10710
▁കായം	-10711
▁നഗ്ന	-10712
▁അതൊരു	-10713
▁ദീപക്	-10714
▁പണവും	-10715
▁ഫാക്ട	-10716
▁യെച്ച	-10717
▁സ്ക്ര	-10718
കളിലായി	-10719
▁കുഴപ്പ	-10720
▁കൊന്നു	-10721
▁പരാജയം	-10722
▁ഗ്രൗണ്ട	-10723
▁ചെയ്യാന	-10724
▁നഷ്ടമായ	-10725
▁ഫാത്തിമ	-10726
വാറ്റുപുഴ	-10727
▁തൃണമൂല്‍	-10728
▁ക്രിസ്റ്റ	-10729
▁പുറത്തായി	-10730
▁മറികടന്ന്	-10731
▁കാലയളവില്‍	-10732
▁പ്രധാനമാണ്	-10733
▁കണ്ടെത്തല്‍	-10734
▁രാജ്യത്തിന്	-10735
▁സമൂഹത്തില്‍	-10736
▁പ്രദേശങ്ങളിൽ	-10737
▁ആരംഭിക്കുന്നത്	-10738
▁തീരുമാനമെടുക്ക	-10739
,”	-10740
തൂ	-10741
ൾസ്	-10742
▁പശ	-10743
കരായ	-10744
രീതി	-10745
വാഹന	-10746
ിനുമ	-10747
ുപോവ	-10748
▁ബിൻ	-10749
ഖണ്ഡ്	-10750
ഖ്യാന	-10751
വച്ച്	-10752
▁അടിമ	-10753
▁ആഭരണ	-10754
ദ്ധ്യത	-10755
പരിപാട	-10756
യാണിത്	-10757
റ്റിനെ	-10758
▁ടെലിക	-10759
▁മിണ്ട	-10760
▁ഇരിങ്ങ	-10761
ാനാകില്ല	-10762
▁ആരാധകരെ	-10763
ങ്ങളുമാണ്	-10764
േണ്ടിവരും	-10765
▁കശ്മീര്‍	-10766
▁നഷ്ടമായി	-10767
▁നെടുമ്പാ	-10768
▁ആരാധകരുടെ	-10769
▁കയറ്റുമതി	-10770
▁ക്രിസ്മസ്	-10771
▁പ്രോഗ്രാമ	-10772
▁ഒറ്റപ്പെട്ട	-10773
ത്തിലേക്കുള്ള	-10774
▁വാഹനത്തിന്റെ	-10775
):	-10776
13	-10777
കാർ	-10778
ാശയ	-10779
▁എമ	-10780
▁പത	-10781
▁ഷു	-10782
ധാനം	-10783
വാരം	-10784
ഹര്‍	-10785
▁നിന	-10786
വിതാം	-10787
▁അവനെ	-10788
▁പുരോ	-10789
▁ലാണ്	-10790
ിലേറ്റ	-10791
▁ഗായിക	-10792
▁മൊഴിയ	-10793
▁ദൃശ്യം	-10794
▁പങ്കിട	-10795
▁പരസ്പര	-10796
▁പിണറായ	-10797
▁പ്രതീക	-10798
▁മൂന്നാമ	-10799
▁വഴിയൊരു	-10800
▁ഉത്തരവിറ	-10801
▁പുലർച്ചെ	-10802
മില്ലെന്നും	-10803
▁പ്രോസിക്യൂ	-10804
▁മിനിറ്റില്‍	-10805
▁വിളിക്കുന്ന	-10806
▁ഹെലികോപ്റ്റ	-10807
▁ചരിത്രത്തിലെ	-10808
▁രാധാകൃഷ്ണന്‍	-10809
▁ഉത്തരവാദിത്തം	-10810
▁പെൺകുട്ടിയുടെ	-10811
മശ	-10812
നൽക	-10813
▁അൻ	-10814
വർഷം	-10815
ൻ്റ്	-10816
▁അജ്	-10817
▁അപല	-10818
▁ആഴ്	-10819
▁ദുർ	-10820
▁മില	-10821
▁സിഇ	-10822
▁ജിഎസ	-10823
▁ട്രേ	-10824
▁മര്‍	-10825
▁സ്മി	-10826
ന്ദിരാ	-10827
ിലേക്ക	-10828
▁അല്പം	-10829
▁ഉത്തമ	-10830
▁ചെമ്മ	-10831
▁പുത്ര	-10832
▁യോഗ്യ	-10833
▁വഴക്ക	-10834
▁സപ്ലൈ	-10835
▁ഹമീദ്	-10836
▁അനിവാര	-10837
▁അബ്ദുറ	-10838
▁ഖുര്‍ആ	-10839
▁നീക്കി	-10840
▁പണ്ഡിത	-10841
റിലേക്ക്	-10842
▁ഗൂഗിള്‍	-10843
▁സമാധാനം	-10844
▁സ്റ്റാർ	-10845
▁ഡ്യൂട്ടി	-10846
▁മുഖ്യപ്ര	-10847
▁ശ്വാസകോശ	-10848
കുമാറിന്റെ	-10849
▁അതുകൊണ്ടു	-10850
▁മാറ്റാന്‍	-10851
▁കഴിഞ്ഞാല്‍	-10852
▁ടെലിവിഷന്‍	-10853
▁അനുവദിച്ചത്	-10854
▁തൊഴിലാളികളെ	-10855
▁ദമ്പതികളുടെ	-10856
▁മധ്യപ്രദേശ്	-10857
▁സെബാസ്റ്റ്യ	-10858
▁നൂറുകണക്കിന്	-10859
▁സൗകര്യങ്ങള്‍	-10860
▁അധികാരത്തില്‍	-10861
▁കേന്ദ്രത്തില്‍	-10862
▁കോര്‍പ്പറേഷന്‍	-10863
ടിക	-10864
വ്ര	-10865
▁67	-10866
▁95	-10867
പട്ട	-10868
യാളെ	-10869
▁ആദര	-10870
▁ഡിഫ	-10871
▁ലോഗ	-10872
▁ഹരജ	-10873
ുകാരൻ	-10874
േശ്വര	-10875
ോയിഡ്	-10876
▁കെഎം	-10877
▁തച്ച	-10878
▁ഫഹദ്	-10879
ക്കൂടി	-10880
ടത്തും	-10881
ുകാരനെ	-10882
▁ക്ലിന	-10883
▁ദേഷ്യ	-10884
▁മുസ്ത	-10885
▁സുനിൽ	-10886
ിച്ചതും	-10887
▁ഫിറ്റ്	-10888
▁വളർത്ത	-10889
▁വഹിച്ച	-10890
▁വിന്യസ	-10891
▁സുഭാഷ്	-10892
ങ്ങിന്റെ	-10893
പ്രതിരോധ	-10894
ാനന്ദന്‍	-10895
▁താരത്തെ	-10896
▁നിലപാടെ	-10897
▁ശുശ്രൂഷ	-10898
▁നിര്‍വ്വഹ	-10899
▁പുതിയതായി	-10900
▁ലോക്ക്ഡൗൺ	-10901
▁ആവശ്യമില്ല	-10902
ാതിരിക്കാന്‍	-10903
▁ചികിത്സയില്‍	-10904
▁മെച്ചപ്പെട്ട	-10905
▁പരിഹരിക്കാന്‍	-10906
▁കേന്ദ്രത്തിന്റെ	-10907
ഹാർ	-10908
ാഭി	-10909
▁മൽ	-10910
▁വൺ	-10911
ന്യു	-10912
സിബി	-10913
▁നിവ	-10914
▁മാം	-10915
ത്തൂർ	-10916
ൂറോളം	-10917
▁അറസ്	-10918
▁ആഘാത	-10919
▁എമ്മ	-10920
▁കോളന	-10921
▁മതില	-10922
▁മെഡി	-10923
ശ്വര്‍	-10924
▁എസ്പി	-10925
▁താനും	-10926
▁നമ്പൂ	-10927
▁ലഭ്യത	-10928
▁ഹരീഷ്	-10929
നിരക്ക്	-10930
യിലെയും	-10931
ാതിരിക്ക	-10932
▁പതിവായി	-10933
▁ഭീകരവാദ	-10934
▁ഹാളില്‍	-10935
▁ചിത്രവും	-10936
▁പ്രതിദിന	-10937
▁മേഖലകളിൽ	-10938
▁സാധിച്ചു	-10939
▁ആണ്‍കുട്ട	-10940
▁ഇന്റര്‍നാ	-10941
▁ഇരുവരെയും	-10942
▁നേരിടാന്‍	-10943
▁പ്രചരിച്ച	-10944
ത്തേക്കുള്ള	-10945
▁ട്രംപിന്റെ	-10946
▁തമിഴ്നാട്ട	-10947
▁മന്ത്രിസഭാ	-10948
▁മുന്‍കൂര്‍	-10949
ക്കുന്നുണ്ട്	-10950
▁കേസെടുത്തത്	-10951
▁കോണ്‍ഗ്രസും	-10952
▁ചരിത്രത്തില്‍	-10953
▁ജീവിതത്തിന്റെ	-10954
▁ഉള്‍പ്പെടുത്തി	-10955
▁കുടുംബത്തിന്റെ	-10956
▁പ്രതിഷേധവുമായി	-10957
രനെ	-10958
▁ഭാ	-10959
ക്രം	-10960
ാണിത	-10961
്യാദ	-10962
▁അതൃ	-10963
▁ഇൻഡ	-10964
▁ഉടന	-10965
▁കിം	-10966
▁ചിര	-10967
▁സംസ	-10968
തിയില	-10969
ുവല്‍	-10970
▁ഗർഭി	-10971
▁ബല്‍	-10972
▁ബ്രി	-10973
▁ലിംഗ	-10974
തുണ്ട്	-10975
ത്തിലോ	-10976
▁കോള്‍	-10977
▁കൗമാര	-10978
▁തടയാൻ	-10979
ത്തിനുമ	-10980
▁ആയുര്‍	-10981
▁പരസ്യം	-10982
▁ബിനീഷ്	-10983
▁ശിഹാബ്	-10984
തിനുശേഷം	-10985
▁അച്ഛനും	-10986
▁പരേതനായ	-10987
▁പ്രധാനം	-10988
▁കാണിച്ചു	-10989
▁ക്രൈസ്തവ	-10990
▁ബാറ്റിങ്	-10991
▁വിജയന്റെ	-10992
▁വിട്ടുവീ	-10993
▁വിദഗ്ദ്ധ	-10994
ുമായിരുന്ന	-10995
▁കശ്മീരിലെ	-10996
▁ക്ഷണിച്ചു	-10997
▁സൗദിയില്‍	-10998
വിദ്യാഭ്യാസ	-10999
▁പ്രകാരമാണ്	-11000
▁കേരളത്തിലും	-11001
▁ഹര്‍ജിയില്‍	-11002
ിക്കുന്നതിനും	-11003
▁അപേക്ഷിക്കാം	-11004
▁പാര്‍ലമെന്റ്	-11005
▁സംസ്ഥാനങ്ങളിലെ	-11006
ചൂ	-11007
പഴ	-11008
/20	-11009
യാവ	-11010
ല്പ	-11011
ികു	-11012
▁54	-11013
▁ധോ	-11014
ഡോക്	-11015
വിലെ	-11016
സുകൾ	-11017
▁അർഹ	-11018
▁തുഷ	-11019
▁ആന്‍	-11020
▁ഗ്രാ	-11021
▁ബോഡി	-11022
▁ഭാസ്	-11023
▁സീസണ	-11024
▁സ്വര	-11025
പ്പാടി	-11026
സിനോട്	-11027
ാനുമതി	-11028
ികളോട്	-11029
▁കൂറ്റ	-11030
▁കൗതുക	-11031
▁ഗ്ലോബ	-11032
▁മരണമട	-11033
▁സഞ്ജു	-11034
▁അഭ്യൂഹ	-11035
▁അംഗങ്ങൾ	-11036
▁കരുത്ത്	-11037
▁വിവാഹമോ	-11038
▁എല്‍ഡിഎഫ	-11039
▁വില്ലേജ്	-11040
▁ഓഡിറ്റോറിയ	-11041
▁സ്റ്റേഷനിൽ	-11042
▁ഉപയോഗിക്കുക	-11043
▁തുടർച്ചയായി	-11044
▁കഥാപാത്രത്തെ	-11045
▁നിര്‍വഹിച്ചു	-11046
▁രക്ഷപ്പെട്ടു	-11047
▁റിപ്പോർട്ടിൽ	-11048
▁മണിക്കൂറുകള്‍	-11049
ro	-11050
ാച	-11051
’,	-11052
ാവസ	-11053
ുറു	-11054
ാധിപ	-11055
ിഷ്ട	-11056
▁നവോ	-11057
▁പാഴ	-11058
▁മെസ	-11059
ല്ലൂർ	-11060
▁അലക്	-11061
▁നിറയ	-11062
▁നോവല	-11063
▁ലാഭം	-11064
▁സർവേ	-11065
ഷിപ്പ്	-11066
▁ആവേശം	-11067
▁ഓവര്‍	-11068
▁പത്രം	-11069
▁പ്രൊജ	-11070
▁ഫയല്‍	-11071
▁മരിക്ക	-11072
▁വീടിനു	-11073
▁വ്യാപി	-11074
െത്തുന്ന	-11075
▁ഇന്ദിരാ	-11076
▁കുടുക്ക	-11077
▁ചർച്ചകൾ	-11078
▁പങ്കെടു	-11079
▁കൃഷ്ണന്‍	-11080
ിക്കാറുണ്ട്	-11081
▁പ്രതികളുടെ	-11082
▁വിജയകരമായി	-11083
▁ജില്ലകളിലും	-11084
▁ബന്ധുക്കളും	-11085
പ്പിക്കുന്നത്	-11086
ിരുന്നെങ്കിലും	-11087
▁കേന്ദ്രങ്ങള്‍	-11088
▁മാനദണ്ഡങ്ങള്‍	-11089
▁ആരോപിച്ചിരുന്നു	-11090
85	-11091
▁e	-11092
ഘടന	-11093
സമര	-11094
മിതി	-11095
ഷനും	-11096
▁തോള	-11097
▁വയോ	-11098
ശതമാന	-11099
▁ആകർഷ	-11100
▁പുകയ	-11101
▁ബെഹ്	-11102
മ്പ്രദ	-11103
റ്റിംഗ	-11104
▁അത്യാ	-11105
▁മഹേഷ്	-11106
▁മേക്ക	-11107
ിറങ്ങിയ	-11108
▁ആവശ്യക	-11109
▁എന്തിന	-11110
▁കളിക്ക	-11111
▁ദേവാലയ	-11112
▁മാനന്ത	-11113
മാറ്റിക്	-11114
ാര്‍ട്ട്	-11115
▁ഉൾപ്പടെ	-11116
▁ഐപിഎല്‍	-11117
▁ഗോവിന്ദ	-11118
▁ട്രെയിൻ	-11119
▁പിടിയിൽ	-11120
▁മുറിച്ച	-11121
▁യൂണിറ്റ	-11122
ാരോപിച്ച്	-11123
▁കോളജില്‍	-11124
▁പ്രഭാഷണം	-11125
▁പ്രാര്‍ഥ	-11126
▁വേഗത്തിൽ	-11127
▁സിനിമകള്‍	-11128
ിട്ടുമുണ്ട്	-11129
▁അര്‍ജന്റീന	-11130
▁ഉപയോഗിച്ചു	-11131
▁ദിവസങ്ങള്‍	-11132
▁ഭരിക്കുന്ന	-11133
▁വസ്ത്രങ്ങൾ	-11134
▁വീഡിയോയില്‍	-11135
▁പ്രദര്‍ശിപ്പ	-11136
▁രാജ്യങ്ങളുടെ	-11137
▁പാര്‍ട്ടിക്ക്	-11138
▁സ്ത്രീകള്‍ക്ക്	-11139
കരം	-11140
നസ്	-11141
വലം	-11142
േറി	-11143
സംഭവ	-11144
സിനി	-11145
ാരോപ	-11146
ുവായ	-11147
▁കടു	-11148
▁കിര	-11149
▁വയല	-11150
▁വേറ	-11151
▁സിൽ	-11152
▁ഹംസ	-11153
മാത്ര	-11154
സിന്‍	-11155
▁സുഗമ	-11156
ടിയിലെ	-11157
ാകാന്‍	-11158
▁തിയതി	-11159
▁മാഡ്ര	-11160
കാലത്തെ	-11161
മ്മയുടെ	-11162
സ്റ്റോറ	-11163
▁ഓയില്‍	-11164
▁പിന്നിട	-11165
▁എടുത്തത്	-11166
▁ബന്ധിപ്പ	-11167
▁ഭക്ഷണവും	-11168
▁ശരീരഭാരം	-11169
ുകൊണ്ടുള്ള	-11170
▁ആശുപത്രിയ	-11171
▁പെരുമാറിയ	-11172
▁ശ്രദ്ധയിൽ	-11173
ത്തിന്റേയും	-11174
▁പലയിടത്തും	-11175
▁ആരോപണവുമായി	-11176
▁ഉത്തരവിട്ടു	-11177
▁ചെയ്യുമ്പോൾ	-11178
▁പുറത്താക്കി	-11179
▁നല്‍കണമെന്ന്	-11180
ൂം	-11181
’;	-11182
ാവു	-11183
▁അം	-11184
▁മധ	-11185
മാരു	-11186
ാനിൽ	-11187
്രമം	-11188
▁ആഷി	-11189
▁റൂം	-11190
പരിധി	-11191
മീറ്റ	-11192
സിലും	-11193
▁1500	-11194
▁ചാടി	-11195
▁സ്ബു	-11196
ന്നാണ്	-11197
ഫ്റ്റി	-11198
മുതല്‍	-11199
ുവില്‍	-11200
▁കുമാറ	-11201
പ്പൂര്‍	-11202
▁എന്‍ഐഎ	-11203
▁എന്‍റെ	-11204
▁വഴിയും	-11205
ക്രട്ടറി	-11206
▁പെരുമാറ	-11207
▁വിമർശനം	-11208
▁കുതിച്ചു	-11209
▁തിരിഞ്ഞു	-11210
▁വിപുലമായ	-11211
▁വിവരമറിയ	-11212
ക്കുന്നതും	-11213
▁കാന്‍സര്‍	-11214
▁ലിമിറ്റഡ്	-11215
മാക്കുന്നത്	-11216
▁ബാങ്കിന്റെ	-11217
▁നിര്‍മ്മാണം	-11218
▁മലയാളത്തിലെ	-11219
▁മുദ്രാവാക്യ	-11220
▁യാത്രക്കാരെ	-11221
▁ഉൾപ്പെടുന്നു	-11222
▁ദിവസത്തേക്ക്	-11223
▁പൊതുമരാമത്ത്	-11224
▁ബ്ലാസ്റ്റേഴ്	-11225
▁ശ്രദ്ധിക്കണം	-11226
ിച്ചിരുന്നില്ല	-11227
▁പൂര്‍ത്തിയായി	-11228
▁ഭീഷണിപ്പെടുത്തി	-11229
കരെ	-11230
നിവ	-11231
യുട	-11232
▁6,	-11233
▁പായ	-11234
▁റാണ	-11235
▁ലോറ	-11236
▁ഹാർ	-11237
കുമാറ	-11238
മുട്ട	-11239
ുമുതൽ	-11240
▁ആപ്പ	-11241
▁കബളി	-11242
▁ബെയ്	-11243
▁റാലി	-11244
▁റൊണാ	-11245
▁അനന്ത	-11246
▁ഇന്തോ	-11247
▁എന്തോ	-11248
▁എപ്പി	-11249
▁കാറിൽ	-11250
▁പട്ടണ	-11251
▁മലയോര	-11252
പ്പോലും	-11253
▁പോളിങ്	-11254
▁റിയാസ്	-11255
▁വിലക്ക	-11256
▁സന്ധ്യ	-11257
▁കുറിപ്പ	-11258
▁താരങ്ങൾ	-11259
▁തിരക്ക്	-11260
▁മാത്രമെ	-11261
▁സാനിറ്റ	-11262
▁ജോലിക്ക്	-11263
▁നാടിന്റെ	-11264
▁നേരിട്ടു	-11265
▁സ്ബുക്ക്	-11266
▁ഇവിടുത്തെ	-11267
▁ഉൾക്കൊള്ള	-11268
▁എന്നൊക്കെ	-11269
▁ജീവിതത്തെ	-11270
▁കളിക്കുന്ന	-11271
▁താരങ്ങളുടെ	-11272
▁ഇലക്ട്രോണിക്	-11273
▁വിദ്യാര്‍ത്ഥി	-11274
▁ഉത്തര്‍പ്രദേശ്	-11275
▁പ്രവര്‍ത്തകന്‍	-11276
."	-11277
ദീ	-11278
ദാർ	-11279
ന്ദന	-11280
ലായി	-11281
വാക്	-11282
▁1.5	-11283
▁ആളെ	-11284
▁ഉദയ	-11285
▁കടൽ	-11286
▁പോൾ	-11287
▁ഇഞ്ച	-11288
▁കന്യ	-11289
▁നിരപ	-11290
▁പൊതി	-11291
▁ബ്രെ	-11292
വിഭാഗം	-11293
വുകള്‍	-11294
ൊരിക്ക	-11295
്യാപ്ത	-11296
▁അനേകം	-11297
▁കണ്ണു	-11298
▁ചെമ്പ	-11299
▁പോണ്‍	-11300
▁മുക്ക	-11301
▁സൂചിക	-11302
ഭാഗത്ത്	-11303
ാലക്കുട	-11304
ൂരിന്റെ	-11305
▁ടീമിന്	-11306
▁പിറ്റേ	-11307
ടുത്താണ്	-11308
ുകഴിഞ്ഞു	-11309
▁അടച്ചുപ	-11310
▁അര്‍ത്ഥ	-11311
▁ആശയവിനി	-11312
▁ഇടപെട്ട	-11313
▁കടത്തിയ	-11314
തെങ്കില്‍	-11315
▁ഉച്ചക്ക്	-11316
▁പെക്ടര്‍	-11317
മനുസരിച്ച്	-11318
▁ബന്ധമുള്ള	-11319
▁വിദഗ്ധര്‍	-11320
ത്തുനിന്നും	-11321
▁ജില്ലകളിലെ	-11322
▁ഉപേക്ഷിച്ച്	-11323
▁യോഗത്തിലാണ്	-11324
▁ഉത്തരവാദിത്വ	-11325
▁സ്വീകരിക്കും	-11326
▁ഇഷ്ടപ്പെടുന്ന	-11327
▁ചെയ്യുന്നതിന്	-11328
▁വീട്ടിലെത്തിയ	-11329
▁നടക്കുന്നുണ്ട്	-11330
▁പങ്കെടുക്കാന്‍	-11331
▁‍	-11332
ചരി	-11333
ിയു	-11334
▁ആൺ	-11335
വിജയ	-11336
▁ഘോഷ	-11337
▁പടി	-11338
▁മോഡൽ	-11339
▁സിനെ	-11340
▁ഹൈവേ	-11341
ണ്ണായക	-11342
െങ്കില	-11343
▁അഭിഷേ	-11344
▁കര്‍മ	-11345
▁കൊടും	-11346
▁ട്രാവ	-11347
▁ഫോണിൽ	-11348
▁വെന്റ	-11349
▁സംവരണ	-11350
പ്പാള്‍	-11351
▁നൃത്തം	-11352
▁ഷെഡ്യൂ	-11353
ദ്യോഗസ്ഥ	-11354
ന്‍മാര്‍	-11355
ുകാരിയായ	-11356
▁ഉയർത്തി	-11357
▁കാഞ്ഞിര	-11358
▁ഗ്രീന്‍	-11359
▁പ്രത്യാ	-11360
▁ലഭ്യമായ	-11361
▁വീട്ടില	-11362
▁മുന്‍കരു	-11363
▁വേണ്ടത്ര	-11364
▁ചിത്രീകരണ	-11365
ാമായിരുന്നു	-11366
▁ഉണ്ണികൃഷ്ണ	-11367
▁പിതാവിന്റെ	-11368
▁വേഗത്തില്‍	-11369
▁പ്രതിസന്ധിയ	-11370
▁ഉദാഹരണത്തിന്	-11371
▁പുറത്തിറക്കി	-11372
▁റിപ്പബ്ലിക്ക	-11373
▁കൊലപ്പെടുത്തി	-11374
▁പൂര്‍ണ്ണമായും	-11375
▁പ്രായപൂര്‍ത്തിയ	-11376
അ്	-11377
▁ഇഡി	-11378
പ്പാള	-11379
സെക്ക	-11380
▁ദേവി	-11381
▁സ്ഥാ	-11382
ക്കെടു	-11383
െന്നത്	-11384
▁അബദ്ധ	-11385
▁ഓഫിസ്	-11386
▁കർഷകർ	-11387
▁ഇവയുടെ	-11388
▁കളക്ടർ	-11389
▁നിവാരണ	-11390
▁മേയര്‍	-11391
▁സാമ്രാ	-11392
▁സിദ്ദി	-11393
പ്പറ്റിയ	-11394
▁ചുരുക്ക	-11395
▁ട്രാക്ക	-11396
▁റഷ്യന്‍	-11397
▁സ്ഥാപനം	-11398
ിലിരുന്ന്	-11399
▁അഡീഷണല്‍	-11400
▁കൊഴുപ്പ്	-11401
▁പെഷ്യല്‍	-11402
▁വീടുകളിൽ	-11403
രുമെന്നാണ്	-11404
▁ട്രസ്റ്റ്	-11405
▁വ്യത്യാസം	-11406
▁ലോകകപ്പില്‍	-11407
▁നാട്ടുകാരുടെ	-11408
▁കാര്യങ്ങളില്‍	-11409
▁വിദ്യാർത്ഥികൾ	-11410
ലോണ	-11411
സാല	-11412
ോണം	-11413
▁റഹ	-11414
ുല്‍	-11415
ൂന്യ	-11416
ർഡിന	-11417
▁എഡ്	-11418
▁ഒക്	-11419
▁കാട	-11420
യാക്ക	-11421
വന്റെ	-11422
ശ്വരം	-11423
▁വലുത	-11424
▁അഡ്മി	-11425
▁തക്കാ	-11426
▁വണ്ടി	-11427
▁സതീഷ്	-11428
കാരുണ്യ	-11429
ന്‍ഷന്‍	-11430
മാക്കാൻ	-11431
ങ്ങളേയും	-11432
യിലേക്കു	-11433
ില്ലായ്മ	-11434
▁കുഞ്ഞിന്	-11435
▁മാര്‍ഗ്ഗ	-11436
▁കുമാറിന്റെ	-11437
▁തിരച്ചില്‍	-11438
▁പുറത്താക്ക	-11439
▁സ്ത്രീയുടെ	-11440
▁വന്നപ്പോള്‍	-11441
▁കെഎസ്ആര്‍ടിസി	-11442
▁(7	-11443
▁ഇഷ	-11444
▁തപ	-11445
▁സൺ	-11446
ണിനെ	-11447
ദിന്	-11448
▁ആര്	-11449
▁ഓർമ	-11450
▁മനം	-11451
▁ശക്	-11452
രാത്ര	-11453
▁ഐസൊല	-11454
▁സ്വീ	-11455
ള്‍ച്ച	-11456
സിക്ക്	-11457
ിലേയും	-11458
▁അനുപമ	-11459
▁ആത്മാ	-11460
▁ഏതൊരു	-11461
▁ബിഹാറ	-11462
▁മെസ്സ	-11463
▁വാതില	-11464
ത്തിലായ	-11465
ര്‍ച്ച്	-11466
▁ഉപഗ്രഹ	-11467
▁ദര്‍ശന	-11468
▁നറുക്ക	-11469
▁സെന്‍സ	-11470
▁സെറ്റ്	-11471
▁അടിത്തറ	-11472
▁ചതുരശ്ര	-11473
▁പതിപ്പ്	-11474
▁സുധാകരൻ	-11475
▁സെൻട്രൽ	-11476
യായിരുന്ന	-11477
▁ചിലപ്പോൾ	-11478
▁രോഗമുക്ത	-11479
▁റെക്കോര്‍	-11480
▁അധ്യക്ഷനായ	-11481
▁ജുഡീഷ്യല്‍	-11482
▁പിടിയിലായി	-11483
▁പിറന്നാള്‍	-11484
▁കാര്യങ്ങളും	-11485
▁തുടക്കത്തിൽ	-11486
▁കുറയ്ക്കുന്ന	-11487
▁വിമര്‍ശിച്ച്	-11488
▁ചിത്രത്തിലൂടെ	-11489
▁ഇന്ത്യയിലേക്ക്	-11490
▁നേടിയിട്ടുണ്ട്	-11491
▁പുറത്തുവിട്ടത്	-11492
▁ലഭിച്ചിട്ടില്ല	-11493
▁സർട്ടിഫിക്കറ്റ്	-11494
സബ	-11495
സാദ	-11496
സന്‍	-11497
െയിം	-11498
▁11,	-11499
▁125	-11500
▁കടമ	-11501
.....	-11502
ുഡിയോ	-11503
▁അവയവ	-11504
▁എന്റ	-11505
▁ചക്ക	-11506
▁പുനർ	-11507
▁പേഴ്	-11508
▁ലംഘന	-11509
▁സമാപന	-11510
കളുണ്ട്	-11511
വ്യവസ്ഥ	-11512
▁എക്സൈസ്	-11513
▁കര്‍മ്മ	-11514
▁ട്രെയില	-11515
▁രൂപയായി	-11516
▁സ്റ്റീഫ	-11517
▁ഹെൽത്ത്	-11518
ക്രമിച്ച്	-11519
▁എക്സിക്യ	-11520
▁മുത്തശ്ശ	-11521
▁മുന്‍നിര	-11522
▁ജോര്‍ജ്ജ്	-11523
▁പുലര്‍ത്ത	-11524
▁റിമാന്‍ഡ്	-11525
▁സമീപമുള്ള	-11526
▁സ്ഥിതിഗതി	-11527
▁അടുത്തുള്ള	-11528
▁അദ്ധ്യക്ഷത	-11529
▁ട്വിറ്റര്‍	-11530
▁മരണപ്പെട്ട	-11531
▁പരിപാടിയുടെ	-11532
▁ആത്മവിശ്വാസം	-11533
▁പരിശോധനയിലാണ്	-11534
ിക്കുകയാണെന്നും	-11535
ുമെന്നായിരുന്നു	-11536
▁നടത്തുന്നുണ്ട്	-11537
ജം	-11538
ണെ	-11539
യിൻ	-11540
േദ്	-11541
▁73	-11542
▁നുഴ	-11543
െയിലെ	-11544
▁2005	-11545
▁ഒളിം	-11546
▁ഗണ്യ	-11547
▁പേസ്	-11548
▁യൂനി	-11549
▁പുനരധ	-11550
▁പൊതുവേ	-11551
▁ഫൈനല്‍	-11552
▁വില്പന	-11553
▁സഹോദരൻ	-11554
▁സെന്റർ	-11555
▁ഇരുചക്ര	-11556
▁കിടന്നു	-11557
▁തുടക്കമ	-11558
▁തൃശ്ശൂർ	-11559
▁നിയമലംഘ	-11560
▁വളരുന്ന	-11561
▁അറിയാത്ത	-11562
▁തുടർന്നു	-11563
▁പുരുഷന്‍	-11564
ങ്ങൾക്കായി	-11565
ട്ടിരുന്നു	-11566
ുകാര്‍ക്ക്	-11567
▁ഗര്‍ഭിണിയ	-11568
▁ചാവക്കാട്	-11569
▁പുതുക്കിയ	-11570
▁മരണത്തില്‍	-11571
ങ്ങളായിരുന്നു	-11572
▁അഫ്ഗാനിസ്ഥാന	-11573
▁ചിത്രീകരിച്ച	-11574
▁വെള്ളത്തില്‍	-11575
14	-11576
▁w	-11577
tin	-11578
രാവ	-11579
▁58	-11580
താണോ	-11581
▁പട്	-11582
▁പെർ	-11583
▁സദാ	-11584
ഖ്യാപ	-11585
ഫ്റ്റ	-11586
മേറിയ	-11587
ുകളായ	-11588
ത്തീസ്	-11589
നെയാണ്	-11590
▁ഇതൊരു	-11591
▁ഇത്രയ	-11592
▁കഴിയൂ	-11593
▁ഗള്‍ഫ	-11594
▁ഗോത്ര	-11595
▁ചിറ്റ	-11596
▁നിക്ക	-11597
ുമുമ്പ്	-11598
▁ഇതുവഴി	-11599
▁പരിഹാസ	-11600
▁രാജാവ്	-11601
▁ശാന്തി	-11602
▁ആര്‍എസ്	-11603
▁കശ്മീരി	-11604
▁കാരുണ്യ	-11605
▁ചാര്‍ജ്	-11606
▁പൂട്ടിയ	-11607
▁രേഖകളും	-11608
▁വിനിയോഗ	-11609
ട്ടുള്ളത്	-11610
▁പ്രീമിയം	-11611
▁രംഗത്തിറ	-11612
▁കൊച്ചിയിൽ	-11613
ത്തിനായുള്ള	-11614
▁നിരക്കില്‍	-11615
▁മുന്നേറ്റം	-11616
▁ഇരുവരുടെയും	-11617
▁എറണാകുളത്ത്	-11618
▁സാധിക്കില്ല	-11619
▁പ്രേക്ഷകരുടെ	-11620
▁മൃതദേഹങ്ങള്‍	-11621
▁ഇരിങ്ങാലക്കുട	-11622
▁പൂര്‍ത്തിയാക്ക	-11623
▁പ്രവര്‍ത്തകരും	-11624
▁ഓർ	-11625
▁യി	-11626
ഡാണ്	-11627
വനും	-11628
സ്യൂ	-11629
▁അദ്	-11630
ാലിനെ	-11631
▁കലാമ	-11632
▁ചുംബ	-11633
▁രംഗം	-11634
▁അകറ്റ	-11635
▁വീടും	-11636
▁ഇടപെടല	-11637
▁കേരളീയ	-11638
▁നെയ്യാ	-11639
നിര്‍മാണ	-11640
പ്പിള്ളി	-11641
ിക്കാനാക	-11642
ിയ്ക്കും	-11643
▁ഒത്തുതീ	-11644
▁കല്‍പ്പ	-11645
▁നിര്‍ണയ	-11646
▁പതിനഞ്ച	-11647
▁വിക്ഷേപ	-11648
മുണ്ടാക്ക	-11649
▁കേസുകളും	-11650
▁തിരുവിതാം	-11651
▁സ്ഥലങ്ങളിൽ	-11652
▁ശ്രദ്ധേയമാണ്	-11653
▁പാര്‍ട്ടികള്‍	-11654
▁പ്രത്യേകിച്ചും	-11655
ിട്ടുണ്ടെങ്കിലും	-11656
'-	-11657
കൂട	-11658
യാന	-11659
വിമ	-11660
സ്ട	-11661
ുകേ	-11662
▁62	-11663
▁പയ	-11664
ങ്കു	-11665
ണ്ടം	-11666
വിഭവ	-11667
സള്‍	-11668
സിനു	-11669
▁അണി	-11670
▁ഓണം	-11671
▁കളമ	-11672
▁ജാവ	-11673
▁തേജ	-11674
▁ഹിമ	-11675
കമായി	-11676
ട്രോൾ	-11677
ാനുളള	-11678
▁ജംഗ്	-11679
ഴിഞ്ഞ്	-11680
സ്ട്രി	-11681
ുകളോടെ	-11682
▁ഇടയിൽ	-11683
▁കോച്ച	-11684
▁ടാങ്ക	-11685
▁മണ്ണ്	-11686
തിലുള്ള	-11687
മാരില്‍	-11688
റിയില്ല	-11689
▁50,000	-11690
▁അണക്കെ	-11691
▁ജോര്‍ജ	-11692
▁നവോത്ഥ	-11693
▁മകനാണ്	-11694
▁വികാരി	-11695
▁സിന്ധു	-11696
സ്ഥാന്റെ	-11697
▁ക്യാന്‍	-11698
ൊപ്പമുള്ള	-11699
▁ചൈനയില്‍	-11700
▁താരതമ്യം	-11701
▁നിര്‍മാത	-11702
▁ബിജെപിയെ	-11703
▁വാട്ടര്‍	-11704
▁സത്യസന്ധ	-11705
▁സ്റ്റേഷൻ	-11706
ിക്കുവാന്‍	-11707
▁പ്രതിരോധം	-11708
▁കാരണമെന്ന്	-11709
▁പ്രീമിയര്‍	-11710
ിച്ചിട്ടുള്ള	-11711
▁പാർട്ടിയുടെ	-11712
▁വകുപ്പുകള്‍	-11713
▁സ്റ്റേഷനിലെ	-11714
▁എത്തിക്കുന്ന	-11715
▁കണ്ടെത്തുന്ന	-11716
▁പ്രവാസികളുടെ	-11717
▁മറുപടിയുമായി	-11718
▁പൂർത്തിയാക്കിയ	-11719
ലായ	-11720
ുവൽ	-11721
പറ്റ	-11722
ബ്ലി	-11723
സ്സം	-11724
ാജ്ഞ	-11725
▁193	-11726
▁എകെ	-11727
▁പദ്	-11728
▁യുക	-11729
▁ഇങ്ങ	-11730
▁ജോണി	-11731
▁ദാനം	-11732
▁മഹാസ	-11733
ര്‍ശനം	-11734
ികൊണ്ട	-11735
▁ഗോപിന	-11736
▁ഭൗതിക	-11737
രേന്ത്യ	-11738
ിയെന്ന്	-11739
▁അഭിനേത	-11740
▁ഇറക്കി	-11741
▁ഒഴിപ്പ	-11742
▁നിതീഷ്	-11743
▁പിഴയും	-11744
▁അന്തര്‍	-11745
യ്ക്കാന്‍	-11746
▁പട്ടേല്‍	-11747
▁വ്യക്തിയ	-11748
ക്കാറുണ്ട്	-11749
പ്രകാരമാണ്	-11750
മാക്കുന്നു	-11751
▁അനുകൂലമായ	-11752
▁കംപ്യൂട്ട	-11753
▁ദുരുപയോഗം	-11754
▁ശരീരത്തിൽ	-11755
പ്പെടുത്തുക	-11756
▁ശ്രദ്ധേയമായ	-11757
▁ഡയറക്ടറേറ്റ്	-11758
▁ക്രിക്കറ്റില്‍	-11759
ac	-11760
ബോൾ	-11761
ുവശ	-11762
കനായ	-11763
കമായ	-11764
മാറി	-11765
റിസ്	-11766
▁ഖലീ	-11767
▁ഹ്ര	-11768
ധികാര	-11769
മാൻഡ്	-11770
▁മാക്	-11771
തയുള്ള	-11772
▁ഗണേഷ്	-11773
▁ടൈംസ്	-11774
▁ഫൊക്ക	-11775
▁റാങ്ക	-11776
▁മൂന്നര	-11777
▁സമയവും	-11778
ക്കുകള്‍	-11779
▁ഇറക്കിയ	-11780
▁കടലില്‍	-11781
▁മഹാമാരി	-11782
▁ശ്രീരാമ	-11783
പര്യമുള്ള	-11784
▁ആണെന്നും	-11785
▁കഴിഞ്ഞത്	-11786
▁കാറിന്റെ	-11787
▁ട്രേറ്റ്	-11788
▁തീര്‍ച്ച	-11789
▁വളര്‍ന്ന	-11790
▁കടന്നുപോക	-11791
▁കാര്യക്ഷമ	-11792
▁പാര്‍ക്ക്	-11793
▁സെന്ററില്‍	-11794
ത്തിയിരുന്നു	-11795
ിക്കുന്നവര്‍	-11796
▁ആളുകള്‍ക്ക്	-11797
▁താല്‍ക്കാലിക	-11798
▁വിഭാഗത്തിന്റെ	-11799
it	-11800
ബംഗ	-11801
വനെ	-11802
▁68	-11803
▁ഷൂ	-11804
▁വറു	-11805
▁വലി	-11806
▁ഹയർ	-11807
▁ഊന്ന	-11808
▁തുണി	-11809
▁ബഹളം	-11810
▁ബോർഡ	-11811
▁വംശജ	-11812
▁സുധീ	-11813
ക്റ്റ്	-11814
ത്തേത്	-11815
ന്റേത്	-11816
രാജന്‍	-11817
▁കണ്ണ്	-11818
▁കുഞ്ച	-11819
▁പാടിയ	-11820
▁രഞ്ജി	-11821
▁കൊണ്ടോ	-11822
▁തവണയും	-11823
▁പ്രഭാത	-11824
കുമാറിനെ	-11825
ിക്കാനാവ	-11826
▁കിഴക്കൻ	-11827
▁പ്രദേശം	-11828
▁മസ്ജിദ്	-11829
▁ലക്ഷക്ക	-11830
ടുത്തുള്ള	-11831
▁പറ്റാത്ത	-11832
▁മലയാളികൾ	-11833
▁ലോക്കല്‍	-11834
▁കേസുകളാണ്	-11835
▁വോട്ടെണ്ണ	-11836
▁പലര്‍ക്കും	-11837
▁ഉത്തരേന്ത്യ	-11838
▁പുറത്താക്കിയ	-11839
▁സമ്മേളനത്തിൽ	-11840
▁വ്യത്യസ്തമായി	-11841
▁മുഖ്യമന്ത്രിയെ	-11842
ത്തോടനുബന്ധിച്ച്	-11843
1-	-11844
77	-11845
തൃക	-11846
▁തഴ	-11847
മുടി	-11848
ുവില	-11849
▁ദലി	-11850
തയോടെ	-11851
ത്താൽ	-11852
പിന്‍	-11853
ിപ്പറ	-11854
▁തല്‍	-11855
▁റോസ്	-11856
▁ഹരജി	-11857
ക്കുകൾ	-11858
ീയമായി	-11859
ുമെന്റ	-11860
▁ഡേറ്റ	-11861
▁തരംഗം	-11862
▁നായകൻ	-11863
▁മികവ്	-11864
▁മൂത്ര	-11865
▁ലിറ്റ	-11866
▁വിഎസ്	-11867
▁ഹിറ്റ	-11868
▁ആദിവാസ	-11869
▁നടന്ന്	-11870
▁നാരങ്ങ	-11871
▁വടക്ക്	-11872
▁അനുയായി	-11873
▁അസ്വസ്ഥ	-11874
▁എബ്രഹാം	-11875
▁ഏഷ്യന്‍	-11876
▁മനസ്സിൽ	-11877
▁രോഗികളെ	-11878
▁അഭ്യര്‍ഥ	-11879
▁മില്യണ്‍	-11880
▁വെടിയുതി	-11881
▁അന്തരിച്ച	-11882
▁ഒന്നിച്ച്	-11883
▁തലസ്ഥാനമായ	-11884
▁പ്രശസ്തമായ	-11885
▁രാവിലെയാണ്	-11886
▁സംവിധാനവും	-11887
ിക്കാനായില്ല	-11888
▁തങ്ങള്‍ക്ക്	-11889
▁പൂർണ്ണമായും	-11890
▁എന്നിവിടങ്ങളിലെ	-11891
▁കാത്തിരിക്കുന്ന	-11892
21)	-11893
▁59	-11894
▁ജലം	-11895
▁നിഷ	-11896
▁പിള	-11897
▁സഞ്	-11898
ക്കാട	-11899
പ്പുല	-11900
ുമൊരു	-11901
▁ക്കു	-11902
▁മന്ദ	-11903
▁റണ്ണ	-11904
▁ഷാഹി	-11905
▁സിറാ	-11906
▁സൈബർ	-11907
ക്കൂലി	-11908
▁അകമ്പ	-11909
▁അയാളെ	-11910
▁കൊടിയ	-11911
▁ചിലവഴ	-11912
▁തകരാറ	-11913
തലത്തിൽ	-11914
ിക്കോട്	-11915
▁ഫലമായി	-11916
▁വലിപ്പ	-11917
▁വില്യം	-11918
▁സുഗന്ധ	-11919
▁സുന്ദര	-11920
ണ്ടെന്ന്	-11921
ിലേന്ത്യ	-11922
െത്തിയത്	-11923
▁അഞ്ചിന്	-11924
▁കിലോഗ്ര	-11925
▁ജാഗ്രതാ	-11926
▁ദാരിദ്ര	-11927
▁പരാമർശം	-11928
▁വാങ്ങാൻ	-11929
▁വൈറസിനെ	-11930
തന്നെയാണ്	-11931
▁ജോലികള്‍	-11932
▁നിലനിന്ന	-11933
▁റഹ്മാന്‍	-11934
▁വീഴ്ത്തി	-11935
ത്തിനെതിരേ	-11936
ത്തിലെത്തി	-11937
▁കടകംപള്ളി	-11938
▁ഇത്തവണത്തെ	-11939
▁പരിധിയില്‍	-11940
▁മുംബൈയില്‍	-11941
ത്തായിരുന്നു	-11942
പ്പെട്ടിരുന്ന	-11943
ുന്നുണ്ടെന്നും	-11944
▁ഇദ്ദേഹത്തിന്റെ	-11945
ുകൊണ്ടിരിക്കുന്ന	-11946
കുല	-11947
ബിൻ	-11948
----	-11949
അമ്മ	-11950
വകാശ	-11951
വന്ന	-11952
ുമ്മ	-11953
▁വരണ	-11954
ാറിലെ	-11955
▁ഇതും	-11956
▁ഒരുക	-11957
▁റാവു	-11958
▁സിഇഒ	-11959
▁ഊര്‍ജ	-11960
▁ടൗണ്‍	-11961
▁വാർഡ്	-11962
▁വിവേക	-11963
▁ഓഫീസിൽ	-11964
▁കോച്ച്	-11965
▁ചില്ലറ	-11966
▁യെല്ലോ	-11967
▁വിൽക്ക	-11968
▁വീട്ടു	-11969
▁പുരോഹിത	-11970
▁ഭീകരര്‍	-11971
▁മണിക്കു	-11972
മുണ്ടാകും	-11973
യുമായുള്ള	-11974
▁കത്തിക്ക	-11975
▁ടീച്ചര്‍	-11976
▁പ്രസ്താവ	-11977
ഡിനേറ്റര്‍	-11978
▁കുട്ടിക്ക	-11979
▁മാറ്റങ്ങൾ	-11980
▁മാറ്റുന്ന	-11981
▁വിളിച്ചുവ	-11982
▁വ്യാപകമായ	-11983
ിക്കുന്നതിന	-11984
▁ഉപേക്ഷിച്ച	-11985
▁ഒഴിവാക്കുക	-11986
▁നേതാവിന്റെ	-11987
▁പൂര്‍ണമായി	-11988
▁ഭൂരിഭാഗവും	-11989
▁പങ്കെടുത്തത്	-11990
▁മാധ്യമങ്ങളിൽ	-11991
▁രാജ്യങ്ങളിലെ	-11992
▁പ്രചരിപ്പിക്ക	-11993
▁നിലയിലായിരുന്നു	-11994
ബായ	-11995
റിന	-11996
▁4.	-11997
ങ്കൽ	-11998
ശ്വസ	-11999
▁12,	-12000
▁മുല	-12001
▁സിഡ	-12002
പ്പോക	-12003
ുള്ളു	-12004
▁ലൂസി	-12005
▁എഞ്ചി	-12006
▁ഓർക്ക	-12007
▁ഗംഭീര	-12008
▁ഭോപ്പ	-12009
▁ഒന്നുമ	-12010
▁ഗുണനില	-12011
▁തകർക്ക	-12012
▁ബോധവത്	-12013
▁അണ്ടര്‍	-12014
▁ആക്ഷന്‍	-12015
▁ഓപ്പണ്‍	-12016
▁നിർവ്വഹ	-12017
▁പരിക്കേ	-12018
▁ബോളിവുഡ	-12019
▁മാസ്റ്റ	-12020
▁സിപിഐഎം	-12021
▁സ്വഭാവം	-12022
ിക്കെതിരേ	-12023
▁നൽകുകയും	-12024
▁വര്‍ഷവും	-12025
▁ദുബായില്‍	-12026
▁ബംഗാളില്‍	-12027
▁ഷൂട്ടിംഗ്	-12028
▁സീറ്റില്‍	-12029
ര്‍ക്കെതിരെ	-12030
▁ക്വാറന്റൈന	-12031
▁പരിപാടിയിൽ	-12032
▁വ്യക്തിത്വ	-12033
▁സ്റ്റുഡിയോ	-12034
▁കസ്റ്റഡിയിൽ	-12035
▁മണിക്കൂറില്‍	-12036
ത്തുടര്‍ന്നാണ്	-12037
▁ട്വിറ്ററിലൂടെ	-12038
▁പൂർത്തിയാക്കി	-12039
68	-12040
ഗാമ	-12041
ദിയ	-12042
നേരം	-12043
▁ഫോം	-12044
▁റൺസ	-12045
▁ലവ്	-12046
▁ലീല	-12047
നയുടെ	-12048
നേഷ്യ	-12049
പ്പില	-12050
വൽക്ക	-12051
▁നീലേ	-12052
▁മിഡ്	-12053
▁സാഹി	-12054
ലിലാണ്	-12055
ിതമായി	-12056
▁ആഘോഷം	-12057
▁ഇരയായ	-12058
▁ചിലത്	-12059
▁മാഫിയ	-12060
▁റീജിയ	-12061
▁ശൃംഖല	-12062
▁കെയര്‍	-12063
▁നിർത്ത	-12064
▁പൊതുവെ	-12065
പ്രഖ്യാപ	-12066
ബന്ധിച്ച	-12067
യിലുണ്ട്	-12068
▁അതിവേഗം	-12069
▁എൽഡിഎഫ്	-12070
▁കച്ചവടം	-12071
▁കമ്മീഷണ	-12072
▁കിട്ടും	-12073
▁ചൈനയിലെ	-12074
▁നായകനായ	-12075
▁പൈലറ്റ്	-12076
▁അച്ചടക്ക	-12077
▁ആദരിച്ചു	-12078
▁ഒളിവില്‍	-12079
▁ഫിലിപ്പ്	-12080
ക്കുവേണ്ടി	-12081
▁ഇരുപത്തിയ	-12082
▁എത്തുന്നു	-12083
▁പരിപാടികൾ	-12084
▁വേണമെന്നും	-12085
ത്തിനിടയില്‍	-12086
▁തീർച്ചയായും	-12087
▁സാധിച്ചില്ല	-12088
▁തയ്യാറെടുപ്പ	-12089
▁മാവോയിസ്റ്റ്	-12090
ിക്കുന്നതെന്നും	-12091
▁തെരഞ്ഞെടുപ്പിന്	-12092
നൂ	-12093
.45	-12094
ഇത്	-12095
ഫോം	-12096
ബുദ	-12097
ാസന	-12098
മാനു	-12099
േഷണം	-12100
▁പൂര	-12101
▁ബോൾ	-12102
▁കോതമ	-12103
▁ടോപ്	-12104
▁തടവ്	-12105
▁പ്രഫ	-12106
▁ലിയോ	-12107
▁സംയോ	-12108
ഡുകളും	-12109
ലൈറ്റ്	-12110
ൊരുക്ക	-12111
▁ഇതിലെ	-12112
▁ഉറച്ച	-12113
▁കഴിവ്	-12114
▁പുതുമ	-12115
▁രൂപകൽ	-12116
▁വിത്ത	-12117
▁സ്പോർ	-12118
ങ്ങളോളം	-12119
സംവിധാന	-12120
ിച്ചുപോ	-12121
▁എസ്എഫ്	-12122
▁കോട്ടയ	-12123
▁സ്പീഡ്	-12124
ക്കുമായി	-12125
▁കൈയില്‍	-12126
▁ക്ലബ്ബ്	-12127
▁ടെലികോം	-12128
▁ശര്‍മ്മ	-12129
റിന്റെയും	-12130
▁ഡെമോക്രാ	-12131
▁തിയേറ്ററ	-12132
▁മുന്നണിയ	-12133
ുമെങ്കിലും	-12134
▁ചന്ദ്രന്‍	-12135
▁ഡോക്ടർമാർ	-12136
▁അഖിലേന്ത്യ	-12137
▁നിരോധനാജ്ഞ	-12138
▁പരിശോധനയിൽ	-12139
▁പഴക്കമുള്ള	-12140
▁പോസ്റ്റര്‍	-12141
▁സാധിക്കാത്ത	-12142
▁ഒഴിവാക്കാന്‍	-12143
▁പാര്‍ട്ടിക്ക	-12144
▁ഉപയോഗിക്കാന്‍	-12145
▁വന്നിട്ടുണ്ട്	-12146
▁കഴിഞ്ഞിട്ടില്ല	-12147
▁പ്രതികരണവുമായി	-12148
.15	-12149
▁ബൊ	-12150
▁ഷേ	-12151
കണ്ണ	-12152
സംസ്	-12153
ുപരി	-12154
▁താള	-12155
▁നിഴ	-12156
ച്ചിറ	-12157
ലിന്‍	-12158
▁മരവി	-12159
▁മോസ്	-12160
▁വിനയ	-12161
കഴിഞ്ഞ	-12162
ന്ത്യം	-12163
മാന്റെ	-12164
ിയേയും	-12165
▁ഇന്‍ഫ	-12166
▁ചട്ടം	-12167
ട്ടിന്‍	-12168
▁ഇതിഹാസ	-12169
▁തികഞ്ഞ	-12170
▁മുസ്തഫ	-12171
▁സംവരണം	-12172
േറ്റില്‍	-12173
▁തോതില്‍	-12174
▁ധര്‍മ്മ	-12175
▁മഹാത്മാ	-12176
▁സംസ്കാര	-12177
▁ആപ്പിള്‍	-12178
▁മാറുന്നു	-12179
▁മൂന്നുപേ	-12180
▁സന്ദര്‍ഭ	-12181
▁ഫെസ്റ്റിവ	-12182
▁അംഗങ്ങളുടെ	-12183
▁കര്‍ഷകരുടെ	-12184
▁കേസെടുത്ത്	-12185
▁പരാതിക്കാര	-12186
▁എന്താണെന്ന്	-12187
▁ചെയ്യേണ്ടത്	-12188
▁തീരുമാനമായി	-12189
▁പിരിച്ചുവിട	-12190
▁പൊട്ടിത്തെറ	-12191
▁രാത്രിയില്‍	-12192
▁അറസ്റ്റിലായി	-12193
▁ചിത്രീകരിക്ക	-12194
▁പ്രസ്താവനയില്‍	-12195
▁വിമര്‍ശനവുമായി	-12196
തിനെത്തുടര്‍ന്ന്	-12197
▁കമ്മ്യൂണിസ്റ്റ്	-12198
▁മാധ്യമപ്രവർത്തക	-12199
95	-12200
ോല	-12201
▁63	-12202
▁ലൗ	-12203
രാതന	-12204
സ്ഥി	-12205
ാത്യ	-12206
ാദിയ	-12207
ർമാർ	-12208
▁ഡയല	-12209
▁ഡെല	-12210
▁താവ	-12211
▁നാസ	-12212
▁രാശ	-12213
▁റൂറ	-12214
tinue	-12215
എയുടെ	-12216
ഘട്ടം	-12217
നേയും	-12218
ികളില	-12219
ോട്ടെ	-12220
▁ഒഡീഷ	-12221
▁പിക്	-12222
▁മീനാ	-12223
ിറങ്ങി	-12224
ിലില്‍	-12225
▁അംബാസ	-12226
▁ഇലക്ഷ	-12227
▁കുണ്ട	-12228
▁ചേരും	-12229
▁പ്രാവ	-12230
▁സംഗമം	-12231
▁ഹോണ്ട	-12232
ക്ടീരിയ	-12233
ിടയില്‍	-12234
▁സാക്ഷി	-12235
▁ഹോട്ടൽ	-12236
സിലേക്ക്	-12237
▁reading	-12238
▁ആദ്യകാല	-12239
▁വിചിത്ര	-12240
▁continue	-12241
▁മാദ്ധ്യമ	-12242
▁വ്യായാമം	-12243
▁സുബ്രഹ്മ	-12244
▁ഉണ്ടാക്കി	-12245
▁എതിര്‍പ്പ	-12246
▁കച്ചവടക്ക	-12247
▁യുവാക്കളെ	-12248
▁സമയത്താണ്	-12249
▁സ്ഥാനാർഥി	-12250
▁മനുഷ്യന്റെ	-12251
▁രാഹുലിന്റെ	-12252
▁മണിയോടെയാണ്	-12253
പ്പിക്കാനുള്ള	-12254
▁വിദ്യാര്‍ത്ഥിന	-12255
28	-12256
ൂണ	-12257
േഴ	-12258
ർല	-12259
▁ഠ	-12260
ഡോണ	-12261
ാഥ്	-12262
ൊതു	-12263
ംബരം	-12264
രനും	-12265
വാരി	-12266
▁നെത	-12267
▁റോബ	-12268
കരാണ്	-12269
തകള്‍	-12270
ദേശീയ	-12271
▁അറബി	-12272
▁ആതിഥ	-12273
▁ബാഡ്	-12274
▁അസുഖം	-12275
▁ആദ്മി	-12276
▁കരുതല	-12277
▁കേവലം	-12278
▁ബെല്‍	-12279
▁മുള്ള	-12280
സിഡന്റ്	-12281
ുവര്‍ഷം	-12282
▁തെക്ക്	-12283
▁നിലയില	-12284
▁നിശബ്ദ	-12285
▁മാർഗ്ഗ	-12286
▁വർക്ക്	-12287
റ്റുകളും	-12288
▁അനുവാദം	-12289
▁അലങ്കാര	-12290
▁കല്യാണം	-12291
▁സയന്‍സ്	-12292
▁അറിയാന്‍	-12293
▁എന്നിവയെ	-12294
▁തര്‍ക്കം	-12295
▁പ്രകാശനം	-12296
ിരുന്നതായി	-12297
▁അറിയിപ്പ്	-12298
▁നാരായണന്‍	-12299
▁പോസിറ്റീവ	-12300
▁യുണൈറ്റഡ്	-12301
▁സംഘത്തിലെ	-12302
▁സ്വീകാര്യ	-12303
▁എത്രത്തോളം	-12304
▁തൊഴിലാളികൾ	-12305
▁പുറത്തുവിട	-12306
▁പ്രകടനമാണ്	-12307
▁ഗുരുതരാവസ്ഥ	-12308
▁ദിവസങ്ങളായി	-12309
▁മറ്റുള്ളവരെ	-12310
▁മലപ്പുറത്ത്	-12311
ോടനുബന്ധിച്ച്	-12312
▁കഴിഞ്ഞിട്ടും	-12313
▁സെക്രട്ടറിയുടെ	-12314
44	-12315
പാറ	-12316
▁ഗേ	-12317
ഞ്ഞി	-12318
ദ്ദീ	-12319
ന്തൽ	-12320
വലപ്	-12321
▁ഇതെ	-12322
▁കുര	-12323
▁ചെട	-12324
▁ചൗധ	-12325
▁സിമ	-12326
▁സെല	-12327
ഫിക്ക	-12328
യിംസ്	-12329
വിച്ച	-12330
്യവും	-12331
▁അവയെ	-12332
▁ആഹ്ല	-12333
▁ഐസക്	-12334
▁ടോസ്	-12335
▁പവന്	-12336
▁റിയൽ	-12337
▁വലതു	-12338
ങ്ങല്‍	-12339
ചിത്രം	-12340
നികുതി	-12341
ാവകാശം	-12342
ീസില്‍	-12343
▁ഊർജ്ജ	-12344
▁ധ്യാന	-12345
▁നിവേദ	-12346
ാനിയുടെ	-12347
▁ഗേറ്റ്	-12348
▁ടീമിലെ	-12349
▁ലിറ്റർ	-12350
▁ജയസൂര്യ	-12351
▁തൂങ്ങിമ	-12352
▁വ്യക്തത	-12353
▁കണ്ടാല്‍	-12354
▁കയ്യില്‍	-12355
▁പതിനൊന്ന	-12356
▁പറയുകയും	-12357
▁ഫാസ്റ്റ്	-12358
▁വിറ്റാമി	-12359
ങ്ങളുടേയും	-12360
മാകുമെന്ന്	-12361
▁അത്യാവശ്യ	-12362
▁ഇതോടൊപ്പം	-12363
▁എന്നിവയിൽ	-12364
▁പൊലീസില്‍	-12365
▁ഭര്‍ത്താവി	-12366
▁സമ്മതിച്ചു	-12367
▁ഗുജറാത്തിലെ	-12368
▁വ്യക്തിയാണ്	-12369
▁മലയാളത്തില്‍	-12370
▁നിര്‍ദേശിച്ചു	-12371
at	-12372
▁99	-12373
▁ഡൈ	-12374
▁വു	-12375
ണ്ണയ	-12376
തിലെ	-12377
ന്താ	-12378
രൂപം	-12379
സേനാ	-12380
▁അവള	-12381
▁ഗവൺ	-12382
▁ലാബ	-12383
ജീരിയ	-12384
പ്രായ	-12385
▁അഭില	-12386
▁കേടു	-12387
▁ദേവ്	-12388
▁ശൈലി	-12389
ഫിന്റെ	-12390
ാലില്‍	-12391
▁കരഞ്ഞ	-12392
▁പവര്‍	-12393
▁മജീദ്	-12394
▁സങ്കട	-12395
ടുക്കും	-12396
▁കണ്‍വെ	-12397
▁ചൊല്ലി	-12398
▁ദുല്‍ഖ	-12399
▁നൗഷാദ്	-12400
▁മടക്കി	-12401
▁വിനീത്	-12402
ിരിക്കണം	-12403
▁എന്‍ജിന	-12404
▁പോളിംഗ്	-12405
▁ഫിലിപ്പ	-12406
▁മാറുന്ന	-12407
ാന്തിന്റെ	-12408
▁ഇടപെട്ട്	-12409
▁ദിവസങ്ങൾ	-12410
▁യാഥാര്‍ഥ	-12411
▁സ്വീകരണം	-12412
▁ഡോക്ടറുടെ	-12413
▁നല്‍കാനും	-12414
▁ലോക്ഡൗണ്‍	-12415
▁വിജയിച്ചു	-12416
▁സമരത്തിന്	-12417
▁സമ്പൂര്‍ണ	-12418
ക്കെതിരെയും	-12419
ന്മാര്‍ക്ക്	-12420
▁തീര്‍ത്തും	-12421
▁കൊട്ടാരക്കര	-12422
▁മൂവാറ്റുപുഴ	-12423
▁വ്യക്തിയുടെ	-12424
രിക്കുമെന്നും	-12425
ിട്ടുണ്ടെന്നാണ്	-12426
നേത	-12427
മാച	-12428
ഗ്ഗം	-12429
▁ജാന	-12430
▁യുപ	-12431
▁വാഗ	-12432
▁സായ	-12433
ചിന്ത	-12434
മാണിത	-12435
മ്പുഴ	-12436
▁ഉത്ര	-12437
▁ദാസ്	-12438
▁പുനല	-12439
▁പോസ്	-12440
ക്കല്ല	-12441
ഡിയുടെ	-12442
▁ക്രീം	-12443
▁നടനും	-12444
▁ബുള്ള	-12445
▁വിജയി	-12446
▁ശല്യം	-12447
ത്തോടും	-12448
▁ഈടാക്ക	-12449
▁ട്രോഫി	-12450
▁തണുത്ത	-12451
▁ലൈസൻസ്	-12452
▁സമീപനം	-12453
ുണ്ടാക്ക	-12454
▁എൻജിനീയ	-12455
▁ത്രില്ല	-12456
▁നടിയുടെ	-12457
▁മംഗളൂരു	-12458
▁വര്‍ഗ്ഗ	-12459
▁വിജയരാഘ	-12460
രാഷ്ട്രീയ	-12461
ുണ്ടാക്കി	-12462
▁രക്തസമ്മ	-12463
▁സ്വർണക്ക	-12464
▁കള്ളപ്പണം	-12465
▁നടത്താനും	-12466
▁ഭാഗങ്ങളിൽ	-12467
▁വ്യക്തിഗത	-12468
▁ചെയ്യുകയാണ്	-12469
▁വര്‍ഷത്തില്‍	-12470
▁വിവാദത്തില്‍	-12471
▁മമ്മൂട്ടിയുടെ	-12472
▁സംവിധാനങ്ങള്‍	-12473
▁ഹൈക്കോടതിയുടെ	-12474
▁ചിത്രത്തിന്‍റെ	-12475
us	-12476
മാം	-12477
റസ്	-12478
സാഹ	-12479
ാദി	-12480
ൊഴു	-12481
▁8,	-12482
▁കഫ	-12483
പിയെ	-12484
ര്‍ഹ	-12485
ൊറ്റ	-12486
▁ജവാ	-12487
▁ജാഥ	-12488
▁രുച	-12489
▁റമദ	-12490
എംഎസ്	-12491
നാള്‍	-12492
▁അർജു	-12493
▁ഗ്രേ	-12494
▁ഗൾഫ്	-12495
▁ബെംഗ	-12496
▁ഏജന്റ	-12497
▁ചാടിയ	-12498
▁നിറയെ	-12499
▁പകല്‍	-12500
▁പറയാന	-12501
▁മായാവ	-12502
തായാലും	-12503
മാരെയും	-12504
ര്‍ക്കെ	-12505
ാവുമായി	-12506
േരിയിലെ	-12507
▁ക്വട്ട	-12508
▁ജലീല്‍	-12509
▁ട്രേഡ്	-12510
▁ബെന്നി	-12511
▁മുമ്പേ	-12512
▁സ്മൃതി	-12513
▁സ്റ്റെ	-12514
▁ഹാരിസ്	-12515
ിലൂടെയും	-12516
▁അടച്ചിട	-12517
▁ഒന്‍പത്	-12518
▁നടത്തണം	-12519
▁നായരുടെ	-12520
▁പരാതിയെ	-12521
▁വാതില്‍	-12522
▁സ്ഥിതിയ	-12523
ിക്കൊപ്പം	-12524
▁ആശംസകള്‍	-12525
▁മുരളീധരൻ	-12526
ുവെങ്കിലും	-12527
▁ചുരുങ്ങിയ	-12528
▁വൈകുന്നേര	-12529
▁കുറയ്ക്കാൻ	-12530
▁ചുമതലയുള്ള	-12531
▁പാർട്ടിയിൽ	-12532
▁ഫോട്ടോഗ്രാ	-12533
▁മാസത്തില്‍	-12534
▁ആവശ്യങ്ങള്‍	-12535
▁പ്രിൻസിപ്പൽ	-12536
▁മാനദണ്ഡങ്ങൾ	-12537
▁രംഗത്തുവന്ന	-12538
▁നിയന്ത്രിക്ക	-12539
▁പ്രശ്നങ്ങള്‍	-12540
▁വേണമെങ്കിലും	-12541
▁എന്നിവര്‍ക്ക്	-12542
ിക്കുന്നുവെന്ന്	-12543
▁സാമ്പത്തികമായി	-12544
▁വര്‍ഷങ്ങള്‍ക്ക്	-12545
ണമേ	-12546
ാർജ	-12547
ോമാ	-12548
▁അഡ	-12549
ഭാസ്	-12550
വാസി	-12551
▁അനാ	-12552
▁ഇവര	-12553
▁ഡീല	-12554
▁ബാവ	-12555
നെന്ന	-12556
ഷ്ണുത	-12557
ിലുളള	-12558
▁കെയ്	-12559
▁ക്ഷീ	-12560
▁ജനതാ	-12561
▁ടണ്‍	-12562
▁പുലി	-12563
▁വാതക	-12564
നിയുടെ	-12565
ലിയുടെ	-12566
ലേറ്റ്	-12567
േശ്വരം	-12568
▁അനീഷ്	-12569
▁ആൻഡ്ര	-12570
▁ഉയര്‍	-12571
▁പ്രോസ	-12572
▁യൂനിയ	-12573
▁വകഭേദ	-12574
ലിന്‍റെ	-12575
▁അച്ഛനെ	-12576
▁ജ്വല്ല	-12577
▁ഡിപ്പോ	-12578
▁ഡിസിസി	-12579
▁തരൂര്‍	-12580
▁മാനേജർ	-12581
സ്ഥലത്ത്	-12582
▁ആധിപത്യ	-12583
▁എല്ലായ്	-12584
▁കുടുങ്ങ	-12585
▁കോണ്‍സു	-12586
▁ദുര്‍ബല	-12587
▁പുതുമുഖ	-12588
▁മലപ്പുറ	-12589
▁മുറിയിൽ	-12590
▁സംഘടനകൾ	-12591
ിച്ചെന്ന്	-12592
ുകളെല്ലാം	-12593
▁ഇന്ധനവില	-12594
▁കസ്റ്റഡി	-12595
▁പുതിയൊരു	-12596
▁വിരമിച്ച	-12597
▁സീറ്റുകൾ	-12598
യ്ക്കെതിരെ	-12599
▁രൂപയുമാണ്	-12600
▁ശബരിമലയിൽ	-12601
▁സൈറ്റില്‍	-12602
▁ഇരിക്കുന്ന	-12603
▁ചികിത്സയിൽ	-12604
▁തയാറാക്കിയ	-12605
▁പണിമുടക്ക്	-12606
▁മിക്കവാറും	-12607
▁ആരോഗ്യകരമായ	-12608
▁ഉന്നയിച്ചത്	-12609
▁ഉപതിരഞ്ഞെടു	-12610
ിച്ചായിരുന്നു	-12611
▁കൊണ്ടുവരുന്ന	-12612
▁ചിത്രങ്ങളാണ്	-12613
▁നടത്തുമെന്ന്	-12614
▁മാതാപിതാക്കൾ	-12615
▁ഉള്‍പ്പെടുത്ത	-12616
▁മലയാളത്തിന്റെ	-12617
▁വരാനിരിക്കുന്ന	-12618
ബേ	-12619
റൽ	-12620
ോൺ	-12621
വിപ	-12622
ശീല	-12623
▁77	-12624
ഷ്യൻ	-12625
▁ടൂർ	-12626
▁തകര	-12627
കൊറിയ	-12628
ജ്രിവ	-12629
താര്യ	-12630
തിന്‍	-12631
മില്‍	-12632
രണവും	-12633
▁നികു	-12634
▁പിറക	-12635
▁പേടി	-12636
▁ബച്ച	-12637
▁മിഥു	-12638
▁ലൈവ്	-12639
▁വിയോ	-12640
▁സലാം	-12641
ങ്ങളുമ	-12642
ുടനീളം	-12643
▁ഈജിപ്	-12644
▁എംബസി	-12645
▁ഓപ്ഷന	-12646
▁കൺവീന	-12647
▁പാചകം	-12648
▁മനോരമ	-12649
▁റിക്ര	-12650
▁സംഖ്യ	-12651
▁സമാജ്	-12652
പോലുള്ള	-12653
▁ഉരുള്‍	-12654
▁ഇടക്കാല	-12655
▁ത്രിപുര	-12656
▁വേറിട്ട	-12657
▁ശങ്കര്‍	-12658
▁സ്പിന്ന	-12659
ിക്കെട്ട്	-12660
▁പാലിച്ച്	-12661
▁വെള്ളവും	-12662
സെക്രട്ടറി	-12663
▁ഇല്ലെന്ന്	-12664
▁ജോലിയില്‍	-12665
▁നടപടികളും	-12666
▁പ്രതിയുടെ	-12667
▁റിലയന്‍സ്	-12668
▁റെക്കോർഡ്	-12669
▁സംഘടനകളും	-12670
▁സംഘത്തിന്	-12671
ങ്ങളിലേക്കും	-12672
▁സുപ്രിംകോടതി	-12673
ിക്കുന്നതെന്ന്	-12674
▁ഉത്തരവാദിത്വം	-12675
▁കര്‍ഷകര്‍ക്ക്	-12676
▁സുഹൃത്തുക്കളും	-12677
▁മഹാരാഷ്ട്രയില്‍	-12678
▁മാധ്യമങ്ങളിലൂടെ	-12679
ാരു	-12680
▁(8	-12681
▁ജേ	-12682
▁ലഹ	-12683
▁ഷീ	-12684
പ്പൻ	-12685
വേഴ്	-12686
ാപുര	-12687
▁ഓടെ	-12688
▁നബി	-12689
▁സാല	-12690
പേക്ഷ	-12691
▁കോളി	-12692
▁ഗവർണ	-12693
▁പണ്ട	-12694
▁ഫിനി	-12695
ട്രിക്	-12696
വെയാണ്	-12697
▁ഞായറാ	-12698
▁ടെക്ന	-12699
▁പ്രകൃ	-12700
▁മണല്‍	-12701
▁വൃക്ഷ	-12702
കാരിയായ	-12703
െയുമാണ്	-12704
▁ഇസ്ലാം	-12705
▁ഉറക്കം	-12706
▁കമന്റ്	-12707
▁പറയാതെ	-12708
▁മുടങ്ങ	-12709
▁രാജശേഖ	-12710
▁റേഞ്ച്	-12711
▁ലോക്സഭ	-12712
▁വന്നാൽ	-12713
ത്തെത്തി	-12714
▁ആര്‍ത്ത	-12715
▁ഇംഗ്ലീഷ	-12716
▁കാഴ്ച്ച	-12717
▁പരിരക്ഷ	-12718
▁വിലക്കേ	-12719
▁സതീശന്‍	-12720
▁ഒരുപക്ഷേ	-12721
▁താഴേക്ക്	-12722
▁നിർത്തിയ	-12723
▁പോര്‍ട്ട	-12724
▁കൈമാറിയത്	-12725
▁ചെയ്യാത്ത	-12726
▁താരത്തിന്	-12727
▁ഭൂമിയില്‍	-12728
▁വസ്തുക്കൾ	-12729
▁വേദിയില്‍	-12730
▁സൂപ്രണ്ട്	-12731
▁അങ്ങനെയാണ്	-12732
▁മനസ്സിലാക്ക	-12733
▁വിട്ടുവീഴ്ച	-12734
▁വെളിച്ചെണ്ണ	-12735
▁ക്രിസ്ത്യന്‍	-12736
▁വിദ്യാര്‍ഥിന	-12737
▁വിഷയങ്ങളില്‍	-12738
▁മഹാരാഷ്ട്രയിലെ	-12739
.10	-12740
2),	-12741
ഗാന	-12742
സുധ	-12743
▁ചമ	-12744
▁ഡൊ	-12745
▁ശീ	-12746
നമ്മ	-12747
പിസി	-12748
ബല്‍	-12749
ിവരെ	-12750
▁800	-12751
▁ജിഷ	-12752
▁സകല	-12753
▁സിഎ	-12754
▁സൗര	-12755
ചാര്‍	-12756
ഭക്ഷണ	-12757
ൊത്ത്	-12758
▁അനായ	-12759
▁വരാൻ	-12760
ക്കുളം	-12761
യ്ക്കൽ	-12762
ായില്‍	-12763
▁ക്കും	-12764
▁ചൊവ്വ	-12765
▁പ്ലാൻ	-12766
പോർട്ട്	-12767
▁അതിരൂപ	-12768
▁അതിവേഗ	-12769
▁നല്കിയ	-12770
▁നാലുപേ	-12771
▁ഭാഗ്യം	-12772
▁വടക്കേ	-12773
യോടൊപ്പം	-12774
ുകൊണ്ടും	-12775
▁പൊലീസിൽ	-12776
പ്പെടാന്‍	-12777
▁നവോത്ഥാന	-12778
▁പേർക്കും	-12779
▁പോലെയാണ്	-12780
▁സെഷന്‍സ്	-12781
▁ഉയരുന്നത്	-12782
▁കൈക്കൊള്ള	-12783
▁തോന്നുന്ന	-12784
▁സൂക്ഷിച്ച	-12785
ിരിക്കെയാണ്	-12786
▁ഇങ്ങനെയൊരു	-12787
▁ഒരാള്‍ക്ക്	-12788
▁മേല്‍നോട്ട	-12789
▁ലൈംഗികമായി	-12790
▁വരുത്തുന്ന	-12791
▁സ്ഥാപനങ്ങൾ	-12792
▁കാത്തിരിപ്പ	-12793
▁മാധ്യമങ്ങളെ	-12794
▁വിമാനങ്ങള്‍	-12795
▁സമ്മര്‍ദ്ദം	-12796
ില്ലായിരുന്നു	-12797
▁ബുദ്ധിമുട്ട്	-12798
▁ലക്ഷ്യമിട്ട്	-12799
▁സീറ്റുകളില്‍	-12800
ul	-12801
ഹൗ	-12802
▁ടർ	-12803
▁തഹ	-12804
ജീബ്	-12805
ടാണ്	-12806
നയും	-12807
നിക്	-12808
രുടേ	-12809
റങ്ങ	-12810
▁ആരി	-12811
▁ഏഴി	-12812
▁ശിഖ	-12813
ഐയുടെ	-12814
കാരണം	-12815
ദ്വാര	-12816
▁2004	-12817
▁അഗ്ര	-12818
▁പരിയ	-12819
പെട്ടു	-12820
വിലാണ്	-12821
ഷ്യന്‍	-12822
സിറ്റ്	-12823
▁കണ്ണട	-12824
▁നവാസ്	-12825
▁പാശ്ച	-12826
▁സന്യാ	-12827
വുമുള്ള	-12828
▁ബാലന്‍	-12829
▁വടക്കൻ	-12830
▁അത്രയും	-12831
▁ഉന്നതതല	-12832
▁എന്തിന്	-12833
▁കൊടുങ്ങ	-12834
▁തന്നോട്	-12835
▁നേരിടാൻ	-12836
▁പ്രദേശ്	-12837
മല്ലെന്ന്	-12838
▁ഇന്നിംഗ്	-12839
▁ഉച്ചയോടെ	-12840
▁മജിസ്ട്ര	-12841
മല്ലെന്നും	-12842
▁കേരളത്തില	-12843
▁പരാതികള്‍	-12844
▁മുമ്പില്‍	-12845
തായിരിക്കും	-12846
▁കാഴ്ചപ്പാട	-12847
▁നോട്ടുകള്‍	-12848
▁വേണ്ടെന്ന്	-12849
▁ശ്രീജിത്ത്	-12850
▁സിസ്റ്റര്‍	-12851
▁നടത്താനുള്ള	-12852
▁കാര്യത്തിലും	-12853
▁എന്നിവയെല്ലാം	-12854
▁സര്‍വ്വകലാശാല	-12855
▁മെച്ചപ്പെടുത്ത	-12856
▁പരിഗണിക്കുന്നത്	-12857
26	-12858
മരം	-12859
ഷഭ്	-12860
ഹാന	-12861
ുലു	-12862
▁ഏൽ	-12863
സാധന	-12864
ീസും	-12865
▁അവഹ	-12866
▁ഡാം	-12867
▁തടി	-12868
▁ബാർ	-12869
▁ഷാന	-12870
ക്കിഴ	-12871
തീവ്ര	-12872
ശ്രമം	-12873
ുമാരി	-12874
▁ചൂടു	-12875
▁ട്രി	-12876
▁പരിഭ	-12877
▁മഹിള	-12878
▁ഷാഫി	-12879
കാരന്‍	-12880
ക്കാരു	-12881
▁കോർപറ	-12882
▁പെൻഷൻ	-12883
▁പോരാട	-12884
▁ബൂത്ത	-12885
സിയില്‍	-12886
▁അനുയോജ	-12887
▁മെഡല്‍	-12888
▁റൂട്ട്	-12889
്ക്കുന്ന	-12890
▁ക്രമസമാ	-12891
▁പ്രകോപന	-12892
▁അഫ്ഗാന്‍	-12893
▁ആരാധനാലയ	-12894
▁കാരണങ്ങള	-12895
▁ഭൂമിയുടെ	-12896
▁സ്ത്രീയെ	-12897
▁ബാക്ടീരിയ	-12898
▁ശ്രീകൃഷ്ണ	-12899
▁കഴിയുമെന്ന്	-12900
▁എന്നിവയ്ക്ക്	-12901
▁ഇതുസംബന്ധിച്ച്	-12902
ur	-12903
ംപ	-12904
മഴ	-12905
ഫോണ	-12906
ശിവ	-12907
▁in	-12908
ോറിയ	-12909
▁ചാട	-12910
▁പെട	-12911
▁പോർ	-12912
▁ബൈഡ	-12913
▁മുഹ	-12914
▁ഡീസൽ	-12915
▁പുറക	-12916
▁മോചന	-12917
▁സിഡി	-12918
ണ്ണാടക	-12919
▁ചൂഷണം	-12920
▁ധാന്യ	-12921
▁മുറിവ	-12922
▁വിലാസ	-12923
▁ശ്യാം	-12924
▁സപ്പോ	-12925
▁ഹൈഡ്ര	-12926
ഡബ്ല്യു	-12927
ിലേക്കെ	-12928
▁ഗ്രേഡ്	-12929
▁ചങ്ങനാ	-12930
▁ബ്രസീല	-12931
നിര്‍മ്മ	-12932
▁ധരിച്ച്	-12933
▁നടത്താന	-12934
▁വേള്‍ഡ്	-12935
സ്ഥാനത്ത്	-12936
▁പൊന്നാനി	-12937
▁രാജ്യസഭാ	-12938
▁ലീഗിന്റെ	-12939
▁വര്‍ദ്ധന	-12940
▁വികസിപ്പ	-12941
▁പരിസരത്ത്	-12942
▁വിവരാവകാശ	-12943
▁സ്റ്റാന്‍	-12944
ുന്നുവെന്ന്	-12945
▁ഇടയ്ക്കിടെ	-12946
▁ഉണ്ടെങ്കിൽ	-12947
▁ഒറ്റയ്ക്ക്	-12948
▁നിന്നുമാണ്	-12949
▁മാനന്തവാടി	-12950
▁രാത്രിയാണ്	-12951
▁സര്‍വ്വീസ്	-12952
പ്രവര്‍ത്തനം	-12953
▁ഉപയോഗിക്കാൻ	-12954
▁എണ്ണത്തില്‍	-12955
▁കണ്ടെടുത്തു	-12956
▁കന്യാസ്ത്രീ	-12957
▁കമ്പനികളുടെ	-12958
▁പരമ്പരയില്‍	-12959
ക്കെതിരെയുള്ള	-12960
▁വിശദാംശങ്ങള്‍	-12961
▁സെക്രട്ടറിയും	-12962
ol	-12963
ടനം	-12964
ബലി	-12965
മേൽ	-12966
ഷ്മ	-12967
്രെ	-12968
▁76	-12969
ദാനം	-12970
ൃശ്യ	-12971
ൻഡറി	-12972
▁ഇൻഫ	-12973
▁ഭൂപ	-12974
▁സാവ	-12975
ല്‍ഡ്	-12976
ുമണിയ	-12977
▁3000	-12978
▁അകലെ	-12979
▁അബ്ബ	-12980
▁അഭയം	-12981
▁കൊടി	-12982
▁വായു	-12983
▁വിളവ	-12984
കൃഷ്ണൻ	-12985
ദ്ദേഹം	-12986
മേശ്വര	-12987
യെയാണ്	-12988
ോട്ടും	-12989
▁അർത്ഥ	-12990
▁ബൗണ്ട	-12991
▁ഭൂമിയ	-12992
▁സെറ്റ	-12993
▁ഹോളിവ	-12994
▁എതിരായ	-12995
▁നമ്മളെ	-12996
▁വാഷിംഗ	-12997
▁ഹ്രസ്വ	-12998
ണമെങ്കിൽ	-12999
▁ആന്ധ്രാ	-13000
▁ചെയ്താൽ	-13001
▁നിർമാണം	-13002
▁പൊളിച്ച	-13003
ക്കായുള്ള	-13004
ാകുമെന്ന്	-13005
▁കഴിഞ്ഞാൽ	-13006
▁ടെലിവിഷൻ	-13007
▁താരങ്ങളെ	-13008
▁നഗരത്തിൽ	-13009
▁പ്രതിജ്ഞ	-13010
രിക്കെതിരെ	-13011
ുപയോഗിച്ച്	-13012
▁രഹസ്യമായി	-13013
▁രാജ്യങ്ങൾ	-13014
▁സെഞ്ച്വറി	-13015
▁എടുക്കാന്‍	-13016
▁തുറക്കുന്ന	-13017
▁നിർമ്മിച്ച	-13018
▁വീടുകളിലും	-13019
ുണ്ടാക്കുന്ന	-13020
▁സാധിക്കുന്ന	-13021
▁ഹര്‍ത്താല്‍	-13022
▁തിരിച്ചെത്തി	-13023
ള്‍പ്പെടെയുള്ള	-13024
▁എന്തുകൊണ്ടാണ്	-13025
▁യാത്രക്കാരുടെ	-13026
▁സ്ഥാപനങ്ങളുടെ	-13027
▁എന്നതായിരുന്നു	-13028
29	-13029
ma	-13030
ണ്ടോ	-13031
യിടെ	-13032
ഷനിൽ	-13033
ാട്ര	-13034
▁ധനു	-13035
▁ബോബ	-13036
▁ഭയം	-13037
ഞാന്‍	-13038
സ്തുത	-13039
ാവാണ്	-13040
▁അനാഥ	-13041
▁ഗുഡ്	-13042
▁ഘടകം	-13043
▁ജോഷി	-13044
▁ഫാസി	-13045
▁സുലൈ	-13046
ക്കാതെ	-13047
നേതാവ്	-13048
▁അനുഷ്	-13049
▁ആരുടെ	-13050
▁ഈശ്വര	-13051
▁ഓസീസ്	-13052
▁കലാപം	-13053
▁ചെയ്‍	-13054
▁യുവമോ	-13055
ങ്ങളോടെ	-13056
▁പുരാതന	-13057
▁ബിനോയ്	-13058
▁മക്കളെ	-13059
▁റാഷിദ്	-13060
▁ഷെയര്‍	-13061
കേന്ദ്രം	-13062
ടുവിലാണ്	-13063
ികെയുള്ള	-13064
▁ചെയർമാന	-13065
▁താലിബാൻ	-13066
▁നാണക്കേ	-13067
▁വൈവിധ്യ	-13068
▁ശുചീകരണ	-13069
▁സന്ദർശന	-13070
▁സേനയുടെ	-13071
ാക്കിയാണ്	-13072
▁എന്‍ഫോഴ്	-13073
▁കൂടുതലും	-13074
▁ദിനത്തിൽ	-13075
▁പാമ്പിനെ	-13076
▁മോര്‍ച്ച	-13077
▁യൂറോപ്യൻ	-13078
▁അണക്കെട്ട	-13079
▁ചാലക്കുടി	-13080
▁തിരിച്ചറി	-13081
▁ഹാജരാക്കി	-13082
▁കാര്യമില്ല	-13083
▁കേസെടുത്തി	-13084
▁ജീവകാരുണ്യ	-13085
▁രാജ്യദ്രോഹ	-13086
മുഖ്യമന്ത്രി	-13087
▁ജീവനക്കാരും	-13088
▁രക്ഷപ്പെട്ട	-13089
▁വിലയിരുത്തൽ	-13090
ിക്കുകയാണെന്ന്	-13091
▁ചുഴലിക്കാറ്റ്	-13092
▁സിപിഎമ്മിന്റെ	-13093
27	-13094
6),	-13095
സ്ക	-13096
ൻ്റ	-13097
▁റൊ	-13098
ടനാശ	-13099
ബ്രി	-13100
▁ജങ്	-13101
ന്യായ	-13102
▁അനിയ	-13103
▁അരുൺ	-13104
▁ചന്ത	-13105
▁അതിലെ	-13106
▁കാത്ത	-13107
▁ചോപ്ര	-13108
▁വിൽപന	-13109
ര്‍പ്പ്	-13110
▁ജൂലായ്	-13111
▁ദൗത്യം	-13112
▁മഹാരാജ	-13113
▁മാർച്ച	-13114
▁സ്വമേധ	-13115
▁സൗഹൃദം	-13116
നിര്‍ദേശ	-13117
നിലയില്‍	-13118
ുകാരന്റെ	-13119
▁ഡോക്ടറെ	-13120
▁വമ്പന്‍	-13121
▁സുതാര്യ	-13122
ത്തിക്കാൻ	-13123
യിലേക്കും	-13124
▁എങ്കില്‍	-13125
▁കണ്‍വന്‍	-13126
▁കാരണമാണ്	-13127
▁നായകനായി	-13128
▁നിന്നായി	-13129
▁മൂന്നിന്	-13130
▁സജീവമാണ്	-13131
▁സാധനങ്ങൾ	-13132
മായതിനാല്‍	-13133
യുണ്ടെന്ന്	-13134
▁അടച്ചിട്ട	-13135
▁ചേർന്നാണ്	-13136
▁ഡൊണാള്‍ഡ്	-13137
▁നിർമ്മാണം	-13138
▁ബൈക്കില്‍	-13139
പ്പിക്കാനും	-13140
▁ക്യാപ്റ്റൻ	-13141
▁സംഭവവുമായി	-13142
▁ഉൾപ്പെടുന്ന	-13143
▁നഷ്ടത്തില്‍	-13144
▁ഒരുങ്ങുന്നത്	-13145
▁സര്‍വീസുകള്‍	-13146
ണമെന്നായിരുന്നു	-13147
▁സ്വര്‍ണക്കടത്ത്	-13148
ലൂ	-13149
▁ൻ	-13150
ണിത	-13151
ബിള	-13152
മാറ	-13153
▁69	-13154
▁രേ	-13155
കണ്ഠ	-13156
പ്രക	-13157
▁ഗുഹ	-13158
▁ദാസ	-13159
▁ഭുവ	-13160
▁മുന	-13161
▁ലൈൻ	-13162
▁ഷീല	-13163
താരാമ	-13164
▁രമേശ	-13165
▁വരവേ	-13166
▁സഊദി	-13167
ത്തോടു	-13168
േറ്റത്	-13169
▁അറ്റ്	-13170
▁എംഎസ്	-13171
▁ഡിസൈൻ	-13172
▁നൽകണം	-13173
▁മലബാർ	-13174
താണെന്ന	-13175
ന്‍ഡര്‍	-13176
▁താക്കോ	-13177
▁പുരട്ട	-13178
▁പ്രമാണ	-13179
▁മുഖ്യാ	-13180
▁അക്കാദമ	-13181
▁കണ്ടുപിട	-13182
▁കൊടുത്ത്	-13183
▁പ്രസ്തുത	-13184
▁സമീപത്ത്	-13185
ത്തേക്കാണ്	-13186
▁ഇസ്ലാമിക്	-13187
▁പിന്നാക്ക	-13188
ിച്ചുവെന്ന്	-13189
▁ഇദ്ദേഹത്തെ	-13190
▁കോട്ടയത്ത്	-13191
▁രോഗവ്യാപനം	-13192
ിച്ചുവെന്നും	-13193
▁ആരോഗ്യപ്രശ്	-13194
▁ഉപകരണങ്ങള്‍	-13195
▁തുടരുമെന്ന്	-13196
▁തൊട്ടുപിന്ന	-13197
▁മരുന്നുകള്‍	-13198
▁മീഡിയയിലൂടെ	-13199
▁ശ്രീകുമാര്‍	-13200
▁കോണ്‍ഗ്രസിനെ	-13201
▁നിര്‍മ്മിച്ച	-13202
▁പ്രതീക്ഷിച്ച	-13203
ിക്കുന്നതിന്റെ	-13204
▁അനുവദിക്കുന്ന	-13205
▁അറിയപ്പെടുന്നത്	-13206
ചു	-13207
ോവ	-13208
999	-13209
ഇഡി	-13210
കിട	-13211
ചില	-13212
തംഭ	-13213
ലാം	-13214
വർഗ	-13215
ളുരു	-13216
ുപറയ	-13217
▁പ്പ	-13218
▁റജി	-13219
▁സിങ	-13220
ജിന്‍	-13221
പിക്സ	-13222
മാവും	-13223
മുദ്ര	-13224
▁അസ്സ	-13225
▁ഷട്ട	-13226
ഞ്ഞുകയ	-13227
യാളുടെ	-13228
രിയിലെ	-13229
▁ഉണ്ടോ	-13230
▁ഡോക്യ	-13231
▁നിഗമന	-13232
▁ബാക്ക	-13233
ത്തീസ്ഗ	-13234
മാകാന്‍	-13235
▁ഇടപെടൽ	-13236
▁ക്രൂരത	-13237
▁തീവണ്ട	-13238
▁നമുക്ക	-13239
▁ബഹുമതി	-13240
▁മാസ്ക്	-13241
▁വാസ്തവ	-13242
▁സമിതിയ	-13243
▁സഹകരണം	-13244
▁സീസണ്‍	-13245
വുമുണ്ട്	-13246
▁അവശിഷ്ട	-13247
▁ട്രിപ്പ	-13248
▁തലത്തിൽ	-13249
▁പറഞ്ഞാൽ	-13250
▁സീതാരാമ	-13251
പ്പെടാത്ത	-13252
▁റണ്‍സാണ്	-13253
▁കാര്‍ത്തി	-13254
▁കുരുമുളക്	-13255
▁താരങ്ങളും	-13256
▁ക്വാര്‍ട്ട	-13257
▁വെള്ളത്തിൽ	-13258
▁ഒറ്റക്കെട്ട	-13259
▁ലഭിക്കുന്നു	-13260
▁വാഹനത്തില്‍	-13261
▁സ്ഥാനത്താണ്	-13262
യുണ്ടായിരുന്ന	-13263
▁സ്ഥാപനങ്ങളും	-13264
▁പ്രചരിപ്പിച്ച	-13265
▁നില്‍ക്കുന്നത്	-13266
▁നിരീക്ഷണത്തില്‍	-13267
▁നേതൃത്വത്തിന്റെ	-13268
▁പെണ്‍കുട്ടികള്‍	-13269
കളോ	-13270
നാഗ	-13271
പാർ	-13272
സാം	-13273
ൈഡ്	-13274
▁ഇഴ	-13275
ഡേഴ്	-13276
ലോസ്	-13277
ാകണം	-13278
▁13,	-13279
▁ഹനീ	-13280
ആപ്പ്	-13281
ക്റ്റ	-13282
നടപടി	-13283
ോടാണ്	-13284
▁ഇവയെ	-13285
▁കൃഷ്	-13286
▁കൊയ്	-13287
▁കോഡ്	-13288
▁ഗോകു	-13289
▁നേഹം	-13290
▁ഭാവന	-13291
▁രൂപത	-13292
▁ഹരിക	-13293
▁ഒന്നോ	-13294
▁ചലഞ്ച	-13295
▁നെടുമ	-13296
▁ബംഗാൾ	-13297
▁ബത്തേ	-13298
▁ളാറ്റ	-13299
▁സംഭരണ	-13300
ണിയില്‍	-13301
റിഞ്ഞത്	-13302
ുകഴിഞ്ഞ	-13303
▁ഏകപക്ഷ	-13304
▁ഷായുടെ	-13305
ാത്തതിനെ	-13306
െടുത്തിയ	-13307
ൊടുവില്‍	-13308
▁ആസൂത്രി	-13309
▁ഒരാളാണ്	-13310
▁ജീവപര്യ	-13311
▁നീക്കിയ	-13312
▁സഹായവും	-13313
▁കാര്യവും	-13314
▁കേസുകളിൽ	-13315
▁ഫോണുകള്‍	-13316
▁വിശ്വസ്ത	-13317
ിക്കെതിരായ	-13318
▁അറിയിച്ച്	-13319
▁കുറ്റപത്ര	-13320
▁ചെയ്തതോടെ	-13321
▁ലക്ഷദ്വീപ	-13322
▁അനുകൂലമായി	-13323
▁ഉന്നയിച്ച്	-13324
▁നിശ്ചയിച്ച	-13325
▁നെയ്യാറ്റി	-13326
▁വയ്ക്കുന്ന	-13327
▁സേവനങ്ങള്‍	-13328
നില്‍ക്കുന്ന	-13329
▁ഏറ്റെടുത്തു	-13330
▁ദിവസത്തിനകം	-13331
▁മാവോയിസ്റ്റ	-13332
▁രോഗപ്രതിരോധ	-13333
▁സംയുക്തമായി	-13334
▁സമ്പര്‍ക്കം	-13335
പ്പിച്ചിരുന്നു	-13336
▁ക്ഷേത്രത്തിലെ	-13337
▁പ്രതിനിധികള്‍	-13338
മാക്കിയിട്ടുണ്ട്	-13339
ഹിക	-13340
▁ഗൊ	-13341
ക്വാ	-13342
▁600	-13343
▁ദുൽ	-13344
▁രശ്	-13345
ച്ചുഗ	-13346
ലിലും	-13347
േഷിനെ	-13348
▁ചാനൽ	-13349
▁വിനി	-13350
▁വിലയ	-13351
▁വൈകി	-13352
▁സായ്	-13353
▁സേവാ	-13354
വരേയും	-13355
▁ജനിതക	-13356
▁തിരിക	-13357
▁ധാരാള	-13358
▁പ്രേം	-13359
▁വർഗ്ഗ	-13360
▁സ്തംഭ	-13361
ശങ്കര്‍	-13362
▁ഇരുപത്	-13363
▁കരിക്ക	-13364
▁കാത്ത്	-13365
▁കാരനായ	-13366
▁പൈപ്പ്	-13367
▁വിധിയെ	-13368
ത്തിയുടെ	-13369
▁ഇരട്ടിയ	-13370
▁കുത്തനെ	-13371
▁കൺട്രോൾ	-13372
▁തക്കാളി	-13373
▁തിയേറ്റ	-13374
▁രംഗത്തു	-13375
▁സജീവമായ	-13376
▁സ്കൂള്‍	-13377
ൊന്നുമല്ല	-13378
▁അപ്പീല്‍	-13379
▁കമ്പനികൾ	-13380
▁കൈക്കൂലി	-13381
▁കോടിയോളം	-13382
▁ഗവേഷകര്‍	-13383
▁ജൂനിയര്‍	-13384
▁തകര്‍ച്ച	-13385
▁പുതുക്കി	-13386
▁സുധീരന്‍	-13387
▁പരിഗണിച്ച	-13388
▁കമ്പനിക്ക്	-13389
▁കഴിക്കാന്‍	-13390
▁ടൂറിസ്റ്റ്	-13391
▁സമൂഹത്തിന്	-13392
▁അമേരിക്കയിൽ	-13393
▁കൂട്ടത്തോടെ	-13394
▁പങ്കുവയ്ക്ക	-13395
▁റിപോര്‍ട്ട്	-13396
▁നിറത്തിലുള്ള	-13397
▁പൂര്‍ത്തിയായ	-13398
▁പ്രോട്ടോക്കോ	-13399
▁നല്‍കുമെന്നും	-13400
ൂക	-13401
.00	-13402
ഗ്ല	-13403
ഭംഗ	-13404
ിത്	-13405
ോളോ	-13406
▁94	-13407
▁98	-13408
▁ഗീ	-13409
▁ശവ	-13410
ത്തൂ	-13411
ശ്രയ	-13412
െറിയ	-13413
▁ഉടല	-13414
▁എംഎ	-13415
▁ദഹന	-13416
▁പുള	-13417
▁മരു	-13418
▁റസാ	-13419
▁റാഫ	-13420
പോര്‍	-13421
പ്തിയ	-13422
ഭവന്‍	-13423
ഴുന്ന	-13424
▁അനുക	-13425
▁എമിറ	-13426
▁ഒഴിയ	-13427
▁ദൈനം	-13428
▁നെടു	-13429
▁ബിനു	-13430
▁ബൗളി	-13431
▁യോജി	-13432
ടിക്ക്	-13433
വിച്ച്	-13434
▁ഇൻഷുറ	-13435
▁ഖത്തർ	-13436
▁പട്ടാ	-13437
▁മകളും	-13438
▁സംസാര	-13439
ചന്ദ്രൻ	-13440
▁അനുഷ്ഠ	-13441
▁ഒരൊറ്റ	-13442
▁കിടപ്പ	-13443
▁ക്യാപ്	-13444
▁നാലിന്	-13445
▁നിറച്ച	-13446
▁മേജര്‍	-13447
▁സാഹസിക	-13448
കര്‍ക്ക്	-13449
ന്‍സില്‍	-13450
ലിലേക്ക്	-13451
ാനാകാത്ത	-13452
▁ആകാംക്ഷ	-13453
▁ഇടിച്ചു	-13454
▁കാട്ടിയ	-13455
▁ഡബ്ല്യു	-13456
▁പ്ലാന്റ	-13457
▁മാസമായി	-13458
▁മൂലമാണ്	-13459
▁വൈകാരിക	-13460
▁സ്കൂളിൽ	-13461
ക്കുള്ളിൽ	-13462
▁അങ്കമാലി	-13463
▁അറിയുന്ന	-13464
▁ആത്മാര്‍	-13465
▁കായംകുളം	-13466
▁ജനിച്ചത്	-13467
▁ദിലീപിനെ	-13468
▁നെഗറ്റീവ	-13469
▁യെച്ചൂരി	-13470
▁റെക്കോഡ്	-13471
▁ശ്രമമാണ്	-13472
▁കാരണമാകും	-13473
▁താല്‍പര്യ	-13474
▁നിയമസഭയിൽ	-13475
▁പൊതുമേഖലാ	-13476
▁സംഭവിച്ചു	-13477
▁മാത്രമുള്ള	-13478
▁വനംവകുപ്പ്	-13479
▁വിധത്തില്‍	-13480
ണ്ടായിരുന്നു	-13481
▁കത്തോലിക്കാ	-13482
▁ചുറ്റുമുള്ള	-13483
▁നേരിട്ടുള്ള	-13484
▁പരാതിയിലാണ്	-13485
▁പരിശോധനകള്‍	-13486
▁പ്രവാസികള്‍	-13487
▁വയനാട്ടില്‍	-13488
▁ഉണ്ടാകുന്നത്	-13489
▁പ്രസിഡന്റായി	-13490
▁ശ്രദ്ധിക്കുക	-13491
▁സമര്‍പ്പിച്ചു	-13492
▁പാര്‍ലമെന്റില്‍	-13493
2-	-13494
20)	-13495
വേല	-13496
േലി	-13497
കരും	-13498
ുഷ്ട	-13499
▁15,	-13500
▁ജ്ഞ	-13501
▁ടിവ	-13502
▁യഥാ	-13503
മിന്ന	-13504
▁ക്ലബ	-13505
▁തത്വ	-13506
▁രേഷ്	-13507
▁റിസ്	-13508
ച്ചര്‍	-13509
ത്തിയെ	-13510
പരിശോധ	-13511
ഴ്ത്തി	-13512
ൂരിലും	-13513
▁ആറിന്	-13514
▁ആളുകള	-13515
▁കുല്‍	-13516
▁താല്പ	-13517
▁ത്യാഗ	-13518
▁പണ്ട്	-13519
▁വിദൂര	-13520
▁ശ്യാമ	-13521
▁സാര്‍	-13522
▁ഹസന്‍	-13523
▁അബുദാബ	-13524
▁കരിച്ച	-13525
▁തലച്ചോ	-13526
▁നാസര്‍	-13527
▁മോശമായ	-13528
▁കണ്ടുമു	-13529
▁കഴിച്ചു	-13530
▁കൂടുന്ന	-13531
▁പൊരുത്ത	-13532
▁മിടുക്ക	-13533
▁വല്ലാതെ	-13534
▁സമ്പ്രദ	-13535
▁സർക്കാര	-13536
യിലുള്ളത്	-13537
▁ഒളിംപിക്	-13538
▁ക്രിമിനൽ	-13539
▁തെളിവുകൾ	-13540
▁പ്രതിഷ്ഠ	-13541
▁വിദേശകാര	-13542
▁വിലയില്‍	-13543
▁സ്ഥാനവും	-13544
▁അവസാനത്തെ	-13545
▁എന്തൊക്കെ	-13546
▁നാട്ടുകാര	-13547
മുണ്ടാക്കിയ	-13548
▁തിരക്കഥാകൃ	-13549
▁നഷ്ടപരിഹാര	-13550
▁വ്യക്തമാണ്	-13551
▁എസ്റ്റേറ്റ്	-13552
▁സെക്കന്‍ഡറി	-13553
▁നല്‍കണമെന്നും	-13554
▁പറഞ്ഞിട്ടുണ്ട്	-13555
▁അന്വേഷണത്തിലാണ്	-13556
▁ജീവനക്കാര്‍ക്ക്	-13557
33	-13558
ew	-13559
ദൂ	-13560
യാൽ	-13561
േനെ	-13562
▁71	-13563
▁ഭവ	-13564
ഗതാഗ	-13565
യുളള	-13566
▁ഇനം	-13567
പാദനം	-13568
ാലിന്	-13569
▁അഹ്മ	-13570
▁ഉരുള	-13571
▁എംഎം	-13572
▁ജനനം	-13573
ത്തന്‍	-13574
റിയാണ്	-13575
ളുത്തി	-13576
▁അസ്വാ	-13577
▁കണ്ണി	-13578
▁ഗുപ്ത	-13579
▁ഡെലിവ	-13580
▁തലപ്പ	-13581
▁നാടകം	-13582
ുകൂടാതെ	-13583
▁അംഗമായ	-13584
▁അക്ഷയ്	-13585
▁അസാധുവ	-13586
▁ആപ്പിൾ	-13587
▁തൊട്ട്	-13588
▁വയോധിക	-13589
▁സമ്പൂർ	-13590
▁സീനിയർ	-13591
▁ക്രീന്‍	-13592
▁ബസുകള്‍	-13593
▁മൂന്നും	-13594
▁രൂപീകരണ	-13595
ക്കാരന്റെ	-13596
▁ആശയക്കുഴ	-13597
▁ഡിവിഷന്‍	-13598
▁നിലകൊള്ള	-13599
▁നേതാവിനെ	-13600
▁പുറത്തായ	-13601
▁പ്രതികാര	-13602
▁വരുമ്പോൾ	-13603
▁സ്റ്റാഫ്	-13604
▁കേസുകളുടെ	-13605
▁പാശ്ചാത്യ	-13606
▁ബാങ്കില്‍	-13607
▁ബാധിക്കും	-13608
▁മുനിസിപ്പ	-13609
▁ശതമാനമായി	-13610
▁കാരണങ്ങള്‍	-13611
▁പിന്തുണച്ച	-13612
▁വഹിക്കുന്ന	-13613
▁സംഭവത്തിന്	-13614
▁ആക്രമണത്തിൽ	-13615
▁വാഹനങ്ങളുടെ	-13616
▁മന്ത്രിമാര്‍	-13617
98	-13618
തനം	-13619
വർഷ	-13620
ാജി	-13621
ാലേ	-13622
ുപൊ	-13623
ൂടി	-13624
ത്യു	-13625
ലോകം	-13626
സായി	-13627
ാഫലം	-13628
ാവുക	-13629
▁അമല	-13630
▁ഒടി	-13631
▁കനക	-13632
▁കിസ	-13633
▁മകള	-13634
▁രത്	-13635
▁വേര	-13636
റിലും	-13637
വിമാന	-13638
സിയും	-13639
▁ഖലീഫ	-13640
▁തയ്യ	-13641
▁തെറി	-13642
▁ഷെരീ	-13643
ക്കിനെ	-13644
നുമാണ്	-13645
ന്താണ്	-13646
റ്റിസ്	-13647
േറ്റഡ്	-13648
▁നങ്ങള	-13649
▁സൽമാൻ	-13650
ക്കാരനെ	-13651
ത്തേക്ക	-13652
പിടിത്ത	-13653
േരിയുടെ	-13654
▁ഉപരോധം	-13655
▁ക്വാഡ്	-13656
▁അടിച്ചമ	-13657
▁ഇതുപോലെ	-13658
▁തനിക്കു	-13659
▁പോപ്പുല	-13660
▁മാറിയത്	-13661
▁രണ്ടിന്	-13662
▁സുന്ദരി	-13663
▁ഹൂസ്റ്റ	-13664
മാണുള്ളത്	-13665
മാരുടെയും	-13666
▁ധോണിയുടെ	-13667
▁വെളിച്ചം	-13668
▁ഒന്നിച്ചു	-13669
▁പരാതിയുടെ	-13670
▁രഞ്ജിത്ത്	-13671
▁രോഗങ്ങള്‍	-13672
▁വകുപ്പിന്	-13673
▁സര്‍ക്കാറ	-13674
▁ഉല്‍പ്പന്ന	-13675
▁ചെയര്‍പേഴ്	-13676
▁ജനങ്ങൾക്ക്	-13677
▁തയ്യാറാക്കി	-13678
▁പിന്തുണയോടെ	-13679
▁തിരഞ്ഞെടുത്ത	-13680
▁രക്ഷിക്കാന്‍	-13681
▁വിമര്‍ശിച്ചു	-13682
▁അഭിമുഖത്തിലാണ്	-13683
▁ഉണ്ടായിരിക്കും	-13684
▁സ്ഥാപനങ്ങളില്‍	-13685
ഞ്ജന	-13686
ഭേദം	-13687
ുകാണ	-13688
ുവർഷ	-13689
ൻസിൽ	-13690
▁ആനി	-13691
▁ഒരോ	-13692
▁മാഗ	-13693
▁ലാൽ	-13694
▁ട്രാ	-13695
▁രാജൻ	-13696
▁ഷോറൂ	-13697
കോട്ട്	-13698
ദേവന്‍	-13699
മണിക്ക	-13700
മാരായി	-13701
ീമീറ്റ	-13702
▁ഇഷ്ടം	-13703
▁ഉത്തേ	-13704
▁ഗുളിക	-13705
▁ധാര്‍	-13706
▁നെയ്യ	-13707
▁പുണ്യ	-13708
▁മാസിക	-13709
▁വട്ടം	-13710
▁വരണ്ട	-13711
▁വിരോധ	-13712
പൂര്‍വം	-13713
▁അവലോകന	-13714
▁ഉത്തരവ	-13715
▁ഡിപ്ലോ	-13716
▁തകർത്ത	-13717
ട്ടിയുടെ	-13718
വാര്‍ത്ത	-13719
െടുക്കുക	-13720
▁കെജ്രിവ	-13721
▁ദക്ഷിണേ	-13722
▁പേരെയും	-13723
▁പ്ലാന്‍	-13724
▁ഫോട്ടോഷ	-13725
▁മുങ്ങിയ	-13726
▁ശ്രീറാം	-13727
▁സ്വത്തു	-13728
▁ഇതൊന്നും	-13729
▁ഛായാഗ്രഹ	-13730
▁വഹിക്കും	-13731
▁സഹകരിക്ക	-13732
▁അനുസരിച്ച	-13733
▁വിജ്ഞാപനം	-13734
▁വൈറസിന്റെ	-13735
▁ഹിന്ദുത്വ	-13736
▁ഒഴിവാക്കാൻ	-13737
▁കശ്മീരില്‍	-13738
▁നിര്‍ബന്ധിത	-13739
▁ഏര്‍പ്പെടുത്ത	-13740
▁പഞ്ചായത്തില്‍	-13741
▁അപ്രതീക്ഷിതമായി	-13742
??	-13743
ഡഡ്	-13744
പകട	-13745
പുറ	-13746
വാൾ	-13747
ീയത	-13748
▁74	-13749
▁97	-13750
▁ആട	-13751
▁കശ	-13752
പരിധ	-13753
രുണാ	-13754
സ്വര	-13755
▁ഓമന	-13756
▁ചലന	-13757
▁താറ	-13758
▁പേശ	-13759
കൂടിയ	-13760
ൗട്ട്	-13761
▁മിസോ	-13762
▁യുകെ	-13763
▁ലാബ്	-13764
▁സെൻസ	-13765
മ്പത്യ	-13766
ുവന്നു	-13767
▁അപ്പോ	-13768
▁ഇടനില	-13769
▁ദയനീയ	-13770
▁ബീഹാറ	-13771
▁രജനീക	-13772
തിനാലും	-13773
ൊരുങ്ങി	-13774
▁ഉച്ചകോ	-13775
▁ഒക്ടോബ	-13776
▁കഥയാണ്	-13777
▁കാലതാമ	-13778
▁കീടനാശ	-13779
▁മന്ദിര	-13780
▁വിഹിതം	-13781
▁സിജന്‍	-13782
▁സിറ്റ്	-13783
തോടൊപ്പം	-13784
▁ഇറ്റലിയ	-13785
▁ഏക്കര്‍	-13786
▁ഡീസലിന്	-13787
▁നിരാഹാര	-13788
▁റിപ്പോർ	-13789
▁ലളിതമായ	-13790
▁ലിയാര്‍	-13791
സിന്റെയും	-13792
▁ഉല്‍പന്ന	-13793
▁താല്‍പ്പ	-13794
▁ബ്രേക്ക്	-13795
▁മക്കളുടെ	-13796
▁മാണിയുടെ	-13797
▁രാജ്യത്ത	-13798
▁സ്പാനിഷ്	-13799
ിച്ചതെന്ന്	-13800
▁കാരണമായത്	-13801
▁നീലേശ്വരം	-13802
മാണെങ്കിലും	-13803
ത്തിലേയ്ക്ക്	-13804
വര്‍ക്കെതിരെ	-13805
▁ഐപിഎല്ലില്‍	-13806
▁ബിജെപിയില്‍	-13807
▁ബിരുദാനന്തര	-13808
▁സിനിമയ്ക്ക്	-13809
▁പങ്കുവെച്ചത്	-13810
▁അത്യാവശ്യമാണ്	-13811
▁ഇതുസംബന്ധിച്ച	-13812
ുണ്ടായിരുന്നില്ല	-13813
ഡാ	-13814
ിള	-13815
നാമ	-13816
പിഎ	-13817
ില്	-13818
▁78	-13819
▁ഏല	-13820
ട്രാ	-13821
നേരെ	-13822
യ്സ്	-13823
ല്ലം	-13824
ാവണം	-13825
ാവാം	-13826
േഷ്ഠ	-13827
▁അമേ	-13828
ന്ദ്യ	-13829
പാപ്പ	-13830
പുസ്ത	-13831
െയല്ല	-13832
▁ടീസ്	-13833
▁യുവി	-13834
പട്ടിക	-13835
പരീക്ഷ	-13836
ാവില്‍	-13837
▁ആക്ട്	-13838
▁ഉപ്പ്	-13839
▁ചേരുവ	-13840
▁തുമ്പ	-13841
▁നൽകുക	-13842
▁പിച്ച	-13843
▁റയല്‍	-13844
▁ലേഖകൻ	-13845
ന്വേഷണം	-13846
ള്‍ക്ക്	-13847
▁ക്ലാസി	-13848
▁തീർത്ഥ	-13849
▁ദിവസേന	-13850
▁പര്യടന	-13851
▁ബൗളര്‍	-13852
▁വായ്പാ	-13853
▁വിലമതി	-13854
പ്രസിദ്ധ	-13855
മാണെന്നു	-13856
▁കണ്ടെയ്	-13857
▁കുഴിച്ച	-13858
▁നൈജീരിയ	-13859
▁പിന്മാറ	-13860
▁ഫൊക്കാന	-13861
▁മോചിപ്പ	-13862
▁കുര്യന്‍	-13863
▁പകര്‍ച്ച	-13864
▁വ്യതിയാന	-13865
വ്യാപകമായി	-13866
▁അര്‍ജുന്‍	-13867
▁അലര്‍ട്ട്	-13868
▁ഇത്തവണയും	-13869
▁ലക്ഷണങ്ങൾ	-13870
▁വാങ്ങിയത്	-13871
സ്റ്റിറ്റിയ	-13872
▁മഞ്ചേശ്വരം	-13873
ുമ്പോഴേക്കും	-13874
ിക്കുന്നതിനിടെ	-13875
▁ചെയ്തിരുന്നത്	-13876
▁തീര്‍ച്ചയായും	-13877
▁സര്‍ക്കാറിന്റെ	-13878
▁നടത്തിയെങ്കിലും	-13879
6-	-13880
tt	-13881
കൈ	-13882
ജാ	-13883
പിയ	-13884
പേര	-13885
▁ഹേ	-13886
tion	-13887
ചര്യ	-13888
▁അഴീ	-13889
▁തീർ	-13890
▁സുൽ	-13891
ക്കകം	-13892
ല്‍സ്	-13893
▁ഉയരം	-13894
▁ടോക്	-13895
▁പോലി	-13896
▁ഫോടന	-13897
▁മാനു	-13898
▁വയ്യ	-13899
ര്‍ണിയ	-13900
സാക്ഷി	-13901
ുമാരായ	-13902
▁ആഹാരം	-13903
▁ഇവരിൽ	-13904
▁ചര്‍മ	-13905
▁പട്ടേ	-13906
▁പണമിട	-13907
▁പ്രാണ	-13908
▁മേഖലാ	-13909
▁വേദനി	-13910
▁സഹപാഠ	-13911
ടിസ്ഥാന	-13912
▁അതിനിട	-13913
▁ഷെയ്ഖ്	-13914
കളെല്ലാം	-13915
ക്കാട്ട്	-13916
ുകളുമാണ്	-13917
▁താരമായി	-13918
▁ബാലഭാസ്	-13919
▁മാറ്റാൻ	-13920
ത്തേക്കും	-13921
▁ഇടയ്ക്ക്	-13922
▁വിജയലക്ഷ	-13923
ുണ്ടെങ്കിൽ	-13924
▁അപകടകരമായ	-13925
▁നഷ്ടമായത്	-13926
▁കല്‍പ്പറ്റ	-13927
▁കുട്ടിക്ക്	-13928
▁ലക്ഷദ്വീപ്	-13929
▁ശരീരത്തിന്	-13930
▁പാര്‍ട്ടിയെ	-13931
▁സ്വീകരിച്ച്	-13932
മായിരുന്നില്ല	-13933
ിക്കുന്നതായും	-13934
▁ഉമ്മന്‍ചാണ്ട	-13935
▁എംഎല്‍എമാര്‍	-13936
▁കാര്യങ്ങളാണ്	-13937
▁വിളിക്കുന്നത്	-13938
▁ആവശ്യപ്പെടുന്ന	-13939
▁യൂണിവേഴ്സിറ്റി	-13940
▁ജീവിതത്തിലേക്ക്	-13941
▁തിരഞ്ഞെടുപ്പിന്	-13942
el	-13943
സൻ	-13944
യുവ	-13945
ാല്	-13946
ികാ	-13947
▁83	-13948
▁ഡ്	-13949
▁പർ	-13950
▁ലഡ	-13951
ക്യാ	-13952
ന്നത	-13953
രാതെ	-13954
റിക്	-13955
വിക്	-13956
്രുവ	-13957
▁350	-13958
▁ജനന	-13959
▁ജവഹ	-13960
▁പാള	-13961
▁ബാര	-13962
▁റോയ	-13963
ട്ടെയ	-13964
പിഎഫ്	-13965
മ്മിക	-13966
വിവാഹ	-13967
ോട്ടു	-13968
▁നിധി	-13969
▁മണ്ട	-13970
▁സുഖം	-13971
▁സൈഡ്	-13972
▁സ്യൂ	-13973
പ്രകാശ	-13974
സംബന്ധ	-13975
ാനായത്	-13976
▁കാറും	-13977
▁തങ്ങള	-13978
▁നമ്മള	-13979
▁പാന്‍	-13980
▁വിള്ള	-13981
▁ശ്രീമ	-13982
▁ഹിമാച	-13983
ക്കേസിൽ	-13984
തോതില്‍	-13985
▁അടൂര്‍	-13986
▁അതുവഴി	-13987
▁ഉൽപന്ന	-13988
▁കാറ്റഗ	-13989
▁ക്ഷാമം	-13990
▁യാത്രയ	-13991
▁റോഡരിക	-13992
▁വ്യോമാ	-13993
രിപ്പാട്	-13994
ുവരുന്നു	-13995
▁ലാന്‍ഡ്	-13996
▁വില്ലേജ	-13997
▁വിശകലനം	-13998
▁അമിതമായി	-13999
▁തിരുത്തി	-14000
▁നിറവേറ്റ	-14001
▁പോസിറ്റി	-14002
▁മലിനീകരണ	-14003
▁സങ്കീര്‍	-14004
ത്തിനിരയായ	-14005
ിലായിരുന്ന	-14006
▁ആയുര്‍വേദ	-14007
▁മത്സരങ്ങൾ	-14008
▁റെയില്‍വെ	-14009
▁വ്യാഖ്യാന	-14010
▁സെപ്റ്റംബ	-14011
ചെയ്യുന്നത്	-14012
തിനേക്കാള്‍	-14013
ത്തിനെതിരായ	-14014
ത്തിനെത്തിയ	-14015
മാക്കിയുള്ള	-14016
വകുപ്പിന്റെ	-14017
▁കമ്മീഷന്റെ	-14018
▁നായകനാക്കി	-14019
▁നിയമപരമായി	-14020
▁പഠിക്കാന്‍	-14021
▁മണിക്കൂറിൽ	-14022
വിട്ടിരുന്നു	-14023
▁ക്രമീകരിക്ക	-14024
▁പ്രസിഡന്റും	-14025
▁വെളുത്തുള്ള	-14026
▁ദക്ഷിണേന്ത്യ	-14027
▁മനസ്സിലാക്കി	-14028
▁എല്ലാവരുടെയും	-14029
▁തിരിച്ചടിയായി	-14030
▁ഭര്‍ത്താവിന്റെ	-14031
ിക്കുന്നുവെന്നും	-14032
മൊ	-14033
ർഭ	-14034
മുന	-14035
▁96	-14036
കമ്പ	-14037
ക്യം	-14038
താണു	-14039
നല്ല	-14040
മുറി	-14041
ര്‍ഘ	-14042
വിളി	-14043
▁ശിശ	-14044
നാല്‍	-14045
ഷനല്‍	-14046
▁2022	-14047
▁കുംഭ	-14048
▁ജനുവ	-14049
▁നൂതന	-14050
▁ബഹ്റ	-14051
▁ബോധി	-14052
▁മൗനം	-14053
▁വാദി	-14054
▁സെലി	-14055
മാറ്റി	-14056
ര്‍ബാന	-14057
ിടത്ത്	-14058
▁ഓർത്ത	-14059
▁കൊമ്പ	-14060
▁ഗൂഗിൾ	-14061
▁ചീത്ത	-14062
▁ഡാനിയ	-14063
▁ധര്‍മ	-14064
▁രാമായ	-14065
▁സായുധ	-14066
ക്കേറിയ	-14067
ട്ടുന്ന	-14068
ത്തിനിറ	-14069
പ്പിലും	-14070
ിലായാണ്	-14071
▁20,000	-14072
▁അശ്വതി	-14073
▁ഇന്ദിര	-14074
▁എംപ്ലോ	-14075
▁പന്തളം	-14076
▁ഫൈസല്‍	-14077
▁മദ്ധ്യ	-14078
▁മറ്റേത	-14079
▁ലേബര്‍	-14080
ക്ഷേത്രം	-14081
വിനെതിരെ	-14082
▁അപൂര്‍വ	-14083
▁അയച്ചത്	-14084
▁കോളജിലെ	-14085
▁പകരുന്ന	-14086
▁ശരിയല്ല	-14087
പ്പെടേണ്ട	-14088
ാനൊരുങ്ങി	-14089
ുവരുന്നത്	-14090
▁അട്ടിമറി	-14091
▁ഇമ്രാന്‍	-14092
▁തുടരാന്‍	-14093
▁സ്വാശ്രയ	-14094
▁അവിടുത്തെ	-14095
▁തകര്‍ത്തു	-14096
▁ഫോറസ്റ്റ്	-14097
ത്തിലേക്കും	-14098
▁തുടർച്ചയായ	-14099
▁ദമ്പതികള്‍	-14100
▁റ്റേഷനില്‍	-14101
▁കൗണ്‍സിലര്‍	-14102
▁നടത്തുകയാണ്	-14103
▁നിര്യാതനായി	-14104
▁പോസ്റ്റില്‍	-14105
▁റണ്‍സെടുത്ത	-14106
▁വര്‍ഷങ്ങള്‍	-14107
▁വിഭാഗത്തിലെ	-14108
▁അന്വേഷണത്തിൽ	-14109
▁വിധത്തിലുള്ള	-14110
ിക്കാവുന്നതാണ്	-14111
▁ചിത്രങ്ങളില്‍	-14112
▁ലക്ഷത്തിലധികം	-14113
ിൻ	-14114
ിവര	-14115
ലിക്	-14116
▁ഓണാ	-14117
▁കാള	-14118
▁ജിയ	-14119
▁ബലി	-14120
▁മീര	-14121
▁യും	-14122
ഘാടനം	-14123
▁2001	-14124
▁പ്രധ	-14125
▁ഭൂചല	-14126
▁സലീം	-14127
നിർമ്മ	-14128
സ്ഥാന്	-14129
ുറപ്പ്	-14130
▁അത്താ	-14131
▁ഓഡിയോ	-14132
▁നോളജി	-14133
▁രതീഷ്	-14134
▁സംവാദ	-14135
▁സമ്മത	-14136
▁ഹൈന്ദ	-14137
വരുമായി	-14138
ിക്കാട്	-14139
▁അനുഭാവ	-14140
▁ഊര്‍ജി	-14141
▁ഒമാന്‍	-14142
▁കാണാതെ	-14143
▁ക്രോസ്	-14144
▁ചുറ്റി	-14145
▁പിന്തി	-14146
▁ബാത്ത്	-14147
▁രാജ്യമ	-14148
▁റെഡ്ഡി	-14149
▁ലിവര്‍	-14150
▁വിറ്റഴ	-14151
ുകയുമാണ്	-14152
▁കോടിക്ക	-14153
▁ജിഎസ്ടി	-14154
▁തരത്തിൽ	-14155
▁പാർക്ക്	-14156
▁പ്രവചനം	-14157
തിനേക്കാൾ	-14158
ുന്നുണ്ടോ	-14159
▁അഭിഭാഷകൻ	-14160
▁കുമാറിനെ	-14161
▁കോതമംഗലം	-14162
▁ചെയ്താണ്	-14163
▁ദാമ്പത്യ	-14164
▁ബംഗാളിലെ	-14165
▁യുവാവിന്	-14166
▁വോട്ടുകൾ	-14167
▁ഷൂട്ടിങ്	-14168
▁സ്വമേധയാ	-14169
മാക്കിയാണ്	-14170
▁ഉൾപ്പെട്ട	-14171
▁കണ്ണൂരിലെ	-14172
▁കേസെടുത്ത	-14173
▁പ്രതിമാസം	-14174
▁മടങ്ങിയത്	-14175
▁വയസ്സില്‍	-14176
▁ശക്തമാക്ക	-14177
ിക്കാമെന്ന്	-14178
▁അന്വേഷിച്ച	-14179
▁ക്ലാസുകള്‍	-14180
▁ട്രേലിയന്‍	-14181
▁തുടക്കമായി	-14182
▁ശബരിമലയിലെ	-14183
▁അന്വേഷിച്ച്	-14184
▁കാത്തിരുന്ന	-14185
▁ഫ്രാന്‍സിസ്	-14186
▁മണിക്കൂറോളം	-14187
▁അസോസിയേഷന്റെ	-14188
▁ആവര്‍ത്തിക്ക	-14189
▁ഉണ്ടെങ്കില്‍	-14190
▁പരിക്കേറ്റത്	-14191
▁ഉള്‍പ്പടെയുള്ള	-14192
▁പ്രതീക്ഷയിലാണ്	-14193
▁സമര്‍പ്പിച്ചത്	-14194
ed	-14195
എംഎ	-14196
ചേര	-14197
ദഗ്	-14198
ൃഷ്	-14199
▁െഎ	-14200
ഖ്യം	-14201
ബിന്	-14202
മന്യ	-14203
റ്റെ	-14204
ാതെയ	-14205
ുകിയ	-14206
ുവീണ	-14207
ർശനം	-14208
▁പരീ	-14209
▁ബോർ	-14210
▁മാൻ	-14211
▁മർദ	-14212
ത്താന	-14213
ദേഷ്ട	-14214
പുര്‍	-14215
യുദ്ധ	-14216
ലിനും	-14217
▁നാശം	-14218
▁രാജീ	-14219
▁സംഘ്	-14220
▁സിഡ്	-14221
േരിയിൽ	-14222
▁ആശ്രമ	-14223
▁ഗ്രീൻ	-14224
▁ചുവടു	-14225
▁നിരവധ	-14226
▁പറയുക	-14227
▁പെയ്യ	-14228
▁വിവരമ	-14229
▁ഹാദിയ	-14230
ക്കാളും	-14231
ണക്കിനു	-14232
ണിത്തുറ	-14233
റ്റത്ത്	-14234
ിലുമാണ്	-14235
േലിക്കര	-14236
▁അനുപാത	-14237
▁പതിച്ച	-14238
▁പ്രതാപ	-14239
▁പ്രവചന	-14240
▁വരില്ല	-14241
▁വളർന്ന	-14242
▁വീടുകൾ	-14243
▁വൈക്കം	-14244
ത്തിലൊരു	-14245
വരെല്ലാം	-14246
▁ദൈനംദിന	-14247
▁നോർത്ത്	-14248
▁പ്രവാചക	-14249
▁മുകുന്ദ	-14250
▁ലോട്ടറി	-14251
▁ഉയർത്തിയ	-14252
▁കോവിഡിനെ	-14253
▁പിറന്നാൾ	-14254
▁മാസ്റ്റർ	-14255
▁വാദിച്ചു	-14256
ങ്ങളിലെയും	-14257
▁നിയോഗിച്ച	-14258
▁സഹമന്ത്രി	-14259
▁ഉണ്ടായില്ല	-14260
▁ഒഴികെയുള്ള	-14261
▁സർക്കാരിനെ	-14262
▁തനിക്കെതിരെ	-14263
▁നല്‍കാനുള്ള	-14264
ങ്ങളിലൊന്നാണ്	-14265
▁ഇന്റലിജന്‍സ്	-14266
▁കോൺഗ്രസിന്റെ	-14267
▁നിരീക്ഷിച്ചു	-14268
▁ശരീരത്തിന്റെ	-14269
▁സന്ദര്‍ശിച്ചു	-14270
▁ഇന്റര്‍നാഷണല്‍	-14271
▁നല്‍കുന്നുണ്ട്	-14272
",	-14273
/0	-14274
ദയ	-14275
ഷെ	-14276
ഓടെ	-14277
നേര	-14278
സിൻ	-14279
ച്ചാ	-14280
തിരു	-14281
വാണി	-14282
വിഷയ	-14283
▁700	-14284
▁ചെവ	-14285
▁സോമ	-14286
കെട്ട	-14287
ഡിപിഐ	-14288
ണ്‍സ്	-14289
മെന്‍	-14290
വിതരണ	-14291
ശ്ശിക	-14292
▁കിഷോ	-14293
▁ഗൗരി	-14294
▁പാഴ്	-14295
നിന്റെ	-14296
മെന്നു	-14297
▁അങ്കണ	-14298
▁ഇസ്രയ	-14299
▁കളക്ട	-14300
▁മാംസം	-14301
▁ലോക്ക	-14302
▁വരച്ച	-14303
▁സഭയിൽ	-14304
▁സ്രോത	-14305
സ്ഥിതിക	-14306
ുമാരുടെ	-14307
▁എങ്കിൽ	-14308
▁കാറ്റ്	-14309
▁കേട്ടു	-14310
▁ജ്യൂസ്	-14311
▁പ്രളയം	-14312
▁ബാക്ക്	-14313
▁രഹസ്യാ	-14314
▁എട്ടിന്	-14315
▁നടിയാണ്	-14316
▁സംഭാഷണം	-14317
പ്പിന്‍റെ	-14318
▁ഗാന്ധിയെ	-14319
▁ചിക്കാഗോ	-14320
▁മണ്ണില്‍	-14321
▁മഴയ്ക്ക്	-14322
▁യഥാക്രമം	-14323
ിച്ചുവെന്ന	-14324
▁ആനുകൂല്യം	-14325
▁മെഗാപിക്സ	-14326
▁രൂപകൽപ്പന	-14327
▁സംപ്രേഷണം	-14328
▁സമീപിച്ചു	-14329
▁സഹകരിച്ച്	-14330
▁അബൂബക്കര്‍	-14331
▁പരമ്പരയിലെ	-14332
▁മറുപടിയായി	-14333
▁റിക്രൂട്ട്	-14334
ത്തിനിടെയാണ്	-14335
ിട്ടില്ലാത്ത	-14336
▁അരങ്ങേറിയത്	-14337
▁നിന്നുമുള്ള	-14338
▁മുന്‍കൂട്ടി	-14339
ിക്കപ്പെട്ടത്	-14340
▁ഒരുങ്ങുകയാണ്	-14341
▁കോര്‍പറേഷന്‍	-14342
▁രോഗികള്‍ക്ക്	-14343
▁ലക്ഷ്യത്തോടെ	-14344
▁കമ്യൂണിസ്റ്റ്	-14345
▁പരാജയപ്പെട്ടു	-14346
▁മുന്നോട്ടുപോക	-14347
▁സോഷ്യല്‍മീഡിയ	-14348
ത്തെക്കുറിച്ചും	-14349
▁വിശ്വസിക്കുന്നു	-14350
ഡം	-14351
ുയ	-14352
7),	-14353
മിയ	-14354
മേണ	-14355
യാണ	-14356
▁9,	-14357
▁ഡീ	-14358
മൂട്	-14359
റിനു	-14360
▁ആപ്	-14361
▁ആമി	-14362
▁മീൻ	-14363
▁വാശ	-14364
▁സമീ	-14365
ച്ഛായ	-14366
ുമൂലം	-14367
▁കാനം	-14368
▁ഗിരി	-14369
▁ദുഷ്	-14370
▁ദൃക്	-14371
▁വസ്ത	-14372
ക്ലാസ്	-14373
രിപ്പ്	-14374
▁ആമസോൺ	-14375
▁കോമ്പ	-14376
▁ക്ഷീര	-14377
▁ടീമിൽ	-14378
▁തടവും	-14379
▁നാള്‍	-14380
▁മോചിത	-14381
▁വാന്‍	-14382
▁അറിയാൻ	-14383
▁ആതിഥേയ	-14384
▁ഖാലിദ്	-14385
▁നവീകരണ	-14386
▁ബ്രഹ്മ	-14387
▁സാമഗ്ര	-14388
ിക്കുവാൻ	-14389
ുണ്ടാവും	-14390
▁ആക്രമണമ	-14391
▁എല്ലായി	-14392
▁ഓക്സിജൻ	-14393
▁കീഴടങ്ങ	-14394
▁ചര്‍മ്മ	-14395
▁പ്രതികള	-14396
▁വരികയും	-14397
▁സാധിച്ച	-14398
▁സ്പ്രസ്	-14399
സുരേന്ദ്ര	-14400
▁പേരെയാണ്	-14401
▁മുമ്പാകെ	-14402
▁വേരിയന്റ	-14403
▁സാദ്ധ്യത	-14404
ക്കിടയിലും	-14405
▁എത്തിച്ച്	-14406
▁കോടികളുടെ	-14407
▁പ്രാർത്ഥന	-14408
▁ഉണ്ടെന്നും	-14409
▁ചടങ്ങുകള്‍	-14410
▁ലഭിക്കാന്‍	-14411
▁വാര്‍ഡില്‍	-14412
▁വിജയിച്ചത്	-14413
▁സൂചനയുണ്ട്	-14414
▁അവസാനിക്കും	-14415
▁അഹമ്മദാബാദ്	-14416
▁ഗവണ്‍മെന്റ്	-14417
▁പരിശോധിച്ചു	-14418
▁ഒരുക്കുന്നത്	-14419
▁സംഭവത്തിന്റെ	-14420
▁സ്വദേശിനിയായ	-14421
▁നിലനിൽക്കുന്ന	-14422
▁മറ്റുള്ളവരുടെ	-14423
▁മാഞ്ചസ്റ്റര്‍	-14424
39	-14425
7-	-14426
id	-14427
ോയ	-14428
ജാല	-14429
തകം	-14430
ഭീഷ	-14431
ഹാൻ	-14432
ീദ്	-14433
കനും	-14434
ഗന്ധ	-14435
വിനു	-14436
▁ഗൂഡ	-14437
▁ചതി	-14438
▁തനി	-14439
▁പവി	-14440
▁പവർ	-14441
▁രാക	-14442
ഗോപാൽ	-14443
ാകാതെ	-14444
ുപത്ര	-14445
▁കൈകോ	-14446
▁പാടി	-14447
▁മിഷൻ	-14448
▁രോഗി	-14449
▁റേഷൻ	-14450
▁ശാസ്	-14451
▁സുബൈ	-14452
▁അവഗണന	-14453
▁നട്ടെ	-14454
▁ഭുവനേ	-14455
▁മിച്ച	-14456
▁ലാമിക	-14457
▁സാന്‍	-14458
▁സൂരജ്	-14459
▁ഹോര്‍	-14460
▁അനുവാദ	-14461
▁ചെന്ന്	-14462
▁ചൈനയിൽ	-14463
▁പ്രേരണ	-14464
▁ബസില്‍	-14465
▁ഷാരൂഖ്	-14466
▁ഷൂട്ട്	-14467
▁സാംസങ്	-14468
ക്കേസിലെ	-14469
ങ്ങളോടും	-14470
ാര്‍ക്ക്	-14471
്യക്ഷന്‍	-14472
▁ഒരേയൊരു	-14473
▁മിസൈല്‍	-14474
▁അപ്പോഴും	-14475
▁അവഗണിക്ക	-14476
▁കൂളുകള്‍	-14477
▁തോല്‍പ്പ	-14478
▁നാവികസേന	-14479
▁മുടിയുടെ	-14480
▁മുഴുവനും	-14481
▁മ്യൂസിയം	-14482
▁റണ്‍സിന്	-14483
▁വോട്ടെടു	-14484
ക്കണമെന്ന്	-14485
ാകുന്നില്ല	-14486
▁അംഗങ്ങളും	-14487
▁ശേഷിയുള്ള	-14488
▁സമൂഹത്തിൽ	-14489
▁സാമ്രാജ്യ	-14490
▁അഭിനയിച്ചു	-14491
▁ഓപ്പറേഷന്‍	-14492
▁കമ്മിറ്റിയ	-14493
▁കോർപ്പറേഷൻ	-14494
▁പോസ്റ്റുമോ	-14495
▁എളുപ്പത്തിൽ	-14496
▁ചെന്നൈയില്‍	-14497
▁ചെയ്യണമെന്ന	-14498
▁പങ്കെടുത്ത്	-14499
▁അനുഭവപ്പെട്ട	-14500
▁ശ്രമത്തിലാണ്	-14501
▁പ്രചരിക്കുന്ന	-14502
▁മുഖ്യമന്ത്രിയ	-14503
▁സഹപ്രവര്‍ത്തക	-14504
▁സൃഷ്ടിക്കുന്ന	-14505
▁പോസിറ്റിവിറ്റി	-14506
▁ലക്ഷക്കണക്കിന്	-14507
▁സംഘടിപ്പിച്ചത്	-14508
കരി	-14509
നൈസ	-14510
പത്	-14511
ശരീ	-14512
▁അഫ	-14513
▁ഗാ	-14514
ഖ്യാ	-14515
ച്ചേ	-14516
ബദ്ധ	-14517
ബിനെ	-14518
[...]
